{
  "version": "1.0",
  "truncation": null,
  "padding": null,
  "added_tokens": [
    {
      "id": 0,
      "content": "<unk>",
      "single_word": false,
      "lstrip": false,
      "rstrip": false,
      "normalized": false,
      "special": true
    },
    {
      "id": 1,
      "content": "<pad>",
      "single_word": false,
      "lstrip": false,
      "rstrip": false,
      "normalized": false,
      "special": true
    },
    {
      "id": 2,
      "content": "<bos>",
      "single_word": false,
      "lstrip": false,
      "rstrip": false,
      "normalized": false,
      "special": true
    },
    {
      "id": 3,
      "content": "<eos>",
      "single_word": false,
      "lstrip": false,
      "rstrip": false,
      "normalized": false,
      "special": true
    }
  ],
  "normalizer": null,
  "pre_tokenizer": {
    "type": "ByteLevel",
    "add_prefix_space": false,
    "trim_offsets": true,
    "use_regex": true
  },
  "post_processor": {
    "type": "TemplateProcessing",
    "single": [
      {
        "Sequence": {
          "id": "A",
          "type_id": 0
        }
      }
    ],
    "pair": [
      {
        "Sequence": {
          "id": "A",
          "type_id": 0
        }
      },
      {
        "Sequence": {
          "id": "B",
          "type_id": 1
        }
      }
    ],
    "special_tokens": {}
  },
  "decoder": {
    "type": "ByteLevel",
    "add_prefix_space": true,
    "trim_offsets": true,
    "use_regex": true
  },
  "model": {
    "type": "BPE",
    "dropout": null,
    "unk_token": "<unk>",
    "continuing_subword_prefix": null,
    "end_of_word_suffix": null,
    "fuse_unk": false,
    "byte_fallback": false,
    "ignore_merges": false,
    "vocab": {
      "<unk>": 0,
      "<pad>": 1,
      "<bos>": 2,
      "<eos>": 3,
      "!": 4,
      "\"": 5,
      "#": 6,
      "$": 7,
      "%": 8,
      "&": 9,
      "'": 10,
      "(": 11,
      ")": 12,
      "*": 13,
      "+": 14,
      ",": 15,
      "-": 16,
      ".": 17,
      "/": 18,
      "0": 19,
      "1": 20,
      "2": 21,
      "3": 22,
      "4": 23,
      "5": 24,
      "6": 25,
      "7": 26,
      "8": 27,
      "9": 28,
      ":": 29,
      ";": 30,
      "<": 31,
      "=": 32,
      ">": 33,
      "?": 34,
      "@": 35,
      "A": 36,
      "B": 37,
      "C": 38,
      "D": 39,
      "E": 40,
      "F": 41,
      "G": 42,
      "H": 43,
      "I": 44,
      "J": 45,
      "K": 46,
      "L": 47,
      "M": 48,
      "N": 49,
      "O": 50,
      "P": 51,
      "Q": 52,
      "R": 53,
      "S": 54,
      "T": 55,
      "U": 56,
      "V": 57,
      "W": 58,
      "X": 59,
      "Y": 60,
      "Z": 61,
      "[": 62,
      "\\": 63,
      "]": 64,
      "^": 65,
      "_": 66,
      "`": 67,
      "a": 68,
      "b": 69,
      "c": 70,
      "d": 71,
      "e": 72,
      "f": 73,
      "g": 74,
      "h": 75,
      "i": 76,
      "j": 77,
      "k": 78,
      "l": 79,
      "m": 80,
      "n": 81,
      "o": 82,
      "p": 83,
      "q": 84,
      "r": 85,
      "s": 86,
      "t": 87,
      "u": 88,
      "v": 89,
      "w": 90,
      "x": 91,
      "y": 92,
      "z": 93,
      "{": 94,
      "|": 95,
      "}": 96,
      "~": 97,
      "¡": 98,
      "¢": 99,
      "£": 100,
      "¤": 101,
      "¥": 102,
      "¦": 103,
      "§": 104,
      "¨": 105,
      "©": 106,
      "ª": 107,
      "«": 108,
      "¬": 109,
      "®": 110,
      "¯": 111,
      "°": 112,
      "±": 113,
      "²": 114,
      "³": 115,
      "´": 116,
      "µ": 117,
      "¶": 118,
      "·": 119,
      "¸": 120,
      "¹": 121,
      "º": 122,
      "»": 123,
      "¼": 124,
      "½": 125,
      "¾": 126,
      "¿": 127,
      "À": 128,
      "Á": 129,
      "Â": 130,
      "Ã": 131,
      "Ä": 132,
      "Å": 133,
      "Æ": 134,
      "Ç": 135,
      "È": 136,
      "É": 137,
      "Ê": 138,
      "Ë": 139,
      "Ì": 140,
      "Í": 141,
      "Î": 142,
      "Ï": 143,
      "Ð": 144,
      "Ñ": 145,
      "Ò": 146,
      "Ó": 147,
      "Ô": 148,
      "Õ": 149,
      "Ö": 150,
      "×": 151,
      "Ø": 152,
      "Ù": 153,
      "Ú": 154,
      "Û": 155,
      "Ü": 156,
      "Ý": 157,
      "Þ": 158,
      "ß": 159,
      "à": 160,
      "á": 161,
      "â": 162,
      "ã": 163,
      "ä": 164,
      "å": 165,
      "æ": 166,
      "ç": 167,
      "è": 168,
      "é": 169,
      "ê": 170,
      "ë": 171,
      "ì": 172,
      "í": 173,
      "î": 174,
      "ï": 175,
      "ð": 176,
      "ñ": 177,
      "ò": 178,
      "ó": 179,
      "ô": 180,
      "õ": 181,
      "ö": 182,
      "÷": 183,
      "ø": 184,
      "ù": 185,
      "ú": 186,
      "û": 187,
      "ü": 188,
      "ý": 189,
      "þ": 190,
      "ÿ": 191,
      "Ā": 192,
      "ā": 193,
      "Ă": 194,
      "ă": 195,
      "Ą": 196,
      "ą": 197,
      "Ć": 198,
      "ć": 199,
      "Ĉ": 200,
      "ĉ": 201,
      "Ċ": 202,
      "ċ": 203,
      "Č": 204,
      "č": 205,
      "Ď": 206,
      "ď": 207,
      "Đ": 208,
      "đ": 209,
      "Ē": 210,
      "ē": 211,
      "Ĕ": 212,
      "ĕ": 213,
      "Ė": 214,
      "ė": 215,
      "Ę": 216,
      "ę": 217,
      "Ě": 218,
      "ě": 219,
      "Ĝ": 220,
      "ĝ": 221,
      "Ğ": 222,
      "ğ": 223,
      "Ġ": 224,
      "ġ": 225,
      "Ģ": 226,
      "ģ": 227,
      "Ĥ": 228,
      "ĥ": 229,
      "Ħ": 230,
      "ħ": 231,
      "Ĩ": 232,
      "ĩ": 233,
      "Ī": 234,
      "ī": 235,
      "Ĭ": 236,
      "ĭ": 237,
      "Į": 238,
      "į": 239,
      "İ": 240,
      "ı": 241,
      "Ĳ": 242,
      "ĳ": 243,
      "Ĵ": 244,
      "ĵ": 245,
      "Ķ": 246,
      "ķ": 247,
      "ĸ": 248,
      "Ĺ": 249,
      "ĺ": 250,
      "Ļ": 251,
      "ļ": 252,
      "Ľ": 253,
      "ľ": 254,
      "Ŀ": 255,
      "ŀ": 256,
      "Ł": 257,
      "ł": 258,
      "Ń": 259,
      "Ġt": 260,
      "Ġa": 261,
      "in": 262,
      "Ġth": 263,
      "on": 264,
      "er": 265,
      "at": 266,
      "Ġthe": 267,
      "re": 268,
      "Ġs": 269,
      "en": 270,
      "or": 271,
      "is": 272,
      "Ġc": 273,
      "Ġw": 274,
      "Ġo": 275,
      "it": 276,
      "ion": 277,
      "al": 278,
      "es": 279,
      "ing": 280,
      "Ġb": 281,
      "Ġp": 282,
      "ar": 283,
      "an": 284,
      "Ġf": 285,
      "le": 286,
      "Ġm": 287,
      "Ġd": 288,
      "ou": 289,
      "Ġto": 290,
      "Ġin": 291,
      "Ġan": 292,
      "Ġof": 293,
      "ic": 294,
      "ed": 295,
      "Ġn": 296,
      "ct": 297,
      "et": 298,
      "ro": 299,
      "Ġis": 300,
      "ent": 301,
      "ut": 302,
      "ĠĠ": 303,
      "Ġh": 304,
      "Ġe": 305,
      "ly": 306,
      "Ġre": 307,
      "Ġand": 308,
      "im": 309,
      "as": 310,
      "Ġl": 311,
      "ve": 312,
      "us": 313,
      "om": 314,
      "ch": 315,
      "ation": 316,
      "Ġthat": 317,
      "Ġbe": 318,
      "Ġg": 319,
      "ot": 320,
      "ĠI": 321,
      "ce": 322,
      "ra": 323,
      "ll": 324,
      "Ġ(": 325,
      "Ġit": 326,
      "ow": 327,
      "Ġwh": 328,
      "ig": 329,
      "am": 330,
      "st": 331,
      "Ġy": 332,
      "Ġ$": 333,
      "if": 334,
      "ith": 335,
      "od": 336,
      "ur": 337,
      "Ġon": 338,
      "Ġst": 339,
      "Ġfor": 340,
      "ay": 341,
      "un": 342,
      "Th": 343,
      "Ġyou": 344,
      "ction": 345,
      "ol": 346,
      "Ġpro": 347,
      "Ġ\\": 348,
      "ate": 349,
      "el": 350,
      "ver": 351,
      "Ġas": 352,
      "id": 353,
      "Ġex": 354,
      "Ġare": 355,
      "Ġcon": 356,
      "Ġus": 357,
      "ere": 358,
      "Ġne": 359,
      "ble": 360,
      "ld": 361,
      "ĠA": 362,
      "ul": 363,
      "Ġle": 364,
      "th": 365,
      "se": 366,
      "um": 367,
      "Ġcan": 368,
      "arn": 369,
      "Ġwith": 370,
      "Ġthis": 371,
      "Ġal": 372,
      "il": 373,
      "ork": 374,
      "Ġwe": 375,
      "qu": 376,
      "ple": 377,
      "ould": 378,
      "ĠĠĠĠ": 379,
      "Ġv": 380,
      "Ġnot": 381,
      "put": 382,
      "Ġde": 383,
      "etw": 384,
      "ke": 385,
      "Ġor": 386,
      "Ġha": 387,
      "pp": 388,
      "Ġse": 389,
      "ĠTh": 390,
      "ally": 391,
      "ter": 392,
      "Ġcom": 393,
      "ag": 394,
      "Ġlearn": 395,
      "ore": 396,
      "igh": 397,
      "est": 398,
      "ist": 399,
      "ect": 400,
      "and": 401,
      "_{": 402,
      "ach": 403,
      "ers": 404,
      "os": 405,
      "Ġhave": 406,
      "pt": 407,
      "em": 408,
      "for": 409,
      "Ġdo": 410,
      "ure": 411,
      "ive": 412,
      "ment": 413,
      "ab": 414,
      "Ġim": 415,
      "etwork": 416,
      "ep": 417,
      "ill": 418,
      "ence": 419,
      "pl": 420,
      "Ġr": 421,
      "ad": 422,
      "ich": 423,
      "ri": 424,
      "ĠS": 425,
      "ard": 426,
      "ir": 427,
      "rom": 428,
      "iz": 429,
      "ight": 430,
      "per": 431,
      "te": 432,
      "ess": 433,
      "Ġ\"": 434,
      "fer": 435,
      "ity": 436,
      "rain": 437,
      "Ġun": 438,
      "Ġnetwork": 439,
      "iv": 440,
      "Ġsu": 441,
      "Ġby": 442,
      "Ġfun": 443,
      "Ġfrom": 444,
      "ath": 445,
      "Ġsom": 446,
      "ine": 447,
      "Ġlearning": 448,
      "Ġ=": 449,
      "'s": 450,
      "Ġfunction": 451,
      "Ġ1": 452,
      "Ġbut": 453,
      "Ġwhich": 454,
      "odel": 455,
      "ial": 456,
      "Ġapp": 457,
      "ant": 458,
      "ain": 459,
      "Ġneur": 460,
      "alu": 461,
      "res": 462,
      "ĠC": 463,
      "ĠM": 464,
      "Ġat": 465,
      "art": 466,
      "Ġch": 467,
      "Ġmodel": 468,
      "og": 469,
      "Ġen": 470,
      "ĠR": 471,
      "Ġk": 472,
      "Wh": 473,
      "Ġwould": 474,
      "Ġsp": 475,
      "ms": 476,
      ").": 477,
      "Ġif": 478,
      "gor": 479,
      "Ġsome": 480,
      "der": 481,
      "Ġme": 482,
      "Ġuse": 483,
      "Ġtr": 484,
      "ution": 485,
      "Ġdif": 486,
      "ec": 487,
      "Ġma": 488,
      "Ġab": 489,
      "ame": 490,
      "Ġtrain": 491,
      "ike": 492,
      "Ġwill": 493,
      "Ġthere": 494,
      "'t": 495,
      "ĠN": 496,
      "Ġso": 497,
      "Ġaction": 498,
      "Ġout": 499,
      "age": 500,
      "out": 501,
      "Ġsh": 502,
      "ĠThe": 503,
      "ans": 504,
      "gorith": 505,
      "so": 506,
      "Ġmore": 507,
      "ĠG": 508,
      "form": 509,
      "Ġ0": 510,
      "Ġar": 511,
      "ult": 512,
      "ition": 513,
      "Ġall": 514,
      "Ġdat": 515,
      "Ġstate": 516,
      "Ġgen": 517,
      "Ġproble": 518,
      "ĠĊ": 519,
      "Ġdiffer": 520,
      "ations": 521,
      "ther": 522,
      "Ġalgorith": 523,
      "ific": 524,
      "ward": 525,
      "Ġneural": 526,
      "ac": 527,
      "Ġone": 528,
      "oun": 529,
      "ĠD": 530,
      "ust": 531,
      "ge": 532,
      "eth": 533,
      "ĠL": 534,
      "ample": 535,
      "Ġ$\\": 536,
      "Ġsim": 537,
      "math": 538,
      "end": 539,
      "Ġ-": 540,
      "Ġlike": 541,
      "able": 542,
      "olic": 543,
      "The": 544,
      "ĠB": 545,
      "ated": 546,
      "ph": 547,
      "ies": 548,
      "Ġany": 549,
      "Ġpre": 550,
      "Ġ2": 551,
      "Ġqu": 552,
      "oss": 553,
      "Ġvalu": 554,
      "Ġlay": 555,
      "gh": 556,
      "ĠĠĠ": 557,
      "Ġyour": 558,
      "ĠAI": 559,
      "Ġgener": 560,
      "),": 561,
      "eta": 562,
      "xt": 563,
      "ient": 564,
      "ough": 565,
      "oo": 566,
      "Ġother": 567,
      "Ġinput": 568,
      "ide": 569,
      "ous": 570,
      "ical": 571,
      "ĠP": 572,
      "ind": 573,
      "ĠIn": 574,
      "Ġgo": 575,
      "ost": 576,
      "olicy": 577,
      "aus": 578,
      "How": 579,
      "Ġfe": 580,
      "ens": 581,
      "up": 582,
      "Ġcl": 583,
      "Ġhow": 584,
      "ĠT": 585,
      "Ġint": 586,
      "Ġthey": 587,
      "Ġag": 588,
      "ime": 589,
      "Ġwhat": 590,
      "now": 591,
      "Ġres": 592,
      "ari": 593,
      "Ġad": 594,
      ")$": 595,
      "ass": 596,
      "Ġdata": 597,
      "Ġpl": 598,
      "ĠF": 599,
      "Ġper": 600,
      "Ġhas": 601,
      "arch": 602,
      "ase": 603,
      "very": 604,
      "Ġact": 605,
      "Ġalso": 606,
      "Ġappro": 607,
      "Ġproblem": 608,
      "rad": 609,
      "Ġev": 610,
      "ign": 611,
      "Ġdoes": 612,
      "Ġonly": 613,
      "act": 614,
      "Ġexample": 615,
      "Ġj": 616,
      "Ġused": 617,
      "ates": 618,
      "Ġknow": 619,
      "ire": 620,
      "cess": 621,
      "Ġunder": 622,
      "Ġbec": 623,
      "Ġup": 624,
      "{\\": 625,
      "rib": 626,
      "Ġdifferent": 627,
      "ff": 628,
      "oth": 629,
      "ility": 630,
      "00": 631,
      "Ġthen": 632,
      "bab": 633,
      "Ġabout": 634,
      "Ġte": 635,
      "Ġsy": 636,
      "ast": 637,
      "olution": 638,
      "Ġwork": 639,
      "Ġpolicy": 640,
      "ance": 641,
      "ize": 642,
      "ap": 643,
      "Ġnum": 644,
      "Ġtime": 645,
      "ause": 646,
      "ort": 647,
      "Ġusing": 648,
      "ft": 649,
      "our": 650,
      "Ġtraining": 651,
      "mathb": 652,
      "Ġac": 653,
      "ĠE": 654,
      "Ġwhere": 655,
      "pi": 656,
      "Ġoutput": 657,
      "..": 658,
      "ode": 659,
      "ace": 660,
      "ptim": 661,
      "$$": 662,
      "Ġprobab": 663,
      "ack": 664,
      "ose": 665,
      "Ġeach": 666,
      "ber": 667,
      "ook": 668,
      "sum": 669,
      "are": 670,
      "pres": 671,
      "Ġ+": 672,
      "What": 673,
      "Ġthan": 674,
      "Ġreward": 675,
      "Ġcont": 676,
      "ible": 677,
      "du": 678,
      "Ġpo": 679,
      "Ġwor": 680,
      "ict": 681,
      "Ġcould": 682,
      "Ġdes": 683,
      "ma": 684,
      "Ġmay": 685,
      "Ġneed": 686,
      "Ġcomput": 687,
      "cal": 688,
      "Ġdist": 689,
      "Ġsame": 690,
      "ature": 691,
      "Ġthese": 692,
      "stand": 693,
      "ions": 694,
      "int": 695,
      "Ġdon": 696,
      "ong": 697,
      "Ġway": 698,
      "In": 699,
      "Ġdef": 700,
      "rac": 701,
      "ĠĠĠĠĠĠĠĠ": 702,
      "een": 703,
      "Ġvalue": 704,
      "Ġob": 705,
      "vi": 706,
      "Ġits": 707,
      "etween": 708,
      "pro": 709,
      "Ġjust": 710,
      "ding": 711,
      "Ġnetworks": 712,
      "Ġsuch": 713,
      "Ġlayer": 714,
      "pect": 715,
      "erm": 716,
      "Ġalgorithm": 717,
      "Ġagent": 718,
      "Ġbetween": 719,
      "stem": 720,
      "ue": 721,
      "lo": 722,
      "ang": 723,
      "Ġta": 724,
      "arning": 725,
      "ink": 726,
      "ds": 727,
      "nt": 728,
      "Ġoptim": 729,
      "Ġset": 730,
      "ory": 731,
      "tell": 732,
      "radient": 733,
      "$,": 734,
      "all": 735,
      "Ġman": 736,
      "tellig": 737,
      "ĠQ": 738,
      "led": 739,
      "Ġbecause": 740,
      "ĠThis": 741,
      "enc": 742,
      "Ġwhen": 743,
      "Ġunderstand": 744,
      "Ġwas": 745,
      "Ġpar": 746,
      "ary": 747,
      "Ġrec": 748,
      "elf": 749,
      "istic": 750,
      "Ġsystem": 751,
      "ove": 752,
      "ĠO": 753,
      "Ġam": 754,
      "ually": 755,
      "Ġshould": 756,
      "Ġquest": 757,
      "xim": 758,
      "irst": 759,
      "NN": 760,
      "ative": 761,
      "ram": 762,
      "Ġover": 763,
      "theta": 764,
      "ever": 765,
      "Ġdec": 766,
      "ject": 767,
      "Ġnumber": 768,
      "Ġfo": 769,
      "Ġposs": 770,
      "ased": 771,
      "Ġdis": 772,
      "Ġhum": 773,
      "Ġpart": 774,
      "Ġtrans": 775,
      "Ġtw": 776,
      "Ġinter": 777,
      "Ġmy": 778,
      "Ġget": 779,
      "cept": 780,
      "ite": 781,
      "Ġpa": 782,
      "ically": 783,
      "Ġgradient": 784,
      "Ġclass": 785,
      "amet": 786,
      "Ġcons": 787,
      "ors": 788,
      "Ġvari": 789,
      "ual": 790,
      "yp": 791,
      "ĠW": 792,
      "ud": 793,
      "Ġrel": 794,
      "Ġwant": 795,
      "Ġgiv": 796,
      "Ġcase": 797,
      "Ġvery": 798,
      "Ġweight": 799,
      "Ġtwo": 800,
      "present": 801,
      "Ġno": 802,
      "urre": 803,
      "Ġinto": 804,
      "Ġ3": 805,
      "Ġspec": 806,
      "ound": 807,
      "Ġexpl": 808,
      "Ġmat": 809,
      "ons": 810,
      "Ġrepresent": 811,
      "ps": 812,
      "ci": 813,
      "Ġcor": 814,
      "Ġthem": 815,
      "achine": 816,
      "Ġalgorithms": 817,
      "ie": 818,
      "Ġstr": 819,
      "urrent": 820,
      "ree": 821,
      "ving": 822,
      "Ġstep": 823,
      "}$": 824,
      "Ġfirst": 825,
      "ice": 826,
      "Ġfeature": 827,
      "ribution": 828,
      "Ġcal": 829,
      "Ġmake": 830,
      "sw": 831,
      "Ġcomp": 832,
      "Ġquestion": 833,
      "cl": 834,
      "wh": 835,
      "Ġdet": 836,
      "andom": 837,
      "text": 838,
      "telligence": 839,
      "Ġpossible": 840,
      "Ġve": 841,
      "Ġthink": 842,
      "ĠH": 843,
      "ead": 844,
      "ful": 845,
      "ne": 846,
      "Ġgeneral": 847,
      "Ġcomple": 848,
      "Ġansw": 849,
      "Ġapproach": 850,
      "Ġenv": 851,
      "However": 852,
      "Ġdefin": 853,
      "ise": 854,
      "ention": 855,
      "Ġfind": 856,
      "dict": 857,
      "king": 858,
      "ages": 859,
      "ethod": 860,
      "Ġpaper": 861,
      "ampl": 862,
      "ization": 863,
      "ĠIt": 864,
      "You": 865,
      "frac": 866,
      "Ġart": 867,
      "Ġresult": 868,
      "Ġplay": 869,
      "Ġmost": 870,
      "ask": 871,
      "Ġperform": 872,
      "con": 873,
      "llow": 874,
      "Ġform": 875,
      "Ġdistribution": 876,
      "Ġro": 877,
      "_{\\": 878,
      "Ġimage": 879,
      "Ġem": 880,
      "abl": 881,
      "ular": 882,
      "}(": 883,
      "force": 884,
      "Ġactions": 885,
      "ulti": 886,
      "'m": 887,
      "uch": 888,
      "iron": 889,
      "Ġmethod": 890,
      "Ġacc": 891,
      "inforce": 892,
      "Ġmany": 893,
      "ironment": 894,
      "tain": 895,
      "ĠIf": 896,
      "be": 897,
      "ating": 898,
      "Ġmight": 899,
      "inforcement": 900,
      "âĢ": 901,
      "urn": 902,
      "Ġprocess": 903,
      "Ġimp": 904,
      "ĠFor": 905,
      "Ġpoint": 906,
      "Ġvect": 907,
      "mathbf": 908,
      "Ġenvironment": 909,
      "ract": 910,
      "plement": 911,
      "Ġdep": 912,
      "Ġparamet": 913,
      "Ġind": 914,
      "ov": 915,
      "volution": 916,
      "Ġnew": 917,
      "ten": 918,
      "arg": 919,
      "Ġfollow": 920,
      "Ġmachine": 921,
      "Ġmean": 922,
      "ĠĠĠĠĠĠĠ": 923,
      "Ġdesc": 924,
      "Ġlook": 925,
      "ting": 926,
      "etter": 927,
      "Ġequ": 928,
      "chn": 929,
      "Ġtask": 930,
      "Ġsol": 931,
      "Ġhuman": 932,
      "vers": 933,
      "Ġimplement": 934,
      "Ġ&": 935,
      "Ġappl": 936,
      "Ġgood": 937,
      "Ġbeen": 938,
      "Ġgiven": 939,
      "ilar": 940,
      "Ġprobability": 941,
      "Ġgame": 942,
      "earning": 943,
      "formation": 944,
      "Ġdisc": 945,
      "Ġdeep": 946,
      "Ġsearch": 947,
      "Ġrandom": 948,
      "Ġhigh": 949,
      "Ġinst": 950,
      "Ġanswer": 951,
      "atch": 952,
      "Ġseem": 953,
      "Ġupd": 954,
      "Ġspace": 955,
      "Ġmulti": 956,
      "Ġatt": 957,
      "Ġtheir": 958,
      "Ġbetter": 959,
      "Ġmodels": 960,
      "Ġsee": 961,
      "Ġeven": 962,
      "$.": 963,
      "Ġtry": 964,
      "part": 965,
      "ider": 966,
      "Ġpredict": 967,
      "right": 968,
      "Ġ[": 969,
      "one": 970,
      "Ġwell": 971,
      "Ġstates": 972,
      "Ġtyp": 973,
      "Ġreal": 974,
      "Ġtechn": 975,
      "Ġactiv": 976,
      "}^": 977,
      "search": 978,
      "ĠSo": 979,
      "ount": 980,
      "Ġlayers": 981,
      "ib": 982,
      "inear": 983,
      "eur": 984,
      "Ġbeing": 985,
      "Ġexper": 986,
      "Ġspecific": 987,
      "rit": 988,
      "Ġsay": 989,
      "imes": 990,
      "ificial": 991,
      "orm": 992,
      "Ġvalues": 993,
      "Ġreas": 994,
      "den": 995,
      "Ġmuch": 996,
      "01": 997,
      "ially": 998,
      "Ġread": 999,
      ")}": 1000,
      "ĠV": 1001,
      "Ġcurrent": 1002,
      "Ġresearch": 1003,
      "Ġstill": 1004,
      "angu": 1005,
      "Ġcre": 1006,
      "lect": 1007,
      "pha": 1008,
      "Ġhere": 1009,
      "Ġi": 1010,
      "left": 1011,
      "ros": 1012,
      "Ġeff": 1013,
      "Ġrequ": 1014,
      "rix": 1015,
      "olog": 1016,
      "ish": 1017,
      "ĠRL": 1018,
      "Ġintelligence": 1019,
      "Ġwhy": 1020,
      "Ġsimilar": 1021,
      "fter": 1022,
      "ange": 1023
    },
    "merges": [
      [
        "Ġ",
        "t"
      ],
      [
        "Ġ",
        "a"
      ],
      [
        "i",
        "n"
      ],
      [
        "Ġt",
        "h"
      ],
      [
        "o",
        "n"
      ],
      [
        "e",
        "r"
      ],
      [
        "a",
        "t"
      ],
      [
        "Ġth",
        "e"
      ],
      [
        "r",
        "e"
      ],
      [
        "Ġ",
        "s"
      ],
      [
        "e",
        "n"
      ],
      [
        "o",
        "r"
      ],
      [
        "i",
        "s"
      ],
      [
        "Ġ",
        "c"
      ],
      [
        "Ġ",
        "w"
      ],
      [
        "Ġ",
        "o"
      ],
      [
        "i",
        "t"
      ],
      [
        "i",
        "on"
      ],
      [
        "a",
        "l"
      ],
      [
        "e",
        "s"
      ],
      [
        "in",
        "g"
      ],
      [
        "Ġ",
        "b"
      ],
      [
        "Ġ",
        "p"
      ],
      [
        "a",
        "r"
      ],
      [
        "a",
        "n"
      ],
      [
        "Ġ",
        "f"
      ],
      [
        "l",
        "e"
      ],
      [
        "Ġ",
        "m"
      ],
      [
        "Ġ",
        "d"
      ],
      [
        "o",
        "u"
      ],
      [
        "Ġt",
        "o"
      ],
      [
        "Ġ",
        "in"
      ],
      [
        "Ġa",
        "n"
      ],
      [
        "Ġo",
        "f"
      ],
      [
        "i",
        "c"
      ],
      [
        "e",
        "d"
      ],
      [
        "Ġ",
        "n"
      ],
      [
        "c",
        "t"
      ],
      [
        "e",
        "t"
      ],
      [
        "r",
        "o"
      ],
      [
        "Ġ",
        "is"
      ],
      [
        "en",
        "t"
      ],
      [
        "u",
        "t"
      ],
      [
        "Ġ",
        "Ġ"
      ],
      [
        "Ġ",
        "h"
      ],
      [
        "Ġ",
        "e"
      ],
      [
        "l",
        "y"
      ],
      [
        "Ġ",
        "re"
      ],
      [
        "Ġan",
        "d"
      ],
      [
        "i",
        "m"
      ],
      [
        "a",
        "s"
      ],
      [
        "Ġ",
        "l"
      ],
      [
        "v",
        "e"
      ],
      [
        "u",
        "s"
      ],
      [
        "o",
        "m"
      ],
      [
        "c",
        "h"
      ],
      [
        "at",
        "ion"
      ],
      [
        "Ġth",
        "at"
      ],
      [
        "Ġb",
        "e"
      ],
      [
        "Ġ",
        "g"
      ],
      [
        "o",
        "t"
      ],
      [
        "Ġ",
        "I"
      ],
      [
        "c",
        "e"
      ],
      [
        "r",
        "a"
      ],
      [
        "l",
        "l"
      ],
      [
        "Ġ",
        "("
      ],
      [
        "Ġ",
        "it"
      ],
      [
        "o",
        "w"
      ],
      [
        "Ġw",
        "h"
      ],
      [
        "i",
        "g"
      ],
      [
        "a",
        "m"
      ],
      [
        "s",
        "t"
      ],
      [
        "Ġ",
        "y"
      ],
      [
        "Ġ",
        "$"
      ],
      [
        "i",
        "f"
      ],
      [
        "it",
        "h"
      ],
      [
        "o",
        "d"
      ],
      [
        "u",
        "r"
      ],
      [
        "Ġ",
        "on"
      ],
      [
        "Ġs",
        "t"
      ],
      [
        "Ġf",
        "or"
      ],
      [
        "a",
        "y"
      ],
      [
        "u",
        "n"
      ],
      [
        "T",
        "h"
      ],
      [
        "Ġy",
        "ou"
      ],
      [
        "ct",
        "ion"
      ],
      [
        "o",
        "l"
      ],
      [
        "Ġp",
        "ro"
      ],
      [
        "Ġ",
        "\\"
      ],
      [
        "at",
        "e"
      ],
      [
        "e",
        "l"
      ],
      [
        "v",
        "er"
      ],
      [
        "Ġa",
        "s"
      ],
      [
        "i",
        "d"
      ],
      [
        "Ġe",
        "x"
      ],
      [
        "Ġa",
        "re"
      ],
      [
        "Ġc",
        "on"
      ],
      [
        "Ġ",
        "us"
      ],
      [
        "er",
        "e"
      ],
      [
        "Ġn",
        "e"
      ],
      [
        "b",
        "le"
      ],
      [
        "l",
        "d"
      ],
      [
        "Ġ",
        "A"
      ],
      [
        "u",
        "l"
      ],
      [
        "Ġ",
        "le"
      ],
      [
        "t",
        "h"
      ],
      [
        "s",
        "e"
      ],
      [
        "u",
        "m"
      ],
      [
        "Ġc",
        "an"
      ],
      [
        "ar",
        "n"
      ],
      [
        "Ġw",
        "ith"
      ],
      [
        "Ġth",
        "is"
      ],
      [
        "Ġa",
        "l"
      ],
      [
        "i",
        "l"
      ],
      [
        "or",
        "k"
      ],
      [
        "Ġw",
        "e"
      ],
      [
        "q",
        "u"
      ],
      [
        "p",
        "le"
      ],
      [
        "ou",
        "ld"
      ],
      [
        "ĠĠ",
        "ĠĠ"
      ],
      [
        "Ġ",
        "v"
      ],
      [
        "Ġn",
        "ot"
      ],
      [
        "p",
        "ut"
      ],
      [
        "Ġd",
        "e"
      ],
      [
        "et",
        "w"
      ],
      [
        "k",
        "e"
      ],
      [
        "Ġ",
        "or"
      ],
      [
        "Ġh",
        "a"
      ],
      [
        "p",
        "p"
      ],
      [
        "Ġs",
        "e"
      ],
      [
        "Ġ",
        "Th"
      ],
      [
        "al",
        "ly"
      ],
      [
        "t",
        "er"
      ],
      [
        "Ġc",
        "om"
      ],
      [
        "a",
        "g"
      ],
      [
        "Ġle",
        "arn"
      ],
      [
        "o",
        "re"
      ],
      [
        "ig",
        "h"
      ],
      [
        "es",
        "t"
      ],
      [
        "is",
        "t"
      ],
      [
        "e",
        "ct"
      ],
      [
        "an",
        "d"
      ],
      [
        "_",
        "{"
      ],
      [
        "a",
        "ch"
      ],
      [
        "er",
        "s"
      ],
      [
        "o",
        "s"
      ],
      [
        "Ġha",
        "ve"
      ],
      [
        "p",
        "t"
      ],
      [
        "e",
        "m"
      ],
      [
        "f",
        "or"
      ],
      [
        "Ġd",
        "o"
      ],
      [
        "u",
        "re"
      ],
      [
        "i",
        "ve"
      ],
      [
        "m",
        "ent"
      ],
      [
        "a",
        "b"
      ],
      [
        "Ġ",
        "im"
      ],
      [
        "etw",
        "ork"
      ],
      [
        "e",
        "p"
      ],
      [
        "i",
        "ll"
      ],
      [
        "en",
        "ce"
      ],
      [
        "p",
        "l"
      ],
      [
        "Ġ",
        "r"
      ],
      [
        "a",
        "d"
      ],
      [
        "ic",
        "h"
      ],
      [
        "r",
        "i"
      ],
      [
        "Ġ",
        "S"
      ],
      [
        "ar",
        "d"
      ],
      [
        "i",
        "r"
      ],
      [
        "ro",
        "m"
      ],
      [
        "i",
        "z"
      ],
      [
        "igh",
        "t"
      ],
      [
        "p",
        "er"
      ],
      [
        "t",
        "e"
      ],
      [
        "es",
        "s"
      ],
      [
        "Ġ",
        "\""
      ],
      [
        "f",
        "er"
      ],
      [
        "it",
        "y"
      ],
      [
        "ra",
        "in"
      ],
      [
        "Ġ",
        "un"
      ],
      [
        "Ġn",
        "etwork"
      ],
      [
        "i",
        "v"
      ],
      [
        "Ġs",
        "u"
      ],
      [
        "Ġb",
        "y"
      ],
      [
        "Ġf",
        "un"
      ],
      [
        "Ġf",
        "rom"
      ],
      [
        "at",
        "h"
      ],
      [
        "Ġs",
        "om"
      ],
      [
        "in",
        "e"
      ],
      [
        "Ġlearn",
        "ing"
      ],
      [
        "Ġ",
        "="
      ],
      [
        "'",
        "s"
      ],
      [
        "Ġfun",
        "ction"
      ],
      [
        "Ġ",
        "1"
      ],
      [
        "Ġb",
        "ut"
      ],
      [
        "Ġwh",
        "ich"
      ],
      [
        "od",
        "el"
      ],
      [
        "i",
        "al"
      ],
      [
        "Ġa",
        "pp"
      ],
      [
        "an",
        "t"
      ],
      [
        "a",
        "in"
      ],
      [
        "Ġne",
        "ur"
      ],
      [
        "al",
        "u"
      ],
      [
        "re",
        "s"
      ],
      [
        "Ġ",
        "C"
      ],
      [
        "Ġ",
        "M"
      ],
      [
        "Ġa",
        "t"
      ],
      [
        "ar",
        "t"
      ],
      [
        "Ġc",
        "h"
      ],
      [
        "Ġm",
        "odel"
      ],
      [
        "o",
        "g"
      ],
      [
        "Ġ",
        "en"
      ],
      [
        "Ġ",
        "R"
      ],
      [
        "Ġ",
        "k"
      ],
      [
        "W",
        "h"
      ],
      [
        "Ġw",
        "ould"
      ],
      [
        "Ġs",
        "p"
      ],
      [
        "m",
        "s"
      ],
      [
        ")",
        "."
      ],
      [
        "Ġ",
        "if"
      ],
      [
        "g",
        "or"
      ],
      [
        "Ġsom",
        "e"
      ],
      [
        "d",
        "er"
      ],
      [
        "Ġm",
        "e"
      ],
      [
        "Ġus",
        "e"
      ],
      [
        "Ġt",
        "r"
      ],
      [
        "ut",
        "ion"
      ],
      [
        "Ġd",
        "if"
      ],
      [
        "e",
        "c"
      ],
      [
        "Ġm",
        "a"
      ],
      [
        "Ġa",
        "b"
      ],
      [
        "am",
        "e"
      ],
      [
        "Ġt",
        "rain"
      ],
      [
        "i",
        "ke"
      ],
      [
        "Ġw",
        "ill"
      ],
      [
        "Ġth",
        "ere"
      ],
      [
        "'",
        "t"
      ],
      [
        "Ġ",
        "N"
      ],
      [
        "Ġs",
        "o"
      ],
      [
        "Ġa",
        "ction"
      ],
      [
        "Ġo",
        "ut"
      ],
      [
        "ag",
        "e"
      ],
      [
        "ou",
        "t"
      ],
      [
        "Ġs",
        "h"
      ],
      [
        "ĠTh",
        "e"
      ],
      [
        "an",
        "s"
      ],
      [
        "gor",
        "ith"
      ],
      [
        "s",
        "o"
      ],
      [
        "Ġm",
        "ore"
      ],
      [
        "Ġ",
        "G"
      ],
      [
        "for",
        "m"
      ],
      [
        "Ġ",
        "0"
      ],
      [
        "Ġa",
        "r"
      ],
      [
        "ul",
        "t"
      ],
      [
        "it",
        "ion"
      ],
      [
        "Ġa",
        "ll"
      ],
      [
        "Ġd",
        "at"
      ],
      [
        "Ġst",
        "ate"
      ],
      [
        "Ġg",
        "en"
      ],
      [
        "Ġpro",
        "ble"
      ],
      [
        "Ġ",
        "Ċ"
      ],
      [
        "Ġdif",
        "fer"
      ],
      [
        "ation",
        "s"
      ],
      [
        "th",
        "er"
      ],
      [
        "Ġal",
        "gorith"
      ],
      [
        "if",
        "ic"
      ],
      [
        "w",
        "ard"
      ],
      [
        "Ġneur",
        "al"
      ],
      [
        "a",
        "c"
      ],
      [
        "Ġon",
        "e"
      ],
      [
        "ou",
        "n"
      ],
      [
        "Ġ",
        "D"
      ],
      [
        "us",
        "t"
      ],
      [
        "g",
        "e"
      ],
      [
        "et",
        "h"
      ],
      [
        "Ġ",
        "L"
      ],
      [
        "am",
        "ple"
      ],
      [
        "Ġ$",
        "\\"
      ],
      [
        "Ġs",
        "im"
      ],
      [
        "m",
        "ath"
      ],
      [
        "en",
        "d"
      ],
      [
        "Ġ",
        "-"
      ],
      [
        "Ġl",
        "ike"
      ],
      [
        "a",
        "ble"
      ],
      [
        "ol",
        "ic"
      ],
      [
        "Th",
        "e"
      ],
      [
        "Ġ",
        "B"
      ],
      [
        "at",
        "ed"
      ],
      [
        "p",
        "h"
      ],
      [
        "i",
        "es"
      ],
      [
        "Ġan",
        "y"
      ],
      [
        "Ġp",
        "re"
      ],
      [
        "Ġ",
        "2"
      ],
      [
        "Ġ",
        "qu"
      ],
      [
        "os",
        "s"
      ],
      [
        "Ġv",
        "alu"
      ],
      [
        "Ġl",
        "ay"
      ],
      [
        "g",
        "h"
      ],
      [
        "ĠĠ",
        "Ġ"
      ],
      [
        "Ġyou",
        "r"
      ],
      [
        "ĠA",
        "I"
      ],
      [
        "Ġgen",
        "er"
      ],
      [
        ")",
        ","
      ],
      [
        "et",
        "a"
      ],
      [
        "x",
        "t"
      ],
      [
        "i",
        "ent"
      ],
      [
        "ou",
        "gh"
      ],
      [
        "o",
        "o"
      ],
      [
        "Ġo",
        "ther"
      ],
      [
        "Ġin",
        "put"
      ],
      [
        "id",
        "e"
      ],
      [
        "ou",
        "s"
      ],
      [
        "ic",
        "al"
      ],
      [
        "Ġ",
        "P"
      ],
      [
        "in",
        "d"
      ],
      [
        "ĠI",
        "n"
      ],
      [
        "Ġg",
        "o"
      ],
      [
        "o",
        "st"
      ],
      [
        "olic",
        "y"
      ],
      [
        "a",
        "us"
      ],
      [
        "H",
        "ow"
      ],
      [
        "Ġf",
        "e"
      ],
      [
        "en",
        "s"
      ],
      [
        "u",
        "p"
      ],
      [
        "Ġc",
        "l"
      ],
      [
        "Ġh",
        "ow"
      ],
      [
        "Ġ",
        "T"
      ],
      [
        "Ġin",
        "t"
      ],
      [
        "Ġthe",
        "y"
      ],
      [
        "Ġa",
        "g"
      ],
      [
        "im",
        "e"
      ],
      [
        "Ġwh",
        "at"
      ],
      [
        "n",
        "ow"
      ],
      [
        "Ġre",
        "s"
      ],
      [
        "ar",
        "i"
      ],
      [
        "Ġa",
        "d"
      ],
      [
        ")",
        "$"
      ],
      [
        "as",
        "s"
      ],
      [
        "Ġdat",
        "a"
      ],
      [
        "Ġp",
        "l"
      ],
      [
        "Ġ",
        "F"
      ],
      [
        "Ġp",
        "er"
      ],
      [
        "Ġh",
        "as"
      ],
      [
        "ar",
        "ch"
      ],
      [
        "as",
        "e"
      ],
      [
        "ver",
        "y"
      ],
      [
        "Ġa",
        "ct"
      ],
      [
        "Ġal",
        "so"
      ],
      [
        "Ġapp",
        "ro"
      ],
      [
        "Ġproble",
        "m"
      ],
      [
        "ra",
        "d"
      ],
      [
        "Ġe",
        "v"
      ],
      [
        "ig",
        "n"
      ],
      [
        "Ġdo",
        "es"
      ],
      [
        "Ġon",
        "ly"
      ],
      [
        "a",
        "ct"
      ],
      [
        "Ġex",
        "ample"
      ],
      [
        "Ġ",
        "j"
      ],
      [
        "Ġus",
        "ed"
      ],
      [
        "at",
        "es"
      ],
      [
        "Ġk",
        "now"
      ],
      [
        "i",
        "re"
      ],
      [
        "c",
        "ess"
      ],
      [
        "Ġun",
        "der"
      ],
      [
        "Ġbe",
        "c"
      ],
      [
        "Ġ",
        "up"
      ],
      [
        "{",
        "\\"
      ],
      [
        "ri",
        "b"
      ],
      [
        "Ġdiffer",
        "ent"
      ],
      [
        "f",
        "f"
      ],
      [
        "ot",
        "h"
      ],
      [
        "il",
        "ity"
      ],
      [
        "0",
        "0"
      ],
      [
        "Ġthe",
        "n"
      ],
      [
        "b",
        "ab"
      ],
      [
        "Ġab",
        "out"
      ],
      [
        "Ġt",
        "e"
      ],
      [
        "Ġs",
        "y"
      ],
      [
        "as",
        "t"
      ],
      [
        "ol",
        "ution"
      ],
      [
        "Ġw",
        "ork"
      ],
      [
        "Ġp",
        "olicy"
      ],
      [
        "an",
        "ce"
      ],
      [
        "iz",
        "e"
      ],
      [
        "a",
        "p"
      ],
      [
        "Ġn",
        "um"
      ],
      [
        "Ġt",
        "ime"
      ],
      [
        "aus",
        "e"
      ],
      [
        "or",
        "t"
      ],
      [
        "Ġus",
        "ing"
      ],
      [
        "f",
        "t"
      ],
      [
        "ou",
        "r"
      ],
      [
        "Ġtrain",
        "ing"
      ],
      [
        "math",
        "b"
      ],
      [
        "Ġa",
        "c"
      ],
      [
        "Ġ",
        "E"
      ],
      [
        "Ġwh",
        "ere"
      ],
      [
        "p",
        "i"
      ],
      [
        "Ġout",
        "put"
      ],
      [
        ".",
        "."
      ],
      [
        "od",
        "e"
      ],
      [
        "a",
        "ce"
      ],
      [
        "pt",
        "im"
      ],
      [
        "$",
        "$"
      ],
      [
        "Ġpro",
        "bab"
      ],
      [
        "ac",
        "k"
      ],
      [
        "o",
        "se"
      ],
      [
        "Ġe",
        "ach"
      ],
      [
        "b",
        "er"
      ],
      [
        "oo",
        "k"
      ],
      [
        "s",
        "um"
      ],
      [
        "a",
        "re"
      ],
      [
        "p",
        "res"
      ],
      [
        "Ġ",
        "+"
      ],
      [
        "Wh",
        "at"
      ],
      [
        "Ġth",
        "an"
      ],
      [
        "Ġre",
        "ward"
      ],
      [
        "Ġcon",
        "t"
      ],
      [
        "i",
        "ble"
      ],
      [
        "d",
        "u"
      ],
      [
        "Ġp",
        "o"
      ],
      [
        "Ġw",
        "or"
      ],
      [
        "ic",
        "t"
      ],
      [
        "Ġc",
        "ould"
      ],
      [
        "Ġd",
        "es"
      ],
      [
        "m",
        "a"
      ],
      [
        "Ġm",
        "ay"
      ],
      [
        "Ġne",
        "ed"
      ],
      [
        "Ġcom",
        "put"
      ],
      [
        "c",
        "al"
      ],
      [
        "Ġd",
        "ist"
      ],
      [
        "Ġs",
        "ame"
      ],
      [
        "at",
        "ure"
      ],
      [
        "Ġthe",
        "se"
      ],
      [
        "st",
        "and"
      ],
      [
        "ion",
        "s"
      ],
      [
        "in",
        "t"
      ],
      [
        "Ġd",
        "on"
      ],
      [
        "on",
        "g"
      ],
      [
        "Ġw",
        "ay"
      ],
      [
        "I",
        "n"
      ],
      [
        "Ġde",
        "f"
      ],
      [
        "ra",
        "c"
      ],
      [
        "ĠĠĠĠ",
        "ĠĠĠĠ"
      ],
      [
        "e",
        "en"
      ],
      [
        "Ġvalu",
        "e"
      ],
      [
        "Ġo",
        "b"
      ],
      [
        "v",
        "i"
      ],
      [
        "Ġit",
        "s"
      ],
      [
        "etw",
        "een"
      ],
      [
        "p",
        "ro"
      ],
      [
        "Ġj",
        "ust"
      ],
      [
        "d",
        "ing"
      ],
      [
        "Ġnetwork",
        "s"
      ],
      [
        "Ġsu",
        "ch"
      ],
      [
        "Ġlay",
        "er"
      ],
      [
        "p",
        "ect"
      ],
      [
        "er",
        "m"
      ],
      [
        "Ġalgorith",
        "m"
      ],
      [
        "Ġag",
        "ent"
      ],
      [
        "Ġb",
        "etween"
      ],
      [
        "st",
        "em"
      ],
      [
        "u",
        "e"
      ],
      [
        "l",
        "o"
      ],
      [
        "an",
        "g"
      ],
      [
        "Ġt",
        "a"
      ],
      [
        "arn",
        "ing"
      ],
      [
        "in",
        "k"
      ],
      [
        "d",
        "s"
      ],
      [
        "n",
        "t"
      ],
      [
        "Ġo",
        "ptim"
      ],
      [
        "Ġs",
        "et"
      ],
      [
        "or",
        "y"
      ],
      [
        "te",
        "ll"
      ],
      [
        "rad",
        "ient"
      ],
      [
        "$",
        ","
      ],
      [
        "al",
        "l"
      ],
      [
        "Ġm",
        "an"
      ],
      [
        "tell",
        "ig"
      ],
      [
        "Ġ",
        "Q"
      ],
      [
        "le",
        "d"
      ],
      [
        "Ġbec",
        "ause"
      ],
      [
        "ĠTh",
        "is"
      ],
      [
        "en",
        "c"
      ],
      [
        "Ġwh",
        "en"
      ],
      [
        "Ġunder",
        "stand"
      ],
      [
        "Ġw",
        "as"
      ],
      [
        "Ġp",
        "ar"
      ],
      [
        "ar",
        "y"
      ],
      [
        "Ġre",
        "c"
      ],
      [
        "el",
        "f"
      ],
      [
        "ist",
        "ic"
      ],
      [
        "Ġsy",
        "stem"
      ],
      [
        "o",
        "ve"
      ],
      [
        "Ġ",
        "O"
      ],
      [
        "Ġa",
        "m"
      ],
      [
        "u",
        "ally"
      ],
      [
        "Ġsh",
        "ould"
      ],
      [
        "Ġqu",
        "est"
      ],
      [
        "x",
        "im"
      ],
      [
        "ir",
        "st"
      ],
      [
        "N",
        "N"
      ],
      [
        "at",
        "ive"
      ],
      [
        "ra",
        "m"
      ],
      [
        "Ġo",
        "ver"
      ],
      [
        "th",
        "eta"
      ],
      [
        "e",
        "ver"
      ],
      [
        "Ġde",
        "c"
      ],
      [
        "j",
        "ect"
      ],
      [
        "Ġnum",
        "ber"
      ],
      [
        "Ġf",
        "o"
      ],
      [
        "Ġp",
        "oss"
      ],
      [
        "as",
        "ed"
      ],
      [
        "Ġd",
        "is"
      ],
      [
        "Ġh",
        "um"
      ],
      [
        "Ġp",
        "art"
      ],
      [
        "Ġtr",
        "ans"
      ],
      [
        "Ġt",
        "w"
      ],
      [
        "Ġin",
        "ter"
      ],
      [
        "Ġm",
        "y"
      ],
      [
        "Ġg",
        "et"
      ],
      [
        "ce",
        "pt"
      ],
      [
        "it",
        "e"
      ],
      [
        "Ġp",
        "a"
      ],
      [
        "ic",
        "ally"
      ],
      [
        "Ġg",
        "radient"
      ],
      [
        "Ġcl",
        "ass"
      ],
      [
        "am",
        "et"
      ],
      [
        "Ġcon",
        "s"
      ],
      [
        "or",
        "s"
      ],
      [
        "Ġv",
        "ari"
      ],
      [
        "u",
        "al"
      ],
      [
        "y",
        "p"
      ],
      [
        "Ġ",
        "W"
      ],
      [
        "u",
        "d"
      ],
      [
        "Ġre",
        "l"
      ],
      [
        "Ġw",
        "ant"
      ],
      [
        "Ġg",
        "iv"
      ],
      [
        "Ġc",
        "ase"
      ],
      [
        "Ġ",
        "very"
      ],
      [
        "Ġwe",
        "ight"
      ],
      [
        "Ġtw",
        "o"
      ],
      [
        "pres",
        "ent"
      ],
      [
        "Ġn",
        "o"
      ],
      [
        "ur",
        "re"
      ],
      [
        "Ġint",
        "o"
      ],
      [
        "Ġ",
        "3"
      ],
      [
        "Ġsp",
        "ec"
      ],
      [
        "oun",
        "d"
      ],
      [
        "Ġex",
        "pl"
      ],
      [
        "Ġm",
        "at"
      ],
      [
        "on",
        "s"
      ],
      [
        "Ġre",
        "present"
      ],
      [
        "p",
        "s"
      ],
      [
        "c",
        "i"
      ],
      [
        "Ġc",
        "or"
      ],
      [
        "Ġthe",
        "m"
      ],
      [
        "ach",
        "ine"
      ],
      [
        "Ġalgorith",
        "ms"
      ],
      [
        "i",
        "e"
      ],
      [
        "Ġst",
        "r"
      ],
      [
        "urre",
        "nt"
      ],
      [
        "re",
        "e"
      ],
      [
        "v",
        "ing"
      ],
      [
        "Ġst",
        "ep"
      ],
      [
        "}",
        "$"
      ],
      [
        "Ġf",
        "irst"
      ],
      [
        "ic",
        "e"
      ],
      [
        "Ġfe",
        "ature"
      ],
      [
        "rib",
        "ution"
      ],
      [
        "Ġc",
        "al"
      ],
      [
        "Ġma",
        "ke"
      ],
      [
        "s",
        "w"
      ],
      [
        "Ġcom",
        "p"
      ],
      [
        "Ġquest",
        "ion"
      ],
      [
        "c",
        "l"
      ],
      [
        "w",
        "h"
      ],
      [
        "Ġd",
        "et"
      ],
      [
        "and",
        "om"
      ],
      [
        "te",
        "xt"
      ],
      [
        "tellig",
        "ence"
      ],
      [
        "Ġposs",
        "ible"
      ],
      [
        "Ġ",
        "ve"
      ],
      [
        "Ġth",
        "ink"
      ],
      [
        "Ġ",
        "H"
      ],
      [
        "e",
        "ad"
      ],
      [
        "f",
        "ul"
      ],
      [
        "n",
        "e"
      ],
      [
        "Ġgener",
        "al"
      ],
      [
        "Ġcom",
        "ple"
      ],
      [
        "Ġan",
        "sw"
      ],
      [
        "Ġappro",
        "ach"
      ],
      [
        "Ġen",
        "v"
      ],
      [
        "How",
        "ever"
      ],
      [
        "Ġdef",
        "in"
      ],
      [
        "is",
        "e"
      ],
      [
        "ent",
        "ion"
      ],
      [
        "Ġf",
        "ind"
      ],
      [
        "d",
        "ict"
      ],
      [
        "k",
        "ing"
      ],
      [
        "ag",
        "es"
      ],
      [
        "eth",
        "od"
      ],
      [
        "Ġpa",
        "per"
      ],
      [
        "am",
        "pl"
      ],
      [
        "iz",
        "ation"
      ],
      [
        "ĠI",
        "t"
      ],
      [
        "Y",
        "ou"
      ],
      [
        "f",
        "rac"
      ],
      [
        "Ġar",
        "t"
      ],
      [
        "Ġres",
        "ult"
      ],
      [
        "Ġpl",
        "ay"
      ],
      [
        "Ġm",
        "ost"
      ],
      [
        "as",
        "k"
      ],
      [
        "Ġper",
        "form"
      ],
      [
        "c",
        "on"
      ],
      [
        "ll",
        "ow"
      ],
      [
        "Ġfor",
        "m"
      ],
      [
        "Ġdist",
        "ribution"
      ],
      [
        "Ġ",
        "ro"
      ],
      [
        "_{",
        "\\"
      ],
      [
        "Ġim",
        "age"
      ],
      [
        "Ġe",
        "m"
      ],
      [
        "ab",
        "l"
      ],
      [
        "ul",
        "ar"
      ],
      [
        "}",
        "("
      ],
      [
        "for",
        "ce"
      ],
      [
        "Ġaction",
        "s"
      ],
      [
        "ult",
        "i"
      ],
      [
        "'",
        "m"
      ],
      [
        "u",
        "ch"
      ],
      [
        "ir",
        "on"
      ],
      [
        "Ġm",
        "ethod"
      ],
      [
        "Ġac",
        "c"
      ],
      [
        "in",
        "force"
      ],
      [
        "Ġman",
        "y"
      ],
      [
        "iron",
        "ment"
      ],
      [
        "t",
        "ain"
      ],
      [
        "ĠI",
        "f"
      ],
      [
        "b",
        "e"
      ],
      [
        "at",
        "ing"
      ],
      [
        "Ġm",
        "ight"
      ],
      [
        "inforce",
        "ment"
      ],
      [
        "â",
        "Ģ"
      ],
      [
        "ur",
        "n"
      ],
      [
        "Ġpro",
        "cess"
      ],
      [
        "Ġim",
        "p"
      ],
      [
        "ĠF",
        "or"
      ],
      [
        "Ġpo",
        "int"
      ],
      [
        "Ġve",
        "ct"
      ],
      [
        "mathb",
        "f"
      ],
      [
        "Ġenv",
        "ironment"
      ],
      [
        "ra",
        "ct"
      ],
      [
        "ple",
        "ment"
      ],
      [
        "Ġde",
        "p"
      ],
      [
        "Ġpar",
        "amet"
      ],
      [
        "Ġin",
        "d"
      ],
      [
        "o",
        "v"
      ],
      [
        "v",
        "olution"
      ],
      [
        "Ġne",
        "w"
      ],
      [
        "t",
        "en"
      ],
      [
        "ar",
        "g"
      ],
      [
        "Ġfo",
        "llow"
      ],
      [
        "Ġm",
        "achine"
      ],
      [
        "Ġme",
        "an"
      ],
      [
        "ĠĠĠĠ",
        "ĠĠĠ"
      ],
      [
        "Ġdes",
        "c"
      ],
      [
        "Ġl",
        "ook"
      ],
      [
        "t",
        "ing"
      ],
      [
        "et",
        "ter"
      ],
      [
        "Ġe",
        "qu"
      ],
      [
        "ch",
        "n"
      ],
      [
        "Ġt",
        "ask"
      ],
      [
        "Ġs",
        "ol"
      ],
      [
        "Ġhum",
        "an"
      ],
      [
        "ver",
        "s"
      ],
      [
        "Ġim",
        "plement"
      ],
      [
        "Ġ",
        "&"
      ],
      [
        "Ġapp",
        "l"
      ],
      [
        "Ġgo",
        "od"
      ],
      [
        "Ġbe",
        "en"
      ],
      [
        "Ġgiv",
        "en"
      ],
      [
        "il",
        "ar"
      ],
      [
        "Ġprobab",
        "ility"
      ],
      [
        "Ġg",
        "ame"
      ],
      [
        "e",
        "arning"
      ],
      [
        "form",
        "ation"
      ],
      [
        "Ġdis",
        "c"
      ],
      [
        "Ġde",
        "ep"
      ],
      [
        "Ġse",
        "arch"
      ],
      [
        "Ġr",
        "andom"
      ],
      [
        "Ġh",
        "igh"
      ],
      [
        "Ġin",
        "st"
      ],
      [
        "Ġansw",
        "er"
      ],
      [
        "at",
        "ch"
      ],
      [
        "Ġse",
        "em"
      ],
      [
        "Ġup",
        "d"
      ],
      [
        "Ġsp",
        "ace"
      ],
      [
        "Ġm",
        "ulti"
      ],
      [
        "Ġat",
        "t"
      ],
      [
        "Ġthe",
        "ir"
      ],
      [
        "Ġb",
        "etter"
      ],
      [
        "Ġmodel",
        "s"
      ],
      [
        "Ġse",
        "e"
      ],
      [
        "Ġev",
        "en"
      ],
      [
        "$",
        "."
      ],
      [
        "Ġtr",
        "y"
      ],
      [
        "p",
        "art"
      ],
      [
        "id",
        "er"
      ],
      [
        "Ġpre",
        "dict"
      ],
      [
        "r",
        "ight"
      ],
      [
        "Ġ",
        "["
      ],
      [
        "on",
        "e"
      ],
      [
        "Ġwe",
        "ll"
      ],
      [
        "Ġst",
        "ates"
      ],
      [
        "Ġt",
        "yp"
      ],
      [
        "Ġre",
        "al"
      ],
      [
        "Ġte",
        "chn"
      ],
      [
        "Ġact",
        "iv"
      ],
      [
        "}",
        "^"
      ],
      [
        "se",
        "arch"
      ],
      [
        "ĠS",
        "o"
      ],
      [
        "oun",
        "t"
      ],
      [
        "Ġlay",
        "ers"
      ],
      [
        "i",
        "b"
      ],
      [
        "ine",
        "ar"
      ],
      [
        "e",
        "ur"
      ],
      [
        "Ġbe",
        "ing"
      ],
      [
        "Ġex",
        "per"
      ],
      [
        "Ġspec",
        "ific"
      ],
      [
        "r",
        "it"
      ],
      [
        "Ġs",
        "ay"
      ],
      [
        "im",
        "es"
      ],
      [
        "ific",
        "ial"
      ],
      [
        "or",
        "m"
      ],
      [
        "Ġvalu",
        "es"
      ],
      [
        "Ġre",
        "as"
      ],
      [
        "d",
        "en"
      ],
      [
        "Ġm",
        "uch"
      ],
      [
        "0",
        "1"
      ],
      [
        "i",
        "ally"
      ],
      [
        "Ġre",
        "ad"
      ],
      [
        ")",
        "}"
      ],
      [
        "Ġ",
        "V"
      ],
      [
        "Ġc",
        "urrent"
      ],
      [
        "Ġre",
        "search"
      ],
      [
        "Ġst",
        "ill"
      ],
      [
        "ang",
        "u"
      ],
      [
        "Ġc",
        "re"
      ],
      [
        "le",
        "ct"
      ],
      [
        "ph",
        "a"
      ],
      [
        "Ġh",
        "ere"
      ],
      [
        "Ġ",
        "i"
      ],
      [
        "le",
        "ft"
      ],
      [
        "ro",
        "s"
      ],
      [
        "Ġe",
        "ff"
      ],
      [
        "Ġre",
        "qu"
      ],
      [
        "ri",
        "x"
      ],
      [
        "ol",
        "og"
      ],
      [
        "is",
        "h"
      ],
      [
        "ĠR",
        "L"
      ],
      [
        "Ġin",
        "telligence"
      ],
      [
        "Ġwh",
        "y"
      ],
      [
        "Ġsim",
        "ilar"
      ],
      [
        "f",
        "ter"
      ],
      [
        "an",
        "ge"
      ]
    ]
  }
}