{
  "version": "1.0",
  "truncation": null,
  "padding": null,
  "added_tokens": [
    {
      "id": 0,
      "content": "<unk>",
      "single_word": false,
      "lstrip": false,
      "rstrip": false,
      "normalized": false,
      "special": true
    },
    {
      "id": 1,
      "content": "<pad>",
      "single_word": false,
      "lstrip": false,
      "rstrip": false,
      "normalized": false,
      "special": true
    },
    {
      "id": 2,
      "content": "<bos>",
      "single_word": false,
      "lstrip": false,
      "rstrip": false,
      "normalized": false,
      "special": true
    },
    {
      "id": 3,
      "content": "<eos>",
      "single_word": false,
      "lstrip": false,
      "rstrip": false,
      "normalized": false,
      "special": true
    }
  ],
  "normalizer": null,
  "pre_tokenizer": {
    "type": "ByteLevel",
    "add_prefix_space": false,
    "trim_offsets": true,
    "use_regex": true
  },
  "post_processor": {
    "type": "TemplateProcessing",
    "single": [
      {
        "Sequence": {
          "id": "A",
          "type_id": 0
        }
      }
    ],
    "pair": [
      {
        "Sequence": {
          "id": "A",
          "type_id": 0
        }
      },
      {
        "Sequence": {
          "id": "B",
          "type_id": 1
        }
      }
    ],
    "special_tokens": {}
  },
  "decoder": {
    "type": "ByteLevel",
    "add_prefix_space": true,
    "trim_offsets": true,
    "use_regex": true
  },
  "model": {
    "type": "BPE",
    "dropout": null,
    "unk_token": "<unk>",
    "continuing_subword_prefix": null,
    "end_of_word_suffix": null,
    "fuse_unk": false,
    "byte_fallback": false,
    "ignore_merges": false,
    "vocab": {
      "<unk>": 0,
      "<pad>": 1,
      "<bos>": 2,
      "<eos>": 3,
      "!": 4,
      "\"": 5,
      "#": 6,
      "$": 7,
      "%": 8,
      "&": 9,
      "'": 10,
      "(": 11,
      ")": 12,
      "*": 13,
      "+": 14,
      ",": 15,
      "-": 16,
      ".": 17,
      "/": 18,
      "0": 19,
      "1": 20,
      "2": 21,
      "3": 22,
      "4": 23,
      "5": 24,
      "6": 25,
      "7": 26,
      "8": 27,
      "9": 28,
      ":": 29,
      ";": 30,
      "<": 31,
      "=": 32,
      ">": 33,
      "?": 34,
      "@": 35,
      "A": 36,
      "B": 37,
      "C": 38,
      "D": 39,
      "E": 40,
      "F": 41,
      "G": 42,
      "H": 43,
      "I": 44,
      "J": 45,
      "K": 46,
      "L": 47,
      "M": 48,
      "N": 49,
      "O": 50,
      "P": 51,
      "Q": 52,
      "R": 53,
      "S": 54,
      "T": 55,
      "U": 56,
      "V": 57,
      "W": 58,
      "X": 59,
      "Y": 60,
      "Z": 61,
      "[": 62,
      "\\": 63,
      "]": 64,
      "^": 65,
      "_": 66,
      "`": 67,
      "a": 68,
      "b": 69,
      "c": 70,
      "d": 71,
      "e": 72,
      "f": 73,
      "g": 74,
      "h": 75,
      "i": 76,
      "j": 77,
      "k": 78,
      "l": 79,
      "m": 80,
      "n": 81,
      "o": 82,
      "p": 83,
      "q": 84,
      "r": 85,
      "s": 86,
      "t": 87,
      "u": 88,
      "v": 89,
      "w": 90,
      "x": 91,
      "y": 92,
      "z": 93,
      "{": 94,
      "|": 95,
      "}": 96,
      "~": 97,
      "¡": 98,
      "¢": 99,
      "£": 100,
      "¤": 101,
      "¥": 102,
      "¦": 103,
      "§": 104,
      "¨": 105,
      "©": 106,
      "ª": 107,
      "«": 108,
      "¬": 109,
      "®": 110,
      "¯": 111,
      "°": 112,
      "±": 113,
      "²": 114,
      "³": 115,
      "´": 116,
      "µ": 117,
      "¶": 118,
      "·": 119,
      "¸": 120,
      "¹": 121,
      "º": 122,
      "»": 123,
      "¼": 124,
      "½": 125,
      "¾": 126,
      "¿": 127,
      "À": 128,
      "Á": 129,
      "Â": 130,
      "Ã": 131,
      "Ä": 132,
      "Å": 133,
      "Æ": 134,
      "Ç": 135,
      "È": 136,
      "É": 137,
      "Ê": 138,
      "Ë": 139,
      "Ì": 140,
      "Í": 141,
      "Î": 142,
      "Ï": 143,
      "Ð": 144,
      "Ñ": 145,
      "Ò": 146,
      "Ó": 147,
      "Ô": 148,
      "Õ": 149,
      "Ö": 150,
      "×": 151,
      "Ø": 152,
      "Ù": 153,
      "Ú": 154,
      "Û": 155,
      "Ü": 156,
      "Ý": 157,
      "Þ": 158,
      "ß": 159,
      "à": 160,
      "á": 161,
      "â": 162,
      "ã": 163,
      "ä": 164,
      "å": 165,
      "æ": 166,
      "ç": 167,
      "è": 168,
      "é": 169,
      "ê": 170,
      "ë": 171,
      "ì": 172,
      "í": 173,
      "î": 174,
      "ï": 175,
      "ð": 176,
      "ñ": 177,
      "ò": 178,
      "ó": 179,
      "ô": 180,
      "õ": 181,
      "ö": 182,
      "÷": 183,
      "ø": 184,
      "ù": 185,
      "ú": 186,
      "û": 187,
      "ü": 188,
      "ý": 189,
      "þ": 190,
      "ÿ": 191,
      "Ā": 192,
      "ā": 193,
      "Ă": 194,
      "ă": 195,
      "Ą": 196,
      "ą": 197,
      "Ć": 198,
      "ć": 199,
      "Ĉ": 200,
      "ĉ": 201,
      "Ċ": 202,
      "ċ": 203,
      "Č": 204,
      "č": 205,
      "Ď": 206,
      "ď": 207,
      "Đ": 208,
      "đ": 209,
      "Ē": 210,
      "ē": 211,
      "Ĕ": 212,
      "ĕ": 213,
      "Ė": 214,
      "ė": 215,
      "Ę": 216,
      "ę": 217,
      "Ě": 218,
      "ě": 219,
      "Ĝ": 220,
      "ĝ": 221,
      "Ğ": 222,
      "ğ": 223,
      "Ġ": 224,
      "ġ": 225,
      "Ģ": 226,
      "ģ": 227,
      "Ĥ": 228,
      "ĥ": 229,
      "Ħ": 230,
      "ħ": 231,
      "Ĩ": 232,
      "ĩ": 233,
      "Ī": 234,
      "ī": 235,
      "Ĭ": 236,
      "ĭ": 237,
      "Į": 238,
      "į": 239,
      "İ": 240,
      "ı": 241,
      "Ĳ": 242,
      "ĳ": 243,
      "Ĵ": 244,
      "ĵ": 245,
      "Ķ": 246,
      "ķ": 247,
      "ĸ": 248,
      "Ĺ": 249,
      "ĺ": 250,
      "Ļ": 251,
      "ļ": 252,
      "Ľ": 253,
      "ľ": 254,
      "Ŀ": 255,
      "ŀ": 256,
      "Ł": 257,
      "ł": 258,
      "Ń": 259,
      "ĠĠ": 260,
      "Ġt": 261,
      "in": 262,
      "Ġa": 263,
      "ĠĠĠĠ": 264,
      "er": 265,
      "on": 266,
      "en": 267,
      "at": 268,
      "Ġth": 269,
      "re": 270,
      "Ġs": 271,
      "Ġo": 272,
      "Ġc": 273,
      "ing": 274,
      "al": 275,
      "ed": 276,
      "Ġm": 277,
      "Ġp": 278,
      "an": 279,
      "Ġthe": 280,
      "ti": 281,
      "es": 282,
      "or": 283,
      "Ġin": 284,
      "Ġto": 285,
      "is": 286,
      "Ġan": 287,
      "ar": 288,
      "ro": 289,
      "de": 290,
      "it": 291,
      "Ġf": 292,
      "Ġof": 293,
      "le": 294,
      "Ġb": 295,
      "==": 296,
      "ĠĠĠĠĠĠĠĠ": 297,
      "Ġw": 298,
      "ic": 299,
      "as": 300,
      "Ġand": 301,
      "Ġe": 302,
      "ion": 303,
      "Ġmo": 304,
      "Ġl": 305,
      "ch": 306,
      "Ġre": 307,
      "ent": 308,
      "ly": 309,
      "st": 310,
      "ra": 311,
      "ut": 312,
      "ĠL": 313,
      "Ġd": 314,
      "del": 315,
      "mp": 316,
      "Ġmodel": 317,
      "ge": 318,
      "ation": 319,
      "us": 320,
      "Ġh": 321,
      "LM": 322,
      "et": 323,
      "ce": 324,
      "ĠĠĊ": 325,
      "ve": 326,
      "tion": 327,
      "ĠLLM": 328,
      "Ġpro": 329,
      "un": 330,
      "Ġn": 331,
      "Ġas": 332,
      "ct": 333,
      "Ġco": 334,
      "Ġcon": 335,
      "ĠĠĠ": 336,
      "il": 337,
      "Ġis": 338,
      "Ġthat": 339,
      "qu": 340,
      "ers": 341,
      "ul": 342,
      "te": 343,
      "Ġbe": 344,
      "ur": 345,
      "age": 346,
      "gu": 347,
      "Ġon": 348,
      "Ġus": 349,
      "ig": 350,
      "xt": 351,
      "Ġg": 352,
      "rain": 353,
      "Ġ\"": 354,
      "ith": 355,
      "lo": 356,
      "ĠA": 357,
      "Ġfor": 358,
      "Th": 359,
      "ab": 360,
      "Ġ(": 361,
      "Ġ2": 362,
      "Ġex": 363,
      "Ġmodels": 364,
      "ter": 365,
      "th": 366,
      "Ġsu": 367,
      "Ġor": 368,
      "im": 369,
      "Ġtrain": 370,
      "===": 371,
      "angu": 372,
      "Ġde": 373,
      "ate": 374,
      "ĠTh": 375,
      "ĠĠĠĠĠĠĠ": 376,
      "Ġwh": 377,
      "Ġ20": 378,
      "for": 379,
      "pe": 380,
      "anguage": 381,
      "ĠĠĠĠĊ": 382,
      "ity": 383,
      "Ġwith": 384,
      "if": 385,
      "se": 386,
      "ment": 387,
      "ol": 388,
      "ĠĠĠĠĠĠĊ": 389,
      "ay": 390,
      "ally": 391,
      "Ġpre": 392,
      "tic": 393,
      "ĠLLMs": 394,
      "Ġte": 395,
      "Ġare": 396,
      "ess": 397,
      "ĠĠĠĠĠĠĠĠĠĠĠĠĠĠĠĠ": 398,
      "Ġdat": 399,
      "Ġby": 400,
      "Ġal": 401,
      "ener": 402,
      "form": 403,
      "ir": 404,
      "pl": 405,
      "ĠS": 406,
      "ding": 407,
      "em": 408,
      "ts": 409,
      "ence": 410,
      "Ġst": 411,
      "In": 412,
      "am": 413,
      "om": 414,
      "ow": 415,
      "ri": 416,
      "ure": 417,
      "Ġit": 418,
      "ine": 419,
      "Ġcan": 420,
      "Ġlanguage": 421,
      "ks": 422,
      "der": 423,
      "ken": 424,
      "ction": 425,
      "ver": 426,
      "Ġ202": 427,
      "ot": 428,
      "put": 429,
      "um": 430,
      "vi": 431,
      "ĠC": 432,
      "ĠG": 433,
      "Ġse": 434,
      "Ġcomp": 435,
      "Ġgener": 436,
      "PT": 437,
      "ug": 438,
      "Ġper": 439,
      "iti": 440,
      "Ġtraining": 441,
      "iz": 442,
      "Ġi": 443,
      "Ġen": 444,
      "all": 445,
      "Ġne": 446,
      "Ġar": 447,
      "Ġcont": 448,
      "igh": 449,
      "Ġqu": 450,
      "Ġtoken": 451,
      "Ġha": 452,
      "ain": 453,
      "ci": 454,
      "ke": 455,
      "Ġun": 456,
      "ugh": 457,
      "per": 458,
      "Ġsy": 459,
      "arge": 460,
      "Ġfro": 461,
      "ĠThe": 462,
      "Ġtext": 463,
      "od": 464,
      "mpt": 465,
      "Ġsuch": 466,
      "Ġfrom": 467,
      "ru": 468,
      "so": 469,
      "{\\": 470,
      "Ġ===": 471,
      "ĠIn": 472,
      "Ġwor": 473,
      "Ġdata": 474,
      "du": 475,
      "ran": 476,
      "si": 477,
      "ĠM": 478,
      "Ġout": 479,
      "ations": 480,
      "ble": 481,
      "ĠN": 482,
      "ĠP": 483,
      "Ġle": 484,
      "ere": 485,
      "ist": 486,
      "ĠGPT": 487,
      "act": 488,
      "co": 489,
      "fic": 490,
      "ll": 491,
      "pen": 492,
      "Ġch": 493,
      "Ġhave": 494,
      "ach": 495,
      "amp": 496,
      "cess": 497,
      "fer": 498,
      "ven": 499,
      "ĠB": 500,
      "Ġ==": 501,
      "Ġpar": 502,
      "ance": 503,
      "Ġprompt": 504,
      "ap": 505,
      "ĠD": 506,
      "ĠE": 507,
      "Ġac": 508,
      "Ġinc": 509,
      "ges": 510,
      "pre": 511,
      "val": 512,
      "ĠO": 513,
      "Ġap": 514,
      "ated": 515,
      "ased": 516,
      "stem": 517,
      "ram": 518,
      "Ġexamp": 519,
      "di": 520,
      "Ġ{\\": 521,
      "Ġbi": 522,
      "tions": 523,
      "und": 524,
      "ulti": 525,
      "able": 526,
      "play": 527,
      "dis": 528,
      "ple": 529,
      "ĠF": 530,
      "enti": 531,
      "Ġinput": 532,
      "Ġlarge": 533,
      "ill": 534,
      "ural": 535,
      "ome": 536,
      "Ġsystem": 537,
      "ac": 538,
      "dic": 539,
      "yle": 540,
      "Ġv": 541,
      "Ġinter": 542,
      "style": 543,
      "ther": 544,
      "Ġtrained": 545,
      "ific": 546,
      "amet": 547,
      "Ġexample": 548,
      "playstyle": 549,
      "displaystyle": 550,
      "cy": 551,
      "ike": 552,
      "mar": 553,
      "og": 554,
      "os": 555,
      "ous": 556,
      "ph": 557,
      "ted": 558,
      "Ġspe": 559,
      "Ġwe": 560,
      "ical": 561,
      "stru": 562,
      "'s": 563,
      "AI": 564,
      "ial": 565,
      "tun": 566,
      "up": 567,
      "Ġtran": 568,
      "Ġat": 569,
      "Ġso": 570,
      "Ġme": 571,
      "Ġmulti": 572,
      "istic": 573,
      "arch": 574,
      "ich": 575,
      "aset": 576,
      "Ġres": 577,
      "eth": 578,
      "text": 579,
      "Ġused": 580,
      "uman": 581,
      "Ġperform": 582,
      "ew": 583,
      "ect": 584,
      "lu": 585,
      "ms": 586,
      "ore": 587,
      "ough": 588,
      "ten": 589,
      "Ġag": 590,
      "ors": 591,
      "ĠĠĠĠĠĠĠĠĊ": 592,
      "ĠĠĠĠĠĠĠĠĠĠĊ": 593,
      "Ġpredic": 594,
      "Ġits": 595,
      "Ġtrans": 596,
      "âĢ": 597,
      "ĠR": 598,
      "Ġad": 599,
      "ish": 600,
      "Ġwas": 601,
      "Ġem": 602,
      "Ġhuman": 603,
      "ign": 604,
      "low": 605,
      "ĠAI": 606,
      "Ġwhich": 607,
      "ities": 608,
      "Ġbias": 609,
      "ad": 610,
      "ces": 611,
      "oc": 612,
      "yp": 613,
      "Ġab": 614,
      "Ġsh": 615,
      "Ġste": 616,
      "Ġsome": 617,
      "Ġcor": 618,
      "and": 619,
      "arly": 620,
      "Ġfine": 621,
      "Ġhas": 622,
      "Ġdataset": 623,
      "Ġimp": 624,
      "Ġword": 625,
      "\".": 626,
      "gram": 627,
      "ie": 628,
      "ire": 629,
      "king": 630,
      "lish": 631,
      "to": 632,
      "Ġ1": 633,
      "Ġro": 634,
      "Ġim": 635,
      "Ġtas": 636,
      "ational": 637,
      "Ġnot": 638,
      "ility": 639,
      "Ġuser": 640,
      "Ġcontent": 641,
      "ight": 642,
      "Ġoutput": 643,
      "Ġparamet": 644,
      "valu": 645,
      "struction": 646,
      "Ġstep": 647,
      "),": 648,
      "ec": 649,
      "ive": 650,
      "ning": 651,
      "pon": 652,
      "ss": 653,
      "sw": 654,
      "ating": 655,
      "Ġmeth": 656,
      "Ġinte": 657,
      "Ġansw": 658,
      "ary": 659,
      "ason": 660,
      "Ġlike": 661,
      "ult": 662,
      "Ġuse": 663,
      "ĠThis": 664,
      "Ġlear": 665,
      "ĠOpen": 666,
      "Ġmethod": 667,
      "af": 668,
      "mo": 669,
      "sent": 670,
      "ĠW": 671,
      "Ġr": 672,
      "Ġvi": 673,
      "Ġthen": 674,
      "Ġmay": 675,
      "ically": 676,
      "log": 677,
      "Ġalso": 678,
      "ures": 679,
      "Ġ2023": 680,
      "Ġunder": 681,
      "ced": 682,
      "cific": 683,
      "ved": 684,
      "Ġup": 685,
      "Ġaut": 686,
      "erg": 687,
      "ative": 688,
      "Ġthis": 689,
      "Ġsaf": 690,
      "Ġover": 691,
      "anti": 692,
      "Ġtheir": 693,
      "ari": 694,
      "Ġbased": 695,
      "ass": 696,
      "Ġrese": 697,
      "velo": 698,
      "Ġprocess": 699,
      "Ġcom": 700,
      "quire": 701,
      "Ġwhere": 702,
      "ments": 703,
      "ĠCh": 704,
      "Ġinclu": 705,
      "Ġperformance": 706,
      "Ġtasks": 707,
      "Ġanswer": 708,
      "ĠOpenAI": 709,
      "Ġresearch": 710,
      "ages": 711,
      "ep": 712,
      "id": 713,
      "ile": 714,
      "ound": 715,
      "ves": 716,
      "vers": 717,
      "ĠĊ": 718,
      "ench": 719,
      "Ġthough": 720,
      "rect": 721,
      "Ġsim": 722,
      "Ġcl": 723,
      "ant": 724,
      "ese": 725,
      "Ġinstruction": 726,
      "ard": 727,
      "rough": 728,
      "Ġfact": 729,
      "Ġbut": 730,
      "====": 731,
      "ĠĠĠĠĠĠĠĠĠĠĠ": 732,
      "Ġevalu": 733,
      "Ġreason": 734,
      "Ġdes": 735,
      "Ġhigh": 736,
      "ety": 737,
      "Ġprodu": 738,
      "Ġproble": 739,
      "Ġnat": 740,
      "Ġnum": 741,
      "Ġcost": 742,
      "Ġcons": 743,
      "ilities": 744,
      "uld": 745,
      "ollow": 746,
      "Ġsequ": 747,
      "Ġcomple": 748,
      "Ġques": 749,
      "Ġ====": 750,
      "ĠFor": 751,
      "tuned": 752,
      "Ġtransform": 753,
      "âĢĵ": 754,
      "enchmar": 755,
      "ag": 756,
      "ail": 757,
      "ber": 758,
      "bed": 759,
      "gine": 760,
      "iven": 761,
      "ns": 762,
      "por": 763,
      "pro": 764,
      "uc": 765,
      "ud": 766,
      "ving": 767,
      "we": 768,
      "Ġ=": 769,
      "ĠI": 770,
      "Ġy": 771,
      "ath": 772,
      "ates": 773,
      "Ġthrough": 774,
      "Ġsc": 775,
      "Ġother": 776,
      "Ġcall": 777,
      "Ġcap": 778,
      "Ġpl": 779,
      "Ġthey": 780,
      "est": 781,
      "Ġmore": 782,
      "Ġhe": 783,
      "cep": 784,
      "Ġass": 785,
      "Ġcontext": 786,
      "Ġbeen": 787,
      "Ġusing": 788,
      "Ġdevelo": 789,
      "Ġ201": 790,
      "Ġtech": 791,
      "Ġcomput": 792,
      "Ġgenerate": 793,
      "Ġenco": 794,
      "llig": 795,
      "illion": 796,
      "Ġspecific": 797,
      "Ġmultiple": 798,
      "tention": 799,
      "Ġimpro": 800,
      "Ġimage": 801,
      "Ġlearning": 802,
      "antiz": 803,
      "00": 804,
      "LLM": 805,
      "air": 806,
      "cri": 807,
      "ffic": 808,
      "fore": 809,
      "iqu": 810,
      "out": 811,
      "olog": 812,
      "ses": 813,
      "tain": 814,
      "ĠH": 815,
      "ĠâĢĵ": 816,
      "ong": 817,
      "end": 818,
      "ency": 819,
      "atic": 820,
      "ality": 821,
      "Ġthese": 822,
      "Ġinto": 823,
      "Ġtool": 824,
      "its": 825,
      "itect": 826,
      "Ġfollow": 827,
      "ase": 828,
      "Ġeach": 829,
      "chitect": 830,
      "Ġdif": 831,
      "Ġhow": 832,
      "Ġbeh": 833,
      "Ġgiven": 834,
      "own": 835,
      "Ġ2022": 836,
      "ize": 837,
      "ization": 838,
      "Ġneural": 839,
      "Ġargu": 840,
      "sive": 841,
      "ference": 842,
      "ĠEn": 843,
      "dition": 844,
      "Ġsystems": 845,
      "Ġrespon": 846,
      "Ġpredict": 847,
      "Ġparameters": 848,
      "Ġintellig": 849,
      "Ġunderst": 850,
      "Ġsafety": 851,
      "Ġsimil": 852,
      "Ġreasoning": 853,
      "gineer": 854,
      "Ġtechn": 855,
      "antization": 856,
      "GPT": 857,
      "are": 858,
      "cer": 859,
      "cur": 860,
      "ft": 861,
      "ful": 862,
      "glish": 863,
      "ib": 864,
      "ld": 865,
      "mod": 866,
      "ose": 867,
      "ub": 868,
      "ue": 869,
      "ura": 870,
      "ually": 871,
      "xity": 872,
      "}}": 873,
      "Ġtyp": 874,
      "Ġcre": 875,
      "Ġman": 876,
      "Ġwere": 877,
      "Ġmost": 878,
      "chan": 879,
      "Ġrequire": 880,
      "ents": 881,
      "str": 882,
      "rap": 883,
      "Ġone": 884,
      "Ġdem": 885,
      "Ġwhile": 886,
      "tical": 887,
      "plic": 888,
      "emor": 889,
      "Ġarchitect": 890,
      "Ġtokens": 891,
      "cial": 892,
      "present": 893,
      "plexity": 894,
      "Ġmeas": 895,
      "Ġcalled": 896,
      "Ġdevelop": 897,
      "Ġintelligence": 898,
      ").": 899,
      "RT": 900,
      "ak": 901,
      "avi": 902,
      "ake": 903,
      "cis": 904,
      "ff": 905,
      "les": 906,
      "par": 907,
      "ting": 908,
      "train": 909,
      "tri": 910,
      "wor": 911,
      "ype": 912,
      "Ġ0": 913,
      "ĠT": 914,
      "Ġj": 915,
      "Ġtra": 916,
      "atistic": 917,
      "Ġthan": 918,
      "ree": 919,
      "Ġser": 920,
      "Ġset": 921,
      "Ġob": 922,
      "Ġmis": 923,
      "Ġmemor": 924,
      "tive": 925,
      "ism": 926,
      "ite": 927,
      "Ġfin": 928,
      "lect": 929,
      "Ġbenchmar": 930,
      "Ġext": 931,
      "Ġrel": 932,
      "Ġrepresent": 933,
      "vel": 934,
      "unt": 935,
      "ability": 936,
      "Ġsub": 937,
      "formation": 938,
      "Ġstatistic": 939,
      "Ġ2025": 940,
      "Ġgeneration": 941,
      "itive": 942,
      "Ġquantization": 943,
      "ĠPro": 944,
      "ficial": 945,
      "Ġprompting": 946,
      "Ġembed": 947,
      "ocu": 948,
      "Ġinstructions": 949,
      "Ġnumber": 950,
      "Ġsequence": 951,
      "ĠEnglish": 952,
      "Ġstatistical": 953,
      "Ġembedding": 954,
      "\",": 955,
      "..": 956,
      "ERT": 957,
      "con": 958,
      "etic": 959,
      "fter": 960,
      "ger": 961,
      "gor": 962,
      "itical": 963,
      "ked": 964,
      "lic": 965,
      "mall": 966,
      "ser": 967,
      "Ġop": 968,
      "aling": 969,
      "Ġph": 970,
      "tificial": 971,
      "Ġinst": 972,
      "Ġfe": 973,
      "Ġfil": 974,
      "Ġfound": 975,
      "Ġbet": 976,
      "Ġmod": 977,
      "Ġlow": 978,
      "ĠLanguage": 979,
      "Ġdo": 980,
      "Ġdocu": 981,
      "etwor": 982,
      "Ġprogram": 983,
      "Ġnetwor": 984,
      "Ġconsi": 985,
      "Ġconcer": 986,
      "Ġbefore": 987,
      "The": 988,
      "Ġexper": 989,
      "Ġwhen": 990,
      "pear": 991,
      "olitical": 992,
      "ĠĠĠĠĠĠĠĠĠĠĠĠĠĠĠĠĠ": 993,
      "ĠĠĠĠĠĠĠĠĠĠĠĠĠĠĠĠĠĠĊ": 994,
      "ĠĠĠĠĠĠĠĠĠĠĠĠĠĠĠĠĠĠĠĠĊ": 995,
      "Ġstud": 996,
      "alluc": 997,
      "Ġcontro": 998,
      "Ġappear": 999,
      "ential": 1000,
      "Ġspecial": 1001,
      "Ġemerg": 1002,
      "Ġcorrect": 1003,
      "Ġdatasets": 1004,
      "ĠWh": 1005,
      "ĠChat": 1006,
      "Ġresearchers": 1007,
      "Ġdescri": 1008,
      "Ġnatural": 1009,
      "Ġimprove": 1010,
      "Ġbehavi": 1011,
      "Ġresponses": 1012,
      "gineering": 1013,
      "Ġtechniqu": 1014,
      "gorith": 1015,
      "allucin": 1016,
      "02": 1017,
      "_{": 1018,
      "aw": 1019,
      "ace": 1020,
      "bo": 1021,
      "based": 1022,
      "ek": 1023,
      "gn": 1024,
      "ied": 1025,
      "ies": 1026,
      "med": 1027,
      "nth": 1028,
      "ness": 1029,
      "of": 1030,
      "ou": 1031,
      "oth": 1032,
      "pos": 1033,
      "ric": 1034,
      "uch": 1035,
      "vail": 1036,
      "ward": 1037,
      "Ġ3": 1038,
      "Ġ4": 1039,
      "ĠJ": 1040,
      "ĠU": 1041,
      "Ġif": 1042,
      "Ġtur": 1043,
      "Ġtype": 1044,
      "Ġamo": 1045,
      "ons": 1046,
      "onstr": 1047,
      "ens": 1048,
      "ences": 1049,
      "atter": 1050,
      "Ġsign": 1051,
      "Ġpo": 1052,
      "Ġpos": 1053,
      "Ġpub": 1054,
      "anding": 1055,
      "Ġthem": 1056,
      "Ġinference": 1057,
      "aract": 1058,
      "Ġfir": 1059,
      "lection": 1060,
      "ast": 1061,
      "Ġep": 1062,
      "Ġet": 1063,
      "Ġearly": 1064,
      "Ġlar": 1065,
      "Ġlog": 1066,
      "Ġlaw": 1067,
      "Ġrele": 1068,
      "ental": 1069,
      "ently": 1070,
      "Ġdown": 1071,
      "use": 1072,
      "Ġno": 1073,
      "Ġcode": 1074,
      "Ġcould": 1075,
      "Ġform": 1076,
      "abilities": 1077,
      "Ġnew": 1078,
      "Ġcharact": 1079,
      "Ġprompted": 1080,
      "Ġacc": 1081,
      "ĠOn": 1082,
      "ack": 1083,
      "Ġvari": 1084,
      "Ġweb": 1085,
      "tuning": 1086,
      "Ġattention": 1087,
      "Ġmechan": 1088,
      "Ġability": 1089,
      "Ġshow": 1090,
      "Ġris": 1091,
      "Ġauth": 1092,
      "Ġcomm": 1093,
      "Ġincluding": 1094,
      "Ġthought": 1095,
      "Ġproblem": 1096,
      "Ġquestions": 1097,
      "weight": 1098,
      "Ġcapabilities": 1099,
      "ffici": 1100,
      "Ġsimilar": 1101,
      "modal": 1102,
      "Ġtypically": 1103,
      "Ġbenchmarks": 1104,
      "Ġconsider": 1105,
      "Ġstudy": 1106,
      "ĠChatGPT": 1107,
      "Ġfirst": 1108,
      "\")": 1109,
      "10": 1110,
      "202": 1111,
      "NA": 1112,
      "Se": 1113,
      "aim": 1114,
      "aking": 1115,
      "be": 1116,
      "cing": 1117,
      "ded": 1118,
      "eep": 1119,
      "gre": 1120,
      "ling": 1121,
      "like": 1122,
      "lie": 1123,
      "oog": 1124,
      "rim": 1125,
      "tro": 1126,
      "ual": 1127,
      "ware": 1128,
      "Ġtend": 1129,
      "ind": 1130,
      "Ġach": 1131,
      "Ġafter": 1132,
      "Ġavail": 1133,
      "Ġthose": 1134,
      "Ġsize": 1135,
      "Ġsmall": 1136,
      "Ġoc": 1137,
      "Ġopen": 1138,
      "Ġcle": 1139,
      "ingu": 1140,
      "alth": 1141,
      "Ġmach": 1142,
      "Ġmath": 1143,
      "Ġpot": 1144,
      "Ġpolitical": 1145,
      "ancy": 1146,
      "ties": 1147,
      "Ġinj": 1148,
      "Ġinformation": 1149,
      "Ġany": 1150,
      "rop": 1151,
      "round": 1152,
      "Ġfram": 1153,
      "ĠĠĠĠĠĠĠĠĠ": 1154,
      "ice": 1155,
      "ics": 1156,
      "Ġeven": 1157,
      "Ġlong": 1158,
      "Ġref": 1159,
      "Ġredu": 1160,
      "rac": 1161,
      "Ġdue": 1162,
      "Ġnon": 1163,
      "Ġcogn": 1164,
      "ular": 1165,
      "Ġbeing": 1166,
      "Ġbelie": 1167,
      "uring": 1168,
      "loy": 1169,
      "ĠAl": 1170,
      "ably": 1171,
      "Ġ(\"": 1172,
      "tere": 1173,
      "though": 1174,
      "ĠThese": 1175,
      "Ġall": 1176,
      "Ġallow": 1177,
      "Ġalgorith": 1178,
      "omen": 1179,
      "verage": 1180,
      "Ġ2024": 1181,
      "ĠGoog": 1182,
      "Ġgeneral": 1183,
      "Ġperplexity": 1184,
      "Ġnext": 1185,
      "Ġartificial": 1186,
      "Ġquer": 1187,
      "cious": 1188,
      "ruct": 1189,
      "sour": 1190,
      "Ġwork": 1191,
      "duced": 1192,
      "Ġchan": 1193,
      "ĠBERT": 1194,
      "ĠDeep": 1195,
      "Ġincre": 1196,
      "Ġincor": 1197,
      "gest": 1198,
      "Ġappro": 1199,
      "Ġsoft": 1200,
      "Ġmultimodal": 1201,
      "Ġagree": 1202,
      "Ġprediction": 1203,
      "âĢĶ": 1204,
      "Ġaddition": 1205,
      "Ġabilities": 1206,
      "Ġparameter": 1207,
      "Ġvia": 1208,
      "Ġview": 1209,
      "Ġclass": 1210,
      "Ġclaim": 1211,
      "Ġproblems": 1212,
      "Ġconscious": 1213,
      "Ġcomplex": 1214,
      "Ġquestion": 1215,
      "Ġtransformer": 1216,
      "Ġhealth": 1217,
      "cept": 1218,
      "Ġcomputer": 1219,
      "Ġencoder": 1220,
      "Ġdiffer": 1221,
      "Ġunderstanding": 1222,
      "Ġdemonstr": 1223,
      "Ġarchitecture": 1224,
      "Ġlower": 1225,
      "Ġconcerns": 1226,
      "Ġcontrol": 1227,
      "allucinations": 1228,
      "posed": 1229,
      "Ġamount": 1230,
      "Ġepis": 1231,
      "Ġmechanism": 1232,
      "Ġachie": 1233,
      "Ġmachine": 1234,
      "ĠGoogle": 1235,
      "40": 1236,
      "An": 1237,
      "bin": 1238,
      "bre": 1239,
      "ca": 1240,
      "cre": 1241,
      "ection": 1242,
      "ever": 1243,
      "ho": 1244,
      "her": 1245,
      "han": 1246,
      "hib": 1247,
      "ia": 1248,
      "ix": 1249,
      "ious": 1250,
      "kn": 1251,
      "ming": 1252,
      "ned": 1253,
      "nam": 1254,
      "pus": 1255,
      "pri": 1256,
      "rit": 1257,
      "sc": 1258,
      "sh": 1259,
      "sy": 1260,
      "ust": 1261,
      "ution": 1262,
      "ynam": 1263,
      "Ġ)": 1264,
      "Ġ6": 1265,
      "ĠK": 1266,
      "Ġ[": 1267,
      "Ġâ": 1268,
      "Ġve": 1269,
      "Ġran": 1270,
      "inu": 1271,
      "ines": 1272,
      "ince": 1273,
      "Ġaction": 1274,
      "ertain": 1275,
      "ense": 1276,
      "ators": 1277,
      "ream": 1278,
      "Ġsur": 1279,
      "Ġoper": 1280,
      "Ġcertain": 1281,
      "alities": 1282,
      "Ġmas": 1283,
      "Ġmillion": 1284,
      "Ġmental": 1285,
      "Ġpers": 1286,
      "Ġpri": 1287,
      "tim": 1288,
      "ory": 1289,
      "Ġiniti": 1290,
      "Ġintro": 1291,
      "arial": 1292,
      "ross": 1293,
      "Ġfew": 1294,
      "Ġbre": 1295,
      "ases": 1296,
      "Ġemp": 1297,
      "Ġeth": 1298,
      "Ġeff": 1299,
      "ions": 1300,
      "Ġlangu": 1301,
      "Ġlay": 1302,
      "Ġrem": 1303,
      "Ġretri": 1304,
      "Ġden": 1305,
      "Ġdis": 1306,
      "mpts": 1307,
      "eta": 1308,
      "Ġprote": 1309,
      "quent": 1310,
      "ults": 1311,
      "urther": 1312,
      "Ġonly": 1313,
      "Ġusers": 1314,
      "Ġgro": 1315,
      "ĠAt": 1316,
      "Ġexist": 1317,
      "Ġexhib": 1318,
      "term": 1319,
      "tern": 1320,
      "Ġdef": 1321,
      "Ġdete": 1322,
      "ately": 1323,
      "Ġwheth": 1324,
      "pect": 1325,
      "mented": 1326,
      "Ġpresent": 1327,
      "Ġpretrain": 1328,
      "Ġstruct": 1329,
      "ame": 1330,
      "ĠCo": 1331,
      "Ġsee": 1332,
      "ized": 1333,
      "Ġengineering": 1334,
      "ights": 1335,
      "Ġhad": 1336,
      "perties": 1337,
      "sible": 1338,
      "coph": 1339,
      "ficult": 1340,
      "pend": 1341,
      "Ġchat": 1342,
      "Ġchain": 1343,
      "pret": 1344,
      "Ġappl": 1345,
      "Ġapplic": 1346,
      "ificant": 1347,
      "ameter": 1348,
      "struct": 1349,
      "Ġresult": 1350,
      "Ġagent": 1351,
      "Ġtransl": 1352,
      "ĠRe": 1353,
      "Ġcorpus": 1354,
      "token": 1355,
      "ective": 1356,
      "Ġlikely": 1357,
      "Ġmethods": 1358,
      "Ġinclude": 1359,
      "versarial": 1360,
      "esearch": 1361,
      "Ġevaluation": 1362,
      "Ġproduce": 1363,
      "Ġyou": 1364,
      "Ġplan": 1365,
      "Ġassign": 1366,
      "Ġcomputational": 1367,
      "ology": 1368,
      "Ġdifficult": 1369,
      "Ġargues": 1370,
      "Ġunderstand": 1371,
      "uracy": 1372,
      "Ġdeveloped": 1373,
      "context": 1374,
      "Ġinstance": 1375,
      "Ġfilter": 1376,
      "Ġnetworks": 1377,
      "Ġsignificant": 1378,
      "Ġpossible": 1379,
      "Ġpublic": 1380,
      "Ġcharacters": 1381,
      "Ġaccuracy": 1382,
      "Ġvarious": 1383,
      "Ġrisk": 1384,
      "Ġauthors": 1385,
      "Seek": 1386,
      "Ġtendency": 1387,
      "Ġavailable": 1388,
      "Ġmathem": 1389,
      "Ġinjection": 1390,
      "Ġreduce": 1391,
      "Ġcognitive": 1392,
      "tereot": 1393,
      "Ġquery": 1394,
      "ĠDeepSeek": 1395,
      "Ġsoftware": 1396,
      "Ġdifferent": 1397,
      "Ġachieved": 1398,
      "ynamic": 1399,
      "Ġvect": 1400,
      "Ġrange": 1401,
      "Ġintroduced": 1402,
      "Ġlanguages": 1403,
      "Ġprotein": 1404,
      "Ġexhibit": 1405,
      "Ġwhether": 1406,
      "cophancy": 1407,
      "71": 1408,
      ":\"": 1409,
      "HF": 1410,
      "LO": 1411,
      "LHF": 1412,
      "PI": 1413,
      "ae": 1414,
      "av": 1415,
      "aper": 1416,
      "billion": 1417,
      "cul": 1418,
      "den": 1419,
      "denti": 1420,
      "eval": 1421,
      "fs": 1422,
      "ffer": 1423,
      "ging": 1424,
      "gan": 1425,
      "gment": 1426,
      "ier": 1427,
      "imp": 1428,
      "ixt": 1429,
      "ible": 1430,
      "ject": 1431,
      "kill": 1432,
      "lf": 1433,
      "li": 1434,
      "less": 1435,
      "large": 1436,
      "ode": 1437,
      "ould": 1438,
      "ploy": 1439,
      "ral": 1440,
      "su": 1441,
      "udi": 1442,
      "vol": 1443,
      "vir": 1444,
      "ying": 1445,
      "Ġ$": 1446,
      "Ġ,": 1447,
      "Ġ5": 1448,
      "Ġ8": 1449,
      "Ġ{": 1450,
      "ĠÎ": 1451,
      "Ġgu": 1452,
      "Ġver": 1453,
      "Ġest": 1454,
      "Ġtest": 1455,
      "inal": 1456,
      "infor": 1457,
      "Ġable": 1458,
      "Ġaround": 1459,
      "Ġaverage": 1460,
      "ĠĠĠĠĠ": 1461,
      "ern": 1462,
      "erplexity": 1463,
      "one": 1464,
      "ender": 1465,
      "enomen": 1466,
      "ata": 1467,
      "Ġthere": 1468,
      "ress": 1469,
      "Ġsol": 1470,
      "Ġsenti": 1471,
      "Ġsimp": 1472,
      "Ġskill": 1473,
      "Ġcal": 1474,
      "Ġcult": 1475,
      "ale": 1476,
      "aly": 1477,
      "alif": 1478,
      "Ġmed": 1479,
      "Ġmar": 1480,
      "Ġmight": 1481,
      "Ġmake": 1482,
      "Ġmuch": 1483,
      "Ġpair": 1484,
      "Ġpatter": 1485,
      "Ġpaper": 1486,
      "ances": 1487,
      "til": 1488,
      "ests": 1489,
      "ord": 1490,
      "ort": 1491,
      "ority": 1492,
      "Ġinde": 1493,
      "Ġinher": 1494,
      "Ġtoward": 1495,
      "Ġanaly": 1496,
      "Ġfre": 1497,
      "Ġfus": 1498,
      "Ġfurther": 1499,
      "Ġfav": 1500,
      "lements": 1501,
      "Ġball": 1502,
      "ĠĠĠĠĠĠĠĠĠĠĠĠĠĠĊ": 1503,
      "Ġwill": 1504,
      "Ġevi": 1505,
      "Ġeffici": 1506,
      "Ġline": 1507,
      "Ġlingu": 1508,
      "chec": 1509,
      "Ġrec": 1510,
      "raph": 1511,
      "ute": 1512,
      "Ġdynamic": 1513,
      "Ġhar": 1514,
      "Ġhand": 1515,
      "Ġhallucinations": 1516,
      "etri": 1517,
      "ceed": 1518,
      "vey": 1519,
      "Ġproven": 1520,
      "Ġproposed": 1521,
      "Ġprompts": 1522,
      "Ġproperties": 1523,
      "Ġasso": 1524,
      "Ġcol": 1525,
      "ulary": 1526,
      "Ġusually": 1527,
      "loc": 1528,
      "ĠAn": 1529,
      "ĠAs": 1530,
      "ĠAPI": 1531,
      "ablish": 1532,
      "abulary": 1533,
      "the": 1534,
      "Ġsug": 1535,
      "Ġorder": 1536,
      "imit": 1537,
      "Ġdeep": 1538,
      "Ġdeploy": 1539,
      "Ġwithin": 1540,
      "Ġwithout": 1541,
      "old": 1542,
      "Ġpreced": 1543,
      "Ġprecis": 1544,
      "Ġteach": 1545,
      "ĠĠĠĠĠĠĠĠĠĠĠĠĠĠĠĠĊ": 1546,
      "ĠĠĠĠĠĠĠĠĠĠĠĠĠĠĠĠĠĠĠĠĠĠĊ": 1547,
      "ĠĠĠĠĠĠĠĠĠĠĠĠĠĠĠĠĠĠĠĠĠĠĠĠĊ": 1548,
      "ĠĠĠĠĠĠĠĠĠĠĠĠĠĠĠĠĠĠĠĠĠ": 1549,
      "Ġalign": 1550,
      "ĠSe": 1551,
      "Ġstate": 1552,
      "ĠCon": 1553,
      "Ġsepar": 1554,
      "Ġcompar": 1555,
      "Ġgenerally": 1556,
      "Ġgenerating": 1557,
      "izer": 1558,
      "Ġenab": 1559,
      "Ġenvir": 1560,
      "Ġcontinu": 1561,
      "Ġqualif": 1562,
      "Ġtokenizer": 1563,
      "cid": 1564,
      "cially": 1565,
      "Ġuntil": 1566,
      "Ġworld": 1567,
      "ĠMe": 1568,
      "istant": 1569,
      "coder": 1570,
      "ventions": 1571,
      "ĠBut": 1572,
      "Ġpartic": 1573,
      "Ġaccess": 1574,
      "Ġacquire": 1575,
      "Ġinputs": 1576,
      "acing": 1577,
      "Ġvis": 1578,
      "Ġvers": 1579,
      "Ġvoc": 1580,
      "Ġinterpret": 1581,
      "Ġinterventions": 1582,
      "ification": 1583,
      "Ġwell": 1584,
      "Ġweights": 1585,
      "ewor": 1586,
      "ored": 1587,
      "Ġagents": 1588,
      "Ġbiases": 1589,
      "Ġabout": 1590,
      "grams": 1591,
      "Ġ11": 1592,
      "Ġoutputs": 1593,
      "Ġsteps": 1594,
      "Ġprocessing": 1595,
      "Ġcombin": 1596,
      "Ġhigher": 1597,
      "Ġcosts": 1598,
      "Ġconsum": 1599,
      "Ġsequences": 1600,
      "Ġcompletion": 1601,
      "ĠIt": 1602,
      "ather": 1603,
      "Ġscrap": 1604,
      "Ġscaling": 1605,
      "Ġencoding": 1606,
      "LLMs": 1607,
      "Ġsimilarly": 1608,
      "Ġcreate": 1609,
      "Ġmany": 1610,
      "Ġarchitectures": 1611,
      "Ġmeasure": 1612,
      "Ġdevelopment": 1613,
      "parameter": 1614,
      "Ġjud": 1615,
      "Ġtraffic": 1616,
      "Ġobtain": 1617,
      "Ġmemorization": 1618,
      "Ġfinal": 1619,
      "Ġembeddings": 1620,
      "...": 1621,
      "Ġphenomen": 1622,
      "Ġfeed": 1623,
      "Ġbetter": 1624,
      "Ġdocuments": 1625,
      "Ġprogramming": 1626,
      "Ġexperts": 1627,
      "Ġemergent": 1628,
      "Ġbehavior": 1629,
      "Ġbehaviors": 1630,
      "Ġtechnique": 1631,
      "Ġtechniques": 1632,
      "medi": 1633,
      "nthetic": 1634,
      "Ġlarger": 1635,
      "Ġformat": 1636,
      "Ġclean": 1637,
      "Ġframewor": 1638,
      "thought": 1639,
      "Ġalgorithms": 1640,
      "Ġchange": 1641,
      "Ġincorrect": 1642,
      "Ġclassification": 1643,
      "Ġclaims": 1644,
      "Ġconsciousness": 1645,
      "Ġdemonstrated": 1646,
      "Ġcontrols": 1647,
      "Ġepisode": 1648,
      "hood": 1649,
      "Ġactions": 1650,
      "Ġethical": 1651,
      "Ġremain": 1652,
      "Ġapplied": 1653,
      "Ġapplications": 1654,
      "Ġfiltering": 1655,
      "tereotyp": 1656,
      "Ġguess": 1657,
      "Ġestablish": 1658,
      "inforce": 1659,
      "Ġfavor": 1660,
      "Ġassoci": 1661,
      "Ġdeployment": 1662,
      "Ġenviron": 1663,
      "Ġvocabulary": 1664,
      "Ġphenomenon": 1665,
      "%.": 1666,
      "BR": 1667,
      "Be": 1668,
      "Fold": 1669,
      "LP": 1670,
      "List": 1671,
      "MA": 1672,
      "Ps": 1673,
      "Research": 1674,
      "SM": 1675,
      "ah": 1676,
      "au": 1677,
      "ave": 1678,
      "ading": 1679,
      "action": 1680,
      "aug": 1681,
      "bers": 1682,
      "bot": 1683,
      "back": 1684,
      "cti": 1685,
      "ccess": 1686,
      "come": 1687,
      "ctive": 1688,
      "des": 1689,
      "data": 1690,
      "ex": 1691,
      "ely": 1692,
      "eved": 1693,
      "fit": 1694,
      "frac": 1695,
      "go": 1696,
      "gr": 1697,
      "gy": 1698,
      "gener": 1699,
      "gative": 1700,
      "ide": 1701,
      "ives": 1702,
      "led": 1703,
      "light": 1704,
      "mer": 1705,
      "mic": 1706,
      "mful": 1707,
      "metic": 1708,
      "nt": 1709,
      "ner": 1710,
      "not": 1711,
      "ok": 1712,
      "other": 1713,
      "oice": 1714,
      "ply": 1715,
      "pass": 1716,
      "ppor": 1717,
      "pair": 1718,
      "pite": 1719,
      "pace": 1720,
      "ron": 1721,
      "ring": 1722,
      "right": 1723,
      "rary": 1724,
      "ssive": 1725,
      "tur": 1726,
      "uplic": 1727,
      "vice": 1728,
      "wn": 1729,
      "yon": 1730,
      "}\\": 1731,
      "}{": 1732,
      "Ġ7": 1733,
      "ĠQ": 1734,
      "ĠX": 1735,
      "Ġra": 1736,
      "Ġener": 1737,
      "Ġrap": 1738,
      "Ġkn": 1739,
      "Ġtr": 1740,
      "Ġter": 1741,
      "Ġtre": 1742,
      "Ġtim": 1743,
      "Ġtri": 1744,
      "Ġtarge": 1745,
      "ink": 1746,
      "information": 1747,
      "Ġact": 1748,
      "Ġaudi": 1749,
      "erap": 1750,
      "only": 1751,
      "onom": 1752,
      "eng": 1753,
      "ensive": 1754,
      "ature": 1755,
      "atical": 1756,
      "ataset": 1757,
      "atically": 1758,
      "Ġtherap": 1759,
      "Ġsti": 1760,
      "Ġsit": 1761,
      "Ġske": 1762,
      "Ġsmo": 1763,
      "Ġstereotyp": 1764,
      "Ġold": 1765,
      "Ġcir": 1766,
      "alf": 1767,
      "als": 1768,
      "Ġmiti": 1769,
      "Ġmap": 1770,
      "Ġmerg": 1771,
      "Ġmust": 1772,
      "Ġpass": 1773,
      "Ġprim": 1774,
      "Ġprac": 1775,
      "ang": 1776,
      "ans": 1777,
      "any": 1778,
      "ording": 1779,
      "Ġinf": 1780,
      "Ġinvol": 1781,
      "Ġtoge": 1782,
      "ise": 1783,
      "ised": 1784,
      "art": 1785,
      "row": 1786,
      "deo": 1787,
      "dex": 1788,
      "Ġfun": 1789,
      "Ġflo": 1790,
      "Ġflu": 1791,
      "Ġoften": 1792,
      "Ġbo": 1793,
      "Ġbas": 1794,
      "Ġbillion": 1795,
      "Ġboth": 1796,
      "Ġbloc": 1797,
      "ĠĠĠĠĠĠĠĠĠĠĠĠĊ": 1798,
      "Ġwind": 1799,
      "Ġwrit": 1800,
      "Ġwould": 1801,
      "ican": 1802,
      "asing": 1803,
      "Ġequ": 1804,
      "Ġelect": 1805,
      "Ġelements": 1806,
      "Ġmoder": 1807,
      "Ġled": 1808,
      "Ġlos": 1809,
      "Ġlimit": 1810,
      "choice": 1811,
      "Ġreg": 1812,
      "Ġrece": 1813,
      "Ġrepl": 1814,
      "Ġreach": 1815,
      "Ġremo": 1816,
      "Ġrevers": 1817,
      "Ġreward": 1818,
      "Ġreinforce": 1819,
      "uture": 1820,
      "Ġdial": 1821,
      "Ġduring": 1822,
      "Ġduplic": 1823,
      "Ġhalf": 1824,
      "Ġprob": 1825,
      "Ġprovi": 1826,
      "Ġaspect": 1827,
      "ctu": 1828,
      "Ġcoding": 1829,
      "Ġconf": 1830,
      "Ġconvers": 1831,
      "Ġusage": 1832,
      "Ġgo": 1833,
      "Ġgender": 1834,
      "ithmetic": 1835,
      "ĠAr": 1836,
      "ĠAnth": 1837,
      "ĠAmer": 1838,
      "Ġexam": 1839,
      "Ġexceed": 1840,
      "Ġsuffer": 1841,
      "Ġsuccess": 1842,
      "Ġsuppor": 1843,
      "Ġdecoder": 1844,
      "Ġwhat": 1845,
      "seq": 1846,
      "sequent": 1847,
      "self": 1848,
      "ays": 1849,
      "Ġpreference": 1850,
      "Ġbypass": 1851,
      "Ġalong": 1852,
      "enerative": 1853,
      "forms": 1854,
      "irical": 1855,
      "ĠSun": 1856,
      "ĠSpe": 1857,
      "Ġstream": 1858,
      "Ġstored": 1859,
      "veral": 1860,
      "view": 1861,
      "Ġselect": 1862,
      "Ġseveral": 1863,
      "Ġcompress": 1864,
      "Ġgenerated": 1865,
      "Ġgenerates": 1866,
      "izing": 1867,
      "Ġide": 1868,
      "Ġidenti": 1869,
      "allen": 1870,
      "Ġneed": 1871,
      "Ġnegative": 1872,
      "Ġarithmetic": 1873,
      "Ġunf": 1874,
      "Ġsycophancy": 1875,
      "Ġsynthetic": 1876,
      "Ġsynt": 1877,
      "ĠThey": 1878,
      "ĠMeta": 1879,
      "ĠMixt": 1880,
      "ĠNe": 1881,
      "ĠPar": 1882,
      "ĠPerplexity": 1883,
      "Ġlead": 1884,
      "Ġchallen": 1885,
      "cessing": 1886,
      "Ġpart": 1887,
      "ĠDataset": 1888,
      "ĠEvalu": 1889,
      "ĠESM": 1890,
      "Ġacross": 1891,
      "pread": 1892,
      "press": 1893,
      "Ġexamples": 1894,
      "ĠFLO": 1895,
      "entially": 1896,
      "Ġsystematic": 1897,
      "Ġsystematically": 1898,
      "Ġintern": 1899,
      "Ġinteract": 1900,
      "Ġintermedi": 1901,
      "Ġinteraction": 1902,
      "ously": 1903,
      "pha": 1904,
      "phistic": 1905,
      "Ġsour": 1906,
      "Ġsophistic": 1907,
      "istics": 1908,
      "Ġresults": 1909,
      "oregre": 1910,
      "ĠRNA": 1911,
      "ĠRetri": 1912,
      "Ġadap": 1913,
      "Ġadversarial": 1914,
      "ocus": 1915,
      "ypically": 1916,
      "Ġshif": 1917,
      "Ġcorre": 1918,
      "Ġimpact": 1919,
      "ield": 1920,
      "Ġrole": 1921,
      "Ġroles": 1922,
      "Ġrobo": 1923,
      "Ġimages": 1924,
      "Ġtask": 1925,
      "Ġintegr": 1926,
      "Ġrather": 1927,
      "Ġupon": 1928,
      "Ġautonom": 1929,
      "Ġsafe": 1930,
      "arily": 1931,
      "Ġprocesses": 1932,
      "Ġfactually": 1933,
      "Ġfactual": 1934,
      "Ġevaluations": 1935,
      "Ġdesign": 1936,
      "Ġproduces": 1937,
      "Ġproducing": 1938,
      "Ġnature": 1939,
      "Ġnumbers": 1940,
      "Ġtransformers": 1941,
      "ailbre": 1942,
      "ween": 1943,
      "Ġcapable": 1944,
      "Ġassess": 1945,
      "Ġcontexts": 1946,
      "Ġ2014": 1947,
      "Ġimproved": 1948,
      "ological": 1949,
      "atics": 1950,
      "Ġtools": 1951,
      "Ġfollowing": 1952,
      "Ġargue": 1953,
      "ditional": 1954,
      "modality": 1955,
      "}}}": 1956,
      "Ġmanif": 1957,
      "chanistic": 1958,
      "Ġmeasures": 1959,
      "akes": 1960,
      "trained": 1961,
      "trib": 1962,
      "Ġtraditional": 1963,
      "Ġmisuse": 1964,
      "Ġmisinformation": 1965,
      "Ġmemory": 1966,
      "Ġextend": 1967,
      "Ġrepresentations": 1968,
      "Ġsubsequent": 1969,
      "Ġopin": 1970,
      "Ġoptions": 1971,
      "Ġbetween": 1972,
      "Ġmodalities": 1973,
      "Ġdocument": 1974,
      "Ġnetwork": 1975,
      "Ġappearing": 1976,
      "ĠWhen": 1977,
      "Ġdescrip": 1978,
      "ĠUn": 1979,
      "Ġturned": 1980,
      "Ġpoin": 1981,
      "Ġlargest": 1982,
      "Ġlaws": 1983,
      "Ġreleased": 1984,
      "Ġnovel": 1985,
      "ĠOne": 1986,
      "Ġshowed": 1987,
      "Ġconsidered": 1988,
      "Ġocc": 1989,
      "Ġoccur": 1990,
      "Ġpotential": 1991,
      "Ġpotentially": 1992,
      "ropic": 1993,
      "Ġrefers": 1994,
      "Ġreflect": 1995,
      "Ġbeliefs": 1996,
      "Ġallows": 1997,
      "source": 1998,
      "Ġincreasing": 1999,
      "Ġapproach": 2000,
      "Ġadditional": 2001,
      "crete": 2002,
      "ixed": 2003,
      "priate": 2004,
      "sych": 2005,
      "ĠâĪ": 2006,
      "Ġmassive": 2007,
      "Ġprior": 2008,
      "Ġinitial": 2009,
      "Ġbreak": 2010,
      "Ġeffect": 2011,
      "Ġdenot": 2012,
      "Ġexisting": 2013,
      "Ġdetect": 2014,
      "Ġpretraining": 2015,
      "Ġstructure": 2016,
      "Ġtranslation": 2017,
      "Ġmathematical": 2018,
      "Ġvector": 2019,
      "Ġproteins": 2020,
      "lihood": 2021,
      "Ġverb": 2022,
      "ernal": 2023,
      "Ġsentience": 2024,
      "Ġskills": 2025,
      "Ġcalcul": 2026,
      "Ġmedia": 2027,
      "Ġpatterns": 2028,
      "Ġtowards": 2029,
      "Ġevid": 2030,
      "Ġlinear": 2031,
      "raphics": 2032,
      "Ġharmful": 2033,
      "Ġcollection": 2034,
      "Ġpreceding": 2035,
      "Ġalignment": 2036,
      "Ġcomparable": 2037,
      "Ġparticular": 2038,
      "Ġacquired": 2039,
      "Ġversion": 2040,
      "Ġinterpretability": 2041,
      "Ġcombined": 2042,
      "Ġfeedback": 2043,
      "Ġenvironment": 2044,
      "Researchers": 2045,
      "augmented": 2046,
      "going": 2047
    },
    "merges": [
      [
        "Ġ",
        "Ġ"
      ],
      [
        "Ġ",
        "t"
      ],
      [
        "i",
        "n"
      ],
      [
        "Ġ",
        "a"
      ],
      [
        "ĠĠ",
        "ĠĠ"
      ],
      [
        "e",
        "r"
      ],
      [
        "o",
        "n"
      ],
      [
        "e",
        "n"
      ],
      [
        "a",
        "t"
      ],
      [
        "Ġt",
        "h"
      ],
      [
        "r",
        "e"
      ],
      [
        "Ġ",
        "s"
      ],
      [
        "Ġ",
        "o"
      ],
      [
        "Ġ",
        "c"
      ],
      [
        "in",
        "g"
      ],
      [
        "a",
        "l"
      ],
      [
        "e",
        "d"
      ],
      [
        "Ġ",
        "m"
      ],
      [
        "Ġ",
        "p"
      ],
      [
        "a",
        "n"
      ],
      [
        "Ġth",
        "e"
      ],
      [
        "t",
        "i"
      ],
      [
        "e",
        "s"
      ],
      [
        "o",
        "r"
      ],
      [
        "Ġ",
        "in"
      ],
      [
        "Ġt",
        "o"
      ],
      [
        "i",
        "s"
      ],
      [
        "Ġa",
        "n"
      ],
      [
        "a",
        "r"
      ],
      [
        "r",
        "o"
      ],
      [
        "d",
        "e"
      ],
      [
        "i",
        "t"
      ],
      [
        "Ġ",
        "f"
      ],
      [
        "Ġo",
        "f"
      ],
      [
        "l",
        "e"
      ],
      [
        "Ġ",
        "b"
      ],
      [
        "=",
        "="
      ],
      [
        "ĠĠĠĠ",
        "ĠĠĠĠ"
      ],
      [
        "Ġ",
        "w"
      ],
      [
        "i",
        "c"
      ],
      [
        "a",
        "s"
      ],
      [
        "Ġan",
        "d"
      ],
      [
        "Ġ",
        "e"
      ],
      [
        "i",
        "on"
      ],
      [
        "Ġm",
        "o"
      ],
      [
        "Ġ",
        "l"
      ],
      [
        "c",
        "h"
      ],
      [
        "Ġ",
        "re"
      ],
      [
        "en",
        "t"
      ],
      [
        "l",
        "y"
      ],
      [
        "s",
        "t"
      ],
      [
        "r",
        "a"
      ],
      [
        "u",
        "t"
      ],
      [
        "Ġ",
        "L"
      ],
      [
        "Ġ",
        "d"
      ],
      [
        "de",
        "l"
      ],
      [
        "m",
        "p"
      ],
      [
        "Ġmo",
        "del"
      ],
      [
        "g",
        "e"
      ],
      [
        "at",
        "ion"
      ],
      [
        "u",
        "s"
      ],
      [
        "Ġ",
        "h"
      ],
      [
        "L",
        "M"
      ],
      [
        "e",
        "t"
      ],
      [
        "c",
        "e"
      ],
      [
        "ĠĠ",
        "Ċ"
      ],
      [
        "v",
        "e"
      ],
      [
        "ti",
        "on"
      ],
      [
        "ĠL",
        "LM"
      ],
      [
        "Ġp",
        "ro"
      ],
      [
        "u",
        "n"
      ],
      [
        "Ġ",
        "n"
      ],
      [
        "Ġa",
        "s"
      ],
      [
        "c",
        "t"
      ],
      [
        "Ġc",
        "o"
      ],
      [
        "Ġc",
        "on"
      ],
      [
        "ĠĠ",
        "Ġ"
      ],
      [
        "i",
        "l"
      ],
      [
        "Ġ",
        "is"
      ],
      [
        "Ġth",
        "at"
      ],
      [
        "q",
        "u"
      ],
      [
        "er",
        "s"
      ],
      [
        "u",
        "l"
      ],
      [
        "t",
        "e"
      ],
      [
        "Ġb",
        "e"
      ],
      [
        "u",
        "r"
      ],
      [
        "a",
        "ge"
      ],
      [
        "g",
        "u"
      ],
      [
        "Ġ",
        "on"
      ],
      [
        "Ġ",
        "us"
      ],
      [
        "i",
        "g"
      ],
      [
        "x",
        "t"
      ],
      [
        "Ġ",
        "g"
      ],
      [
        "ra",
        "in"
      ],
      [
        "Ġ",
        "\""
      ],
      [
        "it",
        "h"
      ],
      [
        "l",
        "o"
      ],
      [
        "Ġ",
        "A"
      ],
      [
        "Ġf",
        "or"
      ],
      [
        "T",
        "h"
      ],
      [
        "a",
        "b"
      ],
      [
        "Ġ",
        "("
      ],
      [
        "Ġ",
        "2"
      ],
      [
        "Ġe",
        "x"
      ],
      [
        "Ġmodel",
        "s"
      ],
      [
        "t",
        "er"
      ],
      [
        "t",
        "h"
      ],
      [
        "Ġs",
        "u"
      ],
      [
        "Ġo",
        "r"
      ],
      [
        "i",
        "m"
      ],
      [
        "Ġt",
        "rain"
      ],
      [
        "==",
        "="
      ],
      [
        "an",
        "gu"
      ],
      [
        "Ġ",
        "de"
      ],
      [
        "at",
        "e"
      ],
      [
        "Ġ",
        "Th"
      ],
      [
        "ĠĠĠĠ",
        "ĠĠĠ"
      ],
      [
        "Ġw",
        "h"
      ],
      [
        "Ġ2",
        "0"
      ],
      [
        "f",
        "or"
      ],
      [
        "p",
        "e"
      ],
      [
        "angu",
        "age"
      ],
      [
        "ĠĠĠĠ",
        "Ċ"
      ],
      [
        "it",
        "y"
      ],
      [
        "Ġw",
        "ith"
      ],
      [
        "i",
        "f"
      ],
      [
        "s",
        "e"
      ],
      [
        "m",
        "ent"
      ],
      [
        "o",
        "l"
      ],
      [
        "ĠĠĠĠ",
        "ĠĠĊ"
      ],
      [
        "a",
        "y"
      ],
      [
        "al",
        "ly"
      ],
      [
        "Ġp",
        "re"
      ],
      [
        "ti",
        "c"
      ],
      [
        "ĠLLM",
        "s"
      ],
      [
        "Ġt",
        "e"
      ],
      [
        "Ġa",
        "re"
      ],
      [
        "es",
        "s"
      ],
      [
        "ĠĠĠĠĠĠĠĠ",
        "ĠĠĠĠĠĠĠĠ"
      ],
      [
        "Ġd",
        "at"
      ],
      [
        "Ġb",
        "y"
      ],
      [
        "Ġa",
        "l"
      ],
      [
        "en",
        "er"
      ],
      [
        "for",
        "m"
      ],
      [
        "i",
        "r"
      ],
      [
        "p",
        "l"
      ],
      [
        "Ġ",
        "S"
      ],
      [
        "d",
        "ing"
      ],
      [
        "e",
        "m"
      ],
      [
        "t",
        "s"
      ],
      [
        "en",
        "ce"
      ],
      [
        "Ġs",
        "t"
      ],
      [
        "I",
        "n"
      ],
      [
        "a",
        "m"
      ],
      [
        "o",
        "m"
      ],
      [
        "o",
        "w"
      ],
      [
        "r",
        "i"
      ],
      [
        "u",
        "re"
      ],
      [
        "Ġ",
        "it"
      ],
      [
        "in",
        "e"
      ],
      [
        "Ġc",
        "an"
      ],
      [
        "Ġl",
        "anguage"
      ],
      [
        "k",
        "s"
      ],
      [
        "d",
        "er"
      ],
      [
        "k",
        "en"
      ],
      [
        "c",
        "tion"
      ],
      [
        "v",
        "er"
      ],
      [
        "Ġ20",
        "2"
      ],
      [
        "o",
        "t"
      ],
      [
        "p",
        "ut"
      ],
      [
        "u",
        "m"
      ],
      [
        "v",
        "i"
      ],
      [
        "Ġ",
        "C"
      ],
      [
        "Ġ",
        "G"
      ],
      [
        "Ġs",
        "e"
      ],
      [
        "Ġco",
        "mp"
      ],
      [
        "Ġg",
        "ener"
      ],
      [
        "P",
        "T"
      ],
      [
        "u",
        "g"
      ],
      [
        "Ġp",
        "er"
      ],
      [
        "i",
        "ti"
      ],
      [
        "Ġtrain",
        "ing"
      ],
      [
        "i",
        "z"
      ],
      [
        "Ġ",
        "i"
      ],
      [
        "Ġ",
        "en"
      ],
      [
        "al",
        "l"
      ],
      [
        "Ġn",
        "e"
      ],
      [
        "Ġa",
        "r"
      ],
      [
        "Ġcon",
        "t"
      ],
      [
        "ig",
        "h"
      ],
      [
        "Ġ",
        "qu"
      ],
      [
        "Ġto",
        "ken"
      ],
      [
        "Ġh",
        "a"
      ],
      [
        "a",
        "in"
      ],
      [
        "c",
        "i"
      ],
      [
        "k",
        "e"
      ],
      [
        "Ġ",
        "un"
      ],
      [
        "ug",
        "h"
      ],
      [
        "p",
        "er"
      ],
      [
        "Ġs",
        "y"
      ],
      [
        "ar",
        "ge"
      ],
      [
        "Ġf",
        "ro"
      ],
      [
        "ĠTh",
        "e"
      ],
      [
        "Ġte",
        "xt"
      ],
      [
        "o",
        "d"
      ],
      [
        "mp",
        "t"
      ],
      [
        "Ġsu",
        "ch"
      ],
      [
        "Ġfro",
        "m"
      ],
      [
        "r",
        "u"
      ],
      [
        "s",
        "o"
      ],
      [
        "{",
        "\\"
      ],
      [
        "Ġ",
        "==="
      ],
      [
        "Ġ",
        "In"
      ],
      [
        "Ġw",
        "or"
      ],
      [
        "Ġdat",
        "a"
      ],
      [
        "d",
        "u"
      ],
      [
        "r",
        "an"
      ],
      [
        "s",
        "i"
      ],
      [
        "Ġ",
        "M"
      ],
      [
        "Ġo",
        "ut"
      ],
      [
        "ation",
        "s"
      ],
      [
        "b",
        "le"
      ],
      [
        "Ġ",
        "N"
      ],
      [
        "Ġ",
        "P"
      ],
      [
        "Ġ",
        "le"
      ],
      [
        "er",
        "e"
      ],
      [
        "is",
        "t"
      ],
      [
        "ĠG",
        "PT"
      ],
      [
        "a",
        "ct"
      ],
      [
        "c",
        "o"
      ],
      [
        "f",
        "ic"
      ],
      [
        "l",
        "l"
      ],
      [
        "p",
        "en"
      ],
      [
        "Ġc",
        "h"
      ],
      [
        "Ġha",
        "ve"
      ],
      [
        "a",
        "ch"
      ],
      [
        "a",
        "mp"
      ],
      [
        "c",
        "ess"
      ],
      [
        "f",
        "er"
      ],
      [
        "v",
        "en"
      ],
      [
        "Ġ",
        "B"
      ],
      [
        "Ġ",
        "=="
      ],
      [
        "Ġp",
        "ar"
      ],
      [
        "an",
        "ce"
      ],
      [
        "Ġpro",
        "mpt"
      ],
      [
        "a",
        "p"
      ],
      [
        "Ġ",
        "D"
      ],
      [
        "Ġ",
        "E"
      ],
      [
        "Ġa",
        "c"
      ],
      [
        "Ġin",
        "c"
      ],
      [
        "g",
        "es"
      ],
      [
        "p",
        "re"
      ],
      [
        "v",
        "al"
      ],
      [
        "Ġ",
        "O"
      ],
      [
        "Ġa",
        "p"
      ],
      [
        "at",
        "ed"
      ],
      [
        "as",
        "ed"
      ],
      [
        "st",
        "em"
      ],
      [
        "ra",
        "m"
      ],
      [
        "Ġex",
        "amp"
      ],
      [
        "d",
        "i"
      ],
      [
        "Ġ",
        "{\\"
      ],
      [
        "Ġb",
        "i"
      ],
      [
        "tion",
        "s"
      ],
      [
        "un",
        "d"
      ],
      [
        "ul",
        "ti"
      ],
      [
        "ab",
        "le"
      ],
      [
        "pl",
        "ay"
      ],
      [
        "d",
        "is"
      ],
      [
        "p",
        "le"
      ],
      [
        "Ġ",
        "F"
      ],
      [
        "en",
        "ti"
      ],
      [
        "Ġin",
        "put"
      ],
      [
        "Ġl",
        "arge"
      ],
      [
        "il",
        "l"
      ],
      [
        "ur",
        "al"
      ],
      [
        "om",
        "e"
      ],
      [
        "Ġsy",
        "stem"
      ],
      [
        "a",
        "c"
      ],
      [
        "d",
        "ic"
      ],
      [
        "y",
        "le"
      ],
      [
        "Ġ",
        "v"
      ],
      [
        "Ġin",
        "ter"
      ],
      [
        "st",
        "yle"
      ],
      [
        "th",
        "er"
      ],
      [
        "Ġtrain",
        "ed"
      ],
      [
        "if",
        "ic"
      ],
      [
        "am",
        "et"
      ],
      [
        "Ġexamp",
        "le"
      ],
      [
        "play",
        "style"
      ],
      [
        "dis",
        "playstyle"
      ],
      [
        "c",
        "y"
      ],
      [
        "i",
        "ke"
      ],
      [
        "m",
        "ar"
      ],
      [
        "o",
        "g"
      ],
      [
        "o",
        "s"
      ],
      [
        "o",
        "us"
      ],
      [
        "p",
        "h"
      ],
      [
        "t",
        "ed"
      ],
      [
        "Ġs",
        "pe"
      ],
      [
        "Ġw",
        "e"
      ],
      [
        "ic",
        "al"
      ],
      [
        "st",
        "ru"
      ],
      [
        "'",
        "s"
      ],
      [
        "A",
        "I"
      ],
      [
        "i",
        "al"
      ],
      [
        "t",
        "un"
      ],
      [
        "u",
        "p"
      ],
      [
        "Ġt",
        "ran"
      ],
      [
        "Ġa",
        "t"
      ],
      [
        "Ġs",
        "o"
      ],
      [
        "Ġm",
        "e"
      ],
      [
        "Ġm",
        "ulti"
      ],
      [
        "is",
        "tic"
      ],
      [
        "ar",
        "ch"
      ],
      [
        "ic",
        "h"
      ],
      [
        "as",
        "et"
      ],
      [
        "Ġre",
        "s"
      ],
      [
        "et",
        "h"
      ],
      [
        "te",
        "xt"
      ],
      [
        "Ġus",
        "ed"
      ],
      [
        "um",
        "an"
      ],
      [
        "Ġper",
        "form"
      ],
      [
        "e",
        "w"
      ],
      [
        "e",
        "ct"
      ],
      [
        "l",
        "u"
      ],
      [
        "m",
        "s"
      ],
      [
        "o",
        "re"
      ],
      [
        "o",
        "ugh"
      ],
      [
        "t",
        "en"
      ],
      [
        "Ġa",
        "g"
      ],
      [
        "or",
        "s"
      ],
      [
        "ĠĠĠĠĠĠĠĠ",
        "Ċ"
      ],
      [
        "ĠĠĠĠĠĠĠĠ",
        "ĠĠĊ"
      ],
      [
        "Ġpre",
        "dic"
      ],
      [
        "Ġit",
        "s"
      ],
      [
        "Ġtran",
        "s"
      ],
      [
        "â",
        "Ģ"
      ],
      [
        "Ġ",
        "R"
      ],
      [
        "Ġa",
        "d"
      ],
      [
        "is",
        "h"
      ],
      [
        "Ġw",
        "as"
      ],
      [
        "Ġe",
        "m"
      ],
      [
        "Ġh",
        "uman"
      ],
      [
        "ig",
        "n"
      ],
      [
        "lo",
        "w"
      ],
      [
        "ĠA",
        "I"
      ],
      [
        "Ġwh",
        "ich"
      ],
      [
        "iti",
        "es"
      ],
      [
        "Ġbi",
        "as"
      ],
      [
        "a",
        "d"
      ],
      [
        "c",
        "es"
      ],
      [
        "o",
        "c"
      ],
      [
        "y",
        "p"
      ],
      [
        "Ġa",
        "b"
      ],
      [
        "Ġs",
        "h"
      ],
      [
        "Ġs",
        "te"
      ],
      [
        "Ġs",
        "ome"
      ],
      [
        "Ġc",
        "or"
      ],
      [
        "an",
        "d"
      ],
      [
        "ar",
        "ly"
      ],
      [
        "Ġf",
        "ine"
      ],
      [
        "Ġh",
        "as"
      ],
      [
        "Ġdat",
        "aset"
      ],
      [
        "Ġi",
        "mp"
      ],
      [
        "Ġwor",
        "d"
      ],
      [
        "\"",
        "."
      ],
      [
        "g",
        "ram"
      ],
      [
        "i",
        "e"
      ],
      [
        "i",
        "re"
      ],
      [
        "k",
        "ing"
      ],
      [
        "l",
        "ish"
      ],
      [
        "t",
        "o"
      ],
      [
        "Ġ",
        "1"
      ],
      [
        "Ġ",
        "ro"
      ],
      [
        "Ġ",
        "im"
      ],
      [
        "Ġt",
        "as"
      ],
      [
        "ation",
        "al"
      ],
      [
        "Ġn",
        "ot"
      ],
      [
        "il",
        "ity"
      ],
      [
        "Ġus",
        "er"
      ],
      [
        "Ġcont",
        "ent"
      ],
      [
        "igh",
        "t"
      ],
      [
        "Ġout",
        "put"
      ],
      [
        "Ġpar",
        "amet"
      ],
      [
        "val",
        "u"
      ],
      [
        "stru",
        "ction"
      ],
      [
        "Ġste",
        "p"
      ],
      [
        ")",
        ","
      ],
      [
        "e",
        "c"
      ],
      [
        "i",
        "ve"
      ],
      [
        "n",
        "ing"
      ],
      [
        "p",
        "on"
      ],
      [
        "s",
        "s"
      ],
      [
        "s",
        "w"
      ],
      [
        "at",
        "ing"
      ],
      [
        "Ġm",
        "eth"
      ],
      [
        "Ġin",
        "te"
      ],
      [
        "Ġan",
        "sw"
      ],
      [
        "ar",
        "y"
      ],
      [
        "as",
        "on"
      ],
      [
        "Ġl",
        "ike"
      ],
      [
        "ul",
        "t"
      ],
      [
        "Ġus",
        "e"
      ],
      [
        "ĠTh",
        "is"
      ],
      [
        "Ġle",
        "ar"
      ],
      [
        "ĠO",
        "pen"
      ],
      [
        "Ġmeth",
        "od"
      ],
      [
        "a",
        "f"
      ],
      [
        "m",
        "o"
      ],
      [
        "s",
        "ent"
      ],
      [
        "Ġ",
        "W"
      ],
      [
        "Ġ",
        "r"
      ],
      [
        "Ġ",
        "vi"
      ],
      [
        "Ġth",
        "en"
      ],
      [
        "Ġm",
        "ay"
      ],
      [
        "ic",
        "ally"
      ],
      [
        "lo",
        "g"
      ],
      [
        "Ġal",
        "so"
      ],
      [
        "ure",
        "s"
      ],
      [
        "Ġ202",
        "3"
      ],
      [
        "Ġun",
        "der"
      ],
      [
        "c",
        "ed"
      ],
      [
        "c",
        "ific"
      ],
      [
        "v",
        "ed"
      ],
      [
        "Ġ",
        "up"
      ],
      [
        "Ġa",
        "ut"
      ],
      [
        "er",
        "g"
      ],
      [
        "at",
        "ive"
      ],
      [
        "Ġth",
        "is"
      ],
      [
        "Ġs",
        "af"
      ],
      [
        "Ġo",
        "ver"
      ],
      [
        "an",
        "ti"
      ],
      [
        "Ġthe",
        "ir"
      ],
      [
        "ar",
        "i"
      ],
      [
        "Ġb",
        "ased"
      ],
      [
        "as",
        "s"
      ],
      [
        "Ġre",
        "se"
      ],
      [
        "ve",
        "lo"
      ],
      [
        "Ġpro",
        "cess"
      ],
      [
        "Ġco",
        "m"
      ],
      [
        "qu",
        "ire"
      ],
      [
        "Ġwh",
        "ere"
      ],
      [
        "ment",
        "s"
      ],
      [
        "ĠC",
        "h"
      ],
      [
        "Ġinc",
        "lu"
      ],
      [
        "Ġperform",
        "ance"
      ],
      [
        "Ġtas",
        "ks"
      ],
      [
        "Ġansw",
        "er"
      ],
      [
        "ĠOpen",
        "AI"
      ],
      [
        "Ġrese",
        "arch"
      ],
      [
        "a",
        "ges"
      ],
      [
        "e",
        "p"
      ],
      [
        "i",
        "d"
      ],
      [
        "i",
        "le"
      ],
      [
        "o",
        "und"
      ],
      [
        "v",
        "es"
      ],
      [
        "v",
        "ers"
      ],
      [
        "Ġ",
        "Ċ"
      ],
      [
        "en",
        "ch"
      ],
      [
        "Ġth",
        "ough"
      ],
      [
        "re",
        "ct"
      ],
      [
        "Ġs",
        "im"
      ],
      [
        "Ġc",
        "l"
      ],
      [
        "an",
        "t"
      ],
      [
        "es",
        "e"
      ],
      [
        "Ġin",
        "struction"
      ],
      [
        "ar",
        "d"
      ],
      [
        "ro",
        "ugh"
      ],
      [
        "Ġf",
        "act"
      ],
      [
        "Ġb",
        "ut"
      ],
      [
        "==",
        "=="
      ],
      [
        "ĠĠĠĠĠĠĠĠ",
        "ĠĠĠ"
      ],
      [
        "Ġe",
        "valu"
      ],
      [
        "Ġre",
        "ason"
      ],
      [
        "Ġd",
        "es"
      ],
      [
        "Ġh",
        "igh"
      ],
      [
        "et",
        "y"
      ],
      [
        "Ġpro",
        "du"
      ],
      [
        "Ġpro",
        "ble"
      ],
      [
        "Ġn",
        "at"
      ],
      [
        "Ġn",
        "um"
      ],
      [
        "Ġco",
        "st"
      ],
      [
        "Ġcon",
        "s"
      ],
      [
        "il",
        "ities"
      ],
      [
        "ul",
        "d"
      ],
      [
        "ol",
        "low"
      ],
      [
        "Ġse",
        "qu"
      ],
      [
        "Ġcomp",
        "le"
      ],
      [
        "Ġqu",
        "es"
      ],
      [
        "Ġ==",
        "=="
      ],
      [
        "ĠF",
        "or"
      ],
      [
        "tun",
        "ed"
      ],
      [
        "Ġtrans",
        "form"
      ],
      [
        "âĢ",
        "ĵ"
      ],
      [
        "ench",
        "mar"
      ],
      [
        "a",
        "g"
      ],
      [
        "a",
        "il"
      ],
      [
        "b",
        "er"
      ],
      [
        "b",
        "ed"
      ],
      [
        "g",
        "ine"
      ],
      [
        "i",
        "ven"
      ],
      [
        "n",
        "s"
      ],
      [
        "p",
        "or"
      ],
      [
        "p",
        "ro"
      ],
      [
        "u",
        "c"
      ],
      [
        "u",
        "d"
      ],
      [
        "v",
        "ing"
      ],
      [
        "w",
        "e"
      ],
      [
        "Ġ",
        "="
      ],
      [
        "Ġ",
        "I"
      ],
      [
        "Ġ",
        "y"
      ],
      [
        "at",
        "h"
      ],
      [
        "at",
        "es"
      ],
      [
        "Ġth",
        "rough"
      ],
      [
        "Ġs",
        "c"
      ],
      [
        "Ġo",
        "ther"
      ],
      [
        "Ġc",
        "all"
      ],
      [
        "Ġc",
        "ap"
      ],
      [
        "Ġp",
        "l"
      ],
      [
        "Ġthe",
        "y"
      ],
      [
        "es",
        "t"
      ],
      [
        "Ġmo",
        "re"
      ],
      [
        "Ġh",
        "e"
      ],
      [
        "ce",
        "p"
      ],
      [
        "Ġas",
        "s"
      ],
      [
        "Ġcon",
        "text"
      ],
      [
        "Ġbe",
        "en"
      ],
      [
        "Ġus",
        "ing"
      ],
      [
        "Ġde",
        "velo"
      ],
      [
        "Ġ20",
        "1"
      ],
      [
        "Ġte",
        "ch"
      ],
      [
        "Ġcomp",
        "ut"
      ],
      [
        "Ġgener",
        "ate"
      ],
      [
        "Ġen",
        "co"
      ],
      [
        "ll",
        "ig"
      ],
      [
        "ill",
        "ion"
      ],
      [
        "Ġspe",
        "cific"
      ],
      [
        "Ġmulti",
        "ple"
      ],
      [
        "ten",
        "tion"
      ],
      [
        "Ġimp",
        "ro"
      ],
      [
        "Ġim",
        "age"
      ],
      [
        "Ġlear",
        "ning"
      ],
      [
        "anti",
        "z"
      ],
      [
        "0",
        "0"
      ],
      [
        "L",
        "LM"
      ],
      [
        "a",
        "ir"
      ],
      [
        "c",
        "ri"
      ],
      [
        "f",
        "fic"
      ],
      [
        "f",
        "ore"
      ],
      [
        "i",
        "qu"
      ],
      [
        "o",
        "ut"
      ],
      [
        "o",
        "log"
      ],
      [
        "s",
        "es"
      ],
      [
        "t",
        "ain"
      ],
      [
        "Ġ",
        "H"
      ],
      [
        "Ġ",
        "âĢĵ"
      ],
      [
        "on",
        "g"
      ],
      [
        "en",
        "d"
      ],
      [
        "en",
        "cy"
      ],
      [
        "at",
        "ic"
      ],
      [
        "al",
        "ity"
      ],
      [
        "Ġthe",
        "se"
      ],
      [
        "Ġin",
        "to"
      ],
      [
        "Ġto",
        "ol"
      ],
      [
        "it",
        "s"
      ],
      [
        "it",
        "ect"
      ],
      [
        "Ġf",
        "ollow"
      ],
      [
        "as",
        "e"
      ],
      [
        "Ġe",
        "ach"
      ],
      [
        "ch",
        "itect"
      ],
      [
        "Ġd",
        "if"
      ],
      [
        "Ġh",
        "ow"
      ],
      [
        "Ġbe",
        "h"
      ],
      [
        "Ġg",
        "iven"
      ],
      [
        "ow",
        "n"
      ],
      [
        "Ġ202",
        "2"
      ],
      [
        "iz",
        "e"
      ],
      [
        "iz",
        "ation"
      ],
      [
        "Ġne",
        "ural"
      ],
      [
        "Ġar",
        "gu"
      ],
      [
        "si",
        "ve"
      ],
      [
        "fer",
        "ence"
      ],
      [
        "ĠE",
        "n"
      ],
      [
        "di",
        "tion"
      ],
      [
        "Ġsystem",
        "s"
      ],
      [
        "Ġres",
        "pon"
      ],
      [
        "Ġpredic",
        "t"
      ],
      [
        "Ġparamet",
        "ers"
      ],
      [
        "Ġinte",
        "llig"
      ],
      [
        "Ġunder",
        "st"
      ],
      [
        "Ġsaf",
        "ety"
      ],
      [
        "Ġsim",
        "il"
      ],
      [
        "Ġreason",
        "ing"
      ],
      [
        "gine",
        "er"
      ],
      [
        "Ġtech",
        "n"
      ],
      [
        "antiz",
        "ation"
      ],
      [
        "G",
        "PT"
      ],
      [
        "a",
        "re"
      ],
      [
        "c",
        "er"
      ],
      [
        "c",
        "ur"
      ],
      [
        "f",
        "t"
      ],
      [
        "f",
        "ul"
      ],
      [
        "g",
        "lish"
      ],
      [
        "i",
        "b"
      ],
      [
        "l",
        "d"
      ],
      [
        "m",
        "od"
      ],
      [
        "o",
        "se"
      ],
      [
        "u",
        "b"
      ],
      [
        "u",
        "e"
      ],
      [
        "u",
        "ra"
      ],
      [
        "u",
        "ally"
      ],
      [
        "x",
        "ity"
      ],
      [
        "}",
        "}"
      ],
      [
        "Ġt",
        "yp"
      ],
      [
        "Ġc",
        "re"
      ],
      [
        "Ġm",
        "an"
      ],
      [
        "Ġw",
        "ere"
      ],
      [
        "Ġmo",
        "st"
      ],
      [
        "ch",
        "an"
      ],
      [
        "Ġre",
        "quire"
      ],
      [
        "ent",
        "s"
      ],
      [
        "st",
        "r"
      ],
      [
        "ra",
        "p"
      ],
      [
        "Ġon",
        "e"
      ],
      [
        "Ġde",
        "m"
      ],
      [
        "Ġwh",
        "ile"
      ],
      [
        "tic",
        "al"
      ],
      [
        "pl",
        "ic"
      ],
      [
        "em",
        "or"
      ],
      [
        "Ġar",
        "chitect"
      ],
      [
        "Ġtoken",
        "s"
      ],
      [
        "ci",
        "al"
      ],
      [
        "pre",
        "sent"
      ],
      [
        "ple",
        "xity"
      ],
      [
        "Ġme",
        "as"
      ],
      [
        "Ġcall",
        "ed"
      ],
      [
        "Ġdevelo",
        "p"
      ],
      [
        "Ġintellig",
        "ence"
      ],
      [
        ")",
        "."
      ],
      [
        "R",
        "T"
      ],
      [
        "a",
        "k"
      ],
      [
        "a",
        "vi"
      ],
      [
        "a",
        "ke"
      ],
      [
        "c",
        "is"
      ],
      [
        "f",
        "f"
      ],
      [
        "l",
        "es"
      ],
      [
        "p",
        "ar"
      ],
      [
        "t",
        "ing"
      ],
      [
        "t",
        "rain"
      ],
      [
        "t",
        "ri"
      ],
      [
        "w",
        "or"
      ],
      [
        "y",
        "pe"
      ],
      [
        "Ġ",
        "0"
      ],
      [
        "Ġ",
        "T"
      ],
      [
        "Ġ",
        "j"
      ],
      [
        "Ġt",
        "ra"
      ],
      [
        "at",
        "istic"
      ],
      [
        "Ġth",
        "an"
      ],
      [
        "re",
        "e"
      ],
      [
        "Ġs",
        "er"
      ],
      [
        "Ġs",
        "et"
      ],
      [
        "Ġo",
        "b"
      ],
      [
        "Ġm",
        "is"
      ],
      [
        "Ġm",
        "emor"
      ],
      [
        "ti",
        "ve"
      ],
      [
        "is",
        "m"
      ],
      [
        "it",
        "e"
      ],
      [
        "Ġf",
        "in"
      ],
      [
        "le",
        "ct"
      ],
      [
        "Ġb",
        "enchmar"
      ],
      [
        "Ġe",
        "xt"
      ],
      [
        "Ġre",
        "l"
      ],
      [
        "Ġre",
        "present"
      ],
      [
        "ve",
        "l"
      ],
      [
        "un",
        "t"
      ],
      [
        "ab",
        "ility"
      ],
      [
        "Ġsu",
        "b"
      ],
      [
        "form",
        "ation"
      ],
      [
        "Ġst",
        "atistic"
      ],
      [
        "Ġ202",
        "5"
      ],
      [
        "Ġgener",
        "ation"
      ],
      [
        "iti",
        "ve"
      ],
      [
        "Ġqu",
        "antization"
      ],
      [
        "ĠP",
        "ro"
      ],
      [
        "fic",
        "ial"
      ],
      [
        "Ġprompt",
        "ing"
      ],
      [
        "Ġem",
        "bed"
      ],
      [
        "oc",
        "u"
      ],
      [
        "Ġinstruction",
        "s"
      ],
      [
        "Ġnum",
        "ber"
      ],
      [
        "Ġsequ",
        "ence"
      ],
      [
        "ĠEn",
        "glish"
      ],
      [
        "Ġstatistic",
        "al"
      ],
      [
        "Ġembed",
        "ding"
      ],
      [
        "\"",
        ","
      ],
      [
        ".",
        "."
      ],
      [
        "E",
        "RT"
      ],
      [
        "c",
        "on"
      ],
      [
        "e",
        "tic"
      ],
      [
        "f",
        "ter"
      ],
      [
        "g",
        "er"
      ],
      [
        "g",
        "or"
      ],
      [
        "i",
        "tical"
      ],
      [
        "k",
        "ed"
      ],
      [
        "l",
        "ic"
      ],
      [
        "m",
        "all"
      ],
      [
        "s",
        "er"
      ],
      [
        "Ġo",
        "p"
      ],
      [
        "al",
        "ing"
      ],
      [
        "Ġp",
        "h"
      ],
      [
        "ti",
        "ficial"
      ],
      [
        "Ġin",
        "st"
      ],
      [
        "Ġf",
        "e"
      ],
      [
        "Ġf",
        "il"
      ],
      [
        "Ġf",
        "ound"
      ],
      [
        "Ġb",
        "et"
      ],
      [
        "Ġmo",
        "d"
      ],
      [
        "Ġl",
        "ow"
      ],
      [
        "ĠL",
        "anguage"
      ],
      [
        "Ġd",
        "o"
      ],
      [
        "Ġd",
        "ocu"
      ],
      [
        "et",
        "wor"
      ],
      [
        "Ġpro",
        "gram"
      ],
      [
        "Ġn",
        "etwor"
      ],
      [
        "Ġcon",
        "si"
      ],
      [
        "Ġcon",
        "cer"
      ],
      [
        "Ġbe",
        "fore"
      ],
      [
        "Th",
        "e"
      ],
      [
        "Ġex",
        "per"
      ],
      [
        "Ġwh",
        "en"
      ],
      [
        "pe",
        "ar"
      ],
      [
        "ol",
        "itical"
      ],
      [
        "ĠĠĠĠĠĠĠĠĠĠĠĠĠĠĠĠ",
        "Ġ"
      ],
      [
        "ĠĠĠĠĠĠĠĠĠĠĠĠĠĠĠĠ",
        "ĠĠĊ"
      ],
      [
        "ĠĠĠĠĠĠĠĠĠĠĠĠĠĠĠĠ",
        "ĠĠĠĠĊ"
      ],
      [
        "Ġst",
        "ud"
      ],
      [
        "all",
        "uc"
      ],
      [
        "Ġcont",
        "ro"
      ],
      [
        "Ġap",
        "pear"
      ],
      [
        "enti",
        "al"
      ],
      [
        "Ġspe",
        "cial"
      ],
      [
        "Ġem",
        "erg"
      ],
      [
        "Ġcor",
        "rect"
      ],
      [
        "Ġdataset",
        "s"
      ],
      [
        "ĠW",
        "h"
      ],
      [
        "ĠCh",
        "at"
      ],
      [
        "Ġresearch",
        "ers"
      ],
      [
        "Ġdes",
        "cri"
      ],
      [
        "Ġnat",
        "ural"
      ],
      [
        "Ġimpro",
        "ve"
      ],
      [
        "Ġbeh",
        "avi"
      ],
      [
        "Ġrespon",
        "ses"
      ],
      [
        "gineer",
        "ing"
      ],
      [
        "Ġtechn",
        "iqu"
      ],
      [
        "gor",
        "ith"
      ],
      [
        "alluc",
        "in"
      ],
      [
        "0",
        "2"
      ],
      [
        "_",
        "{"
      ],
      [
        "a",
        "w"
      ],
      [
        "a",
        "ce"
      ],
      [
        "b",
        "o"
      ],
      [
        "b",
        "ased"
      ],
      [
        "e",
        "k"
      ],
      [
        "g",
        "n"
      ],
      [
        "i",
        "ed"
      ],
      [
        "i",
        "es"
      ],
      [
        "m",
        "ed"
      ],
      [
        "n",
        "th"
      ],
      [
        "n",
        "ess"
      ],
      [
        "o",
        "f"
      ],
      [
        "o",
        "u"
      ],
      [
        "o",
        "th"
      ],
      [
        "p",
        "os"
      ],
      [
        "r",
        "ic"
      ],
      [
        "u",
        "ch"
      ],
      [
        "v",
        "ail"
      ],
      [
        "w",
        "ard"
      ],
      [
        "Ġ",
        "3"
      ],
      [
        "Ġ",
        "4"
      ],
      [
        "Ġ",
        "J"
      ],
      [
        "Ġ",
        "U"
      ],
      [
        "Ġ",
        "if"
      ],
      [
        "Ġt",
        "ur"
      ],
      [
        "Ġt",
        "ype"
      ],
      [
        "Ġa",
        "mo"
      ],
      [
        "on",
        "s"
      ],
      [
        "on",
        "str"
      ],
      [
        "en",
        "s"
      ],
      [
        "en",
        "ces"
      ],
      [
        "at",
        "ter"
      ],
      [
        "Ġs",
        "ign"
      ],
      [
        "Ġp",
        "o"
      ],
      [
        "Ġp",
        "os"
      ],
      [
        "Ġp",
        "ub"
      ],
      [
        "an",
        "ding"
      ],
      [
        "Ġthe",
        "m"
      ],
      [
        "Ġin",
        "ference"
      ],
      [
        "ar",
        "act"
      ],
      [
        "Ġf",
        "ir"
      ],
      [
        "le",
        "ction"
      ],
      [
        "as",
        "t"
      ],
      [
        "Ġe",
        "p"
      ],
      [
        "Ġe",
        "t"
      ],
      [
        "Ġe",
        "arly"
      ],
      [
        "Ġl",
        "ar"
      ],
      [
        "Ġl",
        "og"
      ],
      [
        "Ġl",
        "aw"
      ],
      [
        "Ġre",
        "le"
      ],
      [
        "ent",
        "al"
      ],
      [
        "ent",
        "ly"
      ],
      [
        "Ġd",
        "own"
      ],
      [
        "us",
        "e"
      ],
      [
        "Ġn",
        "o"
      ],
      [
        "Ġco",
        "de"
      ],
      [
        "Ġco",
        "uld"
      ],
      [
        "Ġfor",
        "m"
      ],
      [
        "ab",
        "ilities"
      ],
      [
        "Ġne",
        "w"
      ],
      [
        "Ġch",
        "aract"
      ],
      [
        "Ġprompt",
        "ed"
      ],
      [
        "Ġac",
        "c"
      ],
      [
        "ĠO",
        "n"
      ],
      [
        "ac",
        "k"
      ],
      [
        "Ġv",
        "ari"
      ],
      [
        "Ġwe",
        "b"
      ],
      [
        "tun",
        "ing"
      ],
      [
        "Ġat",
        "tention"
      ],
      [
        "Ġme",
        "chan"
      ],
      [
        "Ġab",
        "ility"
      ],
      [
        "Ġsh",
        "ow"
      ],
      [
        "Ġr",
        "is"
      ],
      [
        "Ġaut",
        "h"
      ],
      [
        "Ġcom",
        "m"
      ],
      [
        "Ġinclu",
        "ding"
      ],
      [
        "Ġthough",
        "t"
      ],
      [
        "Ġproble",
        "m"
      ],
      [
        "Ġques",
        "tions"
      ],
      [
        "we",
        "ight"
      ],
      [
        "Ġcap",
        "abilities"
      ],
      [
        "ffic",
        "i"
      ],
      [
        "Ġsimil",
        "ar"
      ],
      [
        "mod",
        "al"
      ],
      [
        "Ġtyp",
        "ically"
      ],
      [
        "Ġbenchmar",
        "ks"
      ],
      [
        "Ġconsi",
        "der"
      ],
      [
        "Ġstud",
        "y"
      ],
      [
        "ĠChat",
        "GPT"
      ],
      [
        "Ġfir",
        "st"
      ],
      [
        "\"",
        ")"
      ],
      [
        "1",
        "0"
      ],
      [
        "2",
        "02"
      ],
      [
        "N",
        "A"
      ],
      [
        "S",
        "e"
      ],
      [
        "a",
        "im"
      ],
      [
        "a",
        "king"
      ],
      [
        "b",
        "e"
      ],
      [
        "c",
        "ing"
      ],
      [
        "d",
        "ed"
      ],
      [
        "e",
        "ep"
      ],
      [
        "g",
        "re"
      ],
      [
        "l",
        "ing"
      ],
      [
        "l",
        "ike"
      ],
      [
        "l",
        "ie"
      ],
      [
        "o",
        "og"
      ],
      [
        "r",
        "im"
      ],
      [
        "t",
        "ro"
      ],
      [
        "u",
        "al"
      ],
      [
        "w",
        "are"
      ],
      [
        "Ġt",
        "end"
      ],
      [
        "in",
        "d"
      ],
      [
        "Ġa",
        "ch"
      ],
      [
        "Ġa",
        "fter"
      ],
      [
        "Ġa",
        "vail"
      ],
      [
        "Ġth",
        "ose"
      ],
      [
        "Ġs",
        "ize"
      ],
      [
        "Ġs",
        "mall"
      ],
      [
        "Ġo",
        "c"
      ],
      [
        "Ġo",
        "pen"
      ],
      [
        "Ġc",
        "le"
      ],
      [
        "ing",
        "u"
      ],
      [
        "al",
        "th"
      ],
      [
        "Ġm",
        "ach"
      ],
      [
        "Ġm",
        "ath"
      ],
      [
        "Ġp",
        "ot"
      ],
      [
        "Ġp",
        "olitical"
      ],
      [
        "an",
        "cy"
      ],
      [
        "ti",
        "es"
      ],
      [
        "Ġin",
        "j"
      ],
      [
        "Ġin",
        "formation"
      ],
      [
        "Ġan",
        "y"
      ],
      [
        "ro",
        "p"
      ],
      [
        "ro",
        "und"
      ],
      [
        "Ġf",
        "ram"
      ],
      [
        "ĠĠĠĠĠĠĠĠ",
        "Ġ"
      ],
      [
        "ic",
        "e"
      ],
      [
        "ic",
        "s"
      ],
      [
        "Ġe",
        "ven"
      ],
      [
        "Ġl",
        "ong"
      ],
      [
        "Ġre",
        "f"
      ],
      [
        "Ġre",
        "du"
      ],
      [
        "ra",
        "c"
      ],
      [
        "Ġd",
        "ue"
      ],
      [
        "Ġn",
        "on"
      ],
      [
        "Ġco",
        "gn"
      ],
      [
        "ul",
        "ar"
      ],
      [
        "Ġbe",
        "ing"
      ],
      [
        "Ġbe",
        "lie"
      ],
      [
        "ur",
        "ing"
      ],
      [
        "lo",
        "y"
      ],
      [
        "ĠA",
        "l"
      ],
      [
        "ab",
        "ly"
      ],
      [
        "Ġ(",
        "\""
      ],
      [
        "ter",
        "e"
      ],
      [
        "th",
        "ough"
      ],
      [
        "ĠTh",
        "ese"
      ],
      [
        "Ġal",
        "l"
      ],
      [
        "Ġal",
        "low"
      ],
      [
        "Ġal",
        "gorith"
      ],
      [
        "om",
        "en"
      ],
      [
        "ver",
        "age"
      ],
      [
        "Ġ202",
        "4"
      ],
      [
        "ĠG",
        "oog"
      ],
      [
        "Ġgener",
        "al"
      ],
      [
        "Ġper",
        "plexity"
      ],
      [
        "Ġne",
        "xt"
      ],
      [
        "Ġar",
        "tificial"
      ],
      [
        "Ġqu",
        "er"
      ],
      [
        "ci",
        "ous"
      ],
      [
        "ru",
        "ct"
      ],
      [
        "so",
        "ur"
      ],
      [
        "Ġwor",
        "k"
      ],
      [
        "du",
        "ced"
      ],
      [
        "Ġch",
        "an"
      ],
      [
        "ĠB",
        "ERT"
      ],
      [
        "ĠD",
        "eep"
      ],
      [
        "Ġinc",
        "re"
      ],
      [
        "Ġinc",
        "or"
      ],
      [
        "ges",
        "t"
      ],
      [
        "Ġap",
        "pro"
      ],
      [
        "Ġso",
        "ft"
      ],
      [
        "Ġmulti",
        "modal"
      ],
      [
        "Ġag",
        "ree"
      ],
      [
        "Ġpredic",
        "tion"
      ],
      [
        "âĢ",
        "Ķ"
      ],
      [
        "Ġad",
        "dition"
      ],
      [
        "Ġab",
        "ilities"
      ],
      [
        "Ġparamet",
        "er"
      ],
      [
        "Ġvi",
        "a"
      ],
      [
        "Ġvi",
        "ew"
      ],
      [
        "Ġcl",
        "ass"
      ],
      [
        "Ġcl",
        "aim"
      ],
      [
        "Ġproble",
        "ms"
      ],
      [
        "Ġcons",
        "cious"
      ],
      [
        "Ġcomple",
        "x"
      ],
      [
        "Ġques",
        "tion"
      ],
      [
        "Ġtransform",
        "er"
      ],
      [
        "Ġhe",
        "alth"
      ],
      [
        "cep",
        "t"
      ],
      [
        "Ġcomput",
        "er"
      ],
      [
        "Ġenco",
        "der"
      ],
      [
        "Ġdif",
        "fer"
      ],
      [
        "Ġunderst",
        "anding"
      ],
      [
        "Ġdem",
        "onstr"
      ],
      [
        "Ġarchitect",
        "ure"
      ],
      [
        "Ġlow",
        "er"
      ],
      [
        "Ġconcer",
        "ns"
      ],
      [
        "Ġcontro",
        "l"
      ],
      [
        "allucin",
        "ations"
      ],
      [
        "pos",
        "ed"
      ],
      [
        "Ġamo",
        "unt"
      ],
      [
        "Ġep",
        "is"
      ],
      [
        "Ġmechan",
        "ism"
      ],
      [
        "Ġach",
        "ie"
      ],
      [
        "Ġmach",
        "ine"
      ],
      [
        "ĠGoog",
        "le"
      ],
      [
        "4",
        "0"
      ],
      [
        "A",
        "n"
      ],
      [
        "b",
        "in"
      ],
      [
        "b",
        "re"
      ],
      [
        "c",
        "a"
      ],
      [
        "c",
        "re"
      ],
      [
        "e",
        "ction"
      ],
      [
        "e",
        "ver"
      ],
      [
        "h",
        "o"
      ],
      [
        "h",
        "er"
      ],
      [
        "h",
        "an"
      ],
      [
        "h",
        "ib"
      ],
      [
        "i",
        "a"
      ],
      [
        "i",
        "x"
      ],
      [
        "i",
        "ous"
      ],
      [
        "k",
        "n"
      ],
      [
        "m",
        "ing"
      ],
      [
        "n",
        "ed"
      ],
      [
        "n",
        "am"
      ],
      [
        "p",
        "us"
      ],
      [
        "p",
        "ri"
      ],
      [
        "r",
        "it"
      ],
      [
        "s",
        "c"
      ],
      [
        "s",
        "h"
      ],
      [
        "s",
        "y"
      ],
      [
        "u",
        "st"
      ],
      [
        "u",
        "tion"
      ],
      [
        "y",
        "nam"
      ],
      [
        "Ġ",
        ")"
      ],
      [
        "Ġ",
        "6"
      ],
      [
        "Ġ",
        "K"
      ],
      [
        "Ġ",
        "["
      ],
      [
        "Ġ",
        "â"
      ],
      [
        "Ġ",
        "ve"
      ],
      [
        "Ġ",
        "ran"
      ],
      [
        "in",
        "u"
      ],
      [
        "in",
        "es"
      ],
      [
        "in",
        "ce"
      ],
      [
        "Ġa",
        "ction"
      ],
      [
        "er",
        "tain"
      ],
      [
        "en",
        "se"
      ],
      [
        "at",
        "ors"
      ],
      [
        "re",
        "am"
      ],
      [
        "Ġs",
        "ur"
      ],
      [
        "Ġo",
        "per"
      ],
      [
        "Ġc",
        "ertain"
      ],
      [
        "al",
        "ities"
      ],
      [
        "Ġm",
        "as"
      ],
      [
        "Ġm",
        "illion"
      ],
      [
        "Ġm",
        "ental"
      ],
      [
        "Ġp",
        "ers"
      ],
      [
        "Ġp",
        "ri"
      ],
      [
        "ti",
        "m"
      ],
      [
        "or",
        "y"
      ],
      [
        "Ġin",
        "iti"
      ],
      [
        "Ġin",
        "tro"
      ],
      [
        "ar",
        "ial"
      ],
      [
        "ro",
        "ss"
      ],
      [
        "Ġf",
        "ew"
      ],
      [
        "Ġb",
        "re"
      ],
      [
        "as",
        "es"
      ],
      [
        "Ġe",
        "mp"
      ],
      [
        "Ġe",
        "th"
      ],
      [
        "Ġe",
        "ff"
      ],
      [
        "ion",
        "s"
      ],
      [
        "Ġl",
        "angu"
      ],
      [
        "Ġl",
        "ay"
      ],
      [
        "Ġre",
        "m"
      ],
      [
        "Ġre",
        "tri"
      ],
      [
        "Ġd",
        "en"
      ],
      [
        "Ġd",
        "is"
      ],
      [
        "mp",
        "ts"
      ],
      [
        "et",
        "a"
      ],
      [
        "Ġpro",
        "te"
      ],
      [
        "qu",
        "ent"
      ],
      [
        "ul",
        "ts"
      ],
      [
        "ur",
        "ther"
      ],
      [
        "Ġon",
        "ly"
      ],
      [
        "Ġus",
        "ers"
      ],
      [
        "Ġg",
        "ro"
      ],
      [
        "ĠA",
        "t"
      ],
      [
        "Ġex",
        "ist"
      ],
      [
        "Ġex",
        "hib"
      ],
      [
        "ter",
        "m"
      ],
      [
        "ter",
        "n"
      ],
      [
        "Ġde",
        "f"
      ],
      [
        "Ġde",
        "te"
      ],
      [
        "ate",
        "ly"
      ],
      [
        "Ġwh",
        "eth"
      ],
      [
        "pe",
        "ct"
      ],
      [
        "ment",
        "ed"
      ],
      [
        "Ġpre",
        "sent"
      ],
      [
        "Ġpre",
        "train"
      ],
      [
        "Ġst",
        "ruct"
      ],
      [
        "am",
        "e"
      ],
      [
        "ĠC",
        "o"
      ],
      [
        "Ġse",
        "e"
      ],
      [
        "iz",
        "ed"
      ],
      [
        "Ġen",
        "gineering"
      ],
      [
        "igh",
        "ts"
      ],
      [
        "Ġha",
        "d"
      ],
      [
        "per",
        "ties"
      ],
      [
        "si",
        "ble"
      ],
      [
        "co",
        "ph"
      ],
      [
        "fic",
        "ult"
      ],
      [
        "pen",
        "d"
      ],
      [
        "Ġch",
        "at"
      ],
      [
        "Ġch",
        "ain"
      ],
      [
        "pre",
        "t"
      ],
      [
        "Ġap",
        "pl"
      ],
      [
        "Ġap",
        "plic"
      ],
      [
        "ific",
        "ant"
      ],
      [
        "amet",
        "er"
      ],
      [
        "stru",
        "ct"
      ],
      [
        "Ġres",
        "ult"
      ],
      [
        "Ġag",
        "ent"
      ],
      [
        "Ġtrans",
        "l"
      ],
      [
        "ĠR",
        "e"
      ],
      [
        "Ġcor",
        "pus"
      ],
      [
        "to",
        "ken"
      ],
      [
        "ec",
        "tive"
      ],
      [
        "Ġlike",
        "ly"
      ],
      [
        "Ġmethod",
        "s"
      ],
      [
        "Ġinclu",
        "de"
      ],
      [
        "vers",
        "arial"
      ],
      [
        "ese",
        "arch"
      ],
      [
        "Ġevalu",
        "ation"
      ],
      [
        "Ġprodu",
        "ce"
      ],
      [
        "Ġy",
        "ou"
      ],
      [
        "Ġpl",
        "an"
      ],
      [
        "Ġass",
        "ign"
      ],
      [
        "Ġcomput",
        "ational"
      ],
      [
        "olog",
        "y"
      ],
      [
        "Ġdif",
        "ficult"
      ],
      [
        "Ġargu",
        "es"
      ],
      [
        "Ġunderst",
        "and"
      ],
      [
        "ura",
        "cy"
      ],
      [
        "Ġdevelop",
        "ed"
      ],
      [
        "con",
        "text"
      ],
      [
        "Ġinst",
        "ance"
      ],
      [
        "Ġfil",
        "ter"
      ],
      [
        "Ġnetwor",
        "ks"
      ],
      [
        "Ġsign",
        "ificant"
      ],
      [
        "Ġpos",
        "sible"
      ],
      [
        "Ġpub",
        "lic"
      ],
      [
        "Ġcharact",
        "ers"
      ],
      [
        "Ġacc",
        "uracy"
      ],
      [
        "Ġvari",
        "ous"
      ],
      [
        "Ġris",
        "k"
      ],
      [
        "Ġauth",
        "ors"
      ],
      [
        "Se",
        "ek"
      ],
      [
        "Ġtend",
        "ency"
      ],
      [
        "Ġavail",
        "able"
      ],
      [
        "Ġmath",
        "em"
      ],
      [
        "Ġinj",
        "ection"
      ],
      [
        "Ġredu",
        "ce"
      ],
      [
        "Ġcogn",
        "itive"
      ],
      [
        "tere",
        "ot"
      ],
      [
        "Ġquer",
        "y"
      ],
      [
        "ĠDeep",
        "Seek"
      ],
      [
        "Ġsoft",
        "ware"
      ],
      [
        "Ġdiffer",
        "ent"
      ],
      [
        "Ġachie",
        "ved"
      ],
      [
        "ynam",
        "ic"
      ],
      [
        "Ġve",
        "ct"
      ],
      [
        "Ġran",
        "ge"
      ],
      [
        "Ġintro",
        "duced"
      ],
      [
        "Ġlangu",
        "ages"
      ],
      [
        "Ġprote",
        "in"
      ],
      [
        "Ġexhib",
        "it"
      ],
      [
        "Ġwheth",
        "er"
      ],
      [
        "coph",
        "ancy"
      ],
      [
        "7",
        "1"
      ],
      [
        ":",
        "\""
      ],
      [
        "H",
        "F"
      ],
      [
        "L",
        "O"
      ],
      [
        "L",
        "HF"
      ],
      [
        "P",
        "I"
      ],
      [
        "a",
        "e"
      ],
      [
        "a",
        "v"
      ],
      [
        "a",
        "per"
      ],
      [
        "b",
        "illion"
      ],
      [
        "c",
        "ul"
      ],
      [
        "d",
        "en"
      ],
      [
        "d",
        "enti"
      ],
      [
        "e",
        "val"
      ],
      [
        "f",
        "s"
      ],
      [
        "f",
        "fer"
      ],
      [
        "g",
        "ing"
      ],
      [
        "g",
        "an"
      ],
      [
        "g",
        "ment"
      ],
      [
        "i",
        "er"
      ],
      [
        "i",
        "mp"
      ],
      [
        "i",
        "xt"
      ],
      [
        "i",
        "ble"
      ],
      [
        "j",
        "ect"
      ],
      [
        "k",
        "ill"
      ],
      [
        "l",
        "f"
      ],
      [
        "l",
        "i"
      ],
      [
        "l",
        "ess"
      ],
      [
        "l",
        "arge"
      ],
      [
        "o",
        "de"
      ],
      [
        "o",
        "uld"
      ],
      [
        "p",
        "loy"
      ],
      [
        "r",
        "al"
      ],
      [
        "s",
        "u"
      ],
      [
        "u",
        "di"
      ],
      [
        "v",
        "ol"
      ],
      [
        "v",
        "ir"
      ],
      [
        "y",
        "ing"
      ],
      [
        "Ġ",
        "$"
      ],
      [
        "Ġ",
        ","
      ],
      [
        "Ġ",
        "5"
      ],
      [
        "Ġ",
        "8"
      ],
      [
        "Ġ",
        "{"
      ],
      [
        "Ġ",
        "Î"
      ],
      [
        "Ġ",
        "gu"
      ],
      [
        "Ġ",
        "ver"
      ],
      [
        "Ġ",
        "est"
      ],
      [
        "Ġt",
        "est"
      ],
      [
        "in",
        "al"
      ],
      [
        "in",
        "for"
      ],
      [
        "Ġa",
        "ble"
      ],
      [
        "Ġa",
        "round"
      ],
      [
        "Ġa",
        "verage"
      ],
      [
        "ĠĠĠĠ",
        "Ġ"
      ],
      [
        "er",
        "n"
      ],
      [
        "er",
        "plexity"
      ],
      [
        "on",
        "e"
      ],
      [
        "en",
        "der"
      ],
      [
        "en",
        "omen"
      ],
      [
        "at",
        "a"
      ],
      [
        "Ġth",
        "ere"
      ],
      [
        "re",
        "ss"
      ],
      [
        "Ġs",
        "ol"
      ],
      [
        "Ġs",
        "enti"
      ],
      [
        "Ġs",
        "imp"
      ],
      [
        "Ġs",
        "kill"
      ],
      [
        "Ġc",
        "al"
      ],
      [
        "Ġc",
        "ult"
      ],
      [
        "al",
        "e"
      ],
      [
        "al",
        "y"
      ],
      [
        "al",
        "if"
      ],
      [
        "Ġm",
        "ed"
      ],
      [
        "Ġm",
        "ar"
      ],
      [
        "Ġm",
        "ight"
      ],
      [
        "Ġm",
        "ake"
      ],
      [
        "Ġm",
        "uch"
      ],
      [
        "Ġp",
        "air"
      ],
      [
        "Ġp",
        "atter"
      ],
      [
        "Ġp",
        "aper"
      ],
      [
        "an",
        "ces"
      ],
      [
        "ti",
        "l"
      ],
      [
        "es",
        "ts"
      ],
      [
        "or",
        "d"
      ],
      [
        "or",
        "t"
      ],
      [
        "or",
        "ity"
      ],
      [
        "Ġin",
        "de"
      ],
      [
        "Ġin",
        "her"
      ],
      [
        "Ġto",
        "ward"
      ],
      [
        "Ġan",
        "aly"
      ],
      [
        "Ġf",
        "re"
      ],
      [
        "Ġf",
        "us"
      ],
      [
        "Ġf",
        "urther"
      ],
      [
        "Ġf",
        "av"
      ],
      [
        "le",
        "ments"
      ],
      [
        "Ġb",
        "all"
      ],
      [
        "ĠĠĠĠĠĠĠĠ",
        "ĠĠĠĠĠĠĊ"
      ],
      [
        "Ġw",
        "ill"
      ],
      [
        "Ġe",
        "vi"
      ],
      [
        "Ġe",
        "ffici"
      ],
      [
        "Ġl",
        "ine"
      ],
      [
        "Ġl",
        "ingu"
      ],
      [
        "ch",
        "ec"
      ],
      [
        "Ġre",
        "c"
      ],
      [
        "ra",
        "ph"
      ],
      [
        "ut",
        "e"
      ],
      [
        "Ġd",
        "ynamic"
      ],
      [
        "Ġh",
        "ar"
      ],
      [
        "Ġh",
        "and"
      ],
      [
        "Ġh",
        "allucinations"
      ],
      [
        "et",
        "ri"
      ],
      [
        "ce",
        "ed"
      ],
      [
        "ve",
        "y"
      ],
      [
        "Ġpro",
        "ven"
      ],
      [
        "Ġpro",
        "posed"
      ],
      [
        "Ġpro",
        "mpts"
      ],
      [
        "Ġpro",
        "perties"
      ],
      [
        "Ġas",
        "so"
      ],
      [
        "Ġco",
        "l"
      ],
      [
        "ul",
        "ary"
      ],
      [
        "Ġus",
        "ually"
      ],
      [
        "lo",
        "c"
      ],
      [
        "ĠA",
        "n"
      ],
      [
        "ĠA",
        "s"
      ],
      [
        "ĠA",
        "PI"
      ],
      [
        "ab",
        "lish"
      ],
      [
        "ab",
        "ulary"
      ],
      [
        "th",
        "e"
      ],
      [
        "Ġsu",
        "g"
      ],
      [
        "Ġor",
        "der"
      ],
      [
        "im",
        "it"
      ],
      [
        "Ġde",
        "ep"
      ],
      [
        "Ġde",
        "ploy"
      ],
      [
        "Ġwith",
        "in"
      ],
      [
        "Ġwith",
        "out"
      ],
      [
        "ol",
        "d"
      ],
      [
        "Ġpre",
        "ced"
      ],
      [
        "Ġpre",
        "cis"
      ],
      [
        "Ġte",
        "ach"
      ],
      [
        "ĠĠĠĠĠĠĠĠĠĠĠĠĠĠĠĠ",
        "Ċ"
      ],
      [
        "ĠĠĠĠĠĠĠĠĠĠĠĠĠĠĠĠ",
        "ĠĠĠĠĠĠĊ"
      ],
      [
        "ĠĠĠĠĠĠĠĠĠĠĠĠĠĠĠĠ",
        "ĠĠĠĠĠĠĠĠĊ"
      ],
      [
        "ĠĠĠĠĠĠĠĠĠĠĠĠĠĠĠĠ",
        "ĠĠĠĠĠ"
      ],
      [
        "Ġal",
        "ign"
      ],
      [
        "ĠS",
        "e"
      ],
      [
        "Ġst",
        "ate"
      ],
      [
        "ĠC",
        "on"
      ],
      [
        "Ġse",
        "par"
      ],
      [
        "Ġcomp",
        "ar"
      ],
      [
        "Ġgener",
        "ally"
      ],
      [
        "Ġgener",
        "ating"
      ],
      [
        "iz",
        "er"
      ],
      [
        "Ġen",
        "ab"
      ],
      [
        "Ġen",
        "vir"
      ],
      [
        "Ġcont",
        "inu"
      ],
      [
        "Ġqu",
        "alif"
      ],
      [
        "Ġtoken",
        "izer"
      ],
      [
        "ci",
        "d"
      ],
      [
        "ci",
        "ally"
      ],
      [
        "Ġun",
        "til"
      ],
      [
        "Ġwor",
        "ld"
      ],
      [
        "ĠM",
        "e"
      ],
      [
        "ist",
        "ant"
      ],
      [
        "co",
        "der"
      ],
      [
        "ven",
        "tions"
      ],
      [
        "ĠB",
        "ut"
      ],
      [
        "Ġpar",
        "tic"
      ],
      [
        "Ġac",
        "cess"
      ],
      [
        "Ġac",
        "quire"
      ],
      [
        "Ġinput",
        "s"
      ],
      [
        "ac",
        "ing"
      ],
      [
        "Ġv",
        "is"
      ],
      [
        "Ġv",
        "ers"
      ],
      [
        "Ġv",
        "oc"
      ],
      [
        "Ġinter",
        "pret"
      ],
      [
        "Ġinter",
        "ventions"
      ],
      [
        "ific",
        "ation"
      ],
      [
        "Ġwe",
        "ll"
      ],
      [
        "Ġwe",
        "ights"
      ],
      [
        "ew",
        "or"
      ],
      [
        "ore",
        "d"
      ],
      [
        "Ġag",
        "ents"
      ],
      [
        "Ġbias",
        "es"
      ],
      [
        "Ġab",
        "out"
      ],
      [
        "gram",
        "s"
      ],
      [
        "Ġ1",
        "1"
      ],
      [
        "Ġoutput",
        "s"
      ],
      [
        "Ġstep",
        "s"
      ],
      [
        "Ġprocess",
        "ing"
      ],
      [
        "Ġcom",
        "bin"
      ],
      [
        "Ġhigh",
        "er"
      ],
      [
        "Ġcost",
        "s"
      ],
      [
        "Ġcons",
        "um"
      ],
      [
        "Ġsequ",
        "ences"
      ],
      [
        "Ġcomple",
        "tion"
      ],
      [
        "ĠI",
        "t"
      ],
      [
        "ath",
        "er"
      ],
      [
        "Ġsc",
        "rap"
      ],
      [
        "Ġsc",
        "aling"
      ],
      [
        "Ġenco",
        "ding"
      ],
      [
        "LLM",
        "s"
      ],
      [
        "Ġsimil",
        "arly"
      ],
      [
        "Ġcre",
        "ate"
      ],
      [
        "Ġman",
        "y"
      ],
      [
        "Ġarchitect",
        "ures"
      ],
      [
        "Ġmeas",
        "ure"
      ],
      [
        "Ġdevelop",
        "ment"
      ],
      [
        "par",
        "ameter"
      ],
      [
        "Ġj",
        "ud"
      ],
      [
        "Ġtra",
        "ffic"
      ],
      [
        "Ġob",
        "tain"
      ],
      [
        "Ġmemor",
        "ization"
      ],
      [
        "Ġfin",
        "al"
      ],
      [
        "Ġembedding",
        "s"
      ],
      [
        "..",
        "."
      ],
      [
        "Ġph",
        "enomen"
      ],
      [
        "Ġfe",
        "ed"
      ],
      [
        "Ġbet",
        "ter"
      ],
      [
        "Ġdocu",
        "ments"
      ],
      [
        "Ġprogram",
        "ming"
      ],
      [
        "Ġexper",
        "ts"
      ],
      [
        "Ġemerg",
        "ent"
      ],
      [
        "Ġbehavi",
        "or"
      ],
      [
        "Ġbehavi",
        "ors"
      ],
      [
        "Ġtechniqu",
        "e"
      ],
      [
        "Ġtechniqu",
        "es"
      ],
      [
        "med",
        "i"
      ],
      [
        "nth",
        "etic"
      ],
      [
        "Ġlar",
        "ger"
      ],
      [
        "Ġform",
        "at"
      ],
      [
        "Ġcle",
        "an"
      ],
      [
        "Ġfram",
        "ewor"
      ],
      [
        "though",
        "t"
      ],
      [
        "Ġalgorith",
        "ms"
      ],
      [
        "Ġchan",
        "ge"
      ],
      [
        "Ġincor",
        "rect"
      ],
      [
        "Ġclass",
        "ification"
      ],
      [
        "Ġclaim",
        "s"
      ],
      [
        "Ġconscious",
        "ness"
      ],
      [
        "Ġdemonstr",
        "ated"
      ],
      [
        "Ġcontrol",
        "s"
      ],
      [
        "Ġepis",
        "ode"
      ],
      [
        "ho",
        "od"
      ],
      [
        "Ġaction",
        "s"
      ],
      [
        "Ġeth",
        "ical"
      ],
      [
        "Ġrem",
        "ain"
      ],
      [
        "Ġappl",
        "ied"
      ],
      [
        "Ġapplic",
        "ations"
      ],
      [
        "Ġfilter",
        "ing"
      ],
      [
        "tereot",
        "yp"
      ],
      [
        "Ġgu",
        "ess"
      ],
      [
        "Ġest",
        "ablish"
      ],
      [
        "infor",
        "ce"
      ],
      [
        "Ġfav",
        "or"
      ],
      [
        "Ġasso",
        "ci"
      ],
      [
        "Ġdeploy",
        "ment"
      ],
      [
        "Ġenvir",
        "on"
      ],
      [
        "Ġvoc",
        "abulary"
      ],
      [
        "Ġphenomen",
        "on"
      ],
      [
        "%",
        "."
      ],
      [
        "B",
        "R"
      ],
      [
        "B",
        "e"
      ],
      [
        "F",
        "old"
      ],
      [
        "L",
        "P"
      ],
      [
        "L",
        "ist"
      ],
      [
        "M",
        "A"
      ],
      [
        "P",
        "s"
      ],
      [
        "R",
        "esearch"
      ],
      [
        "S",
        "M"
      ],
      [
        "a",
        "h"
      ],
      [
        "a",
        "u"
      ],
      [
        "a",
        "ve"
      ],
      [
        "a",
        "ding"
      ],
      [
        "a",
        "ction"
      ],
      [
        "a",
        "ug"
      ],
      [
        "b",
        "ers"
      ],
      [
        "b",
        "ot"
      ],
      [
        "b",
        "ack"
      ],
      [
        "c",
        "ti"
      ],
      [
        "c",
        "cess"
      ],
      [
        "c",
        "ome"
      ],
      [
        "c",
        "tive"
      ],
      [
        "d",
        "es"
      ],
      [
        "d",
        "ata"
      ],
      [
        "e",
        "x"
      ],
      [
        "e",
        "ly"
      ],
      [
        "e",
        "ved"
      ],
      [
        "f",
        "it"
      ],
      [
        "f",
        "rac"
      ],
      [
        "g",
        "o"
      ],
      [
        "g",
        "r"
      ],
      [
        "g",
        "y"
      ],
      [
        "g",
        "ener"
      ],
      [
        "g",
        "ative"
      ],
      [
        "i",
        "de"
      ],
      [
        "i",
        "ves"
      ],
      [
        "l",
        "ed"
      ],
      [
        "l",
        "ight"
      ],
      [
        "m",
        "er"
      ],
      [
        "m",
        "ic"
      ],
      [
        "m",
        "ful"
      ],
      [
        "m",
        "etic"
      ],
      [
        "n",
        "t"
      ],
      [
        "n",
        "er"
      ],
      [
        "n",
        "ot"
      ],
      [
        "o",
        "k"
      ],
      [
        "o",
        "ther"
      ],
      [
        "o",
        "ice"
      ],
      [
        "p",
        "ly"
      ],
      [
        "p",
        "ass"
      ],
      [
        "p",
        "por"
      ],
      [
        "p",
        "air"
      ],
      [
        "p",
        "ite"
      ],
      [
        "p",
        "ace"
      ],
      [
        "r",
        "on"
      ],
      [
        "r",
        "ing"
      ],
      [
        "r",
        "ight"
      ],
      [
        "r",
        "ary"
      ],
      [
        "s",
        "sive"
      ],
      [
        "t",
        "ur"
      ],
      [
        "u",
        "plic"
      ],
      [
        "v",
        "ice"
      ],
      [
        "w",
        "n"
      ],
      [
        "y",
        "on"
      ],
      [
        "}",
        "\\"
      ],
      [
        "}",
        "{"
      ],
      [
        "Ġ",
        "7"
      ],
      [
        "Ġ",
        "Q"
      ],
      [
        "Ġ",
        "X"
      ],
      [
        "Ġ",
        "ra"
      ],
      [
        "Ġ",
        "ener"
      ],
      [
        "Ġ",
        "rap"
      ],
      [
        "Ġ",
        "kn"
      ],
      [
        "Ġt",
        "r"
      ],
      [
        "Ġt",
        "er"
      ],
      [
        "Ġt",
        "re"
      ],
      [
        "Ġt",
        "im"
      ],
      [
        "Ġt",
        "ri"
      ],
      [
        "Ġt",
        "arge"
      ],
      [
        "in",
        "k"
      ],
      [
        "in",
        "formation"
      ],
      [
        "Ġa",
        "ct"
      ],
      [
        "Ġa",
        "udi"
      ],
      [
        "er",
        "ap"
      ],
      [
        "on",
        "ly"
      ],
      [
        "on",
        "om"
      ],
      [
        "en",
        "g"
      ],
      [
        "en",
        "sive"
      ],
      [
        "at",
        "ure"
      ],
      [
        "at",
        "ical"
      ],
      [
        "at",
        "aset"
      ],
      [
        "at",
        "ically"
      ],
      [
        "Ġth",
        "erap"
      ],
      [
        "Ġs",
        "ti"
      ],
      [
        "Ġs",
        "it"
      ],
      [
        "Ġs",
        "ke"
      ],
      [
        "Ġs",
        "mo"
      ],
      [
        "Ġs",
        "tereotyp"
      ],
      [
        "Ġo",
        "ld"
      ],
      [
        "Ġc",
        "ir"
      ],
      [
        "al",
        "f"
      ],
      [
        "al",
        "s"
      ],
      [
        "Ġm",
        "iti"
      ],
      [
        "Ġm",
        "ap"
      ],
      [
        "Ġm",
        "erg"
      ],
      [
        "Ġm",
        "ust"
      ],
      [
        "Ġp",
        "ass"
      ],
      [
        "Ġp",
        "rim"
      ],
      [
        "Ġp",
        "rac"
      ],
      [
        "an",
        "g"
      ],
      [
        "an",
        "s"
      ],
      [
        "an",
        "y"
      ],
      [
        "or",
        "ding"
      ],
      [
        "Ġin",
        "f"
      ],
      [
        "Ġin",
        "vol"
      ],
      [
        "Ġto",
        "ge"
      ],
      [
        "is",
        "e"
      ],
      [
        "is",
        "ed"
      ],
      [
        "ar",
        "t"
      ],
      [
        "ro",
        "w"
      ],
      [
        "de",
        "o"
      ],
      [
        "de",
        "x"
      ],
      [
        "Ġf",
        "un"
      ],
      [
        "Ġf",
        "lo"
      ],
      [
        "Ġf",
        "lu"
      ],
      [
        "Ġof",
        "ten"
      ],
      [
        "Ġb",
        "o"
      ],
      [
        "Ġb",
        "as"
      ],
      [
        "Ġb",
        "illion"
      ],
      [
        "Ġb",
        "oth"
      ],
      [
        "Ġb",
        "loc"
      ],
      [
        "ĠĠĠĠĠĠĠĠ",
        "ĠĠĠĠĊ"
      ],
      [
        "Ġw",
        "ind"
      ],
      [
        "Ġw",
        "rit"
      ],
      [
        "Ġw",
        "ould"
      ],
      [
        "ic",
        "an"
      ],
      [
        "as",
        "ing"
      ],
      [
        "Ġe",
        "qu"
      ],
      [
        "Ġe",
        "lect"
      ],
      [
        "Ġe",
        "lements"
      ],
      [
        "Ġmo",
        "der"
      ],
      [
        "Ġl",
        "ed"
      ],
      [
        "Ġl",
        "os"
      ],
      [
        "Ġl",
        "imit"
      ],
      [
        "ch",
        "oice"
      ],
      [
        "Ġre",
        "g"
      ],
      [
        "Ġre",
        "ce"
      ],
      [
        "Ġre",
        "pl"
      ],
      [
        "Ġre",
        "ach"
      ],
      [
        "Ġre",
        "mo"
      ],
      [
        "Ġre",
        "vers"
      ],
      [
        "Ġre",
        "ward"
      ],
      [
        "Ġre",
        "inforce"
      ],
      [
        "ut",
        "ure"
      ],
      [
        "Ġd",
        "ial"
      ],
      [
        "Ġd",
        "uring"
      ],
      [
        "Ġd",
        "uplic"
      ],
      [
        "Ġh",
        "alf"
      ],
      [
        "Ġpro",
        "b"
      ],
      [
        "Ġpro",
        "vi"
      ],
      [
        "Ġas",
        "pect"
      ],
      [
        "ct",
        "u"
      ],
      [
        "Ġco",
        "ding"
      ],
      [
        "Ġcon",
        "f"
      ],
      [
        "Ġcon",
        "vers"
      ],
      [
        "Ġus",
        "age"
      ],
      [
        "Ġg",
        "o"
      ],
      [
        "Ġg",
        "ender"
      ],
      [
        "ith",
        "metic"
      ],
      [
        "ĠA",
        "r"
      ],
      [
        "ĠA",
        "nth"
      ],
      [
        "ĠA",
        "mer"
      ],
      [
        "Ġex",
        "am"
      ],
      [
        "Ġex",
        "ceed"
      ],
      [
        "Ġsu",
        "ffer"
      ],
      [
        "Ġsu",
        "ccess"
      ],
      [
        "Ġsu",
        "ppor"
      ],
      [
        "Ġde",
        "coder"
      ],
      [
        "Ġwh",
        "at"
      ],
      [
        "se",
        "q"
      ],
      [
        "se",
        "quent"
      ],
      [
        "se",
        "lf"
      ],
      [
        "ay",
        "s"
      ],
      [
        "Ġpre",
        "ference"
      ],
      [
        "Ġby",
        "pass"
      ],
      [
        "Ġal",
        "ong"
      ],
      [
        "ener",
        "ative"
      ],
      [
        "form",
        "s"
      ],
      [
        "ir",
        "ical"
      ],
      [
        "ĠS",
        "un"
      ],
      [
        "ĠS",
        "pe"
      ],
      [
        "Ġst",
        "ream"
      ],
      [
        "Ġst",
        "ored"
      ],
      [
        "ver",
        "al"
      ],
      [
        "vi",
        "ew"
      ],
      [
        "Ġse",
        "lect"
      ],
      [
        "Ġse",
        "veral"
      ],
      [
        "Ġcomp",
        "ress"
      ],
      [
        "Ġgener",
        "ated"
      ],
      [
        "Ġgener",
        "ates"
      ],
      [
        "iz",
        "ing"
      ],
      [
        "Ġi",
        "de"
      ],
      [
        "Ġi",
        "denti"
      ],
      [
        "all",
        "en"
      ],
      [
        "Ġne",
        "ed"
      ],
      [
        "Ġne",
        "gative"
      ],
      [
        "Ġar",
        "ithmetic"
      ],
      [
        "Ġun",
        "f"
      ],
      [
        "Ġsy",
        "cophancy"
      ],
      [
        "Ġsy",
        "nthetic"
      ],
      [
        "Ġsy",
        "nt"
      ],
      [
        "ĠThe",
        "y"
      ],
      [
        "ĠM",
        "eta"
      ],
      [
        "ĠM",
        "ixt"
      ],
      [
        "ĠN",
        "e"
      ],
      [
        "ĠP",
        "ar"
      ],
      [
        "ĠP",
        "erplexity"
      ],
      [
        "Ġle",
        "ad"
      ],
      [
        "Ġch",
        "allen"
      ],
      [
        "cess",
        "ing"
      ],
      [
        "Ġpar",
        "t"
      ],
      [
        "ĠD",
        "ataset"
      ],
      [
        "ĠE",
        "valu"
      ],
      [
        "ĠE",
        "SM"
      ],
      [
        "Ġac",
        "ross"
      ],
      [
        "pre",
        "ad"
      ],
      [
        "pre",
        "ss"
      ],
      [
        "Ġexamp",
        "les"
      ],
      [
        "ĠF",
        "LO"
      ],
      [
        "enti",
        "ally"
      ],
      [
        "Ġsystem",
        "atic"
      ],
      [
        "Ġsystem",
        "atically"
      ],
      [
        "Ġinter",
        "n"
      ],
      [
        "Ġinter",
        "act"
      ],
      [
        "Ġinter",
        "medi"
      ],
      [
        "Ġinter",
        "action"
      ],
      [
        "ous",
        "ly"
      ],
      [
        "ph",
        "a"
      ],
      [
        "ph",
        "istic"
      ],
      [
        "Ġso",
        "ur"
      ],
      [
        "Ġso",
        "phistic"
      ],
      [
        "istic",
        "s"
      ],
      [
        "Ġres",
        "ults"
      ],
      [
        "ore",
        "gre"
      ],
      [
        "ĠR",
        "NA"
      ],
      [
        "ĠR",
        "etri"
      ],
      [
        "Ġad",
        "ap"
      ],
      [
        "Ġad",
        "versarial"
      ],
      [
        "oc",
        "us"
      ],
      [
        "yp",
        "ically"
      ],
      [
        "Ġsh",
        "if"
      ],
      [
        "Ġcor",
        "re"
      ],
      [
        "Ġimp",
        "act"
      ],
      [
        "ie",
        "ld"
      ],
      [
        "Ġro",
        "le"
      ],
      [
        "Ġro",
        "les"
      ],
      [
        "Ġro",
        "bo"
      ],
      [
        "Ġim",
        "ages"
      ],
      [
        "Ġtas",
        "k"
      ],
      [
        "Ġinte",
        "gr"
      ],
      [
        "Ġr",
        "ather"
      ],
      [
        "Ġup",
        "on"
      ],
      [
        "Ġaut",
        "onom"
      ],
      [
        "Ġsaf",
        "e"
      ],
      [
        "ari",
        "ly"
      ],
      [
        "Ġprocess",
        "es"
      ],
      [
        "Ġfact",
        "ually"
      ],
      [
        "Ġfact",
        "ual"
      ],
      [
        "Ġevalu",
        "ations"
      ],
      [
        "Ġdes",
        "ign"
      ],
      [
        "Ġprodu",
        "ces"
      ],
      [
        "Ġprodu",
        "cing"
      ],
      [
        "Ġnat",
        "ure"
      ],
      [
        "Ġnum",
        "bers"
      ],
      [
        "Ġtransform",
        "ers"
      ],
      [
        "ail",
        "bre"
      ],
      [
        "we",
        "en"
      ],
      [
        "Ġcap",
        "able"
      ],
      [
        "Ġass",
        "ess"
      ],
      [
        "Ġcontext",
        "s"
      ],
      [
        "Ġ201",
        "4"
      ],
      [
        "Ġimpro",
        "ved"
      ],
      [
        "olog",
        "ical"
      ],
      [
        "atic",
        "s"
      ],
      [
        "Ġtool",
        "s"
      ],
      [
        "Ġfollow",
        "ing"
      ],
      [
        "Ġargu",
        "e"
      ],
      [
        "dition",
        "al"
      ],
      [
        "mod",
        "ality"
      ],
      [
        "}}",
        "}"
      ],
      [
        "Ġman",
        "if"
      ],
      [
        "chan",
        "istic"
      ],
      [
        "Ġmeas",
        "ures"
      ],
      [
        "ak",
        "es"
      ],
      [
        "train",
        "ed"
      ],
      [
        "tri",
        "b"
      ],
      [
        "Ġtra",
        "ditional"
      ],
      [
        "Ġmis",
        "use"
      ],
      [
        "Ġmis",
        "information"
      ],
      [
        "Ġmemor",
        "y"
      ],
      [
        "Ġext",
        "end"
      ],
      [
        "Ġrepresent",
        "ations"
      ],
      [
        "Ġsub",
        "sequent"
      ],
      [
        "Ġop",
        "in"
      ],
      [
        "Ġop",
        "tions"
      ],
      [
        "Ġbet",
        "ween"
      ],
      [
        "Ġmod",
        "alities"
      ],
      [
        "Ġdocu",
        "ment"
      ],
      [
        "Ġnetwor",
        "k"
      ],
      [
        "Ġappear",
        "ing"
      ],
      [
        "ĠWh",
        "en"
      ],
      [
        "Ġdescri",
        "p"
      ],
      [
        "ĠU",
        "n"
      ],
      [
        "Ġtur",
        "ned"
      ],
      [
        "Ġpo",
        "in"
      ],
      [
        "Ġlar",
        "gest"
      ],
      [
        "Ġlaw",
        "s"
      ],
      [
        "Ġrele",
        "ased"
      ],
      [
        "Ġno",
        "vel"
      ],
      [
        "ĠOn",
        "e"
      ],
      [
        "Ġshow",
        "ed"
      ],
      [
        "Ġconsider",
        "ed"
      ],
      [
        "Ġoc",
        "c"
      ],
      [
        "Ġoc",
        "cur"
      ],
      [
        "Ġpot",
        "ential"
      ],
      [
        "Ġpot",
        "entially"
      ],
      [
        "rop",
        "ic"
      ],
      [
        "Ġref",
        "ers"
      ],
      [
        "Ġref",
        "lect"
      ],
      [
        "Ġbelie",
        "fs"
      ],
      [
        "Ġallow",
        "s"
      ],
      [
        "sour",
        "ce"
      ],
      [
        "Ġincre",
        "asing"
      ],
      [
        "Ġappro",
        "ach"
      ],
      [
        "Ġaddition",
        "al"
      ],
      [
        "cre",
        "te"
      ],
      [
        "ix",
        "ed"
      ],
      [
        "pri",
        "ate"
      ],
      [
        "sy",
        "ch"
      ],
      [
        "Ġâ",
        "Ī"
      ],
      [
        "Ġmas",
        "sive"
      ],
      [
        "Ġpri",
        "or"
      ],
      [
        "Ġiniti",
        "al"
      ],
      [
        "Ġbre",
        "ak"
      ],
      [
        "Ġeff",
        "ect"
      ],
      [
        "Ġden",
        "ot"
      ],
      [
        "Ġexist",
        "ing"
      ],
      [
        "Ġdete",
        "ct"
      ],
      [
        "Ġpretrain",
        "ing"
      ],
      [
        "Ġstruct",
        "ure"
      ],
      [
        "Ġtransl",
        "ation"
      ],
      [
        "Ġmathem",
        "atical"
      ],
      [
        "Ġvect",
        "or"
      ],
      [
        "Ġprotein",
        "s"
      ],
      [
        "li",
        "hood"
      ],
      [
        "Ġver",
        "b"
      ],
      [
        "ern",
        "al"
      ],
      [
        "Ġsenti",
        "ence"
      ],
      [
        "Ġskill",
        "s"
      ],
      [
        "Ġcal",
        "cul"
      ],
      [
        "Ġmed",
        "ia"
      ],
      [
        "Ġpatter",
        "ns"
      ],
      [
        "Ġtoward",
        "s"
      ],
      [
        "Ġevi",
        "d"
      ],
      [
        "Ġline",
        "ar"
      ],
      [
        "raph",
        "ics"
      ],
      [
        "Ġhar",
        "mful"
      ],
      [
        "Ġcol",
        "lection"
      ],
      [
        "Ġpreced",
        "ing"
      ],
      [
        "Ġalign",
        "ment"
      ],
      [
        "Ġcompar",
        "able"
      ],
      [
        "Ġpartic",
        "ular"
      ],
      [
        "Ġacquire",
        "d"
      ],
      [
        "Ġvers",
        "ion"
      ],
      [
        "Ġinterpret",
        "ability"
      ],
      [
        "Ġcombin",
        "ed"
      ],
      [
        "Ġfeed",
        "back"
      ],
      [
        "Ġenviron",
        "ment"
      ],
      [
        "Research",
        "ers"
      ],
      [
        "aug",
        "mented"
      ],
      [
        "go",
        "ing"
      ]
    ]
  }
}