{
  "version": "1.0",
  "truncation": null,
  "padding": null,
  "added_tokens": [
    {
      "id": 0,
      "content": "\n",
      "single_word": false,
      "lstrip": false,
      "rstrip": false,
      "normalized": false,
      "special": true
    }
  ],
  "normalizer": null,
  "pre_tokenizer": {
    "type": "Whitespace"
  },
  "post_processor": null,
  "decoder": {
    "type": "BPEDecoder",
    "suffix": ""
  },
  "model": {
    "type": "BPE",
    "dropout": null,
    "unk_token": null,
    "continuing_subword_prefix": null,
    "end_of_word_suffix": null,
    "fuse_unk": false,
    "byte_fallback": false,
    "ignore_merges": false,
    "vocab": {
      "\n": 0,
      "a": 1,
      "b": 2,
      "c": 3,
      "d": 4,
      "e": 5,
      "f": 6,
      "g": 7,
      "h": 8,
      "i": 9,
      "j": 10,
      "k": 11,
      "l": 12,
      "m": 13,
      "n": 14,
      "o": 15,
      "p": 16,
      "r": 17,
      "s": 18,
      "t": 19,
      "u": 20,
      "v": 21,
      "w": 22,
      "x": 23,
      "y": 24,
      "z": 25,
      "ç": 26,
      "ö": 27,
      "ü": 28,
      "ı": 29,
      "ş": 30,
      "š": 31,
      "it": 32,
      "nit": 33,
      "rit": 34,
      "lit": 35,
      "an": 36,
      "ar": 37,
      "ro": 38,
      "al": 39,
      "in": 40,
      "sit": 41,
      "er": 42,
      "ko": 43,
      "st": 44,
      "erit": 45,
      "tit": 46,
      "en": 47,
      "el": 48,
      "il": 49,
      "or": 50,
      "onit": 51,
      "la": 52,
      "ta": 53,
      "am": 54,
      "ik": 55,
      "iy": 56,
      "init": 57,
      "ma": 58,
      "id": 59,
      "enit": 60,
      "ra": 61,
      "olit": 62,
      "zit": 63,
      "dit": 64,
      "orit": 65,
      "on": 66,
      "um": 67,
      "kit": 68,
      "ol": 69,
      "pi": 70,
      "ba": 71,
      "eit": 72,
      "at": 73,
      "im": 74,
      "kl": 75,
      "anit": 76,
      "kal": 77,
      "ri": 78,
      "ak": 79,
      "alit": 80,
      "ber": 81,
      "om": 82,
      "git": 83,
      "ilit": 84,
      "le": 85,
      "me": 86,
      "of": 87,
      "pa": 88,
      "ist": 89,
      "lan": 90,
      "ot": 91,
      "ur": 92,
      "ant": 93,
      "os": 94,
      "re": 95,
      "un": 96,
      "bit": 97,
      "ks": 98,
      "ne": 99,
      "ran": 100,
      "ut": 101,
      "illit": 102,
      "av": 103,
      "ed": 104,
      "ir": 105,
      "jit": 106,
      "kar": 107,
      "ok": 108,
      "oit": 109,
      "ss": 110,
      "piro": 111,
      "meta": 112,
      "ad": 113,
      "asit": 114,
      "diy": 115,
      "fer": 116,
      "ig": 117,
      "man": 118,
      "mon": 119,
      "te": 120,
      "amit": 121,
      "manit": 122,
      "ab": 123,
      "he": 124,
      "ka": 125,
      "li": 126,
      "op": 127,
      "par": 128,
      "se": 129,
      "sp": 130,
      "sonit": 131,
      "ul": 132,
      "unit": 133,
      "yit": 134,
      "şist": 135,
      "klin": 136,
      "di": 137,
      "fit": 138,
      "hid": 139,
      "ku": 140,
      "kri": 141,
      "mit": 142,
      "mar": 143,
      "na": 144,
      "tra": 145,
      "vit": 146,
      "kor": 147,
      "ellit": 148,
      "taş": 149,
      "af": 150,
      "be": 151,
      "bi": 152,
      "de": 153,
      "isit": 154,
      "ji": 155,
      "kt": 156,
      "kro": 157,
      "lo": 158,
      "lu": 159,
      "lin": 160,
      "lerit": 161,
      "mor": 162,
      "mik": 163,
      "od": 164,
      "oj": 165,
      "vi": 166,
      "var": 167,
      "yum": 168,
      "rolit": 169,
      "kon": 170,
      "laz": 171,
      "ag": 172,
      "ap": 173,
      "mer": 174,
      "oh": 175,
      "osit": 176,
      "pe": 177,
      "sel": 178,
      "sil": 179,
      "sid": 180,
      "tonit": 181,
      "zin": 182,
      "antit": 183,
      "baz": 184,
      "kalko": 185,
      "bergit": 186,
      "mang": 187,
      "taşı": 188,
      "ait": 189,
      "atit": 190,
      "ata": 191,
      "br": 192,
      "fos": 193,
      "gra": 194,
      "gran": 195,
      "is": 196,
      "ki": 197,
      "lum": 198,
      "nerit": 199,
      "nat": 200,
      "oy": 201,
      "per": 202,
      "pol": 203,
      "su": 204,
      "sin": 205,
      "ser": 206,
      "sen": 207,
      "siy": 208,
      "tro": 209,
      "tin": 210,
      "ten": 211,
      "arosit": 212,
      "rod": 213,
      "alt": 214,
      "stonit": 215,
      "ort": 216,
      "lau": 217,
      "parit": 218,
      "landit": 219,
      "jirit": 220,
      "au": 221,
      "az": 222,
      "arit": 223,
      "apa": 224,
      "bl": 225,
      "bu": 226,
      "berit": 227,
      "biy": 228,
      "bra": 229,
      "du": 230,
      "ev": 231,
      "elit": 232,
      "ero": 233,
      "fl": 234,
      "fel": 235,
      "fillit": 236,
      "gro": 237,
      "hit": 238,
      "ib": 239,
      "ja": 240,
      "kö": 241,
      "lü": 242,
      "mu": 243,
      "mal": 244,
      "min": 245,
      "mel": 246,
      "nor": 247,
      "ps": 248,
      "pla": 249,
      "pid": 250,
      "rin": 251,
      "ren": 252,
      "sf": 253,
      "sko": 254,
      "tur": 255,
      "van": 256,
      "zo": 257,
      "zü": 258,
      "ardit": 259,
      "arjirit": 260,
      "kob": 261,
      "konit": 262,
      "kolit": 263,
      "sto": 264,
      "stro": 265,
      "stil": 266,
      "ent": 267,
      "orn": 268,
      "talit": 269,
      "ikit": 270,
      "mag": 271,
      "mat": 272,
      "matit": 273,
      "umit": 274,
      "imit": 275,
      "klor": 276,
      "omit": 277,
      "omel": 278,
      "ofillit": 279,
      "ksenit": 280,
      "oklaz": 281,
      "ferro": 282,
      "ferri": 283,
      "hidrit": 284,
      "hidro": 285,
      "biz": 286,
      "mangan": 287,
      "apatit": 288,
      "ay": 289,
      "bö": 290,
      "ben": 291,
      "bor": 292,
      "bon": 293,
      "bur": 294,
      "bre": 295,
      "dal": 296,
      "dellit": 297,
      "em": 298,
      "eu": 299,
      "ess": 300,
      "far": 301,
      "fanit": 302,
      "ge": 303,
      "gal": 304,
      "genit": 305,
      "gtonit": 306,
      "hi": 307,
      "hö": 308,
      "har": 309,
      "hiy": 310,
      "hau": 311,
      "horn": 312,
      "izit": 313,
      "ker": 314,
      "kam": 315,
      "kim": 316,
      "kamit": 317,
      "lö": 318,
      "leit": 319,
      "mo": 320,
      "mü": 321,
      "mil": 322,
      "otit": 323,
      "ozit": 324,
      "ojit": 325,
      "pro": 326,
      "pal": 327,
      "pik": 328,
      "ple": 329,
      "plan": 330,
      "pant": 331,
      "rü": 332,
      "ram": 333,
      "san": 334,
      "skit": 335,
      "sim": 336,
      "silit": 337,
      "saf": 338,
      "ti": 339,
      "tu": 340,
      "tan": 341,
      "tor": 342,
      "urit": 343,
      "val": 344,
      "vin": 345,
      "ver": 346,
      "vol": 347,
      "ye": 348,
      "za": 349,
      "ank": 350,
      "ande": 351,
      "arsen": 352,
      "ronit": 353,
      "alsit": 354,
      "altit": 355,
      "alla": 356,
      "ingit": 357,
      "kolum": 358,
      "stit": 359,
      "sten": 360,
      "eli": 361,
      "ellü": 362,
      "illi": 363,
      "ame": 364,
      "amar": 365,
      "ikalsit": 366,
      "idimit": 367,
      "pirit": 368,
      "klorit": 369,
      "otunit": 370,
      "nezit": 371,
      "randit": 372,
      "karn": 373,
      "diyorit": 374,
      "para": 375,
      "ular": 376,
      "klino": 377,
      "kuvar": 378,
      "lusit": 379,
      "ojarosit": 380,
      "agonit": 381,
      "siderit": 382,
      "bazalt": 383,
      "atakamit": 384,
      "bru": 385,
      "natro": 386,
      "stoun": 387,
      "omelan": 388,
      "farma": 389,
      "kolumbit": 390,
      "ai": 391,
      "agit": 392,
      "bar": 393,
      "bro": 394,
      "ckit": 395,
      "dh": 396,
      "do": 397,
      "din": 398,
      "del": 399,
      "denit": 400,
      "dra": 401,
      "dorit": 402,
      "don": 403,
      "dol": 404,
      "dav": 405,
      "eh": 406,
      "es": 407,
      "ezit": 408,
      "eyit": 409,
      "fi": 410,
      "fr": 411,
      "frit": 412,
      "fen": 413,
      "fil": 414,
      "filit": 415,
      "fre": 416,
      "fran": 417,
      "fir": 418,
      "gl": 419,
      "gö": 420,
      "gar": 421,
      "ger": 422,
      "gre": 423,
      "gad": 424,
      "gab": 425,
      "glo": 426,
      "grin": 427,
      "hnit": 428,
      "hal": 429,
      "hol": 430,
      "halit": 431,
      "hop": 432,
      "hoh": 433,
      "heli": 434,
      "iko": 435,
      "ionit": 436,
      "jy": 437,
      "jerit": 438,
      "jarosit": 439,
      "kü": 440,
      "kin": 441,
      "kum": 442,
      "kat": 443,
      "kut": 444,
      "kşist": 445,
      "klau": 446,
      "kza": 447,
      "lonit": 448,
      "mi": 449,
      "merit": 450,
      "men": 451,
      "morit": 452,
      "mol": 453,
      "mim": 454,
      "mot": 455,
      "mut": 456,
      "mpro": 457,
      "ny": 458,
      "nik": 459,
      "ob": 460,
      "ov": 461,
      "oş": 462,
      "ola": 463,
      "okit": 464,
      "ovit": 465,
      "okonit": 466,
      "pel": 467,
      "piy": 468,
      "pak": 469,
      "plum": 470,
      "rt": 471,
      "ru": 472,
      "rö": 473,
      "riy": 474,
      "rut": 475,
      "sö": 476,
      "sar": 477,
      "ssit": 478,
      "sik": 479,
      "sinit": 480,
      "senit": 481,
      "spi": 482,
      "sab": 483,
      "ska": 484,
      "skor": 485,
      "sbergit": 486,
      "sparit": 487,
      "to": 488,
      "tal": 489,
      "tsit": 490,
      "ter": 491,
      "terit": 492,
      "til": 493,
      "tinit": 494,
      "tenit": 495,
      "torit": 496,
      "tom": 497,
      "tre": 498,
      "tellü": 499
    },
    "merges": [
      [
        "i",
        "t"
      ],
      [
        "n",
        "it"
      ],
      [
        "r",
        "it"
      ],
      [
        "l",
        "it"
      ],
      [
        "a",
        "n"
      ],
      [
        "a",
        "r"
      ],
      [
        "r",
        "o"
      ],
      [
        "a",
        "l"
      ],
      [
        "i",
        "n"
      ],
      [
        "s",
        "it"
      ],
      [
        "e",
        "r"
      ],
      [
        "k",
        "o"
      ],
      [
        "s",
        "t"
      ],
      [
        "e",
        "rit"
      ],
      [
        "t",
        "it"
      ],
      [
        "e",
        "n"
      ],
      [
        "e",
        "l"
      ],
      [
        "i",
        "l"
      ],
      [
        "o",
        "r"
      ],
      [
        "o",
        "nit"
      ],
      [
        "l",
        "a"
      ],
      [
        "t",
        "a"
      ],
      [
        "a",
        "m"
      ],
      [
        "i",
        "k"
      ],
      [
        "i",
        "y"
      ],
      [
        "i",
        "nit"
      ],
      [
        "m",
        "a"
      ],
      [
        "i",
        "d"
      ],
      [
        "e",
        "nit"
      ],
      [
        "r",
        "a"
      ],
      [
        "o",
        "lit"
      ],
      [
        "z",
        "it"
      ],
      [
        "d",
        "it"
      ],
      [
        "o",
        "rit"
      ],
      [
        "o",
        "n"
      ],
      [
        "u",
        "m"
      ],
      [
        "k",
        "it"
      ],
      [
        "o",
        "l"
      ],
      [
        "p",
        "i"
      ],
      [
        "b",
        "a"
      ],
      [
        "e",
        "it"
      ],
      [
        "a",
        "t"
      ],
      [
        "i",
        "m"
      ],
      [
        "k",
        "l"
      ],
      [
        "a",
        "nit"
      ],
      [
        "k",
        "al"
      ],
      [
        "r",
        "i"
      ],
      [
        "a",
        "k"
      ],
      [
        "a",
        "lit"
      ],
      [
        "b",
        "er"
      ],
      [
        "o",
        "m"
      ],
      [
        "g",
        "it"
      ],
      [
        "i",
        "lit"
      ],
      [
        "l",
        "e"
      ],
      [
        "m",
        "e"
      ],
      [
        "o",
        "f"
      ],
      [
        "p",
        "a"
      ],
      [
        "i",
        "st"
      ],
      [
        "l",
        "an"
      ],
      [
        "o",
        "t"
      ],
      [
        "u",
        "r"
      ],
      [
        "an",
        "t"
      ],
      [
        "o",
        "s"
      ],
      [
        "r",
        "e"
      ],
      [
        "u",
        "n"
      ],
      [
        "b",
        "it"
      ],
      [
        "k",
        "s"
      ],
      [
        "n",
        "e"
      ],
      [
        "r",
        "an"
      ],
      [
        "u",
        "t"
      ],
      [
        "il",
        "lit"
      ],
      [
        "a",
        "v"
      ],
      [
        "e",
        "d"
      ],
      [
        "i",
        "r"
      ],
      [
        "j",
        "it"
      ],
      [
        "k",
        "ar"
      ],
      [
        "o",
        "k"
      ],
      [
        "o",
        "it"
      ],
      [
        "s",
        "s"
      ],
      [
        "pi",
        "ro"
      ],
      [
        "me",
        "ta"
      ],
      [
        "a",
        "d"
      ],
      [
        "a",
        "sit"
      ],
      [
        "d",
        "iy"
      ],
      [
        "f",
        "er"
      ],
      [
        "i",
        "g"
      ],
      [
        "m",
        "an"
      ],
      [
        "m",
        "on"
      ],
      [
        "t",
        "e"
      ],
      [
        "am",
        "it"
      ],
      [
        "ma",
        "nit"
      ],
      [
        "a",
        "b"
      ],
      [
        "h",
        "e"
      ],
      [
        "k",
        "a"
      ],
      [
        "l",
        "i"
      ],
      [
        "o",
        "p"
      ],
      [
        "p",
        "ar"
      ],
      [
        "s",
        "e"
      ],
      [
        "s",
        "p"
      ],
      [
        "s",
        "onit"
      ],
      [
        "u",
        "l"
      ],
      [
        "u",
        "nit"
      ],
      [
        "y",
        "it"
      ],
      [
        "ş",
        "ist"
      ],
      [
        "kl",
        "in"
      ],
      [
        "d",
        "i"
      ],
      [
        "f",
        "it"
      ],
      [
        "h",
        "id"
      ],
      [
        "k",
        "u"
      ],
      [
        "k",
        "ri"
      ],
      [
        "m",
        "it"
      ],
      [
        "m",
        "ar"
      ],
      [
        "n",
        "a"
      ],
      [
        "t",
        "ra"
      ],
      [
        "v",
        "it"
      ],
      [
        "ko",
        "r"
      ],
      [
        "el",
        "lit"
      ],
      [
        "ta",
        "ş"
      ],
      [
        "a",
        "f"
      ],
      [
        "b",
        "e"
      ],
      [
        "b",
        "i"
      ],
      [
        "d",
        "e"
      ],
      [
        "i",
        "sit"
      ],
      [
        "j",
        "i"
      ],
      [
        "k",
        "t"
      ],
      [
        "k",
        "ro"
      ],
      [
        "l",
        "o"
      ],
      [
        "l",
        "u"
      ],
      [
        "l",
        "in"
      ],
      [
        "l",
        "erit"
      ],
      [
        "m",
        "or"
      ],
      [
        "m",
        "ik"
      ],
      [
        "o",
        "d"
      ],
      [
        "o",
        "j"
      ],
      [
        "v",
        "i"
      ],
      [
        "v",
        "ar"
      ],
      [
        "y",
        "um"
      ],
      [
        "ro",
        "lit"
      ],
      [
        "ko",
        "n"
      ],
      [
        "la",
        "z"
      ],
      [
        "a",
        "g"
      ],
      [
        "a",
        "p"
      ],
      [
        "m",
        "er"
      ],
      [
        "o",
        "h"
      ],
      [
        "o",
        "sit"
      ],
      [
        "p",
        "e"
      ],
      [
        "s",
        "el"
      ],
      [
        "s",
        "il"
      ],
      [
        "s",
        "id"
      ],
      [
        "t",
        "onit"
      ],
      [
        "z",
        "in"
      ],
      [
        "an",
        "tit"
      ],
      [
        "ba",
        "z"
      ],
      [
        "kal",
        "ko"
      ],
      [
        "ber",
        "git"
      ],
      [
        "man",
        "g"
      ],
      [
        "taş",
        "ı"
      ],
      [
        "a",
        "it"
      ],
      [
        "a",
        "tit"
      ],
      [
        "a",
        "ta"
      ],
      [
        "b",
        "r"
      ],
      [
        "f",
        "os"
      ],
      [
        "g",
        "ra"
      ],
      [
        "g",
        "ran"
      ],
      [
        "i",
        "s"
      ],
      [
        "k",
        "i"
      ],
      [
        "l",
        "um"
      ],
      [
        "n",
        "erit"
      ],
      [
        "n",
        "at"
      ],
      [
        "o",
        "y"
      ],
      [
        "p",
        "er"
      ],
      [
        "p",
        "ol"
      ],
      [
        "s",
        "u"
      ],
      [
        "s",
        "in"
      ],
      [
        "s",
        "er"
      ],
      [
        "s",
        "en"
      ],
      [
        "s",
        "iy"
      ],
      [
        "t",
        "ro"
      ],
      [
        "t",
        "in"
      ],
      [
        "t",
        "en"
      ],
      [
        "ar",
        "osit"
      ],
      [
        "ro",
        "d"
      ],
      [
        "al",
        "t"
      ],
      [
        "st",
        "onit"
      ],
      [
        "or",
        "t"
      ],
      [
        "la",
        "u"
      ],
      [
        "pa",
        "rit"
      ],
      [
        "lan",
        "dit"
      ],
      [
        "ji",
        "rit"
      ],
      [
        "a",
        "u"
      ],
      [
        "a",
        "z"
      ],
      [
        "a",
        "rit"
      ],
      [
        "a",
        "pa"
      ],
      [
        "b",
        "l"
      ],
      [
        "b",
        "u"
      ],
      [
        "b",
        "erit"
      ],
      [
        "b",
        "iy"
      ],
      [
        "b",
        "ra"
      ],
      [
        "d",
        "u"
      ],
      [
        "e",
        "v"
      ],
      [
        "e",
        "lit"
      ],
      [
        "e",
        "ro"
      ],
      [
        "f",
        "l"
      ],
      [
        "f",
        "el"
      ],
      [
        "f",
        "illit"
      ],
      [
        "g",
        "ro"
      ],
      [
        "h",
        "it"
      ],
      [
        "i",
        "b"
      ],
      [
        "j",
        "a"
      ],
      [
        "k",
        "ö"
      ],
      [
        "l",
        "ü"
      ],
      [
        "m",
        "u"
      ],
      [
        "m",
        "al"
      ],
      [
        "m",
        "in"
      ],
      [
        "m",
        "el"
      ],
      [
        "n",
        "or"
      ],
      [
        "p",
        "s"
      ],
      [
        "p",
        "la"
      ],
      [
        "p",
        "id"
      ],
      [
        "r",
        "in"
      ],
      [
        "r",
        "en"
      ],
      [
        "s",
        "f"
      ],
      [
        "s",
        "ko"
      ],
      [
        "t",
        "ur"
      ],
      [
        "v",
        "an"
      ],
      [
        "z",
        "o"
      ],
      [
        "z",
        "ü"
      ],
      [
        "ar",
        "dit"
      ],
      [
        "ar",
        "jirit"
      ],
      [
        "ko",
        "b"
      ],
      [
        "ko",
        "nit"
      ],
      [
        "ko",
        "lit"
      ],
      [
        "st",
        "o"
      ],
      [
        "st",
        "ro"
      ],
      [
        "st",
        "il"
      ],
      [
        "en",
        "t"
      ],
      [
        "or",
        "n"
      ],
      [
        "ta",
        "lit"
      ],
      [
        "ik",
        "it"
      ],
      [
        "ma",
        "g"
      ],
      [
        "ma",
        "t"
      ],
      [
        "ma",
        "tit"
      ],
      [
        "um",
        "it"
      ],
      [
        "im",
        "it"
      ],
      [
        "kl",
        "or"
      ],
      [
        "om",
        "it"
      ],
      [
        "om",
        "el"
      ],
      [
        "of",
        "illit"
      ],
      [
        "ks",
        "enit"
      ],
      [
        "ok",
        "laz"
      ],
      [
        "fer",
        "ro"
      ],
      [
        "fer",
        "ri"
      ],
      [
        "hid",
        "rit"
      ],
      [
        "hid",
        "ro"
      ],
      [
        "bi",
        "z"
      ],
      [
        "mang",
        "an"
      ],
      [
        "apa",
        "tit"
      ],
      [
        "a",
        "y"
      ],
      [
        "b",
        "ö"
      ],
      [
        "b",
        "en"
      ],
      [
        "b",
        "or"
      ],
      [
        "b",
        "on"
      ],
      [
        "b",
        "ur"
      ],
      [
        "b",
        "re"
      ],
      [
        "d",
        "al"
      ],
      [
        "d",
        "ellit"
      ],
      [
        "e",
        "m"
      ],
      [
        "e",
        "u"
      ],
      [
        "e",
        "ss"
      ],
      [
        "f",
        "ar"
      ],
      [
        "f",
        "anit"
      ],
      [
        "g",
        "e"
      ],
      [
        "g",
        "al"
      ],
      [
        "g",
        "enit"
      ],
      [
        "g",
        "tonit"
      ],
      [
        "h",
        "i"
      ],
      [
        "h",
        "ö"
      ],
      [
        "h",
        "ar"
      ],
      [
        "h",
        "iy"
      ],
      [
        "h",
        "au"
      ],
      [
        "h",
        "orn"
      ],
      [
        "i",
        "zit"
      ],
      [
        "k",
        "er"
      ],
      [
        "k",
        "am"
      ],
      [
        "k",
        "im"
      ],
      [
        "k",
        "amit"
      ],
      [
        "l",
        "ö"
      ],
      [
        "l",
        "eit"
      ],
      [
        "m",
        "o"
      ],
      [
        "m",
        "ü"
      ],
      [
        "m",
        "il"
      ],
      [
        "o",
        "tit"
      ],
      [
        "o",
        "zit"
      ],
      [
        "o",
        "jit"
      ],
      [
        "p",
        "ro"
      ],
      [
        "p",
        "al"
      ],
      [
        "p",
        "ik"
      ],
      [
        "p",
        "le"
      ],
      [
        "p",
        "lan"
      ],
      [
        "p",
        "ant"
      ],
      [
        "r",
        "ü"
      ],
      [
        "r",
        "am"
      ],
      [
        "s",
        "an"
      ],
      [
        "s",
        "kit"
      ],
      [
        "s",
        "im"
      ],
      [
        "s",
        "ilit"
      ],
      [
        "s",
        "af"
      ],
      [
        "t",
        "i"
      ],
      [
        "t",
        "u"
      ],
      [
        "t",
        "an"
      ],
      [
        "t",
        "or"
      ],
      [
        "u",
        "rit"
      ],
      [
        "v",
        "al"
      ],
      [
        "v",
        "in"
      ],
      [
        "v",
        "er"
      ],
      [
        "v",
        "ol"
      ],
      [
        "y",
        "e"
      ],
      [
        "z",
        "a"
      ],
      [
        "an",
        "k"
      ],
      [
        "an",
        "de"
      ],
      [
        "ar",
        "sen"
      ],
      [
        "ro",
        "nit"
      ],
      [
        "al",
        "sit"
      ],
      [
        "al",
        "tit"
      ],
      [
        "al",
        "la"
      ],
      [
        "in",
        "git"
      ],
      [
        "ko",
        "lum"
      ],
      [
        "st",
        "it"
      ],
      [
        "st",
        "en"
      ],
      [
        "el",
        "i"
      ],
      [
        "el",
        "lü"
      ],
      [
        "il",
        "li"
      ],
      [
        "am",
        "e"
      ],
      [
        "am",
        "ar"
      ],
      [
        "ik",
        "alsit"
      ],
      [
        "id",
        "imit"
      ],
      [
        "pi",
        "rit"
      ],
      [
        "kl",
        "orit"
      ],
      [
        "ot",
        "unit"
      ],
      [
        "ne",
        "zit"
      ],
      [
        "ran",
        "dit"
      ],
      [
        "kar",
        "n"
      ],
      [
        "diy",
        "orit"
      ],
      [
        "par",
        "a"
      ],
      [
        "ul",
        "ar"
      ],
      [
        "klin",
        "o"
      ],
      [
        "ku",
        "var"
      ],
      [
        "lu",
        "sit"
      ],
      [
        "oj",
        "arosit"
      ],
      [
        "ag",
        "onit"
      ],
      [
        "sid",
        "erit"
      ],
      [
        "baz",
        "alt"
      ],
      [
        "ata",
        "kamit"
      ],
      [
        "br",
        "u"
      ],
      [
        "nat",
        "ro"
      ],
      [
        "sto",
        "un"
      ],
      [
        "omel",
        "an"
      ],
      [
        "far",
        "ma"
      ],
      [
        "kolum",
        "bit"
      ],
      [
        "a",
        "i"
      ],
      [
        "a",
        "git"
      ],
      [
        "b",
        "ar"
      ],
      [
        "b",
        "ro"
      ],
      [
        "c",
        "kit"
      ],
      [
        "d",
        "h"
      ],
      [
        "d",
        "o"
      ],
      [
        "d",
        "in"
      ],
      [
        "d",
        "el"
      ],
      [
        "d",
        "enit"
      ],
      [
        "d",
        "ra"
      ],
      [
        "d",
        "orit"
      ],
      [
        "d",
        "on"
      ],
      [
        "d",
        "ol"
      ],
      [
        "d",
        "av"
      ],
      [
        "e",
        "h"
      ],
      [
        "e",
        "s"
      ],
      [
        "e",
        "zit"
      ],
      [
        "e",
        "yit"
      ],
      [
        "f",
        "i"
      ],
      [
        "f",
        "r"
      ],
      [
        "f",
        "rit"
      ],
      [
        "f",
        "en"
      ],
      [
        "f",
        "il"
      ],
      [
        "f",
        "ilit"
      ],
      [
        "f",
        "re"
      ],
      [
        "f",
        "ran"
      ],
      [
        "f",
        "ir"
      ],
      [
        "g",
        "l"
      ],
      [
        "g",
        "ö"
      ],
      [
        "g",
        "ar"
      ],
      [
        "g",
        "er"
      ],
      [
        "g",
        "re"
      ],
      [
        "g",
        "ad"
      ],
      [
        "g",
        "ab"
      ],
      [
        "g",
        "lo"
      ],
      [
        "g",
        "rin"
      ],
      [
        "h",
        "nit"
      ],
      [
        "h",
        "al"
      ],
      [
        "h",
        "ol"
      ],
      [
        "h",
        "alit"
      ],
      [
        "h",
        "op"
      ],
      [
        "h",
        "oh"
      ],
      [
        "h",
        "eli"
      ],
      [
        "i",
        "ko"
      ],
      [
        "i",
        "onit"
      ],
      [
        "j",
        "y"
      ],
      [
        "j",
        "erit"
      ],
      [
        "j",
        "arosit"
      ],
      [
        "k",
        "ü"
      ],
      [
        "k",
        "in"
      ],
      [
        "k",
        "um"
      ],
      [
        "k",
        "at"
      ],
      [
        "k",
        "ut"
      ],
      [
        "k",
        "şist"
      ],
      [
        "k",
        "lau"
      ],
      [
        "k",
        "za"
      ],
      [
        "l",
        "onit"
      ],
      [
        "m",
        "i"
      ],
      [
        "m",
        "erit"
      ],
      [
        "m",
        "en"
      ],
      [
        "m",
        "orit"
      ],
      [
        "m",
        "ol"
      ],
      [
        "m",
        "im"
      ],
      [
        "m",
        "ot"
      ],
      [
        "m",
        "ut"
      ],
      [
        "m",
        "pro"
      ],
      [
        "n",
        "y"
      ],
      [
        "n",
        "ik"
      ],
      [
        "o",
        "b"
      ],
      [
        "o",
        "v"
      ],
      [
        "o",
        "ş"
      ],
      [
        "o",
        "la"
      ],
      [
        "o",
        "kit"
      ],
      [
        "o",
        "vit"
      ],
      [
        "o",
        "konit"
      ],
      [
        "p",
        "el"
      ],
      [
        "p",
        "iy"
      ],
      [
        "p",
        "ak"
      ],
      [
        "p",
        "lum"
      ],
      [
        "r",
        "t"
      ],
      [
        "r",
        "u"
      ],
      [
        "r",
        "ö"
      ],
      [
        "r",
        "iy"
      ],
      [
        "r",
        "ut"
      ],
      [
        "s",
        "ö"
      ],
      [
        "s",
        "ar"
      ],
      [
        "s",
        "sit"
      ],
      [
        "s",
        "ik"
      ],
      [
        "s",
        "init"
      ],
      [
        "s",
        "enit"
      ],
      [
        "s",
        "pi"
      ],
      [
        "s",
        "ab"
      ],
      [
        "s",
        "ka"
      ],
      [
        "s",
        "kor"
      ],
      [
        "s",
        "bergit"
      ],
      [
        "s",
        "parit"
      ],
      [
        "t",
        "o"
      ],
      [
        "t",
        "al"
      ],
      [
        "t",
        "sit"
      ],
      [
        "t",
        "er"
      ],
      [
        "t",
        "erit"
      ],
      [
        "t",
        "il"
      ],
      [
        "t",
        "init"
      ],
      [
        "t",
        "enit"
      ],
      [
        "t",
        "orit"
      ],
      [
        "t",
        "om"
      ],
      [
        "t",
        "re"
      ],
      [
        "t",
        "ellü"
      ]
    ]
  }
}