{
  "version": "1.0",
  "truncation": null,
  "padding": null,
  "added_tokens": [
    {
      "id": 0,
      "content": "<|endoftext|>",
      "single_word": false,
      "lstrip": false,
      "rstrip": false,
      "normalized": false,
      "special": true
    },
    {
      "id": 1,
      "content": "<|im_start|>",
      "single_word": false,
      "lstrip": false,
      "rstrip": false,
      "normalized": false,
      "special": true
    },
    {
      "id": 2,
      "content": "<|im_end|>",
      "single_word": false,
      "lstrip": false,
      "rstrip": false,
      "normalized": false,
      "special": true
    },
    {
      "id": 3,
      "content": "<pad>",
      "single_word": false,
      "lstrip": false,
      "rstrip": false,
      "normalized": false,
      "special": true
    }
  ],
  "normalizer": null,
  "pre_tokenizer": {
    "type": "ByteLevel",
    "add_prefix_space": false,
    "trim_offsets": true,
    "use_regex": true
  },
  "post_processor": {
    "type": "ByteLevel",
    "add_prefix_space": true,
    "trim_offsets": false,
    "use_regex": true
  },
  "decoder": {
    "type": "ByteLevel",
    "add_prefix_space": true,
    "trim_offsets": true,
    "use_regex": true
  },
  "model": {
    "type": "BPE",
    "dropout": null,
    "unk_token": null,
    "continuing_subword_prefix": null,
    "end_of_word_suffix": null,
    "fuse_unk": false,
    "byte_fallback": false,
    "ignore_merges": false,
    "vocab": {
      "<|endoftext|>": 0,
      "<|im_start|>": 1,
      "<|im_end|>": 2,
      "<pad>": 3,
      "!": 4,
      "\"": 5,
      "#": 6,
      "$": 7,
      "%": 8,
      "&": 9,
      "'": 10,
      "(": 11,
      ")": 12,
      "*": 13,
      "+": 14,
      ",": 15,
      "-": 16,
      ".": 17,
      "/": 18,
      "0": 19,
      "1": 20,
      "2": 21,
      "3": 22,
      "4": 23,
      "5": 24,
      "6": 25,
      "7": 26,
      "8": 27,
      "9": 28,
      ":": 29,
      ";": 30,
      "<": 31,
      "=": 32,
      ">": 33,
      "?": 34,
      "@": 35,
      "A": 36,
      "B": 37,
      "C": 38,
      "D": 39,
      "E": 40,
      "F": 41,
      "G": 42,
      "H": 43,
      "I": 44,
      "J": 45,
      "K": 46,
      "L": 47,
      "M": 48,
      "N": 49,
      "O": 50,
      "P": 51,
      "Q": 52,
      "R": 53,
      "S": 54,
      "T": 55,
      "U": 56,
      "V": 57,
      "W": 58,
      "X": 59,
      "Y": 60,
      "Z": 61,
      "[": 62,
      "\\": 63,
      "]": 64,
      "^": 65,
      "_": 66,
      "`": 67,
      "a": 68,
      "b": 69,
      "c": 70,
      "d": 71,
      "e": 72,
      "f": 73,
      "g": 74,
      "h": 75,
      "i": 76,
      "j": 77,
      "k": 78,
      "l": 79,
      "m": 80,
      "n": 81,
      "o": 82,
      "p": 83,
      "q": 84,
      "r": 85,
      "s": 86,
      "t": 87,
      "u": 88,
      "v": 89,
      "w": 90,
      "x": 91,
      "y": 92,
      "z": 93,
      "{": 94,
      "|": 95,
      "}": 96,
      "~": 97,
      "¡": 98,
      "¢": 99,
      "£": 100,
      "¤": 101,
      "¥": 102,
      "¦": 103,
      "§": 104,
      "¨": 105,
      "©": 106,
      "ª": 107,
      "«": 108,
      "¬": 109,
      "®": 110,
      "¯": 111,
      "°": 112,
      "±": 113,
      "²": 114,
      "³": 115,
      "´": 116,
      "µ": 117,
      "¶": 118,
      "·": 119,
      "¸": 120,
      "¹": 121,
      "º": 122,
      "»": 123,
      "¼": 124,
      "½": 125,
      "¾": 126,
      "¿": 127,
      "À": 128,
      "Á": 129,
      "Â": 130,
      "Ã": 131,
      "Ä": 132,
      "Å": 133,
      "Æ": 134,
      "Ç": 135,
      "È": 136,
      "É": 137,
      "Ê": 138,
      "Ë": 139,
      "Ì": 140,
      "Í": 141,
      "Î": 142,
      "Ï": 143,
      "Ð": 144,
      "Ñ": 145,
      "Ò": 146,
      "Ó": 147,
      "Ô": 148,
      "Õ": 149,
      "Ö": 150,
      "×": 151,
      "Ø": 152,
      "Ù": 153,
      "Ú": 154,
      "Û": 155,
      "Ü": 156,
      "Ý": 157,
      "Þ": 158,
      "ß": 159,
      "à": 160,
      "á": 161,
      "â": 162,
      "ã": 163,
      "ä": 164,
      "å": 165,
      "æ": 166,
      "ç": 167,
      "è": 168,
      "é": 169,
      "ê": 170,
      "ë": 171,
      "ì": 172,
      "í": 173,
      "î": 174,
      "ï": 175,
      "ð": 176,
      "ñ": 177,
      "ò": 178,
      "ó": 179,
      "ô": 180,
      "õ": 181,
      "ö": 182,
      "÷": 183,
      "ø": 184,
      "ù": 185,
      "ú": 186,
      "û": 187,
      "ü": 188,
      "ý": 189,
      "þ": 190,
      "ÿ": 191,
      "Ā": 192,
      "ā": 193,
      "Ă": 194,
      "ă": 195,
      "Ą": 196,
      "ą": 197,
      "Ć": 198,
      "ć": 199,
      "Ĉ": 200,
      "ĉ": 201,
      "Ċ": 202,
      "ċ": 203,
      "Č": 204,
      "č": 205,
      "Ď": 206,
      "ď": 207,
      "Đ": 208,
      "đ": 209,
      "Ē": 210,
      "ē": 211,
      "Ĕ": 212,
      "ĕ": 213,
      "Ė": 214,
      "ė": 215,
      "Ę": 216,
      "ę": 217,
      "Ě": 218,
      "ě": 219,
      "Ĝ": 220,
      "ĝ": 221,
      "Ğ": 222,
      "ğ": 223,
      "Ġ": 224,
      "ġ": 225,
      "Ģ": 226,
      "ģ": 227,
      "Ĥ": 228,
      "ĥ": 229,
      "Ħ": 230,
      "ħ": 231,
      "Ĩ": 232,
      "ĩ": 233,
      "Ī": 234,
      "ī": 235,
      "Ĭ": 236,
      "ĭ": 237,
      "Į": 238,
      "į": 239,
      "İ": 240,
      "ı": 241,
      "Ĳ": 242,
      "ĳ": 243,
      "Ĵ": 244,
      "ĵ": 245,
      "Ķ": 246,
      "ķ": 247,
      "ĸ": 248,
      "Ĺ": 249,
      "ĺ": 250,
      "Ļ": 251,
      "ļ": 252,
      "Ľ": 253,
      "ľ": 254,
      "Ŀ": 255,
      "ŀ": 256,
      "Ł": 257,
      "ł": 258,
      "Ń": 259,
      "Ä±": 260,
      "la": 261,
      "Ã¼": 262,
      "da": 263,
      "le": 264,
      "ÅŁ": 265,
      "Ġs": 266,
      "Ä±n": 267,
      "ta": 268,
      "in": 269,
      "de": 270,
      "ma": 271,
      "on": 272,
      "ra": 273,
      "Ã§": 274,
      "Ġk": 275,
      "Ġb": 276,
      "an": 277,
      "Ġo": 278,
      "un": 279,
      "lar": 280,
      "er": 281,
      "en": 282,
      "Ġy": 283,
      "Ġv": 284,
      "Ġi": 285,
      "ir": 286,
      "iy": 287,
      "Ġta": 288,
      "ÄŁ": 289,
      "Ġa": 290,
      "li": 291,
      "Ä±m": 292,
      "ek": 293,
      "Ã¶": 294,
      "Ġve": 295,
      "ar": 296,
      "Ġg": 297,
      "kÄ±m": 298,
      "Ġ2": 299,
      "as": 300,
      "ez": 301,
      "ĠK": 302,
      "ol": 303,
      "Ä±r": 304,
      "Ġka": 305,
      "ĠtakÄ±m": 306,
      "ley": 307,
      "Ġ1": 308,
      "ler": 309,
      "Ä±nda": 310,
      "Ġe": 311,
      "ĠT": 312,
      "oley": 313,
      "up": 314,
      "ya": 315,
      "bol": 316,
      "oleybol": 317,
      "or": 318,
      "Ġ'": 319,
      "ul": 320,
      "ĠA": 321,
      "Ä±l": 322,
      "Ġoy": 323,
      "al": 324,
      "am": 325,
      "gi": 326,
      "lan": 327,
      "ĠS": 328,
      "ezon": 329,
      "Ġh": 330,
      "Ġsezon": 331,
      "ur": 332,
      "Ġd": 333,
      "Ã¼r": 334,
      "Ã¼n": 335,
      "Ġf": 336,
      "Ġt": 337,
      "Ġ20": 338,
      "il": 339,
      "ak": 340,
      "piy": 341,
      "ĠB": 342,
      "iye": 343,
      "ĠL": 344,
      "ÅŁt": 345,
      "inde": 346,
      "ampiy": 347,
      "ampiyon": 348,
      "unda": 349,
      "rak": 350,
      "ĠLi": 351,
      "Ġma": 352,
      "ĠV": 353,
      "Ġol": 354,
      "aÅŁ": 355,
      "ĠÃ¼": 356,
      "me": 357,
      "Ġp": 358,
      "Ġbir": 359,
      "dÄ±n": 360,
      "ĠÃ§": 361,
      "Ġ19": 362,
      "cu": 363,
      "Ã¼rk": 364,
      "ĠmaÃ§": 365,
      "ĠLigi": 366,
      "ne": 367,
      "dÄ±": 368,
      "is": 369,
      "Ġsa": 370,
      "Ġm": 371,
      "ki": 372,
      "lÄ±": 373,
      "ĠsÄ±": 374,
      "Ġde": 375,
      "Ġ(": 376,
      "ĠVoleybol": 377,
      "ti": 378,
      "ĠÅŁ": 379,
      "ĠM": 380,
      "Ã¶r": 381,
      "asÄ±": 382,
      "se": 383,
      "Ġson": 384,
      "Ġya": 385,
      "ĠF": 386,
      "mi": 387,
      "Ã¼rkiye": 388,
      "Ġda": 389,
      "upa": 390,
      "Ġoyn": 391,
      "20": 392,
      "ci": 393,
      "ĠE": 394,
      "arÄ±": 395,
      "Ġli": 396,
      "sÄ±": 397,
      "di": 398,
      "ĠyÄ±l": 399,
      "st": 400,
      "ĠKa": 401,
      "lu": 402,
      "mÄ±": 403,
      "Ä°": 404,
      "Ġoyun": 405,
      "ĠsÄ±ra": 406,
      "lk": 407,
      "tan": 408,
      "ĠTÃ¼rkiye": 409,
      "inal": 410,
      "et": 411,
      "ĠbaÅŁ": 412,
      "Ġ3": 413,
      "den": 414,
      "ĠC": 415,
      "ĠÄ°": 416,
      "ka": 417,
      "ĠÅŁampiyon": 418,
      "Åŀ": 419,
      "si": 420,
      "Ã¼k": 421,
      "len": 422,
      "Ä±nÄ±": 423,
      "lay": 424,
      "ĠKadÄ±n": 425,
      "larÄ±": 426,
      "Ġsezonunda": 427,
      "ĠÅŀ": 428,
      "Ġal": 429,
      "larak": 430,
      "Ġvoleybol": 431,
      "vr": 432,
      "inci": 433,
      "Ġilk": 434,
      "ĠÃ¶": 435,
      "Ġan": 436,
      "du": 437,
      "te": 438,
      "onu": 439,
      "ÄŁi": 440,
      "ce": 441,
      "nda": 442,
      "sa": 443,
      "ĠsÄ±rada": 444,
      "ĠG": 445,
      "Ġfinal": 446,
      "ĠÅŀampiyon": 447,
      "zan": 448,
      "Ġolarak": 449,
      "Ġlig": 450,
      "Ġyap": 451,
      "'d": 452,
      "dÄ±r": 453,
      "upasÄ±": 454,
      "yÄ±": 455,
      "el": 456,
      "ĠKupasÄ±": 457,
      "Ġoyuncu": 458,
      "vrupa": 459,
      "op": 460,
      "iz": 461,
      "ĠÃ¼Ã§": 462,
      "Ġn": 463,
      "mam": 464,
      "Ġtamam": 465,
      "ĠKadÄ±nlar": 466,
      "ĠD": 467,
      "ine": 468,
      "at": 469,
      "Ġ,": 470,
      "Ġile": 471,
      "Ġkazan": 472,
      "Ġet": 473,
      "Ä±k": 474,
      "ĠAvrupa": 475,
      "ca": 476,
      "ÄŁÄ±": 477,
      "ah": 478,
      "cÃ¼": 479,
      "ri": 480,
      "ĠP": 481,
      "Ġ201": 482,
      "Ġsah": 483,
      "ede": 484,
      "kinci": 485,
      "ener": 486,
      "ras": 487,
      "Ã§e": 488,
      "ĠmÃ¼": 489,
      "Ġu": 490,
      "laÅŁ": 491,
      "Ġ202": 492,
      "ĠiÃ§": 493,
      "ĠdÃ¼": 494,
      "mak": 495,
      "Ġiki": 496,
      "lik": 497,
      "Ã¼ncÃ¼": 498,
      "za": 499,
      "Ġise": 500,
      "ĠtakÄ±mÄ±": 501,
      "por": 502,
      "ÅŁtir": 503,
      "ey": 504,
      "mu": 505,
      "Ġoldu": 506,
      "ĠÃ": 507,
      "Ä±na": 508,
      "Ġkez": 509,
      "ulÃ¼": 510,
      "Ġtop": 511,
      "ĠyÄ±lÄ±nda": 512,
      "Ġbu": 513,
      "EV": 514,
      "ÅŁÄ±": 515,
      "ĠÃ¼st": 516,
      "Ġoynan": 517,
      "it": 518,
      "nde": 519,
      "ib": 520,
      "larÄ±nda": 521,
      "akÄ±m": 522,
      "eÅŁ": 523,
      "ĠO": 524,
      "Ġpas": 525,
      "Ġge": 526,
      "19": 527,
      "ik": 528,
      "ÅŁtÄ±r": 529,
      "ini": 530,
      "unu": 531,
      "eni": 532,
      "Ġver": 533,
      "ĠyÃ¼k": 534,
      "ĠtakÄ±mÄ±n": 535,
      "ĠÃ¶n": 536,
      "Ä±ÅŁ": 537,
      "Ġger": 538,
      "cÄ±": 539,
      "cak": 540,
      "yla": 541,
      "Ġkar": 542,
      "mÄ±ÅŁ": 543,
      "ahÃ§e": 544,
      "tr": 545,
      "dan": 546,
      "masÄ±": 547,
      "ĠTakÄ±m": 548,
      "rih": 549,
      "ĠCEV": 550,
      "bahÃ§e": 551,
      "enerbahÃ§e": 552,
      "man": 553,
      "ĠbÃ¶": 554,
      "Ġtarih": 555,
      "es": 556,
      "luÄŁ": 557,
      "dir": 558,
      "dele": 559,
      "leri": 560,
      "Ġsezonu": 561,
      "cadele": 562,
      "kek": 563,
      "lÃ¼": 564,
      "Ġne": 565,
      "yon": 566,
      "ĠH": 567,
      "ĠÃ¼Ã§Ã¼ncÃ¼": 568,
      "Ġtek": 569,
      "Ġ200": 570,
      "rek": 571,
      "Ä±lan": 572,
      "Ġha": 573,
      "ĠmÃ¼cadele": 574,
      "ĠY": 575,
      "ĠkarÅŁÄ±": 576,
      "ff": 577,
      "ip": 578,
      "lama": 579,
      "rar": 580,
      "dÄ±ÄŁÄ±": 581,
      "Ġoyna": 582,
      "Ġhak": 583,
      "miÅŁtir": 584,
      "Ġkat": 585,
      "ĠiÃ§in": 586,
      "202": 587,
      "Ġikinci": 588,
      "Ġalt": 589,
      "ederas": 590,
      "em": 591,
      "ok": 592,
      "Ä±ndan": 593,
      "mÄ±ÅŁtÄ±r": 594,
      "ĠÅŀampiyonasÄ±": 595,
      "Ġser": 596,
      "Ġsonra": 597,
      "Ġtamamla": 598,
      "nÄ±": 599,
      "ro": 600,
      "Ġalan": 601,
      "ub": 602,
      "Ġay": 603,
      "Ġar": 604,
      "ibi": 605,
      "Ġkonu": 606,
      "Ġolan": 607,
      "Ġel": 608,
      "orma": 609,
      "ĠdÃ¼z": 610,
      "larÄ±nÄ±": 611,
      "ĠFenerbahÃ§e": 612,
      "ultan": 613,
      "ilir": 614,
      "ile": 615,
      "ĠBu": 616,
      "luk": 617,
      "va": 618,
      "yonu": 619,
      "Ã¼cu": 620,
      "ĠSpor": 621,
      "Ġbit": 622,
      "Ġen": 623,
      "Ġkur": 624,
      "una": 625,
      "Ġyer": 626,
      "ĠSultan": 627,
      "baÅŁ": 628,
      "ken": 629,
      "Ġ5": 630,
      "Ä±nÄ±n": 631,
      "ĠkadÄ±n": 632,
      "kan": 633,
      "tÄ±r": 634,
      "Ġgr": 635,
      "layan": 636,
      "ge": 637,
      "Ġ4": 638,
      "Ġer": 639,
      "Ġrak": 640,
      "ĠKulÃ¼": 641,
      "Ã¶re": 642,
      "yan": 643,
      "tren": 644,
      "ĠbÃ¶l": 645,
      "ĠkatÄ±l": 646,
      "ederasyonu": 647,
      "vis": 648,
      "Ġbul": 649,
      "ĠyarÄ±": 650,
      "Ġsonu": 651,
      "Ġher": 652,
      "ÅŁtur": 653,
      "ĠÃ§iz": 654,
      "vam": 655,
      "âĢ": 656,
      "Ġ199": 657,
      "ĠgeÃ§": 658,
      "ĠyÃ¼kse": 659,
      "ele": 660,
      "lara": 661,
      "inin": 662,
      "ĠaÃ§": 663,
      "ĠhÃ¼cu": 664,
      "Ġ196": 665,
      "oÄŁ": 666,
      "Ġset": 667,
      "ĠgÃ¶": 668,
      "ĠÄ°s": 669,
      "ĠÃ¶nce": 670,
      "Ġbitir": 671,
      "ĠÅŁampiyonluÄŁ": 672,
      "Ġetti": 673,
      "ĠhÃ¼cum": 674,
      "pon": 675,
      "Ġyeni": 676,
      "ĠSultanlar": 677,
      "ĠR": 678,
      "ray": 679,
      "Ġkay": 680,
      "ĠLig": 681,
      "ĠGa": 682,
      "Ġtarihinde": 683,
      "yun": 684,
      "Ġ\"": 685,
      "dar": 686,
      "maya": 687,
      "bul": 688,
      "lÃ": 689,
      "ĠyapÄ±lan": 690,
      "cek": 691,
      "ye": 692,
      "lata": 693,
      "Ġse": 694,
      "ana": 695,
      "larda": 696,
      "ĠgÃ¶re": 697,
      "ulu": 698,
      "ĠÃ§Ä±k": 699,
      "ĠdÃ¼zen": 700,
      "ura": 701,
      "Ġ197": 702,
      "ĠbaÅŁarÄ±": 703,
      "cza": 704,
      "ĠAn": 705,
      "Ã¼nya": 706,
      "Ġtur": 707,
      "cÄ±baÅŁ": 708,
      "czacÄ±baÅŁ": 709,
      "czacÄ±baÅŁÄ±": 710,
      "tab": 711,
      "malÄ±": 712,
      "Ġor": 713,
      "tanbul": 714,
      "saray": 715,
      "ĠÅŀampiyonlar": 716,
      "Ġsaha": 717,
      "âĢĻ": 718,
      "latasaray": 719,
      "az": 720,
      "sor": 721,
      "um": 722,
      "Ġspon": 723,
      "ĠAr": 724,
      "Ġsponsor": 725,
      "Ġ6": 726,
      "taÅŁ": 727,
      "raf": 728,
      "iyor": 729,
      "ĠBeÅŁ": 730,
      "ĠmaÃ§larÄ±": 731,
      "ĠdÃ¼ÅŁ": 732,
      "iktaÅŁ": 733,
      "ĠÄ°stanbul": 734,
      "be": 735,
      "iyle": 736,
      "Ġkal": 737,
      "iyet": 738,
      "inden": 739,
      "elir": 740,
      "Ġhakk": 741,
      "Ġki": 742,
      "Ġtaraf": 743,
      "Ġligi": 744,
      "Ġservis": 745,
      "Ġbulun": 746,
      "tÄ±": 747,
      "rasÄ±": 748,
      "Ġolmu": 749,
      "ĠMil": 750,
      "ĠFederasyonu": 751,
      "eyrek": 752,
      "Ġkonus": 753,
      "fe": 754,
      "ut": 755,
      "ĠN": 756,
      "mas": 757,
      "unun": 758,
      "Ġplay": 759,
      "lÄ±k": 760,
      "lenen": 761,
      "Ġanla": 762,
      "ĠÃľ": 763,
      "ĠyÃ¼ksel": 764,
      "lÃ®": 765,
      "bilir": 766,
      "ver": 767,
      "ĠsÃ¼r": 768,
      "ina": 769,
      "ĠkulÃ¼": 770,
      "ĠKupa": 771,
      "ĠÃ§al": 772,
      "ĠsayÄ±": 773,
      "ĠEr": 774,
      "ĠÄ°kinci": 775,
      "ĠDÃ¼nya": 776,
      "na": 777,
      "sek": 778,
      "ten": 779,
      "Ġc": 780,
      "ank": 781,
      "ark": 782,
      "Ġkadar": 783,
      "ĠEczacÄ±baÅŁÄ±": 784,
      "ĠÃĩ": 785,
      "ĠpasÃ¶r": 786,
      "Ġtekrar": 787,
      "ĠKulÃ¼b": 788,
      "re": 789,
      "sÄ±n": 790,
      "Ġdevam": 791,
      "Ġfinalde": 792,
      "ĠOyun": 793,
      ".,": 794,
      "nu": 795,
      "Ġek": 796,
      "Ġiti": 797,
      "asÄ±l": 798,
      "isi": 799,
      "ĠFinal": 800,
      "ĠnasÄ±l": 801,
      "Ġkazanan": 802,
      "kekler": 803,
      "ĠGalatasaray": 804,
      "ĠBeÅŁiktaÅŁ": 805,
      "im": 806,
      "maÃ§": 807,
      "Ġbelir": 808,
      "lim": 809,
      "ĠtakÄ±mlar": 810,
      "Ġelde": 811,
      "Ġorta": 812,
      "ha": 813,
      "yor": 814,
      "Ä±z": 815,
      "ĠgÃ¼n": 816,
      "yarak": 817,
      "Ġoynanan": 818,
      "bar": 819,
      "uÅŁ": 820,
      "Ġz": 821,
      "Ġev": 822,
      "Ġede": 823,
      "Ġ198": 824,
      "muz": 825,
      "Ġgerek": 826,
      "ĠÃ§izgi": 827,
      "ĠolmuÅŁtur": 828,
      "mek": 829,
      "Ã¼m": 830,
      "ran": 831,
      "ÄŁu": 832,
      "liÄŁ": 833,
      "ĠSarÄ±": 834,
      "ĠÃ§eyrek": 835,
      "ĠTakÄ±mÄ±": 836,
      "ĠaÃ§Ä±k": 837,
      "nÄ±n": 838,
      "Ġr": 839,
      "Ä±f": 840,
      "Ġkupa": 841,
      "Ġyak": 842,
      "Ã¶ne": 843,
      "armak": 844,
      "ĠAy": 845,
      "Ġfile": 846,
      "Ġmil": 847,
      "ĠÅŁampiyonu": 848,
      "Ġuz": 849,
      "ĠoynanÄ±r": 850,
      "ali": 851,
      "cunda": 852,
      "su": 853,
      "Ġkol": 854,
      "eri": 855,
      "Ã¶n": 856,
      "Ġfina": 857,
      "Ġligde": 858,
      "Ġsonucunda": 859,
      "),": 860,
      "nin": 861,
      "Ġ8": 862,
      "Ġbil": 863,
      "Ġsonunda": 864,
      "trenÃ¶r": 865,
      "ĠÃ§alÄ±ÅŁ": 866,
      "ĠmillÃ®": 867,
      "aÄŁ": 868,
      "bet": 869,
      "Ã¼y": 870,
      "Ã¼z": 871,
      "Ġgibi": 872,
      "ĠanlaÅŁ": 873,
      "Ġbitiren": 874,
      "ĠhakkÄ±nda": 875,
      "TÃ¼rkiye": 876,
      "uma": 877,
      "tal": 878,
      "enel": 879,
      "liÄŁi": 880,
      "Ġgir": 881,
      "aka": 882,
      "ĠBir": 883,
      "Ġolur": 884,
      "200": 885,
      "ĠaynÄ±": 886,
      "ama": 887,
      "kler": 888,
      "erek": 889,
      "Ġeden": 890,
      "ĠdÃ¶r": 891,
      "Ġfark": 892,
      "ĠVak": 893,
      "ĠEfe": 894,
      "Ġligin": 895,
      "Ġtamamlayan": 896,
      "ormal": 897,
      "ĠKulÃ¼bÃ¼": 898,
      "IV": 899,
      "Ġspor": 900,
      "ĠsmaÃ§": 901,
      "tas": 902,
      "Ġyener": 903,
      "ĠTV": 904,
      "ÅŁtÄ±": 905,
      "Ġtopu": 906,
      "Ġgrup": 907,
      "IVB": 908,
      "bank": 909,
      "baka": 910,
      "cisi": 911,
      "ni": 912,
      "Ġza": 913,
      "ĠTÃ¼rk": 914,
      "ĠdÄ±ÅŁ": 915,
      "Ġparmak": 916,
      "Ġ195": 917,
      "ĠdeÄŁ": 918,
      "miÅŁ": 919,
      "ĠÅŁampiyonluk": 920,
      "sabaka": 921,
      "rasÄ±nda": 922,
      "Ġrakip": 923,
      "Ġturnu": 924,
      "ĠtarafÄ±ndan": 925,
      "zer": 926,
      "ĠU": 927,
      "Ä±sÄ±n": 928,
      "Ġken": 929,
      "ĠgÃ¼": 930,
      "ĠsÄ±k": 931,
      "ĠMe": 932,
      "ĠMÃ¼": 933,
      "201": 934,
      "ĠÃ¶ne": 935,
      "Ġnormal": 936,
      "ĠbÃ¶lg": 937,
      "ĠdÃ¼zenlenen": 938,
      "Ġitibar": 939,
      "Ã¼yÃ¼k": 940,
      "Ġyenerek": 941,
      "'t": 942,
      "Voleybol": 943,
      "lup": 944,
      "tir": 945,
      "Ġ7": 946,
      "leme": 947,
      "Ġat": 948,
      "ari": 949,
      "lerin": 950,
      "Ġnuma": 951,
      "Ġfinale": 952,
      "ĠVakÄ±f": 953,
      "dÃ¼r": 954,
      "rÄ±": 955,
      "yle": 956,
      "tap": 957,
      "ÄŁlup": 958,
      "Ġveya": 959,
      "asÄ±nda": 960,
      "ĠeÅŁ": 961,
      "Ġfi": 962,
      "ĠÃ¼zer": 963,
      "Ġyay": 964,
      "ster": 965,
      "ĠPlay": 966,
      "Ġverme": 967,
      "ĠyÃ¼ksek": 968,
      "Ġtamamlayarak": 969,
      "Ġarka": 970,
      "Ġgrub": 971,
      "ĠgÃ¶ster": 972,
      "ĠkulÃ¼p": 973,
      "ĠErkekler": 974,
      "Ġitibaren": 975,
      "ber": 976,
      "ĠarasÄ±nda": 977,
      "ekil": 978,
      "leye": 979,
      "met": 980,
      "kika": 981,
      "ĠFIVB": 982,
      "Ġdakika": 983,
      "Ġevinde": 984,
      "ĠanlaÅŁmasÄ±": 985,
      "sÄ±nda": 986,
      "lam": 987,
      "ÅŁi": 988,
      "larÄ±n": 989,
      "Ġed": 990,
      "alkan": 991,
      "Ġte": 992,
      "piyat": 993,
      "ĠMa": 994,
      "ĠbaÅŁla": 995,
      "kadÄ±n": 996,
      "ĠetmiÅŁtir": 997,
      "Ġ2019": 998,
      "Ġ2021": 999,
      "ĠkarÅŁÄ±laÅŁ": 1000,
      "Ġerkek": 1001,
      "Ġkonusunu": 1002,
      "limpiyat": 1003,
      "ĠTVF": 1004,
      "ig": 1005,
      "om": 1006,
      "sine": 1007,
      "angi": 1008,
      "Ġara": 1009,
      "Ġetab": 1010,
      "Ġfa": 1011,
      "ĠolmalÄ±": 1012,
      "iste": 1013,
      "ĠdeÄŁi": 1014,
      "Ġoyuncuya": 1015,
      "ĠPas": 1016,
      "Ġkurul": 1017,
      "ĠbÃ¶lge": 1018,
      "lararasÄ±": 1019,
      "Ġsponsorluk": 1020,
      "Ġcm": 1021,
      "ĠEfeler": 1022,
      "Ġturnuva": 1023,
      "Ġnumara": 1024,
      "ĠyayÄ±n": 1025,
      "Off": 1026,
      "acak": 1027,
      "biyet": 1028,
      "dur": 1029,
      "sun": 1030,
      "Ġoff": 1031,
      "larÄ±nÄ±n": 1032,
      "Ġgali": 1033,
      "ullan": 1034,
      "Ġdur": 1035,
      "ĠBalkan": 1036,
      "ĠEtap": 1037,
      "Ġhaf": 1038,
      "tasyon": 1039,
      "25": 1040,
      "off": 1041,
      "yi": 1042,
      "Ġme": 1043,
      "tadÄ±r": 1044,
      "Ġbas": 1045,
      "Ġis": 1046,
      "Ġkarar": 1047,
      "Ġ10": 1048,
      "ĠmaÃ§larÄ±nÄ±": 1049,
      "Ġdaha": 1050,
      "Ġoynar": 1051,
      "civer": 1052,
      "ĠbaÅŁlayan": 1053,
      "Ġ2026": 1054,
      "maktadÄ±r": 1055,
      "ĠettiÄŁi": 1056,
      "ĠanlatÄ±r": 1057,
      "civert": 1058,
      "ap": 1059,
      "arak": 1060,
      "dÃ¼ncÃ¼": 1061,
      "ulan": 1062,
      "Ġon": 1063,
      "let": 1064,
      "Ġkullan": 1065,
      "larla": 1066,
      "larÄ±na": 1067,
      "Ġsezonda": 1068,
      "mesi": 1069,
      "ĠGr": 1070,
      "ĠulaÅŁ": 1071,
      "Ġ2023": 1072,
      "198": 1073,
      "kanÄ±": 1074,
      "dro": 1075,
      "lÃ¼k": 1076,
      "os": 1077,
      "slararasÄ±": 1078,
      "las": 1079,
      "der": 1080,
      "Ġkura": 1081,
      "ĠbeÅŁ": 1082,
      "anÄ±n": 1083,
      "ÄŁÄ±r": 1084,
      "Ġkap": 1085,
      "Ġ2020": 1086,
      "istan": 1087,
      "tik": 1088,
      "tim": 1089,
      "ĠÄ°tal": 1090,
      "ĠmÃ¼sabaka": 1091,
      "199": 1092,
      "Ġhata": 1093,
      "ĠoynadÄ±ÄŁÄ±": 1094,
      "ĠÅŁampiyonluÄŁuna": 1095,
      "ĠMilli": 1096,
      "Ġuzun": 1097,
      "Ġzaman": 1098,
      "ĠgÃ¼Ã§": 1099,
      "civertli": 1100,
      "hal": 1101,
      "ilen": 1102,
      "kin": 1103,
      "kas": 1104,
      "oz": 1105,
      "pÄ±": 1106,
      "Ġ9": 1107,
      "Ġro": 1108,
      "leÅŁ": 1109,
      "dece": 1110,
      "onf": 1111,
      "lardan": 1112,
      "Ġyan": 1113,
      "ĠyÃ¶ne": 1114,
      "Ġvur": 1115,
      "Ġad": 1116,
      "Ġ16": 1117,
      "Ä±lmÄ±ÅŁ": 1118,
      "Ġdiz": 1119,
      "ildi": 1120,
      "ĠmaÃ§Ä±": 1121,
      "Ġantren": 1122,
      "ĠÃ¼ste": 1123,
      "Ġsahada": 1124,
      "liÄŁinde": 1125,
      "ĠdÃ¶rdÃ¼ncÃ¼": 1126,
      "Ġfileye": 1127,
      "Ġgalibiyet": 1128,
      "FenerbahÃ§e": 1129,
      "vi": 1130,
      "Ġ/": 1131,
      "Ġce": 1132,
      "laÅŁtÄ±": 1133,
      "enÃ§": 1134,
      "Ġtak": 1135,
      "ÄŁin": 1136,
      "lerinde": 1137,
      "ĠSe": 1138,
      "Ġhangi": 1139,
      "Ġforma": 1140,
      "ĠmÄ±sÄ±n": 1141,
      "ĠÅŁekil": 1142,
      "ĠyÄ±lÄ±": 1143,
      "ĠalÄ±n": 1144,
      "Ġ2025": 1145,
      "ĠolduÄŁu": 1146,
      "ĠÃĸ": 1147,
      "ĠbÃ¶lÃ¼": 1148,
      "Ġkaybet": 1149,
      "arih": 1150,
      "ĠPasÃ¶r": 1151,
      "ĠyayÄ±nlan": 1152,
      "Ġismi": 1153,
      "26": 1154,
      "nun": 1155,
      "ÅŁe": 1156,
      "tar": 1157,
      "manda": 1158,
      "rab": 1159,
      "ene": 1160,
      "enk": 1161,
      "Ġtam": 1162,
      "Ġveda": 1163,
      "Ġ15": 1164,
      "lerek": 1165,
      "yapÄ±": 1166,
      "ilmiÅŁtir": 1167,
      "Ġsav": 1168,
      "Ġsadece": 1169,
      "ĠMele": 1170,
      "ĠChal": 1171,
      "lenge": 1172,
      "Ġnok": 1173,
      "Ġetme": 1174,
      "Ġ2012": 1175,
      "ĠVakÄ±fbank": 1176,
      "ĠMelekler": 1177,
      "ĠChallenge": 1178,
      "eli": 1179,
      "if": 1180,
      "nden": 1181,
      "sini": 1182,
      "maz": 1183,
      "ĠbaÄŁ": 1184,
      "ĠbÃ¼yÃ¼k": 1185,
      "Ġomuz": 1186,
      "Ġyen": 1187,
      "ĠyÃ¼z": 1188,
      "ÄŁer": 1189,
      "Ġaz": 1190,
      "Ġes": 1191,
      "orta": 1192,
      "ĠSa": 1193,
      "Ġsezonuna": 1194,
      "Ã¼ne": 1195,
      "ĠBaÅŁ": 1196,
      "ĠulaÅŁtÄ±": 1197,
      "Ġverir": 1198,
      "Ġrakib": 1199,
      "ĠgeÃ§ti": 1200,
      "ĠyÃ¼kseldi": 1201,
      "Ġzor": 1202,
      "mekte": 1203,
      "Ġfaal": 1204,
      "ĠÅŁekilde": 1205,
      "ĠbÃ¶lÃ¼m": 1206,
      "ara": 1207,
      "dÄ±ndan": 1208,
      "hmet": 1209,
      "liy": 1210,
      "sÃ¼": 1211,
      "ĠsÄ±n": 1212,
      "Ġsiste": 1213,
      "Ã§ra": 1214,
      "Ġko": 1215,
      "Ġbo": 1216,
      "Ã¶yle": 1217,
      "ĠKonf": 1218,
      "lerde": 1219,
      "Ä±lÄ±": 1220,
      "Ġhem": 1221,
      "ĠdoÄŁ": 1222,
      "ĠmaÄŁlup": 1223,
      "ĠmaÃ§ta": 1224,
      "ĠkazanÄ±r": 1225,
      "ĠkazandÄ±": 1226,
      "tre": 1227,
      "lÃ¼ÄŁ": 1228,
      "ĠaltÄ±n": 1229,
      "ĠKulÃ¼p": 1230,
      "eled": 1231,
      "Ġyeniden": 1232,
      "ĠgÃ¶rev": 1233,
      "ĠArkas": 1234,
      "ĠOyuncu": 1235,
      "Ġkaybetti": 1236,
      "liyim": 1237,
      "ĠsÄ±nÄ±r": 1238,
      "22": 1239,
      "An": 1240,
      "zon": 1241,
      "ĠJ": 1242,
      "Ġrek": 1243,
      "laj": 1244,
      "raz": 1245,
      "Ġyine": 1246,
      "Ġim": 1247,
      "Ġaya": 1248,
      "ĠadÄ±n": 1249,
      "ĠaÄŁÄ±r": 1250,
      "ĠTem": 1251,
      "Ä±lÄ±r": 1252,
      "Ġdiye": 1253,
      "ĠdÃ¶n": 1254,
      "Ã¼nde": 1255,
      "ĠBeled": 1256,
      "ĠVoley": 1257,
      "ĠÃ¼ye": 1258,
      "Ġpu": 1259,
      "ĠmaÃ§Ä±nda": 1260,
      "ĠsaÄŁ": 1261,
      "lÄ±ÄŁÄ±": 1262,
      "ĠEtab": 1263,
      "lenir": 1264,
      "layÄ±": 1265,
      "Ġsezonundan": 1266,
      "luÄŁu": 1267,
      "2025": 1268,
      "ĠÃ¶ncesi": 1269,
      "Ġkonusunda": 1270,
      "ĠyaklaÅŁ": 1271,
      "ĠMÃ¼dÃ¼r": 1272,
      "ĠGrub": 1273,
      "arihÃ§e": 1274,
      "rabzon": 1275,
      "Ġnokta": 1276,
      "Ġfaaliyet": 1277,
      "ĠBelediye": 1278,
      "Yeni": 1279,
      "gan": 1280,
      "our": 1281,
      "ru": 1282,
      "van": 1283,
      "yÄ±m": 1284,
      "Ġulu": 1285,
      "ĠkÄ±": 1286,
      "Ġbe": 1287,
      "enin": 1288,
      "Ġil": 1289,
      "Ġ14": 1290,
      "ĠhÄ±z": 1291,
      "ĠsezonlarÄ±nda": 1292,
      "Ġtem": 1293,
      "ĠÃ§ok": 1294,
      "isinde": 1295,
      "2020": 1296,
      "ĠbaÅŁlan": 1297,
      "ĠGÃ¼n": 1298,
      "ĠGenel": 1299,
      "Ġgere": 1300,
      "ĠsonrasÄ±": 1301,
      "ĠardÄ±ndan": 1302,
      "vap": 1303,
      "Ġyenilerek": 1304,
      "ĠkiÅŁi": 1305,
      "ĠsÃ¼re": 1306,
      "Ġmetre": 1307,
      "ilenin": 1308,
      "Ġrotasyon": 1309,
      "Ġcevap": 1310,
      "Ġimza": 1311,
      "00": 1312,
      "han": 1313,
      "iÅŁ": 1314,
      "iÄŁer": 1315,
      "plas": 1316,
      "Ãľ": 1317,
      "Ä±p": 1318,
      "labilir": 1319,
      "Ġsorma": 1320,
      "ĠsÃ¶yle": 1321,
      "devam": 1322,
      "Ġbile": 1323,
      "Ġbana": 1324,
      "lardÄ±r": 1325,
      "Ġama": 1326,
      "Ġgeni": 1327,
      "Ġ21": 1328,
      "Ġkadro": 1329,
      "lerini": 1330,
      "ĠTrabzon": 1331,
      "ĠAl": 1332,
      "ĠSÄ±r": 1333,
      "ĠSig": 1334,
      "Ġdo": 1335,
      "ĠBe": 1336,
      "ÅŁti": 1337,
      "Ġbirlik": 1338,
      "isin": 1339,
      "isyon": 1340,
      "Ġsaat": 1341,
      "Ġmisin": 1342,
      "lÄ±ÄŁ": 1343,
      "Ġyaz": 1344,
      "sim": 1345,
      "Ġ2010": 1346,
      "likle": 1347,
      "197": 1348,
      "Ġtarihlerinde": 1349,
      "ederasyon": 1350,
      "ube": 1351,
      "ĠayrÄ±": 1352,
      "Ġkonuda": 1353,
      "best": 1354,
      "ĠkaldÄ±": 1355,
      "Ġanlat": 1356,
      "Ġbilgi": 1357,
      "trenÃ¶rÃ¼m": 1358,
      "ĠdeÄŁil": 1359,
      "Ġvermeliyim": 1360,
      "letler": 1361,
      "ĠbaÄŁlam": 1362,
      "ĠBaÅŁkanÄ±": 1363,
      "AntrenÃ¶rÃ¼m": 1364,
      "ĠTemmuz": 1365,
      "ĠsormamÄ±": 1366,
      "ĠsÃ¶yledi": 1367,
      "devamÄ±": 1368,
      "ĠgeniÅŁ": 1369,
      "ĠSigorta": 1370,
      "ay": 1371,
      "cunun": 1372,
      "mÃ¼": 1373,
      "sil": 1374,
      "uk": 1375,
      "mayÄ±": 1376,
      "erf": 1377,
      "ĠyaÅŁ": 1378,
      "ĠatÄ±": 1379,
      "asyon": 1380,
      "ĠAs": 1381,
      "Ġfaz": 1382,
      "Ġpoz": 1383,
      "kara": 1384,
      "siz": 1385,
      "Ġancak": 1386,
      "Ġoyuncusu": 1387,
      "Ġsahibi": 1388,
      "ĠsahasÄ±nda": 1389,
      "Ġtopa": 1390,
      "ĠOlimpiyat": 1391,
      "Ġkurulu": 1392,
      "ĠkatÄ±lmaya": 1393,
      "ĠÃ§izg": 1394,
      "ĠseÃ§": 1395,
      "ĠÃ§Ä±kar": 1396,
      "ĠAncak": 1397,
      "ĠMilletler": 1398,
      "Ġgerekir": 1399,
      "ĠyakÄ±n": 1400,
      "ĠMaÃ§": 1401,
      "kincisi": 1402,
      "ĠdoÄŁru": 1403,
      "Ġfazla": 1404,
      "Ġpozisyon": 1405,
      ".'": 1406,
      "bir": 1407,
      "lo": 1408,
      "mez": 1409,
      "sÄ±nÄ±": 1410,
      "us": 1411,
      "daÄŁ": 1412,
      "leÅŁtir": 1413,
      "Ġyol": 1414,
      "Ġisim": 1415,
      "Ġata": 1416,
      "Ġ25": 1417,
      "landÄ±r": 1418,
      "Ġhar": 1419,
      "Ġolu": 1420,
      "Ġdeplas": 1421,
      "Ġdah": 1422,
      "ĠbaÅŁar": 1423,
      "ĠDa": 1424,
      "ĠsahanÄ±n": 1425,
      "esmi": 1426,
      "Ġ2003": 1427,
      "ĠkarÅŁÄ±lama": 1428,
      "2021": 1429,
      "Ġserbest": 1430,
      "ĠtamamlamÄ±ÅŁ": 1431,
      "Ġkurulan": 1432,
      "ĠkatÄ±lma": 1433,
      "oÄŁlu": 1434,
      "ĠÅŁampiyonluÄŁu": 1435,
      "Ġsebe": 1436,
      "iyorsun": 1437,
      "ĠkulÃ¼b": 1438,
      "Ġbiliyorsun": 1439,
      "ĠBirinci": 1440,
      "civertliler": 1441,
      "mektedir": 1442,
      "ĠadÄ±nÄ±": 1443,
      "Ġbirlikte": 1444,
      "ĠbaÄŁlamÄ±nda": 1445,
      "Bana": 1446,
      "bi": 1447,
      "min": 1448,
      "san": 1449,
      "ÅŁet": 1450,
      "demi": 1451,
      "madan": 1452,
      "Ġkon": 1453,
      "ĠkÄ±r": 1454,
      "ervis": 1455,
      "ĠiÅŁ": 1456,
      "ÄŁinde": 1457,
      "eki": 1458,
      "Ġ12": 1459,
      "Ä±ldÄ±": 1460,
      "alinde": 1461,
      "Ġhalinde": 1462,
      "Ġtut": 1463,
      "ĠolmasÄ±": 1464,
      "Ġpan": 1465,
      "ĠyÄ±lÄ±ndan": 1466,
      "ĠHa": 1467,
      "ĠHer": 1468,
      "ĠtamamladÄ±": 1469,
      "ĠtamamlamÄ±ÅŁtÄ±r": 1470,
      "Ġkaybe": 1471,
      "ĠbaÅŁarÄ±sÄ±": 1472,
      "ĠAnkara": 1473,
      "yorsa": 1474,
      "Ġkendi": 1475,
      "ĠdeÄŁiÅŁtir": 1476,
      "ĠKonfederasyonu": 1477,
      "Ġtemsil": 1478,
      "15": 1479,
      "16": 1480,
      "24": 1481,
      "RT": 1482,
      "abet": 1483,
      "fa": 1484,
      "ili": 1485,
      "ova": 1486,
      "sul": 1487,
      "spor": 1488,
      "uz": 1489,
      "ve": 1490,
      "vet": 1491,
      "Ġ-": 1492,
      "Ã¼l": 1493,
      "leÅŁti": 1494,
      "dem": 1495,
      "Ġbl": 1496,
      "Ġikincisi": 1497,
      "Ġak": 1498,
      "ĠTRT": 1499,
      "Ä±lmaya": 1500,
      "alk": 1501,
      "Ġsezonunu": 1502,
      "ĠdÃ¶ne": 1503,
      "ĠdiÄŁer": 1504,
      "Ġolup": 1505,
      "Ġolmak": 1506,
      "ĠÃ§ap": 1507,
      "ĠsÄ±Ã§ra": 1508,
      "Ġden": 1509,
      "Ġdevr": 1510,
      "ĠMer": 1511,
      "miz": 1512,
      "diÄŁi": 1513,
      "ĠsÄ±ralama": 1514,
      "Ġ30": 1515,
      "ĠÄ°lk": 1516,
      "tesi": 1517,
      "ĠkazanmÄ±ÅŁtÄ±r": 1518,
      "aha": 1519,
      "Ġusul": 1520,
      "Ġ2022": 1521,
      "Ġgeri": 1522,
      "ĠYarÄ±": 1523,
      "2023": 1524,
      "ĠsonuÃ§": 1525,
      "Ġsev": 1526,
      "Ġ1972": 1527,
      "masÄ±na": 1528,
      "Ġekip": 1529,
      "Ġbelirlenir": 1530,
      "ĠaÃ§Ä±klar": 1531,
      "Ġrenk": 1532,
      "Ġoynarlar": 1533,
      "Ġkural": 1534,
      "ĠÄ°talya": 1535,
      "ĠalÄ±nan": 1536,
      "Ġsavun": 1537,
      "Ġrekabet": 1538,
      "Ġayak": 1539,
      "Ġpuan": 1540,
      "ĠMÃ¼dÃ¼rÃ¼": 1541,
      "ĠuluslararasÄ±": 1542,
      "ĠhÄ±zlÄ±": 1543,
      "ĠdolayÄ±": 1544,
      "Ġdevreli": 1545,
      "ĠusulÃ¼ne": 1546,
      ").": 1547,
      "11": 1548,
      "CEV": 1549,
      "bistan": 1550,
      "din": 1551,
      "gar": 1552,
      "hir": 1553,
      "ola": 1554,
      "sal": 1555,
      "voleybol": 1556,
      "Ġra": 1557,
      "Ä±yla": 1558,
      "Ä±yor": 1559,
      "tat": 1560,
      "Ã§ek": 1561,
      "Ġbak": 1562,
      "Ġyuk": 1563,
      "ĠadÄ±": 1564,
      "Ġget": 1565,
      "Ġgenel": 1566,
      "ĠkaÃ§": 1567,
      "gili": 1568,
      "Ġdip": 1569,
      "Ġpro": 1570,
      "ĠsÄ±rayÄ±": 1571,
      "Ä±nÄ±z": 1572,
      "ĠaldÄ±ÄŁÄ±": 1573,
      "Ġ2015": 1574,
      "Ġgeli": 1575,
      "ĠgerÃ§ek": 1576,
      "esine": 1577,
      "Ġ2006": 1578,
      "ĠmÃ¼cadelesine": 1579,
      "ĠaltyapÄ±": 1580,
      "malÄ±yÄ±m": 1581,
      "ĠdÃ¼ÅŁen": 1582,
      "masÄ±nÄ±": 1583,
      "redi": 1584,
      "ĠfarklÄ±": 1585,
      "ĠsmaÃ§Ã¶r": 1586,
      "ĠÃ¼zerinden": 1587,
      "ĠyÃ¼ksekliÄŁi": 1588,
      "Ġaradan": 1589,
      "Ġhafta": 1590,
      "ĠyÃ¶netim": 1591,
      "ĠvuruÅŁ": 1592,
      "ÅŁehir": 1593,
      "ĠyÃ¼zey": 1594,
      "Ġzorunda": 1595,
      "ĠyaklaÅŁÄ±m": 1596,
      "Ġharek": 1597,
      "ĠoluÅŁtur": 1598,
      "ĠyukarÄ±": 1599,
      "Ġgetir": 1600,
      "Bank": 1601,
      "ch": 1602,
      "ddi": 1603,
      "hur": 1604,
      "men": 1605,
      "mli": 1606,
      "oder": 1607,
      "tÃ¼r": 1608,
      "vaÅŁ": 1609,
      "ĠZ": 1610,
      "ladÄ±": 1611,
      "daki": 1612,
      "lem": 1613,
      "ĠsarÄ±": 1614,
      "mayan": 1615,
      "Ġku": 1616,
      "ĠkÃ¶": 1617,
      "Ġberi": 1618,
      "Ġolimpiyat": 1619,
      "Ġyet": 1620,
      "Ġvar": 1621,
      "Ġiz": 1622,
      "Ġist": 1623,
      "iya": 1624,
      "ĠalÄ±": 1625,
      "Ġ22": 1626,
      "Ġ18": 1627,
      "lerinin": 1628,
      "yaz": 1629,
      "orum": 1630,
      "ĠSal": 1631,
      "Ġhat": 1632,
      "ĠÃ¼lk": 1633,
      "stÃ¼n": 1634,
      "ĠCan": 1635,
      "ĠCup": 1636,
      "ĠCum": 1637,
      "ĠaldÄ±": 1638,
      "Ġvoleybolu": 1639,
      "ĠanÄ±lmaya": 1640,
      "ĠGenÃ§": 1641,
      "yÄ±s": 1642,
      "ĠiÃ§inde": 1643,
      "larÄ±ndan": 1644,
      "ikin": 1645,
      "manya": 1646,
      "luÄŁunda": 1647,
      "Ġneden": 1648,
      "Ġnedir": 1649,
      "Ġhaber": 1650,
      "ĠoynadÄ±": 1651,
      "Ġoynayan": 1652,
      "2026": 1653,
      "ĠartÄ±r": 1654,
      "Ġ1961": 1655,
      "ĠdÃ¼zenle": 1656,
      "ĠÃľÃ§": 1657,
      "ĠpasÃ¶rÃ¼n": 1658,
      "Ġekibi": 1659,
      "ĠgÃ¼nÃ¼": 1660,
      "ĠdÄ±ÅŁÄ±nda": 1661,
      "ĠUlu": 1662,
      "ĠÃ¶nemli": 1663,
      "ĠbÃ¶lgede": 1664,
      "Ġedilir": 1665,
      "ĠMayÄ±s": 1666,
      "ĠkarÅŁÄ±laÅŁma": 1667,
      "ĠolmalÄ±dÄ±r": 1668,
      "Ġkurulmu": 1669,
      "ĠgÃ¼Ã§lÃ¼": 1670,
      "Ġantrenmanda": 1671,
      "ĠKulÃ¼pler": 1672,
      "ĠSÄ±rbistan": 1673,
      "ĠDaikin": 1674,
      "Ġkaybeden": 1675,
      "ĠÃ§apraz": 1676,
      "Ġsavunma": 1677,
      "ĠCumhur": 1678,
      "TarihÃ§e": 1679,
      "dya": 1680,
      "dis": 1681,
      "nÅŁet": 1682,
      "Ä±lama": 1683,
      "lek": 1684,
      "lecek": 1685,
      "ÅŁa": 1686,
      "Ġsal": 1687,
      "rat": 1688,
      "Ġbek": 1689,
      "arÅŁÄ±": 1690,
      "ĠSon": 1691,
      "Ġhede": 1692,
      "ÅŁtÃ¼r": 1693,
      "indeki": 1694,
      "ĠmanÅŁet": 1695,
      "ĠsÄ±rasÄ±nda": 1696,
      "larÄ±yla": 1697,
      "ĠalÄ±r": 1698,
      "ĠyapÄ±lÄ±r": 1699,
      "Ġ2017": 1700,
      "mut": 1701,
      "trol": 1702,
      "Ġ2004": 1703,
      "2022": 1704,
      "Ġalanda": 1705,
      "ĠSultanlarÄ±": 1706,
      "Ġrakibi": 1707,
      "ĠkatÄ±ldÄ±ÄŁÄ±": 1708,
      "Ġsonucu": 1709,
      "urarak": 1710,
      "ĠhakkÄ±": 1711,
      "Ġbulundu": 1712,
      "tÄ±ÄŁÄ±": 1713,
      "ĠdÃ¶rt": 1714,
      "ĠdÄ±ÅŁarÄ±": 1715,
      "ĠgÃ¶steren": 1716,
      "ĠedilmiÅŁtir": 1717,
      "ĠetabÄ±": 1718,
      "ĠdeÄŁiÅŁ": 1719,
      "Ġdurum": 1720,
      "Ġantrenman": 1721,
      "Ġrakibine": 1722,
      "Ġilgili": 1723,
      "ĠgereÄŁi": 1724,
      "ĠgeniÅŁliÄŁinde": 1725,
      "mÃ¼ÅŁtÃ¼r": 1726,
      "Ġkontrol": 1727,
      "Ġblok": 1728,
      "Ġhedef": 1729,
      "13": 1730,
      "Top": 1731,
      "ba": 1732,
      "ot": 1733,
      "riz": 1734,
      "sinin": 1735,
      "yg": 1736,
      "Ġ)": 1737,
      "ĠarasÄ±": 1738,
      "Ä±mÄ±z": 1739,
      "Ġgiy": 1740,
      "Ġgel": 1741,
      "ĠgenÃ§": 1742,
      "Ġ28": 1743,
      "ĠtakÄ±mÄ±nÄ±": 1744,
      "leyen": 1745,
      "lere": 1746,
      "ulgar": 1747,
      "urulu": 1748,
      "ĠtÄ±k": 1749,
      "ĠtÃ¼m": 1750,
      "ĠBulgar": 1751,
      "ĠoluÅŁ": 1752,
      "Ġplaj": 1753,
      "necek": 1754,
      "Ġsona": 1755,
      "Ġoynat": 1756,
      "Ġlider": 1757,
      "sÄ±yla": 1758,
      "dic": 1759,
      "diler": 1760,
      "tanÄ±": 1761,
      "Ġvoleybolda": 1762,
      "ĠÃ¶z": 1763,
      "Ġfinalinde": 1764,
      "Ġnama": 1765,
      "ĠDe": 1766,
      "ĠkazandÄ±ÄŁÄ±": 1767,
      "Ġuzan": 1768,
      "Ġ2024": 1769,
      "nder": 1770,
      "ĠOs": 1771,
      "Ġpasla": 1772,
      "ĠtakÄ±mÄ±nÄ±n": 1773,
      "ĠTakÄ±mÄ±mÄ±z": 1774,
      "manlÄ±": 1775,
      "Ġ2009": 1776,
      "2024": 1777,
      "Ġayr": 1778,
      "ĠdÃ¼zey": 1779,
      "Ġyerine": 1780,
      "Ġ1999": 1781,
      "ĠgeÃ§er": 1782,
      "ĠÅŁampiyonluÄŁunu": 1783,
      "Ġsahaya": 1784,
      "ĠArs": 1785,
      "ĠsponsorluÄŁu": 1786,
      "ĠÃľstÃ¼n": 1787,
      "ĠKulÃ¼bÃ¼n": 1788,
      "Ġederek": 1789,
      "Ġresmi": 1790,
      "ĠAynÄ±": 1791,
      "Ġfileden": 1792,
      "ĠgiriÅŁ": 1793,
      "niver": 1794,
      "ĠbÃ¶lgenin": 1795,
      "Voleybolda": 1796,
      "ĠeÅŁleÅŁti": 1797,
      "Ġgrubunu": 1798,
      "bero": 1799,
      "Ġkuruldu": 1800,
      "Ġhafif": 1801,
      "ĠÄ°talyan": 1802,
      "leÅŁen": 1803,
      "ĠadÄ±m": 1804,
      "ĠÃĸz": 1805,
      "Ġyenil": 1806,
      "Ġsistem": 1807,
      "Ġboy": 1808,
      "ĠOyuncular": 1809,
      "ĠaÄŁÄ±rlÄ±k": 1810,
      "ĠEtabÄ±nÄ±": 1811,
      "ĠGrubunu": 1812,
      "ĠkiÅŁilik": 1813,
      "Ġrotasyonda": 1814,
      "ÃľR": 1815,
      "ĠamacÄ±": 1816,
      "ĠyazdÄ±r": 1817,
      "Ġdahil": 1818,
      "ĠkulÃ¼bÃ¼n": 1819,
      "Ġpandemi": 1820,
      "alkbank": 1821,
      "Ġhareket": 1822,
      "ĠvardÄ±r": 1823,
      "orumlu": 1824,
      "ĠSalonu": 1825,
      "ĠdÃ¼zenlenecek": 1826,
      "ĠUluslararasÄ±": 1827,
      "ĠnamaÄŁlup": 1828,
      "ĠÃľstÃ¼ndaÄŁ": 1829,
      "30": 1830,
      "ic": 1831,
      "ktan": 1832,
      "zÄ±r": 1833,
      "Ã¼p": 1834,
      "lel": 1835,
      "ralÄ±k": 1836,
      "Ġbi": 1837,
      "erli": 1838,
      "erkek": 1839,
      "Ġye": 1840,
      "ĠyÃ¶n": 1841,
      "irsek": 1842,
      "lidir": 1843,
      "Ä±mÄ±": 1844,
      "ekli": 1845,
      "Ġ24": 1846,
      "Ġeleme": 1847,
      "oru": 1848,
      "uldu": 1849,
      "ĠAk": 1850,
      "ĠAralÄ±k": 1851,
      "lanÄ±r": 1852,
      "ĠSÄ±": 1853,
      "Ã¼nÃ¼": 1854,
      "ĠBÃ¼yÃ¼k": 1855,
      "mel": 1856,
      "Ġpara": 1857,
      "Ġbiri": 1858,
      "ĠbirleÅŁtir": 1859,
      "kif": 1860,
      "ĠFilenin": 1861,
      "ĠEn": 1862,
      "ĠEs": 1863,
      "ĠyÄ±llÄ±ÄŁ": 1864,
      "ĠÅŁampiyona": 1865,
      "teli": 1866,
      "ĠkazanmÄ±ÅŁ": 1867,
      "Ġ2018": 1868,
      "ĠmÃ¼z": 1869,
      "ĠÃ¼stÃ¼n": 1870,
      "Ġgelecek": 1871,
      "ĠhazÄ±r": 1872,
      "Ġoynamaya": 1873,
      "ĠaltÄ±": 1874,
      "kanlÄ±ÄŁÄ±": 1875,
      "ĠRo": 1876,
      "ĠRus": 1877,
      "ĠÃ§Ä±kan": 1878,
      "Ġturunda": 1879,
      "Ġorgan": 1880,
      "Ġbulunur": 1881,
      "ĠsÃ¼rdÃ¼r": 1882,
      "ĠsÃ¼rekli": 1883,
      "ĠnasÄ±ldÄ±r": 1884,
      "ĠÃ§izgiler": 1885,
      "trenÃ¶rlÃ¼ÄŁ": 1886,
      "ĠÃ§alÄ±ÅŁmasÄ±": 1887,
      "ĠMedya": 1888,
      "2013": 1889,
      "ĠVakÄ±fBank": 1890,
      "ĠeÅŁit": 1891,
      "ĠÃ¼zerinde": 1892,
      "Ġnumaraya": 1893,
      "ĠbasÄ±n": 1894,
      "ĠkararÄ±": 1895,
      "ĠkÄ±sa": 1896,
      "ĠseÃ§ene": 1897,
      "Ġtemsilcisi": 1898,
      "Ġseviye": 1899,
      "Ġgetirildi": 1900,
      "ĠBÃ¼yÃ¼kÅŁehir": 1901,
      "Ġparalel": 1902,
      "ĠyÄ±llÄ±ÄŁÄ±na": 1903,
      "23": 1904,
      "AL": 1905,
      "Avrupa": 1906,
      "BD": 1907,
      "Filenin": 1908,
      "Ga": 1909,
      "Ka": 1910,
      "OV": 1911,
      "TakÄ±m": 1912,
      "bil": 1913,
      "barÄ±": 1914,
      "cÄ±lÄ±": 1915,
      "eme": 1916,
      "eti": 1917,
      "fer": 1918,
      "kÃ§": 1919,
      "kez": 1920,
      "pik": 1921,
      "pleri": 1922,
      "tyapÄ±": 1923,
      "¢civertliler": 1924,
      "Ġ.": 1925,
      "ĠW": 1926,
      "ĠÃ¼n": 1927,
      "ĠâĢĻ": 1928,
      "ĠÄ±sÄ±n": 1929,
      "laya": 1930,
      "laka": 1931,
      "lacak": 1932,
      "lacivertli": 1933,
      "Ã¼t": 1934,
      "Ġsk": 1935,
      "Ġsak": 1936,
      "tay": 1937,
      "ĠkÃ¼": 1938,
      "ĠvÃ¼cu": 1939,
      "Ġiddi": 1940,
      "irk": 1941,
      "Ġtah": 1942,
      "ÄŁunda": 1943,
      "Ġalarak": 1944,
      "Ġait": 1945,
      "ĠaÅŁa": 1946,
      "lipleri": 1947,
      "art": 1948,
      "ĠgÃ¶r": 1949,
      "Ġkalan": 1950,
      "Ġ11": 1951,
      "Ġ17": 1952,
      "ĠeÄŁi": 1953,
      "ĠTek": 1954,
      "ĠTur": 1955,
      "ort": 1956,
      "ĠAkif": 1957,
      "alÄ±": 1958,
      "ĠSK": 1959,
      "ĠSali": 1960,
      "ĠServis": 1961,
      "ĠSaha": 1962,
      "ĠBer": 1963,
      "Ġolma": 1964,
      "mes": 1965,
      "mesine": 1966,
      "Ġ194": 1967,
      "ĠmaÃ§lar": 1968,
      "neme": 1969,
      "isli": 1970,
      "Ġdere": 1971,
      "ĠÅŁube": 1972,
      "ĠMo": 1973,
      "ĠMisli": 1974,
      "ĠFederasyon": 1975,
      "ĠyÄ±llarÄ±nda": 1976,
      "ĠbaÅŁan": 1977,
      "ĠCey": 1978,
      "layÄ±nÄ±z": 1979,
      "Ġvoleybolunda": 1980,
      "Ġanda": 1981,
      "saÄŁ": 1982,
      "ĠÅŀampiyonu": 1983,
      "ĠyapÄ±": 1984,
      "Ġyapama": 1985,
      "elli": 1986,
      "Ġtamamlar": 1987,
      "caÄŁ": 1988,
      "rik": 1989,
      "Ġ2011": 1990,
      "Ġ2014": 1991,
      "Ġ2016": 1992,
      "Ġsahip": 1993,
      "Ġtoplam": 1994,
      "ĠOy": 1995,
      "Ġgelen": 1996,
      "ĠÃ¶ncek": 1997,
      "esinde": 1998,
      "ĠÃ¼Ã§Ã¼ncÃ¼sÃ¼": 1999,
      "Ġ2001": 2000,
      "ĠmÃ¼cadelesini": 2001,
      "ĠYÄ±ldÄ±": 2002,
      "lamamÄ±ÅŁ": 2003,
      "ĠoynamaktadÄ±r": 2004,
      "ĠkadÄ±nlar": 2005,
      "Ġerkekler": 2006,
      "Ġertesi": 2007,
      "ĠkatÄ±ldÄ±": 2008,
      "Ġ1995": 2009,
      "Ġ1960": 2010,
      "Ġ1968": 2011,
      "Ġ1969": 2012,
      "ĠgÃ¶nder": 2013,
      "ĠGalipleri": 2014,
      "lÃ¢civertliler": 2015,
      "yesi": 2016,
      "Ġ1970": 2017,
      "Ġbulunan": 2018,
      "ĠÃľyesi": 2019,
      "ĠyÃ¼kselir": 2020,
      "ĠÃ§alÄ±": 2021,
      "ĠErkek": 2022,
      "ĠitibarÄ±": 2023,
      "Ġeder": 2024,
      "Ġedecek": 2025,
      "ĠAyten": 2026,
      "ĠÃ§alÄ±ÅŁma": 2027,
      "Ġ1956": 2028,
      "Ġ1957": 2029,
      "ĠMehmet": 2030,
      "ĠMedic": 2031,
      "Ġgrubunda": 2032,
      "Ġturnuvada": 2033,
      "ĠturnuvayÄ±": 2034,
      "ĠulaÅŁan": 2035,
      "ĠBelediyesi": 2036,
      "ĠBelediyespor": 2037,
      "Ġbeyaz": 2038,
      "ĠGÃ¼neÅŁ": 2039,
      "Ġoyuncusudur": 2040,
      "ĠÃ§izginin": 2041,
      "Ġgerekirse": 2042,
      "ĠdeplasmanlÄ±": 2043,
      "ĠbaÅŁardÄ±": 2044,
      "Ġrenkte": 2045,
      "ĠdolayÄ±sÄ±yla": 2046,
      "reditasyon": 2047,
      "ĠalÄ±ÅŁ": 2048,
      "ĠÃ¼lke": 2049,
      "ĠGenÃ§lik": 2050,
      "Ġnedeniyle": 2051,
      "Ġhaberini": 2052,
      "ĠtÄ±klayÄ±nÄ±z": 2053,
      "ĠBulgaristan": 2054,
      "ĠArslan": 2055,
      "Galatasaray": 2056,
      "Ġsakat": 2057,
      "ĠTurnu": 2058,
      "ĠSalih": 2059,
      "Ġderece": 2060,
      "ĠÃ¶nceki": 2061,
      "ĠYÄ±ldÄ±z": 2062,
      "12": 2063,
      "17": 2064,
      "21": 2065,
      "Bu": 2066,
      "EczacÄ±baÅŁÄ±": 2067,
      "Oyun": 2068,
      "ayan": 2069,
      "esi": 2070,
      "gÄ±": 2071,
      "gen": 2072,
      "id": 2073,
      "kleri": 2074,
      "kten": 2075,
      "lÃ§": 2076,
      "mde": 2077,
      "oli": 2078,
      "sinde": 2079,
      "sÄ±na": 2080,
      "vvet": 2081,
      "ĠI": 2082,
      "Ġri": 2083,
      "int": 2084,
      "uncu": 2085,
      "Ġik": 2086,
      "Ġip": 2087,
      "asak": 2088,
      "asÄ±na": 2089,
      "ĠKor": 2090,
      "ĠTop": 2091,
      "ĠTarihÃ§e": 2092,
      "Ġdok": 2093,
      "ĠBur": 2094,
      "memiÅŁtir": 2095,
      "Ġbirka": 2096,
      "Ġbirinci": 2097,
      "ĠÃ§e": 2098,
      "ĠÃ§oÄŁ": 2099,
      "ĠÃ§if": 2100,
      "Ġ192": 2101,
      "ĠmaÃ§larÄ±nda": 2102,
      "Ġsay": 2103,
      "Ġdefa": 2104,
      "ĠÅŁan": 2105,
      "ĠyavaÅŁ": 2106,
      "Ġoyuncunun": 2107,
      "ĠÄ°ki": 2108,
      "kat": 2109,
      "lendir": 2110,
      "ĠalmÄ±ÅŁ": 2111,
      "ĠÃ¶lÃ§": 2112,
      "cel": 2113,
      "Ġlige": 2114,
      "izasyon": 2115,
      "Ġkazanarak": 2116,
      "Ġetmek": 2117,
      "laÅŁma": 2118,
      "Ġ2008": 2119,
      "ĠYaz": 2120,
      "ĠkatÄ±lan": 2121,
      "Ġyere": 2122,
      "ĠkatÄ±lÄ±m": 2123,
      "ĠyÃ¼kselen": 2124,
      "ĠhÃ¼cumcu": 2125,
      "ĠRak": 2126,
      "Ġkayb": 2127,
      "ĠdÃ¼ÅŁer": 2128,
      "ĠkalÄ±r": 2129,
      "ĠKupalarÄ±na": 2130,
      "ĠÃĩeyrek": 2131,
      "Ġbelirlenen": 2132,
      "ĠgÃ¼nÃ¼n": 2133,
      "Ġkupaya": 2134,
      "Ġuzat": 2135,
      "ĠMÃ¼sabaka": 2136,
      "Ġtemas": 2137,
      "ĠbaÅŁlamÄ±ÅŁtÄ±r": 2138,
      "ĠkarÅŁÄ±laÅŁÄ±r": 2139,
      "Ġyani": 2140,
      "Ġsavur": 2141,
      "Ġrakibini": 2142,
      "Ġsistemi": 2143,
      "ĠkoÅŁ": 2144,
      "ĠkuruluÅŁ": 2145,
      "ĠgeliÅŁ": 2146,
      "Ġkuvvet": 2147,
      "ĠÃ§aprazÄ±": 2148,
      "Ġsalon": 2149,
      "ĠRomanya": 2150,
      "Ġrit": 2151,
      "ĠbirkaÃ§": 2152,
      "ĠÃ§oÄŁu": 2153,
      "))": 2154,
      ".)": 2155,
      "04": 2156,
      "14": 2157,
      "18": 2158,
      "50": 2159,
      "73": 2160,
      "Bir": 2161,
      "BeÅŁ": 2162,
      "ER": 2163,
      "Her": 2164,
      "KE": 2165,
      "KÄ°": 2166,
      "Lig": 2167,
      "LER": 2168,
      "YE": 2169,
      "apon": 2170,
      "abilir": 2171,
      "ach": 2172,
      "biyle": 2173,
      "eb": 2174,
      "ecek": 2175,
      "fes": 2176,
      "gin": 2177,
      "gel": 2178,
      "ide": 2179,
      "jan": 2180,
      "kul": 2181,
      "meri": 2182,
      "nik": 2183,
      "rin": 2184,
      "ven": 2185,
      "wil": 2186,
      "yu": 2187,
      "ylÃ¼": 2188,
      "yken": 2189,
      "Ã©": 2190,
      "Ġx": 2191,
      "Ġin": 2192,
      "Ä±ma": 2193,
      "Ä±cÄ±": 2194,
      "lamÄ±ÅŁtÄ±r": 2195,
      "Ġsen": 2196,
      "Ġsiy": 2197,
      "Ġsene": 2198,
      "ing": 2199,
      "rad": 2200,
      "raj": 2201,
      "rada": 2202,
      "Ġkum": 2203,
      "ĠbÃ¼t": 2204,
      "ena": 2205,
      "end": 2206,
      "Ġyasak": 2207,
      "ÄŁmen": 2208,
      "Ġas": 2209,
      "Ġave": 2210,
      "lia": 2211,
      "lis": 2212,
      "ard": 2213,
      "Ġgelir": 2214,
      "ĠKos": 2215,
      "ĠKurulu": 2216,
      "leyerek": 2217,
      "lerden": 2218,
      "lerine": 2219,
      "ĠAcÄ±": 2220,
      "ĠAro": 2221,
      "ĠAÄŁu": 2222,
      "ĠAhmet": 2223,
      "ĠABD": 2224,
      "ĠAmeri": 2225,
      "ĠSan": 2226,
      "Ġhari": 2227,
      "Ġsezonun": 2228,
      "ĠteÅŁ": 2229,
      "aklaÅŁ": 2230,
      "ĠBel": 2231,
      "raki": 2232,
      "Ġolsun": 2233,
      "Ġpat": 2234,
      "Ġbirden": 2235,
      "ĠÃ§ekil": 2236,
      "isan": 2237,
      "Ġderin": 2238,
      "ĠMart": 2239,
      "Ã¶rt": 2240,
      "ĠEylÃ¼": 2241,
      "sÄ±z": 2242,
      "ĠyÄ±lÄ±na": 2243,
      "ĠyÄ±llarda": 2244,
      "ĠyÄ±llÄ±k": 2245,
      "stos": 2246,
      "ĠKadro": 2247,
      "mÄ±z": 2248,
      "mÄ±ÅŁtÄ±": 2249,
      "Ġoyunu": 2250,
      "ĠsÄ±raya": 2251,
      "ĠbaÅŁka": 2252,
      "Åŀampiyon": 2253,
      "sidir": 2254,
      "ĠÅŀube": 2255,
      "Ġvoleybolunun": 2256,
      "ĠÃ¶ÄŁ": 2257,
      "ceÄŁi": 2258,
      "ndan": 2259,
      "ĠsÄ±radaki": 2260,
      "ĠGÃ¶": 2261,
      "Ġyapan": 2262,
      "Ġtamamlan": 2263,
      "ĠDan": 2264,
      "ĠPar": 2265,
      "ĠPark": 2266,
      "ĠPara": 2267,
      "Ġtopun": 2268,
      "ĠOk": 2269,
      "ĠOcak": 2270,
      "196": 2271,
      "ĠÃ¶nÃ¼nde": 2272,
      "Ä±ÅŁÄ±k": 2273,
      "Ġgeriye": 2274,
      "ĠkarÅŁ": 2275,
      "ĠbÃ¶yle": 2276,
      "Ġtarihe": 2277,
      "yonel": 2278,
      "ĠHan": 2279,
      "Ġ2005": 2280,
      "Ġalana": 2281,
      "ĠalanÄ±": 2282,
      "Ġkonum": 2283,
      "baÅŁkanÄ±": 2284,
      "baÅŁkanlÄ±ÄŁÄ±": 2285,
      "ĠyarÄ±ÅŁ": 2286,
      "Ġ1992": 2287,
      "Ġ1993": 2288,
      "Ġ1997": 2289,
      "elek": 2290,
      "Ġsette": 2291,
      "ĠÅŁampiyonluÄŁa": 2292,
      "Ġ1973": 2293,
      "ĠbaÅŁarÄ±ya": 2294,
      "ĠsponsorluÄŁunda": 2295,
      "ĠdÃ¼ÅŁÃ¼k": 2296,
      "ĠbulunmaktadÄ±r": 2297,
      "ĠMillÃ®": 2298,
      "ĠNisan": 2299,
      "ununla": 2300,
      "ĠÃľniver": 2301,
      "ĠyÃ¼kselme": 2302,
      "bilirler": 2303,
      "ĠÃĩap": 2304,
      "ĠFinalde": 2305,
      "ĠFinalleri": 2306,
      "limpik": 2307,
      "Ġgerekiyor": 2308,
      "Ã¼mÃ¼z": 2309,
      "Ġfilede": 2310,
      "Ġgrupta": 2311,
      "ĠatÄ±lan": 2312,
      "Ġvermeden": 2313,
      "ĠkulÃ¼pler": 2314,
      "Ġtemel": 2315,
      "ĠetabÄ±nÄ±": 2316,
      "ĠnumaralÄ±": 2317,
      "Ġkapat": 2318,
      "ĠkaptanÄ±": 2319,
      "ĠmÃ¼sabakalarÄ±nda": 2320,
      "Ġtaktik": 2321,
      "ĠtakÄ±ma": 2322,
      "ÄŁince": 2323,
      "ĠÃĸn": 2324,
      "ĠyayÄ±nlanmaktadÄ±r": 2325,
      "Ġesn": 2326,
      "ĠSabi": 2327,
      "ĠgeÃ§tiÄŁinde": 2328,
      "ĠboÅŁ": 2329,
      "lÃ¼ÄŁÃ¼": 2330,
      "ĠJo": 2331,
      "ĠJapon": 2332,
      "ĠEtabÄ±": 2333,
      "ĠGrubu": 2334,
      "ĠgereÄŁince": 2335,
      "ĠAltyapÄ±": 2336,
      "ĠayrÄ±ca": 2337,
      "erfi": 2338,
      "ĠatÄ±ÅŁÄ±": 2339,
      "ĠAsbaÅŁkanÄ±": 2340,
      "Ġdeplasmanda": 2341,
      "Ġsebebiyle": 2342,
      "ĠraÄŁmen": 2343,
      "ĠadÄ±yla": 2344,
      "Ġprofes": 2345,
      "oderma": 2346,
      "Ġiste": 2347,
      "ĠÃľÃ§Ã¼ncÃ¼": 2348,
      "ĠkurulmuÅŁtur": 2349,
      "ĠCumhurbaÅŁkanlÄ±ÄŁÄ±": 2350,
      "ĠdÄ±ÅŁarÄ±da": 2351,
      "badem": 2352,
      "ĠoluÅŁan": 2353,
      "ĠÃ¶zel": 2354,
      "ĠuzantÄ±": 2355,
      "ĠOsman": 2356,
      "Ġboyut": 2357,
      "ÃľRKÄ°": 2358,
      "ĠamacÄ±yla": 2359,
      "ĠyazdÄ±rdÄ±": 2360,
      "ĠvÃ¼cut": 2361,
      "mesiyle": 2362,
      "Ġyapamaz": 2363,
      "ĠMedical": 2364,
      "ĠÅŁansÄ±nÄ±": 2365,
      "BeÅŁiktaÅŁ": 2366,
      "wild": 2367,
      "Ġsiyah": 2368,
      "ĠyasaktÄ±r": 2369,
      "Ġaveraj": 2370,
      "ĠKosova": 2371,
      "ĠAcÄ±badem": 2372,
      "ĠAÄŁustos": 2373,
      "ĠAmerika": 2374,
      "ĠEylÃ¼l": 2375,
      "ĠKadrosu": 2376,
      "ĠParalimpik": 2377,
      "ĠbÃ¶ylece": 2378,
      "ĠÃľniversi": 2379,
      "ĠÃĩapa": 2380,
      "ĠSabiha": 2381,
      "ĠJaponya": 2382,
      "Ġprofesyonel": 2383,
      "ÃľRKÄ°YE": 2384,
      "bit": 2385,
      "hop": 2386,
      "kÃ¼": 2387,
      "ly": 2388,
      "omut": 2389,
      "parmak": 2390,
      "res": 2391,
      "sol": 2392,
      "tinde": 2393,
      "turarak": 2394,
      "uy": 2395,
      "Ä±sÄ±na": 2396,
      "Ã¼ÅŁ": 2397,
      "Ġsomut": 2398,
      "inam": 2399,
      "ral": 2400,
      "Ã§re": 2401,
      "iyar": 2402,
      "ÄŁÄ±nda": 2403,
      "ÄŁini": 2404,
      "ĠtakÄ±mda": 2405,
      "lerinden": 2406,
      "Ġef": 2407,
      "orman": 2408,
      "Ä±lÄ±k": 2409,
      "ĠSÃ¼p": 2410,
      "ĠShop": 2411,
      "ĠsezonlarÄ±nÄ±": 2412,
      "Ġdik": 2413,
      "Ġfour": 2414,
      "ilmiÅŁ": 2415,
      "aki": 2416,
      "ÅŁtu": 2417,
      "Ġpa": 2418,
      "Ġperf": 2419,
      "ĠbirleÅŁ": 2420,
      "ĠmaÃ§Ä±nÄ±": 2421,
      "Ġsabit": 2422,
      "Ġmu": 2423,
      "timi": 2424,
      "mih": 2425,
      "Ġdavet": 2426,
      "Ġlibero": 2427,
      "sto": 2428,
      "ette": 2429,
      "ĠbaÅŁÄ±nda": 2430,
      "kap": 2431,
      "Ġliglerde": 2432,
      "Ġyapabilir": 2433,
      "Ġoyunculara": 2434,
      "Ġkazanma": 2435,
      "ĠPan": 2436,
      "ĠPlaj": 2437,
      "ĠsahasÄ±": 2438,
      "ederek": 2439,
      "ĠiÃ§i": 2440,
      "ĠiÃ§er": 2441,
      "ĠiÃ§eri": 2442,
      "eyi": 2443,
      "ĠpasÃ¶re": 2444,
      "ÅŁtÄ±rma": 2445,
      "Ġverilir": 2446,
      "Ä±ÅŁma": 2447,
      "ĠHalkbank": 2448,
      "ĠÃ¼Ã§Ã¼ncÃ¼lÃ¼k": 2449,
      "Ġteknik": 2450,
      "Ġ2007": 2451,
      "ĠYaklaÅŁ": 2452,
      "ĠkarÅŁÄ±sÄ±nda": 2453,
      "ĠkatÄ±lama": 2454,
      "ĠalanÄ±nÄ±n": 2455,
      "Ġengel": 2456,
      "Ġ1990": 2457,
      "ĠgÃ¶tÃ¼r": 2458,
      "ĠÄ°svi": 2459,
      "Ġtarihindeki": 2460,
      "dart": 2461,
      "Ġsefer": 2462,
      "ĠÃ§Ä±ktÄ±ÄŁÄ±": 2463,
      "azÄ±": 2464,
      "Ġservisi": 2465,
      "ĠÃĩin": 2466,
      "Ġgerektir": 2467,
      "Ġkupada": 2468,
      "Ġkollarla": 2469,
      "Ġfarkla": 2470,
      "Ġsporcu": 2471,
      "ĠdeÄŁme": 2472,
      "Ġkendis": 2473,
      "Ġkentinde": 2474,
      "Ġarkada": 2475,
      "ĠetabÄ±na": 2476,
      "Ġ100": 2477,
      "ĠGrup": 2478,
      "ĠPasÃ¶rÃ¼n": 2479,
      "ĠbaÅŁlangÄ±": 2480,
      "Ġimzalan": 2481,
      "ĠOlimpiyatlarÄ±": 2482,
      "Ġyoluna": 2483,
      "ĠsÄ±Ã§rama": 2484,
      "ĠsÄ±ralamaya": 2485,
      "Ġgeride": 2486,
      "olalarda": 2487,
      "tatÃ¼": 2488,
      "ĠvuruÅŁu": 2489,
      "Ġizin": 2490,
      "ĠaÄŁÄ±rlÄ±klÄ±": 2491,
      "ĠmÃ¼zesine": 2492,
      "Ġorganizasyon": 2493,
      "ĠeÅŁitlik": 2494,
      "KadÄ±n": 2495,
      "cÄ±lÄ±ÄŁÄ±": 2496,
      "ĠÄ±sÄ±nma": 2497,
      "Ġskor": 2498,
      "ĠkÃ¼me": 2499,
      "ĠÃ§alÄ±ÅŁtÄ±r": 2500,
      "ĠitibarÄ±yla": 2501,
      "ĠÃ§alÄ±ÅŁmalarÄ±": 2502,
      "ĠalÄ±ÅŁver": 2503,
      "Ġikiye": 2504,
      "Ġiptal": 2505,
      "Ġkaybederek": 2506,
      "ĠkarÅŁÄ±laÅŁÄ±rlar": 2507,
      "Åŀampiyonlar": 2508,
      "ormans": 2509,
      "ĠSÃ¼per": 2510,
      "Ġperformans": 2511,
      "ĠÄ°sviÃ§re": 2512,
      "05": 2513,
      "07": 2514,
      "09": 2515,
      "80": 2516,
      "96": 2517,
      "98": 2518,
      "CA": 2519,
      "ID": 2520,
      "Mil": 2521,
      "NL": 2522,
      "TV": 2523,
      "adÄ±": 2524,
      "avi": 2525,
      "bin": 2526,
      "bon": 2527,
      "cmi": 2528,
      "com": 2529,
      "dÃ¼": 2530,
      "dde": 2531,
      "fta": 2532,
      "for": 2533,
      "gÃ¼": 2534,
      "gor": 2535,
      "geri": 2536,
      "grad": 2537,
      "hangi": 2538,
      "hid": 2539,
      "iele": 2540,
      "ioderma": 2541,
      "ji": 2542,
      "klar": 2543,
      "kÄ±r": 2544,
      "kil": 2545,
      "klarÄ±": 2546,
      "ld": 2547,
      "mer": 2548,
      "miye": 2549,
      "nÃ¼n": 2550,
      "niya": 2551,
      "ov": 2552,
      "ole": 2553,
      "ora": 2554,
      "ph": 2555,
      "rt": 2556,
      "rez": 2557,
      "ris": 2558,
      "siy": 2559,
      "sÃ¼z": 2560,
      "ula": 2561,
      "use": 2562,
      "vasÄ±": 2563,
      "zm": 2564,
      "Ġ:": 2565,
      "Ġun": 2566,
      "ĠÃ¶r": 2567,
      "lat": 2568,
      "laÅŁtÄ±r": 2569,
      "layarak": 2570,
      "Ã¼ler": 2571,
      "dal": 2572,
      "lera": 2573,
      "ledi": 2574,
      "ÅŁiyle": 2575,
      "ĠsoÄŁ": 2576,
      "Ġsorumlu": 2577,
      "incisi": 2578,
      "onya": 2579,
      "Ã§ak": 2580,
      "Ã§rar": 2581,
      "Ġkan": 2582,
      "Ġklas": 2583,
      "Ġkriz": 2584,
      "Ġkoru": 2585,
      "Ġbran": 2586,
      "anlÄ±": 2587,
      "Ġolabilir": 2588,
      "erede": 2589,
      "Ġyana": 2590,
      "Ġibar": 2591,
      "ÄŁe": 2592,
      "ÄŁlu": 2593,
      "Ġalama": 2594,
      "lifor": 2595,
      "Ã¶van": 2596,
      "Ġ23": 2597,
      "Ġ29": 2598,
      "asÄ±m": 2599,
      "ĠKÄ±": 2600,
      "ĠKan": 2601,
      "ĠKarÅŁÄ±": 2602,
      "ĠKasÄ±m": 2603,
      "olonya": 2604,
      "Ä±rken": 2605,
      "Ä±rlat": 2606,
      "Ġkalk": 2607,
      "Ġkate": 2608,
      "ĠkalamamÄ±ÅŁ": 2609,
      "ĠtakÄ±mla": 2610,
      "ĠtakÄ±mÄ±nda": 2611,
      "ĠtakÄ±mlarÄ±": 2612,
      "ĠtakÄ±mdÄ±r": 2613,
      "lerle": 2614,
      "ĠTour": 2615,
      "ĠTÃľRKÄ°YE": 2616,
      "organ": 2617,
      "ĠAÄŁÄ±r": 2618,
      "Ä±lmÄ±ÅŁtÄ±r": 2619,
      "alÄ±n": 2620,
      "land": 2621,
      "landÄ±": 2622,
      "ĠSen": 2623,
      "ĠSet": 2624,
      "ĠSiste": 2625,
      "ĠSorumlu": 2626,
      "ĠdÃ¼nya": 2627,
      "Ġdirsek": 2628,
      "Ġterfi": 2629,
      "ilya": 2630,
      "ĠBah": 2631,
      "ĠBioderma": 2632,
      "ĠBld": 2633,
      "ĠBrez": 2634,
      "iyeti": 2635,
      "ĠLige": 2636,
      "Ġmadde": 2637,
      "ĠVNL": 2638,
      "meli": 2639,
      "meyi": 2640,
      "Ġbirbir": 2641,
      "ĠmaÃ§Ä±n": 2642,
      "net": 2643,
      "neÄŁin": 2644,
      "Ġmut": 2645,
      "kim": 2646,
      "lÄ±yÄ±m": 2647,
      "Ġdest": 2648,
      "Ġderi": 2649,
      "ĠÅŁu": 2650,
      "ĠÅŁirk": 2651,
      "ĠMi": 2652,
      "ĠMu": 2653,
      "ĠMorgan": 2654,
      "Ã¶rf": 2655,
      "seph": 2656,
      "Ġsonraki": 2657,
      "ĠFelek": 2658,
      "ĠEl": 2659,
      "ĠEkim": 2660,
      "sÄ±rada": 2661,
      "ĠKap": 2662,
      "ĠKalifor": 2663,
      "Ä°ki": 2664,
      "ĠbaÅŁparmak": 2665,
      "ĠCOV": 2666,
      "ĠÄ°l": 2667,
      "ĠÄ°Ã§": 2668,
      "kab": 2669,
      "kay": 2670,
      "Ã¼ksek": 2671,
      "lenin": 2672,
      "lendi": 2673,
      "lenmiÅŁtir": 2674,
      "ĠÅŀub": 2675,
      "ĠalsÄ±n": 2676,
      "ĠalÃ§ak": 2677,
      "Ġvoleybolcu": 2678,
      "ĠantrenÃ¶r": 2679,
      "ĠanÄ±lmÄ±ÅŁ": 2680,
      "tetik": 2681,
      "ĠGÃ¼l": 2682,
      "Ġligden": 2683,
      "Ġligine": 2684,
      "Ġyaparak": 2685,
      "ĠyapmalÄ±yÄ±m": 2686,
      "ĠyaptÄ±ÄŁÄ±": 2687,
      "ĠyapÄ±ÅŁÄ±k": 2688,
      "ĠoyuncularÄ±": 2689,
      "ĠoyuncularÄ±n": 2690,
      "Ġoyunculardan": 2691,
      "izza": 2692,
      "ĠtamamÄ±nda": 2693,
      "ĠDem": 2694,
      "ĠDom": 2695,
      "ĠDaha": 2696,
      "ĠDÃ¶rt": 2697,
      "ath": 2698,
      "Ġetmektedir": 2699,
      "ĠPro": 2700,
      "ĠPort": 2701,
      "ĠPolonya": 2702,
      "ĠPizza": 2703,
      "Ġ2013": 2704,
      "edeli": 2705,
      "ĠuÃ§": 2706,
      "Ġuyg": 2707,
      "ĠtakÄ±mÄ±dÄ±r": 2708,
      "Ġoldular": 2709,
      "ĠoynanmÄ±ÅŁtÄ±r": 2710,
      "unuyor": 2711,
      "Ġverdi": 2712,
      "Ġverildi": 2713,
      "Ġgerisinde": 2714,
      "cÄ±oÄŁlu": 2715,
      "Ġkarbon": 2716,
      "ĠTakÄ±mÄ±n": 2717,
      "ĠTakÄ±mlardan": 2718,
      "Ġtarihi": 2719,
      "esinin": 2720,
      "lerimiz": 2721,
      "ĠHaz": 2722,
      "ĠHut": 2723,
      "Ġtekni": 2724,
      "Ġ2000": 2725,
      "ĠmÃ¼cadelesi": 2726,
      "ĠYaÄŁ": 2727,
      "ĠYÃ¼ksek": 2728,
      "Ġhakem": 2729,
      "ĠikinciliÄŁ": 2730,
      "Ġserisinde": 2731,
      "Ġelin": 2732,
      "Ġelleri": 2733,
      "Ġbiter": 2734,
      "Ġerdi": 2735,
      "Ġerken": 2736,
      "ĠbuluÅŁ": 2737,
      "Ġ1996": 2738,
      "ĠgeÃ§ir": 2739,
      "ĠgeÃ§erek": 2740,
      "Ġ1965": 2741,
      "Ġ1966": 2742,
      "Ġ1967": 2743,
      "ĠgÃ¶z": 2744,
      "ĠÃ¶ncesinde": 2745,
      "Ġbitirdi": 2746,
      "ĠbitirmiÅŁtir": 2747,
      "ĠRe": 2748,
      "ĠRÄ±f": 2749,
      "ĠResmi": 2750,
      "ĠÃ§Ä±kÄ±yor": 2751,
      "Ġ1974": 2752,
      "Ġ1977": 2753,
      "ĠAnten": 2754,
      "azmiye": 2755,
      "ĠArka": 2756,
      "ĠArena": 2757,
      "ĠdÃ¼ÅŁÃ¼r": 2758,
      "ĠkiÅŁiyle": 2759,
      "Ġtaraftar": 2760,
      "Ġservise": 2761,
      "ĠolmuÅŁ": 2762,
      "ĠNa": 2763,
      "ĠNur": 2764,
      "ĠNazmiye": 2765,
      "ĠyÃ¼kselmiÅŁtir": 2766,
      "ĠyÃ¼kselmiÅŁ": 2767,
      "ĠsayÄ±ya": 2768,
      "Ġcard": 2769,
      "ĠcanlÄ±": 2770,
      "ĠÃĩe": 2771,
      "Ġbelirler": 2772,
      "Ġortaya": 2773,
      "ĠzÄ±p": 2774,
      "Ġ1980": 2775,
      "Ġ1983": 2776,
      "Ġ1984": 2777,
      "Ġ1986": 2778,
      "Ġ1987": 2779,
      "Ġgerekmektedir": 2780,
      "ĠÃ§izgisi": 2781,
      "ĠÃ§izgilerin": 2782,
      "ĠÃ§izgisinin": 2783,
      "ĠaÃ§Ä±klama": 2784,
      "Ġren": 2785,
      "ĠrÃ¶van": 2786,
      "Ġkupayla": 2787,
      "Ġkollar": 2788,
      "Ġkolunu": 2789,
      "ĠkollarÄ±nÄ±": 2790,
      "Ġfinalis": 2791,
      "ĠÃ§alÄ±ÅŁmasÄ±nÄ±": 2792,
      "Ġgiren": 2793,
      "Ġgireme": 2794,
      "ĠBirliÄŁi": 2795,
      "Ġolursa": 2796,
      "2000": 2797,
      "ĠfarkÄ±": 2798,
      "ĠgruplarÄ±nda": 2799,
      "Ġ1958": 2800,
      "ĠgÃ¼cÃ¼": 2801,
      "ĠeÅŁleÅŁen": 2802,
      "Ġfilenin": 2803,
      "ĠÃ¼zere": 2804,
      "ĠyÃ¼ksekliÄŁinde": 2805,
      "Ġgrubu": 2806,
      "ĠkulÃ¼pten": 2807,
      "ĠarasÄ±ndaki": 2808,
      "Ġteb": 2809,
      "ĠbaÅŁladÄ±": 2810,
      "Ġfaul": 2811,
      "ĠbÃ¶lgesi": 2812,
      "acaktÄ±r": 2813,
      "Ġonuncu": 2814,
      "ĠulaÅŁÄ±rken": 2815,
      "ĠbeÅŁinci": 2816,
      "ĠmÃ¼sabakalarda": 2817,
      "1996": 2818,
      "ĠuzunluÄŁunda": 2819,
      "Ġrotat": 2820,
      "leÅŁme": 2821,
      "ĠyÃ¶neti": 2822,
      "Ġdizlerin": 2823,
      "ĠSeta": 2824,
      "ĠSemih": 2825,
      "ĠyayÄ±nlanacak": 2826,
      "tarelli": 2827,
      "Ġetmeye": 2828,
      "mazlar": 2829,
      "Ġyenen": 2830,
      "ĠyÃ¼zden": 2831,
      "Ġesneme": 2832,
      "ĠSaint": 2833,
      "ĠKonfederasyon": 2834,
      "Ġhemen": 2835,
      "ĠaltÄ±ncÄ±": 2836,
      "ĠKulÃ¼plera": 2837,
      "ĠgÃ¶revde": 2838,
      "ĠayaÄŁ": 2839,
      "ĠdÃ¶nme": 2840,
      "Ġpuana": 2841,
      "ĠsaÄŁla": 2842,
      "Ġnoktaya": 2843,
      "ĠnoktaladÄ±": 2844,
      "ĠnoktalamÄ±ÅŁtÄ±r": 2845,
      "vanÄ±nÄ±": 2846,
      "ĠbaÅŁlandÄ±": 2847,
      "ĠbaÅŁlanmÄ±ÅŁtÄ±r": 2848,
      "ĠGÃ¼ney": 2849,
      "ĠbileÄŁi": 2850,
      "ĠSÄ±rp": 2851,
      "ĠBeach": 2852,
      "mÃ¼ÅŁ": 2853,
      "ĠyaÅŁta": 2854,
      "ĠatÄ±yorsa": 2855,
      "ĠdoÄŁrudan": 2856,
      "Ġatarak": 2857,
      "Ġdahi": 2858,
      "ĠbaÅŁarÄ±lÄ±": 2859,
      "ĠkarÅŁÄ±lamada": 2860,
      "sant": 2861,
      "ĠHafta": 2862,
      "Ġakreditasyon": 2863,
      "ĠdÃ¶nemin": 2864,
      "ĠdÃ¶nemde": 2865,
      "ĠsÄ±Ã§ramasÄ±": 2866,
      "ĠMerkez": 2867,
      "ĠsonuÃ§larla": 2868,
      "ĠkurallarÄ±": 2869,
      "Ġpuanla": 2870,
      "Ġgenellikle": 2871,
      "ĠgerÃ§ekleÅŁen": 2872,
      "ĠaltyapÄ±da": 2873,
      "Ġhaftada": 2874,
      "odern": 2875,
      "ĠkÃ¶ÅŁe": 2876,
      "Ġyeterli": 2877,
      "ĠbÃ¶lgedeyken": 2878,
      "ĠkarÅŁÄ±laÅŁmalarÄ±": 2879,
      "ĠkurulmuÅŁ": 2880,
      "Ġbekler": 2881,
      "ĠSonra": 2882,
      "ĠbulunduÄŁu": 2883,
      "ĠdeÄŁiÅŁik": 2884,
      "ĠkontrolsÃ¼z": 2885,
      "ĠdÃ¼zeyinde": 2886,
      "Ġbiraz": 2887,
      "ĠbirleÅŁtirip": 2888,
      "ĠEsra": 2889,
      "trenÃ¶rlÃ¼ÄŁÃ¼ne": 2890,
      "kÃ§a": 2891,
      "ĠiddialÄ±": 2892,
      "ĠaÅŁaÄŁÄ±": 2893,
      "Ġtoplamda": 2894,
      "Ġerkeklerde": 2895,
      "ĠgÃ¶nderme": 2896,
      "ĠsakatlÄ±k": 2897,
      "ĠTopa": 2898,
      "ĠBurhan": 2899,
      "ĠÃ§evr": 2900,
      "ĠÃ§ifte": 2901,
      "laÅŁmalar": 2902,
      "ĠkalÄ±rsa": 2903,
      "ĠgÃ¼nÃ¼nden": 2904,
      "ĠMÃ¼sabakalarÄ±nda": 2905,
      "Ġsentetik": 2906,
      "ĠAroma": 2907,
      "ĠSantarelli": 2908,
      "ĠteÅŁkil": 2909,
      "ĠBelgrad": 2910,
      "ĠpatlayÄ±": 2911,
      "mÄ±zÄ±": 2912,
      "ĠDaniele": 2913,
      "ĠParis": 2914,
      "ĠOktay": 2915,
      "ĠesnasÄ±nda": 2916,
      "ĠJoseph": 2917,
      "ĠboyutlarÄ±nda": 2918,
      "ĠÃľniversitesi": 2919,
      "ĠYaklaÅŁÄ±mÄ±": 2920,
      "hidrat": 2921,
      "ĠÃ¶rneÄŁin": 2922,
      "Ã§rarken": 2923,
      "Ġkanal": 2924,
      "Ġklasman": 2925,
      "Ġkorudu": 2926,
      "Ġkategor": 2927,
      "ĠBrezilya": 2928,
      "Ġmutlaka": 2929,
      "ĠKaliforniya": 2930,
      "ĠCOVID": 2931,
      "ĠÅŀubat": 2932,
      "ĠDÃ¶rtlÃ¼": 2933,
      "Ġkarbonhidrat": 2934,
      "ĠYaÄŁcÄ±oÄŁlu": 2935,
      "ĠRÄ±fat": 2936,
      "ĠrÃ¶vanÅŁ": 2937,
      "Ġfinalisti": 2938,
      "Ġrotator": 2939,
      "ĠKulÃ¼plerarasÄ±": 2940,
      "ĠHaftada": 2941,
      "10": 2942,
      "60": 2943,
      "DI": 2944,
      "El": 2945,
      "Efe": 2946,
      "FIVB": 2947,
      "Halkbank": 2948,
      "SarÄ±": 2949,
      "YA": 2950,
      "bre": 2951,
      "cm": 2952,
      "eam": 2953,
      "genel": 2954,
      "ie": 2955,
      "io": 2956,
      "ici": 2957,
      "ica": 2958,
      "iÅŁi": 2959,
      "ko": 2960,
      "kÄ±": 2961,
      "llar": 2962,
      "linde": 2963,
      "lÄ±lÄ±k": 2964,
      "mini": 2965,
      "oda": 2966,
      "par": 2967,
      "qu": 2968,
      "ron": 2969,
      "sta": 2970,
      "ter": 2971,
      "tler": 2972,
      "uta": 2973,
      "vÄ±": 2974,
      "vir": 2975,
      "yo": 2976,
      "Ġez": 2977,
      "Ä±rak": 2978,
      "Ä±sÄ±": 2979,
      "lacaÄŁ": 2980,
      "ÅŁkin": 2981,
      "Ġsek": 2982,
      "Ġstan": 2983,
      "ĠstatÃ¼": 2984,
      "ĠkÃ¼r": 2985,
      "Ġkut": 2986,
      "Ġbunun": 2987,
      "ĠbÄ±rak": 2988,
      "Ġot": 2989,
      "Ġiler": 2990,
      "eklinde": 2991,
      "asÄ±nÄ±": 2992,
      "olu": 2993,
      "Ġedi": 2994,
      "ĠTeam": 2995,
      "yacaÄŁ": 2996,
      "ori": 2997,
      "orun": 2998,
      "Ä±lmalÄ±": 2999,
      "Ä±lmadan": 3000,
      "lanma": 3001,
      "Ġsezona": 3002,
      "uru": 3003,
      "Ġduy": 3004,
      "Ã¼nkÃ¼": 3005,
      "Ġter": 3006,
      "Ġten": 3007,
      "Ġtie": 3008,
      "ilmesi": 3009,
      "Ġolmas": 3010,
      "melidir": 3011,
      "ĠpasÄ±": 3012,
      "ĠÃ§ar": 3013,
      "ĠÃ§aÄŁ": 3014,
      "ĠmaÃ§tan": 3015,
      "dÄ±ktan": 3016,
      "Ġdeme": 3017,
      "ĠÅŁeklinde": 3018,
      "ĠdaÄŁ": 3019,
      "Ġdaral": 3020,
      "2019": 3021,
      "cih": 3022,
      "ĠEleme": 3023,
      "diÄŁinde": 3024,
      "ĠyÄ±llar": 3025,
      "ĠyÄ±llarÄ±": 3026,
      "ĠKazan": 3027,
      "ĠbaÅŁÄ±na": 3028,
      "lenmemiÅŁtir": 3029,
      "ĠalmÄ±ÅŁtÄ±r": 3030,
      "Ġyapay": 3031,
      "yÄ±f": 3032,
      "Ġoyuncular": 3033,
      "Ġoyuncuyla": 3034,
      "ĠÃ¼Ã§e": 3035,
      "ĠÃ¼Ã§lÃ¼": 3036,
      "ĠDirsek": 3037,
      "Ġetki": 3038,
      "Ġsahne": 3039,
      "ĠiÃ§ine": 3040,
      "ĠiÃ§inden": 3041,
      "eye": 3042,
      "Ġoynanacak": 3043,
      "esli": 3044,
      "ĠHol": 3045,
      "ĠHDI": 3046,
      "ĠkarÅŁÄ±ya": 3047,
      "ĠaltÄ±nda": 3048,
      "okyo": 3049,
      "ĠayÄ±r": 3050,
      "ĠBusto": 3051,
      "yanÄ±n": 3052,
      "ĠgeÃ§en": 3053,
      "ĠaÃ§acak": 3054,
      "ĠbaÅŁarÄ±sÄ±nÄ±": 3055,
      "iyoruz": 3056,
      "ĠBeÅŁinci": 3057,
      "ĠkaldÄ±r": 3058,
      "masÄ±nda": 3059,
      "ĠsayÄ±da": 3060,
      "nadÄ±ÄŁÄ±": 3061,
      "ĠÃĩok": 3062,
      "ĠbelirlenmemiÅŁtir": 3063,
      "Ġziyar": 3064,
      "Ġ1989": 3065,
      "mektir": 3066,
      "Ġris": 3067,
      "ĠkupayÄ±": 3068,
      "ĠAyrÄ±": 3069,
      "ĠÃ§alÄ±ÅŁÄ±r": 3070,
      "ĠanlaÅŁÄ±lmÄ±ÅŁ": 3071,
      "2008": 3072,
      "klerini": 3073,
      "ĠsporlarÄ±nda": 3074,
      "ĠsmaÃ§Ã¶re": 3075,
      "ĠzayÄ±f": 3076,
      "Ġparmakla": 3077,
      "ĠdeÄŁerli": 3078,
      "2017": 3079,
      "Ġgruba": 3080,
      "ÅŁimi": 3081,
      "ĠduruÅŁ": 3082,
      "1989": 3083,
      "Ġadres": 3084,
      "Ġdizili": 3085,
      "ĠaÄŁÄ±rlÄ±ÄŁÄ±": 3086,
      "ĠdÃ¶ner": 3087,
      "ĠyaklaÅŁÄ±k": 3088,
      "Ġulusal": 3089,
      "lÄ±ÄŁÄ±nda": 3090,
      "sizlik": 3091,
      "ĠÃ§izgiye": 3092,
      "ĠÃ§Ä±karken": 3093,
      "loven": 3094,
      "Ġatamaz": 3095,
      "Ġsebep": 3096,
      "Ġsebebi": 3097,
      "iliz": 3098,
      "Ġdenk": 3099,
      "Ġgeriden": 3100,
      "Ġprote": 3101,
      "ĠyÃ¶netimindeki": 3102,
      "Ġbekleme": 3103,
      "Ġdurumda": 3104,
      "Ġhedefi": 3105,
      "ĠyÃ¶nlendir": 3106,
      "ĠhazÄ±rlanÄ±r": 3107,
      "ĠseÃ§eneÄŁi": 3108,
      "ĠeÄŁitimi": 3109,
      "ĠSahayÄ±": 3110,
      "ĠOynadÄ±ÄŁÄ±": 3111,
      "Ġdokun": 3112,
      "Ġ1927": 3113,
      "ĠRakip": 3114,
      "Ġgelirse": 3115,
      "ĠÃ¶ÄŁr": 3116,
      "Ġefsan": 3117,
      "Ġdikkat": 3118,
      "ĠiÃ§erisinde": 3119,
      "Ġengelleri": 3120,
      "Ġimzalanan": 3121,
      "KadÄ±nlar": 3122,
      "Efeler": 3123,
      "break": 3124,
      "Ġstandart": 3125,
      "ĠolmasÄ±ndan": 3126,
      "ĠAyrÄ±ca": 3127,
      "lovenya": 3128,
      "03": 3129,
      "06": 3130,
      "29": 3131,
      "500": 3132,
      "93": 3133,
      "95": 3134,
      "AN": 3135,
      "Ar": 3136,
      "AKE": 3137,
      "BK": 3138,
      "Berf": 3139,
      "Com": 3140,
      "EN": 3141,
      "ET": 3142,
      "Final": 3143,
      "Gerek": 3144,
      "Has": 3145,
      "KarÅŁÄ±": 3146,
      "La": 3147,
      "Lib": 3148,
      "LOV": 3149,
      "MLER": 3150,
      "MCA": 3151,
      "Not": 3152,
      "NAL": 3153,
      "ON": 3154,
      "OT": 3155,
      "RAN": 3156,
      "Sultan": 3157,
      "SBK": 3158,
      "TÃ¼rk": 3159,
      "XA": 3160,
      "Yar": 3161,
      "ab": 3162,
      "ai": 3163,
      "aba": 3164,
      "bra": 3165,
      "bal": 3166,
      "bur": 3167,
      "biye": 3168,
      "bildi": 3169,
      "co": 3170,
      "cin": 3171,
      "cinde": 3172,
      "cis": 3173,
      "dinci": 3174,
      "dre": 3175,
      "dÃ¼l": 3176,
      "est": 3177,
      "ebilir": 3178,
      "evi": 3179,
      "feni": 3180,
      "go": 3181,
      "ger": 3182,
      "gÄ±nÄ±": 3183,
      "ho": 3184,
      "hat": 3185,
      "ia": 3186,
      "ita": 3187,
      "ian": 3188,
      "ika": 3189,
      "iran": 3190,
      "jeb": 3191,
      "kasÄ±nda": 3192,
      "kurulu": 3193,
      "mp": 3194,
      "mran": 3195,
      "mbur": 3196,
      "nci": 3197,
      "nce": 3198,
      "oun": 3199,
      "priz": 3200,
      "rz": 3201,
      "son": 3202,
      "sen": 3203,
      "sup": 3204,
      "sak": 3205,
      "sÄ±ndan": 3206,
      "sÄ±nÄ±n": 3207,
      "servis": 3208,
      "to": 3209,
      "ts": 3210,
      "tÃ¼": 3211,
      "ton": 3212,
      "tiy": 3213,
      "tlan": 3214,
      "tÃ¼rk": 3215,
      "tti": 3216,
      "tÄ±k": 3217,
      "ude": 3218,
      "udur": 3219,
      "vanÄ±n": 3220,
      "vuru": 3221,
      "yin": 3222,
      "zo": 3223,
      "zian": 3224,
      "Ã®": 3225,
      "Ãĸ": 3226,
      "Äĩ": 3227,
      "Ġlen": 3228,
      "ĠâĢ": 3229,
      "Ġlaka": 3230,
      "ĠÄ±sÄ±na": 3231,
      "Ä±larak": 3232,
      "Ä±ran": 3233,
      "Ä±labilir": 3234,
      "laÃ§": 3235,
      "lacivertliler": 3236,
      "Ã¼s": 3237,
      "Ã¼se": 3238,
      "Ã¼ray": 3239,
      "dak": 3240,
      "lemi": 3241,
      "Ġsan": 3242,
      "Ġsur": 3243,
      "Ġsiz": 3244,
      "ĠsÃ¶rf": 3245,
      "tarih": 3246,
      "tafa": 3247,
      "inÃ§": 3248,
      "indu": 3249,
      "inland": 3250,
      "injeb": 3251,
      "delia": 3252,
      "madÄ±": 3253,
      "mamÄ±ÅŁ": 3254,
      "mart": 3255,
      "onten": 3256,
      "onavi": 3257,
      "raber": 3258,
      "radaÄŁ": 3259,
      "Ã§asÄ±": 3260,
      "Ã§ika": 3261,
      "Ġkup": 3262,
      "ĠkupasÄ±": 3263,
      "ĠkÄ±z": 3264,
      "Ġkom": 3265,
      "ĠbazÄ±": 3266,
      "anak": 3267,
      "Ġolay": 3268,
      "Ġolacak": 3269,
      "ero": 3270,
      "erine": 3271,
      "erleri": 3272,
      "ersiz": 3273,
      "erkez": 3274,
      "eninde": 3275,
      "eniz": 3276,
      "ensup": 3277,
      "ĠyoÄŁ": 3278,
      "irv": 3279,
      "irse": 3280,
      "irza": 3281,
      "irmen": 3282,
      "iydi": 3283,
      "ĠtaÅŁ": 3284,
      "Ġtaki": 3285,
      "Ġtaka": 3286,
      "ĠtanÄ±n": 3287,
      "ÄŁÃ¼s": 3288,
      "ÄŁirmen": 3289,
      "ĠayÄ±": 3290,
      "Ġavrupa": 3291,
      "Ġalabilir": 3292,
      "Ġalacak": 3293,
      "Ä±msÄ±z": 3294,
      "ekti": 3295,
      "ekim": 3296,
      "are": 3297,
      "arÃ§asÄ±": 3298,
      "Ġgit": 3299,
      "Ġgide": 3300,
      "Ġ27": 3301,
      "asin": 3302,
      "assa": 3303,
      "asyonu": 3304,
      "asÄ±nÄ±n": 3305,
      "asco": 3306,
      "eza": 3307,
      "ĠKura": 3308,
      "ĠKÄ±z": 3309,
      "ĠKuz": 3310,
      "ĠKonten": 3311,
      "olley": 3312,
      "olly": 3313,
      "Ġkade": 3314,
      "Ġkabul": 3315,
      "ĠtakÄ±mlara": 3316,
      "ĠtakÄ±mlarda": 3317,
      "Ġ13": 3318,
      "Ä±ndaki": 3319,
      "Ġele": 3320,
      "Ġeya": 3321,
      "Ġelenen": 3322,
      "Ġetap": 3323,
      "Ġeleyen": 3324,
      "Ġeleyerek": 3325,
      "ĠTer": 3326,
      "ĠTom": 3327,
      "ĠTokyo": 3328,
      "yalar": 3329,
      "yacak": 3330,
      "oroun": 3331,
      "ĠAlan": 3332,
      "ĠAras": 3333,
      "ĠAdis": 3334,
      "ĠAXA": 3335,
      "ĠAdelia": 3336,
      "Ä±lmasÄ±": 3337,
      "Ä±lmaz": 3338,
      "amlÄ±": 3339,
      "gisiz": 3340,
      "ĠSi": 3341,
      "ĠSezon": 3342,
      "ĠSÃľR": 3343,
      "ĠSAL": 3344,
      "ĠSlovenya": 3345,
      "ĠSET": 3346,
      "ĠSmart": 3347,
      "ĠSolly": 3348,
      "urlar": 3349,
      "uruldu": 3350,
      "Ġdile": 3351,
      "Ġdurarak": 3352,
      "Ã¼rlÃ¼": 3353,
      "Ã¼nyanÄ±n": 3354,
      "Ġfot": 3355,
      "ĠtÃ¶r": 3356,
      "ĠtÃ¼rlÃ¼": 3357,
      "akem": 3358,
      "ĠBo": 3359,
      "ĠBak": 3360,
      "ĠBat": 3361,
      "ĠBahÃ§e": 3362,
      "ĠBaÄŁ": 3363,
      "ĠBig": 3364,
      "ĠBolu": 3365,
      "ĠBonavi": 3366,
      "ĠLe": 3367,
      "ĠLu": 3368,
      "ĠLÃ¼k": 3369,
      "ĠLat": 3370,
      "ĠLot": 3371,
      "ĠLise": 3372,
      "Ġmavi": 3373,
      "Ġmaddi": 3374,
      "Ġmadal": 3375,
      "ĠmaÄŁlu": 3376,
      "ĠVita": 3377,
      "Ġolmayan": 3378,
      "medi": 3379,
      "Ġplan": 3380,
      "Ġpop": 3381,
      "ĠparÃ§asÄ±": 3382,
      "ĠbirliÄŁinde": 3383,
      "ĠÃ§Ä±": 3384,
      "ĠÃ§eÅŁ": 3385,
      "ĠÃ§aba": 3386,
      "ĠÃ§ekti": 3387,
      "ĠmaÃ§lÄ±k": 3388,
      "ĠmaÃ§larÄ±nÄ±n": 3389,
      "dÄ±z": 3390,
      "isa": 3391,
      "Ġmolalarda": 3392,
      "Ġmerkez": 3393,
      "Ġmensup": 3394,
      "lÄ±dÄ±r": 3395,
      "lÄ±oÄŁlu": 3396,
      "Ġdene": 3397,
      "Ġdeneme": 3398,
      "tion": 3399,
      "ĠÅŁub": 3400,
      "ĠMan": 3401,
      "ĠMura": 3402,
      "ĠMKE": 3403,
      "sel": 3404,
      "sese": 3405,
      "sembur": 3406,
      "Ġsonuna": 3407,
      "ĠsonrasÄ±nda": 3408,
      "ĠFat": 3409,
      "ĠFark": 3410,
      "ĠFour": 3411,
      "ĠdalÄ±": 3412,
      "ĠEda": 3413,
      "ĠEÄŁi": 3414,
      "dim": 3415,
      "dikler": 3416,
      "diÄŁin": 3417,
      "ĠyÄ±llardÄ±r": 3418,
      "ĠyÄ±ldÄ±z": 3419,
      "ĠKatar": 3420,
      "ĠKalaÃ§": 3421,
      "ĠKaradaÄŁ": 3422,
      "lub": 3423,
      "Ä°tal": 3424,
      "Ä°NAL": 3425,
      "lker": 3426,
      "etle": 3427,
      "ĠbaÅŁlar": 3428,
      "ĠbaÅŁlama": 3429,
      "ĠbaÅŁvuru": 3430,
      "ĠCS": 3431,
      "ĠÄ°ÅŁ": 3432,
      "ĠÄ°ran": 3433,
      "ĠÄ°Ãľ": 3434,
      "ĠÄ°zm": 3435,
      "ĠÄ°nci": 3436,
      "kale": 3437,
      "ĠÅŀah": 3438,
      "ĠÃ¶tÃ¼r": 3439,
      "ĠÃ¶dÃ¼l": 3440,
      "tep": 3441,
      "cev": 3442,
      "ĠsÄ±radan": 3443,
      "ĠGu": 3444,
      "ĠGÃ¼ray": 3445,
      "Ġfinaller": 3446,
      "Ġfinallerde": 3447,
      "Ġfinallere": 3448,
      "ĠÅŀampiyonluk": 3449,
      "ĠÅŀampiyonluÄŁu": 3450,
      "Ġliglerin": 3451,
      "Ġyapar": 3452,
      "ĠyaptÄ±k": 3453,
      "elÃ®": 3454,
      "Ġoyuncus": 3455,
      "Ġoyuncudur": 3456,
      "ĠoyuncularÄ±nÄ±n": 3457,
      "ĠoyuncularÄ±ndan": 3458,
      "izmet": 3459,
      "Ġtamamen": 3460,
      "ĠDene": 3461,
      "ĠDiÄŁer": 3462,
      "ĠDinam": 3463,
      "Ġetmekte": 3464,
      "ĠPaz": 3465,
      "ĠsahasÄ±na": 3466,
      "ĠsahasÄ±nÄ±n": 3467,
      "ĠmÃ¼es": 3468,
      "makla": 3469,
      "maktÄ±r": 3470,
      "ĠtakÄ±mÄ±yla": 3471,
      "eyen": 3472,
      "Ġolduktan": 3473,
      "ĠoldukÃ§a": 3474,
      "ĠÃ¼stÃ¼nde": 3475,
      "ĠoynandÄ±ÄŁÄ±": 3476,
      "Ġoynanama": 3477,
      "itekim": 3478,
      "ibini": 3479,
      "ĠOturarak": 3480,
      "ĠpastÄ±r": 3481,
      "Ġgeci": 3482,
      "Ġgelerek": 3483,
      "195": 3484,
      "ikos": 3485,
      "unuz": 3486,
      "ĠverilmiÅŁtir": 3487,
      "ĠverdiÄŁi": 3488,
      "Ġversiy": 3489,
      "dana": 3490,
      "masÄ±yla": 3491,
      "manÅŁet": 3492,
      "Ġtarihten": 3493,
      "dirhan": 3494,
      "ĠHalk": 3495,
      "ĠHAKE": 3496,
      "ĠHÃ¼se": 3497,
      "ĠHizmet": 3498,
      "Ġ2002": 3499,
      "ĠYa": 3500,
      "ĠYeni": 3501,
      "ĠYalÄ±n": 3502,
      "ĠYÄ±lmaz": 3503,
      "lamayan": 3504,
      "ĠoynamayÄ±": 3505,
      "ĠoynamasÄ±na": 3506,
      "Ġoynayacak": 3507,
      "ĠkatÄ±": 3508,
      "Ġikincilik": 3509,
      "ĠikinciliÄŁi": 3510,
      "okt": 3511,
      "Ġseris": 3512,
      "ĠalanÄ±nda": 3513,
      "ĠalanÄ±nÄ±": 3514,
      "ĠalanÄ±na": 3515,
      "ĠalanÄ±ndan": 3516,
      "Ġalanlarda": 3517,
      "ĠayÄ±nda": 3518,
      "ĠarkasÄ±nda": 3519,
      "Ġeller": 3520,
      "ĠFenerbahÃ§eli": 3521,
      "Ġkurma": 3522,
      "ĠkadÄ±nlarda": 3523,
      "ĠkadÄ±nlararasÄ±": 3524,
      "Ġerecek": 3525,
      "Ġbulunuyor": 3526,
      "ĠyarÄ±sÄ±nda": 3527,
      "Ġherhangi": 3528,
      "âĢĿ": 3529,
      "Ġ1991": 3530,
      "Ġ1994": 3531,
      "Ġ1998": 3532,
      "ĠyÃ¼kseleme": 3533,
      "elebi": 3534,
      "Ġ1963": 3535,
      "Ġ1964": 3536,
      "Ġsetinde": 3537,
      "ĠgÃ¶ÄŁÃ¼s": 3538,
      "ĠbitirmiÅŁ": 3539,
      "Ġbitirmesine": 3540,
      "Ġettikleri": 3541,
      "ĠRas": 3542,
      "ĠRenk": 3543,
      "ĠGazian": 3544,
      "ĠyapÄ±lanma": 3545,
      "ĠÃ§Ä±kÄ±lan": 3546,
      "ĠdÃ¼zenlendi": 3547,
      "uran": 3548,
      "Ġ1971": 3549,
      "Ġ1978": 3550,
      "Ġ1979": 3551,
      "ĠbaÅŁarÄ±lar": 3552,
      "ĠbaÅŁarÄ±lara": 3553,
      "ĠAnÄ±lan": 3554,
      "ĠAnna": 3555,
      "ĠAndre": 3556,
      "Ġturda": 3557,
      "ĠArsiz": 3558,
      "ĠdÃ¼ÅŁmÃ¼ÅŁtÃ¼r": 3559,
      "ĠdÃ¼ÅŁmÃ¼ÅŁ": 3560,
      "ĠkalÄ±n": 3561,
      "ĠkalmasÄ±": 3562,
      "ĠNi": 3563,
      "ĠNTV": 3564,
      "ĠNitekim": 3565,
      "masÄ±nÄ±n": 3566,
      "ĠÃľmran": 3567,
      "ĠÃľlker": 3568,
      "ĠsÃ¼rpriz": 3569,
      "inaikos": 3570,
      "ĠKupalarÄ±nda": 3571,
      "ĠErdem": 3572,
      "ĠÃĩanak": 3573,
      "ĠÃĩamlÄ±": 3574,
      "ĠÃĩelebi": 3575,
      "ĠOyunun": 3576,
      "ĠOyunlarÄ±": 3577,
      "Ġekib": 3578,
      "ĠeklenmiÅŁtir": 3579,
      "Ġbelirleye": 3580,
      "ĠortasÄ±": 3581,
      "Ġzem": 3582,
      "Ġzirv": 3583,
      "ĠedememiÅŁtir": 3584,
      "Ġ1981": 3585,
      "Ġ1988": 3586,
      "rand": 3587,
      "liÄŁinden": 3588,
      "ĠaÃ§Ä±klandÄ±": 3589,
      "ĠkupalarÄ±nda": 3590,
      "Ġyaka": 3591,
      "ĠAyos": 3592,
      "ĠAyÅŁe": 3593,
      "suz": 3594,
      "Ġligdeki": 3595,
      "trenÃ¶rÃ¼": 3596,
      "ĠBirisi": 3597,
      "2001": 3598,
      "2002": 3599,
      "2005": 3600,
      "2009": 3601,
      "ĠVakili": 3602,
      "ĠEfeleri": 3603,
      "tasÄ±nÄ±n": 3604,
      "Ġgruptan": 3605,
      "Ġ1954": 3606,
      "Ġ1955": 3607,
      "ĠÅŁampiyonluklarÄ±": 3608,
      "ĠÅŁampiyonluklarÄ±nÄ±": 3609,
      "Ġrakipleri": 3610,
      "ĠturnuvanÄ±n": 3611,
      "ĠUr": 3612,
      "ĠUmut": 3613,
      "ĠUyg": 3614,
      "ĠUniver": 3615,
      "ĠkenarÄ±": 3616,
      "ĠMÃ¼cadele": 3617,
      "2018": 3618,
      "ĠbÃ¶lgesinin": 3619,
      "Ġatlayan": 3620,
      "Ġatmakla": 3621,
      "Ġarkaya": 3622,
      "ĠgÃ¶stermiÅŁtir": 3623,
      "ĠkulÃ¼plerinin": 3624,
      "ĠErkeklerde": 3625,
      "berto": 3626,
      "ĠbaÅŁlamÄ±ÅŁ": 3627,
      "ĠbaÅŁlayarak": 3628,
      "ĠkarÅŁÄ±laÅŁacak": 3629,
      "ĠaraÅŁtÄ±rma": 3630,
      "ĠaracÄ±lÄ±ÄŁÄ±": 3631,
      "Ġturnuvalar": 3632,
      "Ġnumarada": 3633,
      "ĠyayÄ±ncÄ±": 3634,
      "Ġdururlar": 3635,
      "ĠhaftasÄ±nÄ±n": 3636,
      "letme": 3637,
      "ĠulaÅŁmaktÄ±r": 3638,
      "1986": 3639,
      "1987": 3640,
      "1988": 3641,
      "ĠkuralÄ±": 3642,
      "Ġkaptan": 3643,
      "ĠmÃ¼sabakalarÄ±": 3644,
      "ĠmÃ¼sabakalarÄ±na": 3645,
      "1995": 3646,
      "1999": 3647,
      "ĠgÃ¼Ã§lendir": 3648,
      "ĠyanÄ±nda": 3649,
      "ĠadlandÄ±r": 3650,
      "Ġgalibiyetle": 3651,
      "Ġtakti": 3652,
      "ĠSeda": 3653,
      "ĠSema": 3654,
      "ĠalÄ±nmÄ±ÅŁtÄ±r": 3655,
      "ĠyayÄ±nlanmÄ±ÅŁ": 3656,
      "ĠyayÄ±nlanmaya": 3657,
      "ĠyayÄ±nlanmayan": 3658,
      "ĠbaÄŁÄ±msÄ±z": 3659,
      "Ġyendi": 3660,
      "Ġazal": 3661,
      "Ġeski": 3662,
      "ĠSalemi": 3663,
      "ĠulaÅŁtÄ±lar": 3664,
      "ĠgeÃ§tiÄŁi": 3665,
      "ĠbÃ¶lÃ¼mÃ¼": 3666,
      "hmetova": 3667,
      "Ã§rama": 3668,
      "ĠkazanÄ±rsa": 3669,
      "ĠkazanÄ±rken": 3670,
      "ĠgÃ¶revinin": 3671,
      "ĠOyuncularÄ±n": 3672,
      "ĠsÄ±nÄ±rlarÄ±": 3673,
      "ĠsÄ±nÄ±rlandÄ±r": 3674,
      "ĠsÄ±nÄ±rlÄ±dÄ±r": 3675,
      "ĠdÃ¶nmÃ¼ÅŁtÃ¼r": 3676,
      "ĠÃ¼yesidir": 3677,
      "ĠMÃ¼dÃ¼rlÃ¼ÄŁÃ¼": 3678,
      "Ġfaaliyetlerini": 3679,
      "Ġfaaliyetlerine": 3680,
      "Ġberaber": 3681,
      "Ġilde": 3682,
      "ĠGÃ¼nÃ¼mÃ¼z": 3683,
      "ĠsÃ¼reÃ§": 3684,
      "ĠsÃ¼reci": 3685,
      "iÅŁinde": 3686,
      "ĠAlmanya": 3687,
      "ĠAlteli": 3688,
      "Ġdost": 3689,
      "ĠBeden": 3690,
      "ĠBedirhan": 3691,
      "ĠkaldÄ±ran": 3692,
      "ĠyaÅŁayan": 3693,
      "ĠyaÅŁadÄ±": 3694,
      "ĠAsya": 3695,
      "ĠAslÄ±": 3696,
      "ĠÃ§izgiyle": 3697,
      "ĠseÃ§er": 3698,
      "ĠMaÃ§larÄ±": 3699,
      "ĠMaÃ§larÄ±nÄ±": 3700,
      "birliÄŁi": 3701,
      "ustafa": 3702,
      "Ġatak": 3703,
      "ĠÅŁampiyonluÄŁuyla": 3704,
      "ĠkulÃ¼bÃ¼mÃ¼z": 3705,
      "ĠkÄ±rmÄ±zÄ±": 3706,
      "ĠiÅŁlem": 3707,
      "ĠiÅŁbirliÄŁi": 3708,
      "Ġtutmak": 3709,
      "ĠAnkaragÃ¼": 3710,
      "ĠdeÄŁiÅŁtirme": 3711,
      "ĠdeÄŁiÅŁtirilmiÅŁtir": 3712,
      "Ã¼lin": 3713,
      "Ġdenir": 3714,
      "ĠMerve": 3715,
      "ĠMermer": 3716,
      "ĠsÄ±ralamasÄ±nda": 3717,
      "ĠsonuÃ§la": 3718,
      "ĠsonuÃ§lar": 3719,
      "Ġekiplerinden": 3720,
      "Ġrekabetin": 3721,
      "Ġrekabette": 3722,
      "voleybolda": 3723,
      "Ġrahat": 3724,
      "ĠgerÃ§ekleÅŁtir": 3725,
      "ĠyÃ¶netiminde": 3726,
      "ĠyÃ¼zeyi": 3727,
      "ĠoluÅŁturul": 3728,
      "ĠoluÅŁturulan": 3729,
      "ĠkÃ¶tÃ¼": 3730,
      "Ġyetersiz": 3731,
      "Ġizledi": 3732,
      "Ġisteyen": 3733,
      "ĠalÄ±yor": 3734,
      "Ġ1895": 3735,
      "ĠkarÅŁÄ±laÅŁmalarÄ±nda": 3736,
      "Ġsavunmada": 3737,
      "ĠCumhuriyeti": 3738,
      "Ä±lamayan": 3739,
      "ĠsalgÄ±nÄ±": 3740,
      "ĠdÃ¶rtlÃ¼": 3741,
      "ĠoynatÄ±lamayan": 3742,
      "ĠDeÄŁirmen": 3743,
      "ĠOsasco": 3744,
      "ĠayrÄ±lan": 3745,
      "ĠayrÄ±lmÄ±ÅŁ": 3746,
      "ĠdÃ¼zeyde": 3747,
      "ĠÃĸztÃ¼rk": 3748,
      "Ġyenilmesine": 3749,
      "Ġyenilgisiz": 3750,
      "Ġsistemine": 3751,
      "Ġdahildir": 3752,
      "Ġyedinci": 3753,
      "ĠyÃ¶nÃ¼": 3754,
      "Ġelemeyi": 3755,
      "ĠAkhmetova": 3756,
      "ĠEsindu": 3757,
      "ĠmÃ¼zesinde": 3758,
      "ĠÃ¼stÃ¼nlÃ¼k": 3759,
      "ĠsÃ¼rdÃ¼ren": 3760,
      "TakÄ±mÄ±n": 3761,
      "kÃ§en": 3762,
      "ĠWeb": 3763,
      "ĠÃ¼nlÃ¼": 3764,
      "ĠÃ¼nvanÄ±nÄ±": 3765,
      "lacivertlilerin": 3766,
      "irkÄ±ran": 3767,
      "ĠgÃ¶rÃ¼ÅŁ": 3768,
      "ĠBerkay": 3769,
      "Ġ1947": 3770,
      "Ġ1949": 3771,
      "ĠÅŁubesi": 3772,
      "ĠMoh": 3773,
      "ĠMobil": 3774,
      "ĠbaÅŁantrenÃ¶rlÃ¼ÄŁÃ¼ne": 3775,
      "ĠCeylan": 3776,
      "ĠCeysu": 3777,
      "ĠyapÄ±labilir": 3778,
      "ĠsahipliÄŁi": 3779,
      "Ġedecektir": 3780,
      "ĠbeyazlÄ±": 3781,
      "ĠbeyazdÄ±r": 3782,
      "ĠÃ¼lkelerde": 3783,
      "ĠTurnuva": 3784,
      "ĠTurnuvasÄ±": 3785,
      "Ġ1929": 3786,
      "ĠsayÄ±lÄ±r": 3787,
      "ĠÃ¶lÃ§Ã¼": 3788,
      "ĠRakibini": 3789,
      "ĠkuruluÅŁu": 3790,
      "Ġsalonlardan": 3791,
      "janÄ±na": 3792,
      "inga": 3793,
      "ĠbÃ¼tÃ¼n": 3794,
      "Ġharicinde": 3795,
      "ĠGÃ¶k": 3796,
      "ĠGÃ¶kÃ§en": 3797,
      "1968": 3798,
      "ĠkarÅŁÄ±n": 3799,
      "ĠHanÄ±m": 3800,
      "ĠyarÄ±ÅŁacaktÄ±r": 3801,
      "Ġtaktiktir": 3802,
      "ĠboÅŁluÄŁu": 3803,
      "ĠÃ¶zellikle": 3804,
      "ĠuzantÄ±sÄ±": 3805,
      "ĠaverajÄ±yla": 3806,
      "ĠPanath": 3807,
      "ĠPlajÄ±": 3808,
      "ĠiÃ§eride": 3809,
      "Ġgerektirmektedir": 3810,
      "Ġkendisine": 3811,
      "ĠbaÅŁlangÄ±Ã§": 3812,
      "ĠÃ§alÄ±ÅŁtÄ±rÄ±cÄ±": 3813,
      "ĠalÄ±ÅŁveriÅŁinde": 3814,
      "Milli": 3815,
      "ovo": 3816,
      "Ġunvan": 3817,
      "Ġsorumlusu": 3818,
      "Ġkrizi": 3819,
      "ĠbranÅŁ": 3820,
      "Ġalamaz": 3821,
      "ĠSencel": 3822,
      "ĠSetler": 3823,
      "ĠBahman": 3824,
      "Ġmaddeden": 3825,
      "Ġdestek": 3826,
      "ĠÅŁirket": 3827,
      "ĠKaptanÄ±": 3828,
      "kabinde": 3829,
      "ĠDemirkÄ±ran": 3830,
      "ĠDominga": 3831,
      "ĠPorto": 3832,
      "ĠHaziran": 3833,
      "ĠbuluÅŁma": 3834,
      "ĠgÃ¶zlÃ¼k": 3835,
      "Ġtaraftarlar": 3836,
      "ĠNuri": 3837,
      "ĠÃĩelik": 3838,
      "ĠzÄ±playa": 3839,
      "ĠaÃ§Ä±klamada": 3840,
      "Ġrenkler": 3841,
      "Ġgiremedi": 3842,
      "Ġtebrik": 3843,
      "ĠyÃ¶netilen": 3844,
      "ĠMerkezi": 3845,
      "ĠdeÄŁiÅŁiklik": 3846,
      "ĠkanallarÄ±ndan": 3847,
      "Ġkategorisinde": 3848,
      "ĠezelÃ®": 3849,
      "Ġedip": 3850,
      "Ġduyuruldu": 3851,
      "Arkas": 3852,
      "Berfin": 3853,
      "ENYA": 3854,
      "Gerekirse": 3855,
      "Hasan": 3856,
      "KarÅŁÄ±laÅŁmalar": 3857,
      "Lacivertliler": 3858,
      "Libero": 3859,
      "LOVENYA": 3860,
      "Sultanlar": 3861,
      "Yaren": 3862,
      "fenix": 3863,
      "kuruluÅŁ": 3864,
      "rzic": 3865,
      "tlanta": 3866,
      "Ãĸnce": 3867,
      "Ġlens": 3868,
      "ĠâĢľ": 3869,
      "tarihinde": 3870,
      "inlandiya": 3871,
      "injeboroun": 3872,
      "ĠkupanÄ±n": 3873,
      "Ġkombin": 3874,
      "ĠyoÄŁun": 3875,
      "ĠtanÄ±ndÄ±": 3876,
      "Ġgiderek": 3877,
      "ĠKuzey": 3878,
      "ĠKontenjanÄ±na": 3879,
      "Ġeyalet": 3880,
      "ĠTomris": 3881,
      "ĠArash": 3882,
      "ĠSÃľRE": 3883,
      "ĠSALON": 3884,
      "ĠSETLER": 3885,
      "ĠSollys": 3886,
      "ĠtÃ¶reninde": 3887,
      "ĠBatÄ±": 3888,
      "ĠBahÃ§eÅŁehir": 3889,
      "ĠBaÄŁlÄ±": 3890,
      "ĠBonavias": 3891,
      "ĠLÃ¼ksembur": 3892,
      "ĠLatina": 3893,
      "ĠLisesi": 3894,
      "ĠmaÄŁlubiyet": 3895,
      "ĠVitafenix": 3896,
      "ĠpopÃ¼ler": 3897,
      "ĠÃ§abalarÄ±yla": 3898,
      "ĠmensuplarÄ±nÄ±n": 3899,
      "ĠMurat": 3900,
      "ĠFatma": 3901,
      "ĠFarklÄ±": 3902,
      "diÄŁiniz": 3903,
      "Ä°talya": 3904,
      "ĠbaÅŁlamadan": 3905,
      "ĠÄ°ÃľSBK": 3906,
      "ĠÄ°zmir": 3907,
      "ĠÅŀahin": 3908,
      "ĠÃ¶tÃ¼rÃ¼": 3909,
      "ĠGÃ¼rayman": 3910,
      "ĠDenetim": 3911,
      "ĠDinamo": 3912,
      "ĠPazar": 3913,
      "ĠmÃ¼essese": 3914,
      "Ġversiyonu": 3915,
      "ĠHAKEMLER": 3916,
      "ĠHÃ¼seyin": 3917,
      "ĠHizmetleri": 3918,
      "ĠYalÄ±ncak": 3919,
      "ĠoynayacaklardÄ±r": 3920,
      "ĠikinciliÄŁidir": 3921,
      "ĠRenkleri": 3922,
      "ĠGaziantep": 3923,
      "ĠAndreoli": 3924,
      "ĠArsizio": 3925,
      "ĠÃĩanakkale": 3926,
      "ĠÃĩamlÄ±ca": 3927,
      "ĠUygur": 3928,
      "ĠUniversal": 3929,
      "ĠkarÅŁÄ±laÅŁacaklardÄ±r": 3930,
      "ĠaracÄ±lÄ±ÄŁÄ±yla": 3931,
      "ĠSalemiinjeboroun": 3932,
      "ĠGÃ¼nÃ¼mÃ¼zde": 3933,
      "ĠAltelife": 3934,
      "ĠkulÃ¼bÃ¼mÃ¼zÃ¼n": 3935,
      "ĠAnkaragÃ¼cÃ¼": 3936,
      "ĠDeÄŁirmenci": 3937,
      "ĠEsinduy": 3938,
      "ĠPanathinaikos": 3939,
      "ĠLÃ¼ksemburg": 3940,
      "'.": 3941,
      "120": 3942,
      "27": 3943,
      "Aya": 3944,
      "Ana": 3945,
      "Bununla": 3946,
      "DÄ±ÅŁ": 3947,
      "En": 3948,
      "Er": 3949,
      "File": 3950,
      "GÃ¼n": 3951,
      "Kap": 3952,
      "Li": 3953,
      "MÃ¼": 3954,
      "Modern": 3955,
      "Nerede": 3956,
      "Omuz": 3957,
      "Plaj": 3958,
      "Ro": 3959,
      "Ral": 3960,
      "SÄ±": 3961,
      "SaÄŁ": 3962,
      "Servis": 3963,
      "Vak": 3964,
      "aj": 3965,
      "ati": 3966,
      "bazÄ±": 3967,
      "cun": 3968,
      "cil": 3969,
      "cÄ±ndan": 3970,
      "ceri": 3971,
      "diyor": 3972,
      "ee": 3973,
      "eceÄŁi": 3974,
      "fon": 3975,
      "gun": 3976,
      "hÄ±z": 3977,
      "imi": 3978,
      "iden": 3979,
      "iÄŁi": 3980,
      "ilim": 3981,
      "ileye": 3982,
      "itim": 3983,
      "jum": 3984,
      "klarÄ±nÄ±": 3985,
      "karÅŁÄ±": 3986,
      "lde": 3987,
      "lini": 3988,
      "lge": 3989,
      "linin": 3990,
      "liyor": 3991,
      "lÄ±lÄ±": 3992,
      "mle": 3993,
      "mine": 3994,
      "nak": 3995,
      "nÄ±nÄ±n": 3996,
      "nend": 3997,
      "omet": 3998,
      "oint": 3999,
      "pen": 4000,
      "rta": 4001,
      "rup": 4002,
      "sin": 4003,
      "sÃ¼n": 4004,
      "tle": 4005,
      "tlar": 4006,
      "tÄ±ÅŁ": 4007,
      "tlama": 4008,
      "tmek": 4009,
      "tleÅŁtir": 4010,
      "uÃ§": 4011,
      "udu": 4012,
      "utar": 4013,
      "uÅŁtu": 4014,
      "vf": 4015,
      "vÅŁ": 4016,
      "vde": 4017,
      "vuÃ§": 4018,
      "yse": 4019,
      "ymak": 4020,
      "yerek": 4021,
      "ĠcÃ¼": 4022,
      "Ġini": 4023,
      "Ġjum": 4024,
      "lamasÄ±": 4025,
      "Ã¼len": 4026,
      "Ã¼lÃ¼": 4027,
      "Ã¼yor": 4028,
      "Ã¼eli": 4029,
      "Ã¼yorsa": 4030,
      "Ã¼tÃ¼r": 4031,
      "leÅŁimi": 4032,
      "ÅŁun": 4033,
      "ÅŁil": 4034,
      "ÅŁim": 4035,
      "Ġsu": 4036,
      "Ġsol": 4037,
      "ĠsÄ±r": 4038,
      "Ġsampiyon": 4039,
      "Ġstab": 4040,
      "Ġsenk": 4041,
      "Ġsenin": 4042,
      "Ġskap": 4043,
      "Ġsqu": 4044,
      "Ġsorun": 4045,
      "Ġsesli": 4046,
      "tarak": 4047,
      "may": 4048,
      "mayla": 4049,
      "matlar": 4050,
      "raya": 4051,
      "ralanma": 4052,
      "Ã§a": 4053,
      "Ã§Ã¼k": 4054,
      "Ã§im": 4055,
      "Ã§rÄ±": 4056,
      "Ġkri": 4057,
      "Ġbur": 4058,
      "ĠbÃ¼k": 4059,
      "Ġbunu": 4060,
      "Ġbes": 4061,
      "Ġbuna": 4062,
      "ĠbÃ¼y": 4063,
      "Ġbaka": 4064,
      "Ġbacak": 4065,
      "Ġboz": 4066,
      "Ġbedeli": 4067,
      "Ġoraya": 4068,
      "unlarÄ±": 4069,
      "eres": 4070,
      "eniyor": 4071,
      "Ġyor": 4072,
      "Ġyem": 4073,
      "Ġyudu": 4074,
      "ĠiÃ§e": 4075,
      "Ġiter": 4076,
      "irci": 4077,
      "Ġtali": 4078,
      "ĠtanÄ±": 4079,
      "ÄŁÄ±n": 4080,
      "ÄŁun": 4081,
      "ÄŁÄ±nÄ±": 4082,
      "ÄŁrÄ±": 4083,
      "ÄŁÄ±nÄ±z": 4084,
      "Ġaras": 4085,
      "Ġatab": 4086,
      "ĠamaÃ§": 4087,
      "Ġauta": 4088,
      "ĠalacaÄŁ": 4089,
      "ĠavuÃ§": 4090,
      "ĠaÅŁil": 4091,
      "ĠaÄŁrÄ±": 4092,
      "lilik": 4093,
      "libero": 4094,
      "liteli": 4095,
      "liomet": 4096,
      "litle": 4097,
      "Ä±mÄ±n": 4098,
      "Ä±mÄ±na": 4099,
      "ekte": 4100,
      "Ã¶mel": 4101,
      "arlanÄ±r": 4102,
      "Ġgid": 4103,
      "asi": 4104,
      "asÃ¶r": 4105,
      "ĠKol": 4106,
      "ĠKur": 4107,
      "Ä±rÄ±m": 4108,
      "Ä±rmayla": 4109,
      "ĠkalÄ±": 4110,
      "Ġkadin": 4111,
      "Ġkaliteli": 4112,
      "leyici": 4113,
      "Ġelen": 4114,
      "Ġelim": 4115,
      "Ġelek": 4116,
      "ĠTÃ¼lin": 4117,
      "yak": 4118,
      "yacÄ±": 4119,
      "yavaÅŁ": 4120,
      "ordin": 4121,
      "ĠArab": 4122,
      "ĠAyak": 4123,
      "Ä±lÄ±mÄ±": 4124,
      "amo": 4125,
      "gisi": 4126,
      "landa": 4127,
      "lanmalÄ±": 4128,
      "lanÄ±yor": 4129,
      "ĠSer": 4130,
      "ĠSes": 4131,
      "ĠsezonlarÄ±": 4132,
      "uruÅŁ": 4133,
      "Ġdis": 4134,
      "Ġdinam": 4135,
      "Ġdiyoruz": 4136,
      "Ġdilim": 4137,
      "Ġflo": 4138,
      "ĠfÄ±rlat": 4139,
      "Ġtes": 4140,
      "Ġtend": 4141,
      "Ġtutar": 4142,
      "aklaÅŁtÄ±r": 4143,
      "ĠBile": 4144,
      "ĠBÃ¶yle": 4145,
      "ĠBayan": 4146,
      "ĠBununla": 4147,
      "ĠBedeli": 4148,
      "ĠBunlarÄ±": 4149,
      "ÅŁtura": 4150,
      "Ġmakul": 4151,
      "ĠVoda": 4152,
      "mede": 4153,
      "meye": 4154,
      "Ġpoint": 4155,
      "Ġpliomet": 4156,
      "ĠbirleÅŁimi": 4157,
      "dÄ±nÄ±": 4158,
      "ĠÃ§Ã¼nkÃ¼": 4159,
      "ĠÃ§Ã¶mel": 4160,
      "neyerek": 4161,
      "Ġmuz": 4162,
      "Ġmiden": 4163,
      "ĠsÄ±cak": 4164,
      "ĠsÄ±Ã§rarken": 4165,
      "ĠsÄ±Ã§rÄ±": 4166,
      "Ġdemektir": 4167,
      "ĠÅŁeyi": 4168,
      "ĠÅŁeye": 4169,
      "ĠMon": 4170,
      "ĠMolalarda": 4171,
      "Ġsonuncu": 4172,
      "ĠyaÄŁ": 4173,
      "Ġyarat": 4174,
      "Ġyaralanma": 4175,
      "ĠFÄ°NAL": 4176,
      "ĠFileye": 4177,
      "ĠdaÄŁÄ±": 4178,
      "Ġdayan": 4179,
      "Ġlif": 4180,
      "sÄ±tlama": 4181,
      "ĠyÄ±ldÄ±r": 4182,
      "ĠoyunlaÅŁtÄ±r": 4183,
      "tanlar": 4184,
      "etras": 4185,
      "ĠbaÅŁtan": 4186,
      "ĠbaÅŁlata": 4187,
      "ĠCoff": 4188,
      "ĠÄ°kincisi": 4189,
      "lenmesi": 4190,
      "lenmede": 4191,
      "ĠalmayÄ±": 4192,
      "ĠalnÄ±nÄ±n": 4193,
      "vrÄ±mÄ±na": 4194,
      "Ġani": 4195,
      "ĠanÄ±": 4196,
      "Ġanali": 4197,
      "teleri": 4198,
      "tellar": 4199,
      "ÄŁiÅŁim": 4200,
      "safe": 4201,
      "Ġyapma": 4202,
      "ĠyaptÄ±r": 4203,
      "ĠyaptÄ±": 4204,
      "dÄ±rÄ±r": 4205,
      "yÄ±cÄ±": 4206,
      "eltmek": 4207,
      "Ġoyuncum": 4208,
      "Ġoyuncudan": 4209,
      "Ġoyuncuyu": 4210,
      "opati": 4211,
      "izler": 4212,
      "ĠÃ¼Ã§Ã¼": 4213,
      "ĠÃ¼Ã§Ã¼nÃ¼": 4214,
      "ĠÃ¼Ã§gen": 4215,
      "Ġnerede": 4216,
      "Ġneres": 4217,
      "ĠtamamÄ±nÄ±": 4218,
      "ĠDÄ±ÅŁ": 4219,
      "ĠDÃ¶n": 4220,
      "ĠDuruÅŁ": 4221,
      "ĠDizler": 4222,
      "ĠkazandÄ±rÄ±r": 4223,
      "Ä±klÄ±lÄ±": 4224,
      "cayacaÄŁ": 4225,
      "Ġsahana": 4226,
      "rasyonu": 4227,
      "Ġuza": 4228,
      "eyle": 4229,
      "eyirci": 4230,
      "ĠolduÄŁun": 4231,
      "ĠburasÄ±": 4232,
      "ĠÃ¼stÃ¼": 4233,
      "Ġoynanmayan": 4234,
      "ĠpasÄ±n": 4235,
      "Ġpasta": 4236,
      "ĠpasÄ±nda": 4237,
      "ĠgevÅŁ": 4238,
      "Ġveriyor": 4239,
      "ĠyÃ¼kÃ¼nÃ¼": 4240,
      "ĠyÃ¼klenmede": 4241,
      "ĠÃ¶nlenir": 4242,
      "Ä±ÅŁmasÄ±": 4243,
      "Ġgergin": 4244,
      "troli": 4245,
      "manlaÅŁma": 4246,
      "esneyerek": 4247,
      "dirdiÄŁinde": 4248,
      "ĠnetleÅŁtir": 4249,
      "Ġhava": 4250,
      "Ġhacmi": 4251,
      "Ġhacm": 4252,
      "ĠYama": 4253,
      "ĠYeti": 4254,
      "ĠkarÅŁÄ±la": 4255,
      "iplini": 4256,
      "lamalÄ±yÄ±m": 4257,
      "rarÄ±m": 4258,
      "Ġoynayarak": 4259,
      "ĠaltÄ±na": 4260,
      "Ġseri": 4261,
      "ĠalanÄ±n": 4262,
      "ĠayarlanÄ±r": 4263,
      "ĠartÄ±ÅŁ": 4264,
      "Ġelini": 4265,
      "Ġelinin": 4266,
      "Ġellerinin": 4267,
      "ĠdÃ¼zlem": 4268,
      "ĠdÃ¼zeltmek": 4269,
      "ilirler": 4270,
      "ĠkurmalÄ±yÄ±m": 4271,
      "Ġyerden": 4272,
      "Ġyerinden": 4273,
      "Ġ50": 4274,
      "kani": 4275,
      "Ġ45": 4276,
      "Ġ48": 4277,
      "trenman": 4278,
      "ĠkatÄ±lÄ±p": 4279,
      "Ġbulgar": 4280,
      "ĠbuluÅŁtu": 4281,
      "ĠyarÄ±sÄ±": 4282,
      "âĢĵ": 4283,
      "ĠgeÃ§mesi": 4284,
      "ĠgeÃ§meye": 4285,
      "ĠaÃ§tÄ±r": 4286,
      "ĠaÃ§ama": 4287,
      "ĠaÃ§Ä±yla": 4288,
      "ĠaÃ§Ä±sÄ±na": 4289,
      "ĠaÃ§Ä±sÄ±": 4290,
      "oÄŁa": 4291,
      "Ġsetin": 4292,
      "Ġsetler": 4293,
      "ĠgÃ¶vde": 4294,
      "ĠhÃ¼cumcunun": 4295,
      "ĠhÃ¼cumcun": 4296,
      "ĠRitim": 4297,
      "Ġkaynak": 4298,
      "ĠkaydÄ±nÄ±": 4299,
      "ĠLigde": 4300,
      "yunca": 4301,
      "uluyorsa": 4302,
      "ĠÃ§Ä±kana": 4303,
      "ĠAntrenman": 4304,
      "ĠdÃ¼ÅŁeceÄŁi": 4305,
      "ĠdÃ¼ÅŁsÃ¼n": 4306,
      "ĠkalmÄ±ÅŁtÄ±r": 4307,
      "ĠkalmalÄ±": 4308,
      "ĠkalÃ§a": 4309,
      "Ġkime": 4310,
      "Ġkimin": 4311,
      "Ġkimde": 4312,
      "Ġkilitle": 4313,
      "Ġservisin": 4314,
      "Ġservislerini": 4315,
      "ĠNormal": 4316,
      "ĠsayÄ±larda": 4317,
      "ĠsayÄ±sÄ±nÄ±": 4318,
      "ĠpasÃ¶rle": 4319,
      "ĠpasÃ¶rde": 4320,
      "ĠtekrarÄ±": 4321,
      "Ġtekrardan": 4322,
      "sÄ±nmayÄ±": 4323,
      "ĠOyuncunun": 4324,
      "Ġekle": 4325,
      "Ġeksant": 4326,
      "ĠitiÅŁ": 4327,
      "maÃ§Ã¶r": 4328,
      "Ġbelirleyici": 4329,
      "ĠtakÄ±mlarÄ±nÄ±n": 4330,
      "Ġeldeki": 4331,
      "ĠortasÄ±nda": 4332,
      "ĠgÃ¼ne": 4333,
      "Ġedemez": 4334,
      "Ġgerekmez": 4335,
      "liÄŁin": 4336,
      "Ä±fBank": 4337,
      "ĠuzaklaÅŁtÄ±r": 4338,
      "ĠuzmanlaÅŁma": 4339,
      "ĠkollarÄ±": 4340,
      "ĠkollarÄ±nÄ±n": 4341,
      "ĠbildirdiÄŁinde": 4342,
      "ĠÃ§alÄ±ÅŁÄ±lmalÄ±": 4343,
      "ĠÃ§alÄ±ÅŁmasÄ±nda": 4344,
      "Ġgirmez": 4345,
      "ĠBirincisi": 4346,
      "Ġolurken": 4347,
      "Ġolursun": 4348,
      "2003": 4349,
      "2004": 4350,
      "2006": 4351,
      "2007": 4352,
      "tasÄ±na": 4353,
      "ÅŁtÄ±ÄŁÄ±nda": 4354,
      "Ġtopuklar": 4355,
      "ĠtopuklarÄ±nÄ±": 4356,
      "Ġgruplarda": 4357,
      "Ġzarar": 4358,
      "ĠdÄ±ÅŁÄ±ndan": 4359,
      "Ġparmaklar": 4360,
      "ĠparmaklarÄ±": 4361,
      "ĠUnend": 4362,
      "ĠgÃ¼ven": 4363,
      "ĠsÄ±kÄ±ÅŁma": 4364,
      "ĠsÄ±kÄ±ÅŁmasÄ±": 4365,
      "2010": 4366,
      "2011": 4367,
      "2012": 4368,
      "2014": 4369,
      "2015": 4370,
      "ĠbÃ¶lgeyle": 4371,
      "lemesini": 4372,
      "ĠatmalÄ±yÄ±m": 4373,
      "ĠyaylandÄ±r": 4374,
      "Ġvermesi": 4375,
      "ĠyÃ¼ksekliÄŁin": 4376,
      "Ġediyor": 4377,
      "ĠedilmiÅŁ": 4378,
      "ĠbaÅŁlat": 4379,
      "ĠbaÅŁlaya": 4380,
      "ĠaralÄ±ÄŁÄ±nda": 4381,
      "ĠPasÄ±n": 4382,
      "ĠbÃ¶lgeden": 4383,
      "Ġturnuvalarda": 4384,
      "Ġmesafe": 4385,
      "Ġbasit": 4386,
      "ĠbaskÄ±": 4387,
      "Ġkullanan": 4388,
      "ĠkullanÄ±lÄ±r": 4389,
      "ĠkullanÄ±rÄ±m": 4390,
      "ĠMillilerimiz": 4391,
      "ĠzamanÄ±": 4392,
      "Ġ90": 4393,
      "Ġvurmak": 4394,
      "Ġvuruluyorsa": 4395,
      "Ġdizi": 4396,
      "Ġdizini": 4397,
      "Ġdizilirler": 4398,
      "Ġgalibiyetiyle": 4399,
      "Ġhangileri": 4400,
      "ĠnoktasÄ±na": 4401,
      "Ġetmeliyim": 4402,
      "Ġomuzda": 4403,
      "Ġomuzlar": 4404,
      "Ġomuzdan": 4405,
      "ĠomuzlarÄ±nÄ±": 4406,
      "ĠyÃ¼zde": 4407,
      "ĠSayacÄ±": 4408,
      "Ġverirse": 4409,
      "ĠzorlanÄ±yor": 4410,
      "Ã§radÄ±ktan": 4411,
      "Ġkolay": 4412,
      "ĠkoÅŁa": 4413,
      "Ġkoymak": 4414,
      "Ġkoordin": 4415,
      "Ġboyunca": 4416,
      "ĠOyuncularÄ±nÄ±n": 4417,
      "ĠkaybettiÄŁini": 4418,
      "ĠsÄ±nÄ±rlarda": 4419,
      "ĠsÄ±nÄ±rlamalÄ±yÄ±m": 4420,
      "ĠdÃ¶nÃ¼yorsa": 4421,
      "ĠkÄ±sÄ±tlama": 4422,
      "ĠkÄ±vrÄ±mÄ±na": 4423,
      "Ġbeceri": 4424,
      "ĠhÄ±zÄ±": 4425,
      "ĠGenelde": 4426,
      "ĠsÃ¼recek": 4427,
      "Ġrotasyonun": 4428,
      "ÃľÃ§": 4429,
      "Ġbilek": 4430,
      "Ġbilekten": 4431,
      "ĠbileÄŁe": 4432,
      "Ġbileklerini": 4433,
      "Ġsaatinde": 4434,
      "Ġanlatmak": 4435,
      "ĠatÄ±ÅŁtÄ±rma": 4436,
      "ĠÃ§Ä±kardÄ±ÄŁÄ±": 4437,
      "ĠÃ§Ä±karmaya": 4438,
      "ĠMaÃ§tan": 4439,
      "Ġpozisyona": 4440,
      "Ġpozisyonda": 4441,
      "ĠpozisyonlarÄ±nÄ±": 4442,
      "ĠyollarÄ±nÄ±": 4443,
      "Ġatacak": 4444,
      "landÄ±rmalÄ±yÄ±m": 4445,
      "ĠharcayacaÄŁ": 4446,
      "ĠoluÅŁtura": 4447,
      "ĠkarÅŁÄ±lamaya": 4448,
      "ĠkarÅŁÄ±lamalÄ±yÄ±m": 4449,
      "Ġkonsant": 4450,
      "ĠkÄ±rmadan": 4451,
      "ĠkÄ±rÄ±ldÄ±": 4452,
      "ĠiÅŁliyor": 4453,
      "ĠpaniÄŁi": 4454,
      "ĠHacmi": 4455,
      "Ġkaybediyor": 4456,
      "ĠdeÄŁiÅŁtirir": 4457,
      "fayÄ±": 4458,
      "ĠbloÄŁa": 4459,
      "Ġaksine": 4460,
      "Ġakredi": 4461,
      "ĠsÄ±Ã§rayÄ±cÄ±": 4462,
      "Ġdenge": 4463,
      "Ġsevgisi": 4464,
      "dinopati": 4465,
      "Ġralinin": 4466,
      "Ä±yorlar": 4467,
      "ĠbaksÄ±n": 4468,
      "ĠbakÄ±yorlar": 4469,
      "Ġgenelde": 4470,
      "ĠkaÃ§Ä±yor": 4471,
      "ĠgerÃ§ekten": 4472,
      "ĠsmaÃ§Ã¶rÃ¼": 4473,
      "ĠsmaÃ§Ã¶rde": 4474,
      "ĠyÃ¼ksekliÄŁimi": 4475,
      "ĠhaftalÄ±k": 4476,
      "ĠyÃ¼zeyinde": 4477,
      "ĠyaklaÅŁÄ±mÄ±n": 4478,
      "ĠyaklaÅŁÄ±mÄ±nda": 4479,
      "ĠyaklaÅŁÄ±mlÄ±": 4480,
      "Ġhareketi": 4481,
      "ĠyukarÄ±daki": 4482,
      "lemci": 4483,
      "ĠkurarÄ±m": 4484,
      "Ġizni": 4485,
      "Ġhattan": 4486,
      "ĠhatÄ±rlat": 4487,
      "ĠartÄ±rma": 4488,
      "ĠartÄ±rmak": 4489,
      "ĠdeÄŁiÅŁmelidir": 4490,
      "ĠantrenmanÄ±": 4491,
      "ĠkontrolÃ¼": 4492,
      "Topu": 4493,
      "Toplam": 4494,
      "Ġgelmesi": 4495,
      "Ġgelmeli": 4496,
      "ĠDeÄŁiÅŁim": 4497,
      "ĠhafifÃ§e": 4498,
      "ĠadÄ±mda": 4499,
      "ĠadÄ±mlÄ±": 4500,
      "Ġhareketlenir": 4501,
      "Ġhareketlilik": 4502,
      "ĠbiÃ§im": 4503,
      "ulduÄŁunda": 4504,
      "ĠAkreditasyon": 4505,
      "ĠSÄ±Ã§rarken": 4506,
      "ĠSÄ±vÄ±": 4507,
      "ĠSÄ±Ã§radÄ±ktan": 4508,
      "ĠÃ¼stÃ¼nden": 4509,
      "ĠhazÄ±rla": 4510,
      "ĠhazÄ±rlÄ±ÄŁÄ±": 4511,
      "ĠRusya": 4512,
      "trenÃ¶rlÃ¼ÄŁe": 4513,
      "ĠbasÄ±nca": 4514,
      "ĠseÃ§eneÄŁin": 4515,
      "ĠseÃ§eneÄŁe": 4516,
      "Ġseviyesinde": 4517,
      "cÄ±lÄ±ÄŁÄ±n": 4518,
      "ĠÄ±sÄ±nmayÄ±": 4519,
      "Ġskoru": 4520,
      "ĠkÃ¼Ã§Ã¼k": 4521,
      "Ġtahmin": 4522,
      "Ġtahmini": 4523,
      "ĠgÃ¶rÃ¼len": 4524,
      "ĠeÄŁik": 4525,
      "ĠÃ§alÄ±ÅŁtÄ±ÄŁÄ±nda": 4526,
      "ĠalÄ±ÅŁkanlÄ±ÄŁÄ±": 4527,
      "ĠIsÄ±nmayÄ±": 4528,
      "ĠBursa": 4529,
      "ĠÃ§evir": 4530,
      "ĠÃ§iftler": 4531,
      "ĠsayfayÄ±": 4532,
      "ĠhÃ¼cumcuyla": 4533,
      "ĠgÃ¼nÃ¼nÃ¼n": 4534,
      "ĠuzatÄ±lmÄ±ÅŁ": 4535,
      "ĠuzatÄ±lmadan": 4536,
      "ĠMÃ¼sabakayÄ±": 4537,
      "Ġsavurma": 4538,
      "ĠsavurmasÄ±nÄ±": 4539,
      "ĠkoÅŁu": 4540,
      "ĠkoÅŁmak": 4541,
      "ĠkoÅŁmasÄ±": 4542,
      "Ġritmi": 4543,
      "Ġritmine": 4544,
      "ĠritÃ¼eli": 4545,
      "kulmasÄ±": 4546,
      "Ġinmek": 4547,
      "Ġinmesi": 4548,
      "Ġgelirken": 4549,
      "Ġderinlik": 4550,
      "ĠÃ¶ÄŁÃ¼nÃ¼": 4551,
      "ĠkonumlanmalÄ±": 4552,
      "ĠkonumlandÄ±rmalÄ±yÄ±m": 4553,
      "ĠÃľÃ§Ã¼ncÃ¼sÃ¼": 4554,
      "Ġpatellar": 4555,
      "ĠbirleÅŁik": 4556,
      "Ġyapabilirim": 4557,
      "ĠPandemi": 4558,
      "ĠkatÄ±lamaz": 4559,
      "ĠgÃ¶tÃ¼rmÃ¼ÅŁtÃ¼r": 4560,
      "Ġseferinde": 4561,
      "Ġgerektirmez": 4562,
      "ĠdeÄŁmemeli": 4563,
      "Ġkendisinden": 4564,
      "ĠarkadaÅŁÄ±": 4565,
      "ĠbaÅŁlangÄ±cÄ±ndan": 4566,
      "ĠalÄ±ÅŁveriÅŁi": 4567,
      "ulamak": 4568,
      "ĠsoÄŁur": 4569,
      "ĠsoÄŁuma": 4570,
      "Ġkalkar": 4571,
      "ĠkalkÄ±k": 4572,
      "ĠSisteme": 4573,
      "ĠSistemin": 4574,
      "Ġdirsekleri": 4575,
      "Ġbirbirine": 4576,
      "Ġbirbirlerinin": 4577,
      "ĠEller": 4578,
      "ĠEllerini": 4579,
      "ĠbaÅŁparmaklar": 4580,
      "ĠbaÅŁparmaklarÄ±n": 4581,
      "ĠalÃ§aksa": 4582,
      "ĠuÃ§larÄ±nda": 4583,
      "ĠuÃ§larÄ±yla": 4584,
      "Ġuygulamak": 4585,
      "ĠtekniÄŁi": 4586,
      "ĠtekniÄŁin": 4587,
      "Ġellerimi": 4588,
      "Ġbiterse": 4589,
      "ĠdÃ¼ÅŁÃ¼rÃ¼yor": 4590,
      "ĠkollarÄ±mÄ±n": 4591,
      "Ġesnemeyi": 4592,
      "ĠayaÄŁÄ±na": 4593,
      "ĠdÃ¶nmesini": 4594,
      "Ġbeklerken": 4595,
      "ĠsakatlÄ±klar": 4596,
      "ĠsakatlÄ±klarÄ±n": 4597,
      "ĠpatlayÄ±cÄ±lÄ±ÄŁÄ±": 4598,
      "ĠpatlayÄ±cÄ±lÄ±ÄŁÄ±n": 4599,
      "Elleri": 4600,
      "genelde": 4601,
      "statik": 4602,
      "Ġsekiyor": 4603,
      "ĠstatÃ¼sÃ¼": 4604,
      "Ġkutu": 4605,
      "ĠbÄ±rakmaz": 4606,
      "Ġilerlemesini": 4607,
      "Ġtercih": 4608,
      "Ġtendinopati": 4609,
      "ĠÃ§arpar": 4610,
      "ĠÃ§aÄŁÄ±rmayla": 4611,
      "ĠdaÄŁÄ±lÄ±mÄ±": 4612,
      "ĠdaralÄ±r": 4613,
      "Ġetkiler": 4614,
      "ĠHollanda": 4615,
      "Ġziyarette": 4616,
      "Ġrisk": 4617,
      "ĠzayÄ±flÄ±ÄŁÄ±": 4618,
      "ĠduruÅŁum": 4619,
      "Ġdizilimi": 4620,
      "ĠaÄŁÄ±rlÄ±ÄŁÄ±yla": 4621,
      "ilizasyon": 4622,
      "Ġprotein": 4623,
      "ĠÃ¶ÄŁreniyor": 4624,
      "Ġefsanesi": 4625,
      "Ġengellerim": 4626,
      "servisi": 4627,
      "Ġmadalya": 4628,
      "ĠplanÄ±nÄ±": 4629,
      "Millilerimiz": 4630,
      "Ayaklar": 4631,
      "Erkekler": 4632,
      "GÃ¼ney": 4633,
      "Kaptanlar": 4634,
      "Ligi": 4635,
      "Neredeyse": 4636,
      "Rally": 4637,
      "SÄ±Ã§rama": 4638,
      "VakÄ±fBank": 4639,
      "fone": 4640,
      "gunken": 4641,
      "hÄ±zlÄ±": 4642,
      "karÅŁÄ±lama": 4643,
      "mlelik": 4644,
      "penetras": 4645,
      "ĠcÃ¼mlelik": 4646,
      "ĠiniÅŁ": 4647,
      "Ġjump": 4648,
      "ĠsÄ±rt": 4649,
      "Ġstabilizasyon": 4650,
      "Ġsenkron": 4651,
      "Ġskapula": 4652,
      "Ġsquat": 4653,
      "Ġkritik": 4654,
      "ĠburkulmasÄ±": 4655,
      "ĠbÃ¼kÃ¼lÃ¼": 4656,
      "Ġbeslenmesi": 4657,
      "ĠbÃ¼yÃ¼tÃ¼r": 4658,
      "Ġbakacak": 4659,
      "Ġbacaklardan": 4660,
      "ĠbozulduÄŁunda": 4661,
      "Ġyorgunken": 4662,
      "Ġyemekte": 4663,
      "Ġyudum": 4664,
      "ĠiÃ§eceÄŁi": 4665,
      "Ġiterken": 4666,
      "Ġtalimatlar": 4667,
      "ĠarasÄ±na": 4668,
      "Ġatabilir": 4669,
      "ĠalacaÄŁÄ±nÄ±": 4670,
      "Ġgidiyor": 4671,
      "ĠKollar": 4672,
      "ĠkalÄ±yor": 4673,
      "Ġelimden": 4674,
      "Ġelektroli": 4675,
      "ĠArabica": 4676,
      "ĠSessizlik": 4677,
      "Ġdisiplini": 4678,
      "Ġdinamik": 4679,
      "Ġdilimindeki": 4680,
      "Ġfloat": 4681,
      "Ġtescil": 4682,
      "Ġtendonu": 4683,
      "ĠtutarlÄ±lÄ±k": 4684,
      "ĠBilekleri": 4685,
      "ĠBayanlar": 4686,
      "ĠVodafone": 4687,
      "Ġpliometrik": 4688,
      "ĠÃ§Ã¶melme": 4689,
      "Ġmideni": 4690,
      "ĠsÄ±caksa": 4691,
      "ĠsÄ±Ã§rÄ±yorsa": 4692,
      "ĠyaralanmalarÄ±nÄ±n": 4693,
      "ĠdaÄŁÄ±t": 4694,
      "ĠdayanÄ±klÄ±lÄ±": 4695,
      "ĠoyunlaÅŁtÄ±rÄ±lmÄ±ÅŁ": 4696,
      "ĠbaÅŁlatarak": 4697,
      "ĠCoffee": 4698,
      "Ġanaliz": 4699,
      "ĠyaptÄ±rma": 4700,
      "ĠyaptÄ±ÄŁÄ±nÄ±z": 4701,
      "Ġneresiyle": 4702,
      "ĠuzamasÄ±": 4703,
      "ĠburasÄ±dÄ±r": 4704,
      "ĠgevÅŁek": 4705,
      "Ġhacminin": 4706,
      "ĠYamamay": 4707,
      "ĠYetiÅŁkin": 4708,
      "ĠartÄ±ÅŁÄ±ndan": 4709,
      "ĠbuluÅŁtuÄŁunda": 4710,
      "ĠgeÃ§meyecek": 4711,
      "ĠaÃ§amadan": 4712,
      "ĠkaynaklanÄ±r": 4713,
      "Ġeksantrik": 4714,
      "ĠuzaklaÅŁtÄ±rÄ±r": 4715,
      "ĠUnendo": 4716,
      "ĠgÃ¼venli": 4717,
      "ĠyaylandÄ±rÄ±p": 4718,
      "ĠbaskÄ±yÄ±": 4719,
      "ĠkoÅŁabilir": 4720,
      "Ġkoordinasyon": 4721,
      "ĠharcayacaÄŁÄ±n": 4722,
      "ĠoluÅŁturacak": 4723,
      "Ġkonsantrasyonu": 4724,
      "ĠkÄ±rÄ±ldÄ±ÄŁÄ±nÄ±": 4725,
      "ĠhatÄ±rlatma": 4726,
      "ĠDeÄŁiÅŁimleri": 4727,
      "ĠbiÃ§imde": 4728,
      "ĠSÄ±vÄ±ya": 4729,
      "penetrasyon": 4730,
      "Ġelektrolit": 4731,
      "ĠdayanÄ±klÄ±lÄ±ÄŁÄ±": 4732,
      "\")": 4733,
      ")âĢĻ": 4734,
      ".âĢĻ": 4735,
      "//": 4736,
      "01": 4737,
      "02": 4738,
      "08": 4739,
      "28": 4740,
      "280": 4741,
      "34": 4742,
      "325": 4743,
      "318": 4744,
      "43": 4745,
      "46": 4746,
      "57": 4747,
      "58": 4748,
      "59": 4749,
      "61": 4750,
      "62": 4751,
      "65": 4752,
      "67": 4753,
      "68": 4754,
      "69": 4755,
      "70": 4756,
      "71": 4757,
      "72": 4758,
      "74": 4759,
      "77": 4760,
      "78": 4761,
      "79": 4762,
      "82": 4763,
      "88": 4764,
      "89": 4765,
      "91": 4766,
      "92": 4767,
      "94": 4768,
      "://": 4769,
      "Al": 4770,
      "Ax": 4771,
      "ABD": 4772,
      "Atlanta": 4773,
      "BV": 4774,
      "Bel": 4775,
      "BÃ¼t": 4776,
      "Conf": 4777,
      "DÃ¶n": 4778,
      "Dokt": 4779,
      "ED": 4780,
      "ES": 4781,
      "Ez": 4782,
      "Ece": 4783,
      "Four": 4784,
      "Federasyon": 4785,
      "Finlandiya": 4786,
      "GÃ¶": 4787,
      "Ghan": 4788,
      "Il": 4789,
      "KÃ¶rf": 4790,
      "Krzic": 4791,
      "LS": 4792,
      "MS": 4793,
      "Mar": 4794,
      "Mari": 4795,
      "Mavi": 4796,
      "Mirza": 4797,
      "NCA": 4798,
      "NOT": 4799,
      "Out": 4800,
      "Pa": 4801,
      "PasÃ¶r": 4802,
      "RI": 4803,
      "Sal": 4804,
      "SLOVENYA": 4805,
      "SmaÃ§Ã¶r": 4806,
      "Tek": 4807,
      "Tarih": 4808,
      "TAL": 4809,
      "TÃľRKÄ°YE": 4810,
      "VC": 4811,
      "YarÄ±": 4812,
      "Yay": 4813,
      "YMCA": 4814,
      "ac": 4815,
      "au": 4816,
      "aw": 4817,
      "ade": 4818,
      "aul": 4819,
      "adi": 4820,
      "atan": 4821,
      "adÄ±r": 4822,
      "ayla": 4823,
      "alarÄ±nÄ±": 4824,
      "afer": 4825,
      "bo": 4826,
      "ban": 4827,
      "bek": 4828,
      "brÄ±": 4829,
      "bilen": 4830,
      "bola": 4831,
      "bÄ±yla": 4832,
      "boru": 4833,
      "cc": 4834,
      "cÅ": 4835,
      "cÄ±m": 4836,
      "car": 4837,
      "cÄ±k": 4838,
      "cha": 4839,
      "cindeki": 4840,
      "cko": 4841,
      "dn": 4842,
      "do": 4843,
      "diy": 4844,
      "dÃ¼k": 4845,
      "dine": 4846,
      "doÄŁ": 4847,
      "dunun": 4848,
      "dÃ¼z": 4849,
      "dilmiÅŁtir": 4850,
      "dova": 4851,
      "ddin": 4852,
      "dÃ©": 4853,
      "dÃ¶rt": 4854,
      "ddÃ¼": 4855,
      "dole": 4856,
      "eg": 4857,
      "eh": 4858,
      "eu": 4859,
      "ev": 4860,
      "ela": 4861,
      "ema": 4862,
      "emi": 4863,
      "eden": 4864,
      "etik": 4865,
      "eleyen": 4866,
      "ebil": 4867,
      "elerden": 4868,
      "eÄŁini": 4869,
      "esel": 4870,
      "fya": 4871,
      "ga": 4872,
      "gh": 4873,
      "gli": 4874,
      "gas": 4875,
      "gul": 4876,
      "ggi": 4877,
      "gÃ¼r": 4878,
      "gÃ¼n": 4879,
      "ginde": 4880,
      "gaz": 4881,
      "giyle": 4882,
      "gni": 4883,
      "goli": 4884,
      "gÃ¼nkÃ¼": 4885,
      "gger": 4886,
      "grup": 4887,
      "gamo": 4888,
      "hn": 4889,
      "ht": 4890,
      "hen": 4891,
      "har": 4892,
      "hya": 4893,
      "ham": 4894,
      "hÃ¼k": 4895,
      "hine": 4896,
      "hlik": 4897,
      "hey": 4898,
      "him": 4899,
      "htar": 4900,
      "hteli": 4901,
      "hia": 4902,
      "hassa": 4903,
      "hakem": 4904,
      "ix": 4905,
      "iÄŁ": 4906,
      "idi": 4907,
      "ikinci": 4908,
      "iver": 4909,
      "ider": 4910,
      "iÄĩ": 4911,
      "iteleri": 4912,
      "jo": 4913,
      "jana": 4914,
      "jdic": 4915,
      "jic": 4916,
      "kla": 4917,
      "kar": 4918,
      "kÃ¼r": 4919,
      "kasÄ±": 4920,
      "ket": 4921,
      "klÃ¼": 4922,
      "kisi": 4923,
      "kova": 4924,
      "kola": 4925,
      "kerleri": 4926,
      "kmedi": 4927,
      "lz": 4928,
      "ldu": 4929,
      "llarÄ±nda": 4930,
      "lulu": 4931,
      "ling": 4932,
      "mm": 4933,
      "mo": 4934,
      "mr": 4935,
      "mda": 4936,
      "mlÄ±": 4937,
      "meni": 4938,
      "mbar": 4939,
      "menin": 4940,
      "mlek": 4941,
      "no": 4942,
      "nÃ": 4943,
      "nas": 4944,
      "nez": 4945,
      "nur": 4946,
      "nisi": 4947,
      "nasyon": 4948,
      "nard": 4949,
      "oe": 4950,
      "oi": 4951,
      "oo": 4952,
      "oÃ§": 4953,
      "olan": 4954,
      "oti": 4955,
      "omi": 4956,
      "ozan": 4957,
      "oes": 4958,
      "oyun": 4959,
      "out": 4960,
      "oha": 4961,
      "oran": 4962,
      "ovi": 4963,
      "okat": 4964,
      "ouse": 4965,
      "ofya": 4966,
      "ps": 4967,
      "pÄ±n": 4968,
      "pan": 4969,
      "paÅŁ": 4970,
      "pki": 4971,
      "plÄ±": 4972,
      "pos": 4973,
      "para": 4974,
      "plerini": 4975,
      "pmasÄ±nÄ±": 4976,
      "plek": 4977,
      "psiy": 4978,
      "poda": 4979,
      "rul": 4980,
      "rinde": 4981,
      "rse": 4982,
      "ret": 4983,
      "rÄ±lan": 4984,
      "rgan": 4985,
      "resine": 4986,
      "rena": 4987,
      "rbra": 4988,
      "rkasÄ±": 4989,
      "sk": 4990,
      "sÄ±m": 4991,
      "sar": 4992,
      "sas": 4993,
      "sunda": 4994,
      "sis": 4995,
      "slarÄ±": 4996,
      "stanbul": 4997,
      "smaÃ§": 4998,
      "shan": 4999,
      "sasÄ±na": 5000,
      "saki": 5001,
      "tp": 5002,
      "tu": 5003,
      "tek": 5004,
      "tÄ±nda": 5005,
      "tul": 5006,
      "tme": 5007,
      "tÄ±nÄ±": 5008,
      "top": 5009,
      "tmak": 5010,
      "tini": 5011,
      "tub": 5012,
      "ttir": 5013,
      "tildi": 5014,
      "tus": 5015,
      "teki": 5016,
      "tts": 5017,
      "tbola": 5018,
      "ttp": 5019,
      "uv": 5020,
      "ucu": 5021,
      "ularak": 5022,
      "uyan": 5023,
      "vas": 5024,
      "vel": 5025,
      "viz": 5026,
      "vik": 5027,
      "vut": 5028,
      "vuÅŁ": 5029,
      "vran": 5030,
      "vasÄ±nda": 5031,
      "veli": 5032,
      "vole": 5033,
      "vori": 5034,
      "vcih": 5035,
      "wor": 5036,
      "wai": 5037,
      "yer": 5038,
      "yen": 5039,
      "yÄ±r": 5040,
      "yur": 5041,
      "ydi": 5042,
      "ysa": 5043,
      "ymasÄ±": 5044,
      "yasÄ±nda": 5045,
      "yÄ±lÄ±r": 5046,
      "ysan": 5047,
      "yesinde": 5048,
      "yleyerek": 5049,
      "yesinin": 5050,
      "yasÄ±nÄ±": 5051,
      "ydana": 5052,
      "zmi": 5053,
      "zka": 5054,
      "zca": 5055,
      "zeri": 5056,
      "zni": 5057,
      "¡nde": 5058,
      "Â²": 5059,
      "Äį": 5060,
      "Ġ&": 5061,
      "Ġ*": 5062,
      "Ġ0": 5063,
      "Ġla": 5064,
      "Ġonu": 5065,
      "Ġunu": 5066,
      "Ġmet": 5067,
      "Ġlas": 5068,
      "Ġ).": 5069,
      "Ġlacivertli": 5070,
      "Ġwild": 5071,
      "Ĥaw": 5072,
      "Ä±t": 5073,
      "Ä±da": 5074,
      "Ä±dÄ±r": 5075,
      "Ä±za": 5076,
      "Ä±ÅŁtÄ±r": 5077,
      "lak": 5078,
      "lami": 5079,
      "lamÄ±": 5080,
      "lamÄ±ÅŁ": 5081,
      "laff": 5082,
      "labil": 5083,
      "labilen": 5084,
      "Ã¼ta": 5085,
      "Ã¼ra": 5086,
      "Ã¼ÅŁt": 5087,
      "Ã¼lay": 5088,
      "Ã¼ten": 5089,
      "Ã¼Ã¼m": 5090,
      "Ã¼stÃ¼n": 5091,
      "Ã¼hey": 5092,
      "damÄ±": 5093,
      "daha": 5094,
      "daspor": 5095,
      "dacÄ±k": 5096,
      "lev": 5097,
      "lede": 5098,
      "leti": 5099,
      "lece": 5100,
      "lediÄŁi": 5101,
      "lemektir": 5102,
      "leddin": 5103,
      "leplerini": 5104,
      "ÅŁer": 5105,
      "ÅŁli": 5106,
      "ÅŁede": 5107,
      "ÅŁini": 5108,
      "ÅŁlarla": 5109,
      "ÅŁleÅŁme": 5110,
      "ĠsÃ¶": 5111,
      "Ġsar": 5112,
      "Ġsam": 5113,
      "ĠsÄ±na": 5114,
      "Ġsorum": 5115,
      "Ġsunuyor": 5116,
      "Ġseyirci": 5117,
      "Ġsiteleri": 5118,
      "Ä±ndÄ±": 5119,
      "Ä±ndÄ±r": 5120,
      "Ä±ncÄ±": 5121,
      "Ä±npÄ±n": 5122,
      "taj": 5123,
      "taki": 5124,
      "talek": 5125,
      "talia": 5126,
      "tamer": 5127,
      "tation": 5128,
      "ince": 5129,
      "inine": 5130,
      "det": 5131,
      "dedilmiÅŁtir": 5132,
      "mad": 5133,
      "magi": 5134,
      "mamaktadÄ±r": 5135,
      "onol": 5136,
      "onunda": 5137,
      "onlu": 5138,
      "onsuz": 5139,
      "ongul": 5140,
      "onomi": 5141,
      "onyasÄ±nÄ±": 5142,
      "raÃ§": 5143,
      "ralo": 5144,
      "ration": 5145,
      "ralamasÄ±": 5146,
      "racko": 5147,
      "Ã§in": 5148,
      "Ã§ler": 5149,
      "Ã§ka": 5150,
      "Ã§Ä±k": 5151,
      "Ã§ok": 5152,
      "Ã§ye": 5153,
      "Ã§kin": 5154,
      "Ã§enin": 5155,
      "Ã§Ã¼ler": 5156,
      "Ã§Ä±npÄ±n": 5157,
      "Ġkg": 5158,
      "Ġker": 5159,
      "ĠkÄ±l": 5160,
      "Ġkes": 5161,
      "ĠkuÅŁ": 5162,
      "Ġkoz": 5163,
      "Ġkonf": 5164,
      "Ġben": 5165,
      "ĠbÃ¼n": 5166,
      "Ġbiz": 5167,
      "Ġbri": 5168,
      "Ġbaz": 5169,
      "Ġbalkan": 5170,
      "Ġbara": 5171,
      "Ġbelli": 5172,
      "Ġbayan": 5173,
      "Ġbununla": 5174,
      "Ġbron": 5175,
      "anu": 5176,
      "anÄ±": 5177,
      "anÄ±m": 5178,
      "andÄ±ÄŁÄ±": 5179,
      "anistan": 5180,
      "angÃ¼r": 5181,
      "Ġote": 5182,
      "Ġoran": 5183,
      "Ġolaya": 5184,
      "ĠolamamÄ±ÅŁ": 5185,
      "Ġokul": 5186,
      "Ġoturarak": 5187,
      "Ġodak": 5188,
      "Ġopsiy": 5189,
      "unal": 5190,
      "unlardÄ±r": 5191,
      "unanistan": 5192,
      "larsa": 5193,
      "eron": 5194,
      "erse": 5195,
      "erdi": 5196,
      "erel": 5197,
      "erit": 5198,
      "erken": 5199,
      "erkekler": 5200,
      "erildi": 5201,
      "erji": 5202,
      "ermagi": 5203,
      "enek": 5204,
      "enne": 5205,
      "enti": 5206,
      "enasÄ±nda": 5207,
      "ennet": 5208,
      "enzo": 5209,
      "endim": 5210,
      "ennisi": 5211,
      "entbola": 5212,
      "Ġyek": 5213,
      "ĠyÃ¶": 5214,
      "Ġyal": 5215,
      "ĠyÃ¼r": 5216,
      "Ġyum": 5217,
      "Ġyola": 5218,
      "Ġyokt": 5219,
      "Ġvb": 5220,
      "Ġvura": 5221,
      "Ġvurarak": 5222,
      "Ġvolley": 5223,
      "Ġili": 5224,
      "Ġidi": 5225,
      "Ġiken": 5226,
      "Ġidar": 5227,
      "ĠiÅŁti": 5228,
      "Ġihtar": 5229,
      "iru": 5230,
      "irler": 5231,
      "iric": 5232,
      "irmasÄ±nÄ±n": 5233,
      "iyerek": 5234,
      "ĠtaÅŁÄ±": 5235,
      "Ġtart": 5236,
      "Ġtasar": 5237,
      "Ġtaleplerini": 5238,
      "ÄŁine": 5239,
      "ÄŁÄ±ndan": 5240,
      "ÄŁiyle": 5241,
      "ÄŁinden": 5242,
      "ÄŁre": 5243,
      "ÄŁÃ¼nde": 5244,
      "Ġatan": 5245,
      "Ġatar": 5246,
      "Ġavan": 5247,
      "Ġajan": 5248,
      "Ġakabinde": 5249,
      "Ġambar": 5250,
      "Ġalabilen": 5251,
      "ĠadacÄ±k": 5252,
      "Ġadet": 5253,
      "liam": 5254,
      "list": 5255,
      "liÅŁini": 5256,
      "ekiz": 5257,
      "ekkÃ¼r": 5258,
      "ektub": 5259,
      "artal": 5260,
      "aruk": 5261,
      "arelli": 5262,
      "aryalar": 5263,
      "argas": 5264,
      "Ġgiye": 5265,
      "Ġgay": 5266,
      "Ġglo": 5267,
      "Ġgider": 5268,
      "Ġ26": 5269,
      "Ġ260": 5270,
      "asen": 5271,
      "asme": 5272,
      "asri": 5273,
      "asre": 5274,
      "ezin": 5275,
      "ezun": 5276,
      "ezah": 5277,
      "ĠKal": 5278,
      "ĠKras": 5279,
      "ĠKana": 5280,
      "ĠKom": 5281,
      "ĠKullan": 5282,
      "ĠKole": 5283,
      "ĠKiÅŁi": 5284,
      "ĠKsen": 5285,
      "ĠKrzic": 5286,
      "ĠKema": 5287,
      "ĠKnez": 5288,
      "ĠKoÃ§": 5289,
      "ĠKuyan": 5290,
      "ĠKÃ¼ta": 5291,
      "ĠKennet": 5292,
      "ĠKartal": 5293,
      "oldur": 5294,
      "oldova": 5295,
      "Ä±rsa": 5296,
      "Ä±rdÄ±ktan": 5297,
      "Ä±rlamayan": 5298,
      "Ġkala": 5299,
      "Ġkaleme": 5300,
      "Ġkamp": 5301,
      "Ġkalamayan": 5302,
      "ĠkavuÅŁ": 5303,
      "ĠtakÄ±mÄ±m": 5304,
      "ĠtakÄ±mÄ±na": 5305,
      "ĠtakÄ±mdan": 5306,
      "ĠtakÄ±mlarÄ±ndan": 5307,
      "leyi": 5308,
      "Ġ111": 5309,
      "lerdir": 5310,
      "lerken": 5311,
      "leriyle": 5312,
      "lermo": 5313,
      "leroi": 5314,
      "Ä±ndadÄ±r": 5315,
      "Ġeli": 5316,
      "Ġeur": 5317,
      "Ġest": 5318,
      "Ġefe": 5319,
      "ĠeÄŁer": 5320,
      "Ġeledi": 5321,
      "Ġelendi": 5322,
      "Ġelerken": 5323,
      "ĠTÃ¼r": 5324,
      "ĠTeÅŁ": 5325,
      "ĠTes": 5326,
      "ĠTama": 5327,
      "ĠTarih": 5328,
      "ĠTay": 5329,
      "ĠTelek": 5330,
      "ĠTerfi": 5331,
      "ĠTuran": 5332,
      "ĠTED": 5333,
      "ĠTokat": 5334,
      "ĠTÃ¼lay": 5335,
      "ĠTangÃ¼r": 5336,
      "uphine": 5337,
      "yalÄ±": 5338,
      "yaka": 5339,
      "yabilir": 5340,
      "yamazlar": 5341,
      "ormu": 5342,
      "oriya": 5343,
      "ordo": 5344,
      "orenzo": 5345,
      "ullarÄ±": 5346,
      "ulunun": 5347,
      "ulten": 5348,
      "ĠAcu": 5349,
      "ĠAka": 5350,
      "ĠAte": 5351,
      "ĠAtat": 5352,
      "ĠAlek": 5353,
      "ĠArat": 5354,
      "ĠAkat": 5355,
      "ĠAkap": 5356,
      "ĠAdana": 5357,
      "ĠAkabinde": 5358,
      "ĠAtlanta": 5359,
      "ĠALS": 5360,
      "ĠAVC": 5361,
      "ĠAcc": 5362,
      "ĠAdn": 5363,
      "ĠAgni": 5364,
      "ĠAdamÄ±": 5365,
      "ĠAlev": 5366,
      "ĠAtamer": 5367,
      "ĠAÃ§Ä±k": 5368,
      "Ä±ldÄ±ÄŁÄ±": 5369,
      "Ä±lmasÄ±na": 5370,
      "Ġoyunda": 5371,
      "alinin": 5372,
      "alrÄ±": 5373,
      "aliyeti": 5374,
      "allÄ±oÄŁlu": 5375,
      "alga": 5376,
      "alÃ§Ä±npÄ±n": 5377,
      "amet": 5378,
      "amÄ±ÅŁ": 5379,
      "amok": 5380,
      "amia": 5381,
      "amÄ±ÅŁtÄ±r": 5382,
      "giler": 5383,
      "gisini": 5384,
      "gileyerek": 5385,
      "lanmÄ±ÅŁ": 5386,
      "lanmÄ±ÅŁtÄ±r": 5387,
      "lanmaya": 5388,
      "ĠSu": 5389,
      "ĠSak": 5390,
      "ĠSine": 5391,
      "ĠSik": 5392,
      "ĠSpik": 5393,
      "ĠSend": 5394,
      "ĠStatÃ¼": 5395,
      "ĠSude": 5396,
      "ĠSLOVENYA": 5397,
      "ĠSMS": 5398,
      "ĠScha": 5399,
      "ĠSofya": 5400,
      "ĠSÃ¼hey": 5401,
      "ĠStalek": 5402,
      "ĠSunal": 5403,
      "ĠSulten": 5404,
      "ĠSamet": 5405,
      "Ġhis": 5406,
      "Ġhey": 5407,
      "ĠhPa": 5408,
      "Ġheg": 5409,
      "Ġhttp": 5410,
      "ĠhanÄ±m": 5411,
      "Ġhentbola": 5412,
      "Ġhasre": 5413,
      "Ġsezonunun": 5414,
      "Ġsezondur": 5415,
      "urma": 5416,
      "uryasÄ±nda": 5417,
      "ĠdÃ¼nyanÄ±n": 5418,
      "Ġdrena": 5419,
      "Ġdiyerek": 5420,
      "Ġdoldur": 5421,
      "Ã¼rÃ¼z": 5422,
      "Ã¼nmÃ¼ÅŁ": 5423,
      "Ġfut": 5424,
      "Ġfederasyon": 5425,
      "ĠfirmasÄ±nÄ±n": 5426,
      "ĠfÄ±rsa": 5427,
      "Ġformu": 5428,
      "ĠfuryasÄ±nda": 5429,
      "Ġtele": 5430,
      "Ġtura": 5431,
      "ĠtuÅŁ": 5432,
      "Ġtrabzon": 5433,
      "Ġtour": 5434,
      "Ġtuta": 5435,
      "Ġtvf": 5436,
      "Ġtezah": 5437,
      "ille": 5438,
      "ilme": 5439,
      "ilmi": 5440,
      "ilyur": 5441,
      "illiam": 5442,
      "illermo": 5443,
      "akip": 5444,
      "akiyet": 5445,
      "ĠBey": 5446,
      "ĠBaz": 5447,
      "ĠBre": 5448,
      "ĠBoz": 5449,
      "ĠBay": 5450,
      "ĠBora": 5451,
      "ĠBori": 5452,
      "ĠBab": 5453,
      "ĠBrand": 5454,
      "ĠBES": 5455,
      "ĠBracko": 5456,
      "ĠBordo": 5457,
      "iyeyle": 5458,
      "ĠLok": 5459,
      "ĠLaj": 5460,
      "ĠLozan": 5461,
      "ĠLorenzo": 5462,
      "ÅŁtÃ¼": 5463,
      "undag": 5464,
      "undadÄ±r": 5465,
      "ĠLibero": 5466,
      "Ġmahal": 5467,
      "Ġmalo": 5468,
      "Ġmalz": 5469,
      "ĠmarkasÄ±": 5470,
      "ĠmasasÄ±na": 5471,
      "ĠVC": 5472,
      "ĠViz": 5473,
      "ĠVest": 5474,
      "ĠVolley": 5475,
      "ĠVatan": 5476,
      "ĠVargas": 5477,
      "Ġolman": 5478,
      "Ġolmaya": 5479,
      "ĠolmayÄ±": 5480,
      "Ġolmadan": 5481,
      "ĠolmasÄ±na": 5482,
      "Ġolunuz": 5483,
      "ĠÃ¼yesinin": 5484,
      "meden": 5485,
      "mece": 5486,
      "metre": 5487,
      "mesinin": 5488,
      "melerinden": 5489,
      "Ġpek": 5490,
      "Ġpay": 5491,
      "Ġpeki": 5492,
      "Ġbirinin": 5493,
      "Ġbiriyle": 5494,
      "ĠbirliÄŁ": 5495,
      "Ġbirincisi": 5496,
      "ĠbirÃ§ok": 5497,
      "ĠÃ§Ä±p": 5498,
      "ĠÃ§ora": 5499,
      "Ġ1920": 5500,
      "Ġ1922": 5501,
      "Ġ1916": 5502,
      "Ġ1924": 5503,
      "Ġ1930": 5504,
      "Ġ1903": 5505,
      "ĠmaÃ§a": 5506,
      "ĠmaÃ§tÄ±r": 5507,
      "ĠmaÃ§larda": 5508,
      "nes": 5509,
      "neluk": 5510,
      "nesak": 5511,
      "dÄ±lar": 5512,
      "dÄ±ÅŁÄ±": 5513,
      "dÄ±yla": 5514,
      "dÄ±ÄŁÄ±ndan": 5515,
      "isas": 5516,
      "isler": 5517,
      "isine": 5518,
      "Ġsayg": 5519,
      "Ġmm": 5520,
      "Ġmbar": 5521,
      "Ġmola": 5522,
      "Ġmodern": 5523,
      "Ġmektub": 5524,
      "Ġmezun": 5525,
      "kiki": 5526,
      "lÄ±lar": 5527,
      "Ġdedi": 5528,
      "Ġdetay": 5529,
      "Ġdevir": 5530,
      "Ġ(\"": 5531,
      "ĠVoleybolda": 5532,
      "ĠVoleybolun": 5533,
      "tip": 5534,
      "tizan": 5535,
      "tibaÅŁ": 5536,
      "timetre": 5537,
      "ĠÅŁif": 5538,
      "ĠÅŁort": 5539,
      "ĠÅŁeh": 5540,
      "ĠÅŁunlardÄ±r": 5541,
      "ĠÅŁerit": 5542,
      "ĠMah": 5543,
      "ĠMes": 5544,
      "ĠMem": 5545,
      "ĠMile": 5546,
      "ĠMaz": 5547,
      "ĠMut": 5548,
      "ĠMilen": 5549,
      "ĠMort": 5550,
      "ĠMirza": 5551,
      "ĠMassa": 5552,
      "ĠMustafa": 5553,
      "ĠMTAL": 5554,
      "ĠMoldova": 5555,
      "ĠMaliyeti": 5556,
      "Ã¶rdÃ¼ncÃ¼": 5557,
      "sein": 5558,
      "sever": 5559,
      "settir": 5560,
      "Ġsondan": 5561,
      "ĠsonlandÄ±r": 5562,
      "Ġyatay": 5563,
      "ĠFede": 5564,
      "ĠFile": 5565,
      "ĠFran": 5566,
      "ĠFiliz": 5567,
      "ĠFinlandiya": 5568,
      "ĠFerdi": 5569,
      "ĠFaruk": 5570,
      "mimiz": 5571,
      "milia": 5572,
      "Ġdair": 5573,
      "Ġdave": 5574,
      "ĠdallarÄ±nda": 5575,
      "Ġdavran": 5576,
      "ĠdayalÄ±": 5577,
      "ĠoynamÄ±ÅŁ": 5578,
      "cien": 5579,
      "cileri": 5580,
      "ĠES": 5581,
      "ĠEro": 5582,
      "ĠEÄŁer": 5583,
      "ĠEgen": 5584,
      "ĠEisa": 5585,
      "ĠEÅŁleÅŁme": 5586,
      "ĠEmilia": 5587,
      "arÄ±lan": 5588,
      "Ġlik": 5589,
      "Ġlist": 5590,
      "dia": 5591,
      "dii": 5592,
      "diÄŁinden": 5593,
      "ĠyÄ±lÄ±n": 5594,
      "ĠyÄ±llarÄ±nÄ±": 5595,
      "ĠyÄ±lÄ±nÄ±n": 5596,
      "ĠyÄ±llarÄ±n": 5597,
      "ĠyÄ±llardan": 5598,
      "stundag": 5599,
      "ĠKaan": 5600,
      "ĠKahan": 5601,
      "ĠKayalar": 5602,
      "ĠKaban": 5603,
      "luel": 5604,
      "Ä°RAN": 5605,
      "Ä°stanbul": 5606,
      "Ġoyuna": 5607,
      "ĠsÄ±ralarÄ±": 5608,
      "ĠsÄ±ralara": 5609,
      "ĠsÄ±ralarda": 5610,
      "ĠsÄ±ralarÄ±nÄ±n": 5611,
      "ĠsÄ±rasÄ±yla": 5612,
      "lken": 5613,
      "inalp": 5614,
      "ete": 5615,
      "etinde": 5616,
      "etiyle": 5617,
      "etmeni": 5618,
      "etvel": 5619,
      "ĠbaÅŁlarÄ±nda": 5620,
      "ĠbaÅŁken": 5621,
      "ĠbaÅŁhakem": 5622,
      "Ġ36": 5623,
      "ĠCes": 5624,
      "ĠCha": 5625,
      "ĠCath": 5626,
      "ĠClub": 5627,
      "ĠCafer": 5628,
      "ĠCela": 5629,
      "ĠChar": 5630,
      "ĠCermagi": 5631,
      "ĠÄ°RAN": 5632,
      "ĠÄ°bra": 5633,
      "ĠÄ°ht": 5634,
      "ĠÄ°zmi": 5635,
      "karak": 5636,
      "kapÄ±": 5637,
      "sic": 5638,
      "sik": 5639,
      "site": 5640,
      "sibir": 5641,
      "leniyor": 5642,
      "lenmiÅŁ": 5643,
      "lenmez": 5644,
      "ĠÅŀu": 5645,
      "ĠÅŀeniz": 5646,
      "Ġalmaz": 5647,
      "ĠalgÄ±": 5648,
      "Ġvoleyboldan": 5649,
      "Ġvoleyboldaki": 5650,
      "vresi": 5651,
      "Ġilke": 5652,
      "Ġilkes": 5653,
      "ĠÃ¶zer": 5654,
      "ĠÃ¶mr": 5655,
      "Ġana": 5656,
      "Ġanlardan": 5657,
      "ĠantrenÃ¶rlÃ¼ÄŁÃ¼ne": 5658,
      "duÄŁu": 5659,
      "duklarÄ±": 5660,
      "teler": 5661,
      "teau": 5662,
      "teakip": 5663,
      "telenmiÅŁ": 5664,
      "cep": 5665,
      "ceddÃ¼": 5666,
      "sadece": 5667,
      "saade": 5668,
      "sayÄ±lÄ±r": 5669,
      "ĠGÃ¼m": 5670,
      "ĠGrand": 5671,
      "ĠGÄ±da": 5672,
      "Ġfinaline": 5673,
      "Ġfinalinden": 5674,
      "Ġligler": 5675,
      "Ġligdir": 5676,
      "Ġliginden": 5677,
      "Ġyapmak": 5678,
      "ĠyapmÄ±ÅŁ": 5679,
      "Ġyapman": 5680,
      "ĠyapÄ±lmÄ±ÅŁ": 5681,
      "ĠyapmasÄ±na": 5682,
      "ĠyapÄ±nÄ±z": 5683,
      "ĠyapmÄ±ÅŁtÄ±": 5684,
      "ĠyapÄ±lmÄ±ÅŁtÄ±r": 5685,
      "ĠyapÄ±lmasÄ±": 5686,
      "elin": 5687,
      "Ġoyuncuda": 5688,
      "ĠoyuncularÄ±nÄ±": 5689,
      "Ġoyuncularla": 5690,
      "ĠoyuncularÄ±na": 5691,
      "ĠoyuncularÄ±yla": 5692,
      "opÃ©": 5693,
      "izi": 5694,
      "izinci": 5695,
      "izasyonu": 5696,
      "izgiler": 5697,
      "ĠÃ¼Ã§Ã¼n": 5698,
      "ĠÃ¼Ã§te": 5699,
      "ĠDuk": 5700,
      "ĠDic": 5701,
      "ĠDinÃ§": 5702,
      "ĠDeniz": 5703,
      "ĠDÃ¼nyanÄ±n": 5704,
      "ĠDoha": 5705,
      "ĠDalga": 5706,
      "ĠDÃ¶rdÃ¼ncÃ¼": 5707,
      "Ġiletti": 5708,
      "Ġiletme": 5709,
      "Ġkazanama": 5710,
      "ĠkazanÄ±p": 5711,
      "ĠetmiÅŁ": 5712,
      "Ġettir": 5713,
      "Ġetmesi": 5714,
      "ahanÄ±n": 5715,
      "cÃ¼lÃ¼k": 5716,
      "rim": 5717,
      "rix": 5718,
      "riklerini": 5719,
      "rigger": 5720,
      "ĠPre": 5721,
      "ĠPeri": 5722,
      "ĠPab": 5723,
      "ĠPaul": 5724,
      "ĠPeron": 5725,
      "ĠPoriya": 5726,
      "ĠPalinin": 5727,
      "ĠPÃ¼rÃ¼z": 5728,
      "ĠPelin": 5729,
      "ĠPrix": 5730,
      "Ġsahili": 5731,
      "rasÄ±nÄ±n": 5732,
      "Ã§elik": 5733,
      "Ã§esini": 5734,
      "ĠmÃ¼daha": 5735,
      "ĠmÃ¼saade": 5736,
      "Ġumut": 5737,
      "ĠuymasÄ±": 5738,
      "Ġustundag": 5739,
      "laÅŁmak": 5740,
      "laÅŁmaya": 5741,
      "ĠdÃ¼ÅŁtÃ¼": 5742,
      "likli": 5743,
      "likdÃ¼z": 5744,
      "ÅŁtiren": 5745,
      "ÅŁtirme": 5746,
      "muÅŁtu": 5747,
      "ĠolduÄŁunda": 5748,
      "ĠolduklarÄ±": 5749,
      "Ġolduysan": 5750,
      "Ä±nava": 5751,
      "Ġtopla": 5752,
      "ĠtoplarÄ±": 5753,
      "Ġtopunu": 5754,
      "Ġtopuna": 5755,
      "ĠtoplarÄ±n": 5756,
      "ĠtopladÄ±": 5757,
      "Ġtopsuz": 5758,
      "Ġbulama": 5759,
      "ĠbulamamÄ±ÅŁ": 5760,
      "ĠoynanmÄ±ÅŁ": 5761,
      "ĠoynanmasÄ±": 5762,
      "Ġoynanmaya": 5763,
      "ĠoynanmaktadÄ±r": 5764,
      "Ġoynanarak": 5765,
      "Ġoynanmadan": 5766,
      "itli": 5767,
      "ndeki": 5768,
      "ndere": 5769,
      "ndeyken": 5770,
      "eÅŁat": 5771,
      "eÅŁilyur": 5772,
      "ĠOK": 5773,
      "ĠOdin": 5774,
      "ĠOkay": 5775,
      "ĠOrta": 5776,
      "ĠpasÄ±nÄ±": 5777,
      "Ġpaslarla": 5778,
      "Ġgelece": 5779,
      "1920": 5780,
      "1928": 5781,
      "1946": 5782,
      "ikoÄŁlu": 5783,
      "inika": 5784,
      "unulabilir": 5785,
      "Ġverse": 5786,
      "Ġverip": 5787,
      "Ġvererek": 5788,
      "ĠvermiÅŁ": 5789,
      "Ġverdiler": 5790,
      "Ġvereme": 5791,
      "Ġverecek": 5792,
      "Ġverilme": 5793,
      "ĠyÃ¼kÃ¼m": 5794,
      "ĠÃ¶nlemektir": 5795,
      "ĠÃ¶nerildi": 5796,
      "ĠÃ¶ncÃ¼lÃ¼k": 5797,
      "Ä±ÅŁmalÄ±": 5798,
      "cakalrÄ±": 5799,
      "caklaÅŁmaya": 5800,
      "ylaÅŁtÄ±": 5801,
      "Ġkarelerden": 5802,
      "mÄ±ÅŁlardÄ±r": 5803,
      "ĠTakÄ±mlar": 5804,
      "ĠTakÄ±mlarÄ±": 5805,
      "ĠbÃ¶ler": 5806,
      "Ġtarihli": 5807,
      "Ġtarihine": 5808,
      "escu": 5809,
      "esiydi": 5810,
      "eszka": 5811,
      "esince": 5812,
      "luÄŁunu": 5813,
      "luÄŁunun": 5814,
      "dirde": 5815,
      "dirge": 5816,
      "dirmeyi": 5817,
      "lerimi": 5818,
      "ĠHÃ¼cu": 5819,
      "ĠHos": 5820,
      "ĠHay": 5821,
      "ĠHris": 5822,
      "ĠHakem": 5823,
      "ĠHouse": 5824,
      "ĠHonol": 5825,
      "ĠHilmi": 5826,
      "ĠÃ¼Ã§Ã¼ncÃ¼lÃ¼ÄŁÃ¼": 5827,
      "Ġhalen": 5828,
      "Ġhaiz": 5829,
      "Ġharar": 5830,
      "ĠhayÄ±r": 5831,
      "ĠmÃ¼cadeleci": 5832,
      "ĠmÃ¼cadeleleri": 5833,
      "ĠYan": 5834,
      "ĠYÃ¶ne": 5835,
      "ĠYap": 5836,
      "ĠYMCA": 5837,
      "ĠYerine": 5838,
      "ĠYasin": 5839,
      "ĠYout": 5840,
      "ĠYunanistan": 5841,
      "ĠYerel": 5842,
      "ĠYalÃ§Ä±npÄ±n": 5843,
      "ĠYeÅŁilyur": 5844,
      "ĠkarÅŁÄ±lar": 5845,
      "ĠkarÅŁÄ±laÅŁtÄ±": 5846,
      "ĠkarÅŁÄ±layarak": 5847,
      "ffho": 5848,
      "ffakiyet": 5849,
      "lamasÄ±na": 5850,
      "rarlÄ±": 5851,
      "Ġoynama": 5852,
      "Ġoynamak": 5853,
      "Ġoynamadan": 5854,
      "Ġhakemi": 5855,
      "ĠkatkÄ±": 5856,
      "ĠaltÄ±ndan": 5857,
      "emonyasÄ±nÄ±": 5858,
      "oko": 5859,
      "okulu": 5860,
      "Ġsert": 5861,
      "Ġsergileyerek": 5862,
      "ĠsonralarÄ±": 5863,
      "ĠtamamladÄ±ÄŁÄ±": 5864,
      "Ġtamamlayabilir": 5865,
      "nÄ±zca": 5866,
      "rocÅ": 5867,
      "rogli": 5868,
      "Ġalanla": 5869,
      "Ġalanlar": 5870,
      "Ġalandan": 5871,
      "ĠalanlarÄ±nÄ±n": 5872,
      "ĠayÄ±ndan": 5873,
      "ĠaykÄ±r": 5874,
      "Ġartan": 5875,
      "ĠartÄ±": 5876,
      "Ġartarak": 5877,
      "ĠarÄ±ndÄ±r": 5878,
      "ĠarenasÄ±nda": 5879,
      "Ġelinde": 5880,
      "Ġellerinde": 5881,
      "ilecek": 5882,
      "ilebilir": 5883,
      "ĠBurada": 5884,
      "ĠBugÃ¼n": 5885,
      "luktan": 5886,
      "luklarÄ±nÄ±": 5887,
      "vaffakiyet": 5888,
      "ĠSport": 5889,
      "ĠSporun": 5890,
      "Ġbiten": 5891,
      "Ġbitene": 5892,
      "Ġbitmesine": 5893,
      "ĠkurÅŁun": 5894,
      "Ġkurucu": 5895,
      "Ġyerle": 5896,
      "Ġyerde": 5897,
      "Ġyerler": 5898,
      "Ġyerinde": 5899,
      "ĠyerleÅŁti": 5900,
      "ĠyerleÅŁme": 5901,
      "kent": 5902,
      "Ġ56": 5903,
      "Ä±nÄ±nÄ±n": 5904,
      "ĠkadÄ±nlardan": 5905,
      "gelen": 5906,
      "Ġ400": 5907,
      "Ġerer": 5908,
      "ĠeriÅŁ": 5909,
      "ĠertelenmiÅŁ": 5910,
      "yanÄ±ÅŁma": 5911,
      "ĠbÃ¶lÃ¼nmÃ¼ÅŁ": 5912,
      "ĠkatÄ±lmak": 5913,
      "ĠyarÄ±yÄ±": 5914,
      "ĠÃ§izilir": 5915,
      "ĠÃ§izilen": 5916,
      "ĠÃ§izilmiÅŁ": 5917,
      "ĠgeÃ§miÅŁ": 5918,
      "ĠgeÃ§iÅŁ": 5919,
      "ĠgeÃ§mez": 5920,
      "ĠyÃ¼kselecek": 5921,
      "ĠyÃ¼kseliÅŁini": 5922,
      "elezni": 5923,
      "ĠaÃ§Ä±lan": 5924,
      "ĠaÃ§tÄ±": 5925,
      "ĠhÃ¼cumu": 5926,
      "oÄŁraf": 5927,
      "oÄŁullarÄ±": 5928,
      "Ġsetle": 5929,
      "Ġsetten": 5930,
      "ĠgÃ¶lge": 5931,
      "ĠgÃ¶ndere": 5932,
      "ĠÄ°span": 5933,
      "ĠÄ°slami": 5934,
      "ĠÃ¶nceleri": 5935,
      "ĠÃ¶ncelikle": 5936,
      "ĠÃ¶ncelikli": 5937,
      "Ġbitirerek": 5938,
      "Ġbitirirler": 5939,
      "ĠÅŁampiyonluÄŁunun": 5940,
      "Ġettikten": 5941,
      "ĠhÃ¼cumlarÄ±nÄ±": 5942,
      "ĠhÃ¼cumdaki": 5943,
      "Ġyenilik": 5944,
      "ĠRC": 5945,
      "ĠReÅŁat": 5946,
      "ĠRoko": 5947,
      "Ġkayna": 5948,
      "Ġkaygan": 5949,
      "ĠkaydedilmiÅŁtir": 5950,
      "ĠkaydÄ±yla": 5951,
      "ĠLigin": 5952,
      "ĠLiginde": 5953,
      "ĠLigine": 5954,
      "ĠGajic": 5955,
      "Ġseti": 5956,
      "ĠÃ§Ä±kma": 5957,
      "ĠÃ§Ä±kmasÄ±": 5958,
      "ĠÃ§Ä±ktÄ±": 5959,
      "ĠÃ§Ä±kmayÄ±": 5960,
      "ĠÃ§Ä±kÄ±larak": 5961,
      "ĠÃ§Ä±karÄ±lan": 5962,
      "ĠdÃ¼zende": 5963,
      "ĠdÃ¼zenler": 5964,
      "ĠdÃ¼zenleme": 5965,
      "ĠdÃ¼zenleniyor": 5966,
      "Ġ1975": 5967,
      "Ġ1976": 5968,
      "ĠbaÅŁarÄ±larÄ±": 5969,
      "ĠbaÅŁarÄ±yÄ±": 5970,
      "ĠbaÅŁarÄ±larÄ±n": 5971,
      "ĠbaÅŁarÄ±larla": 5972,
      "ĠAntrenÃ¶rlÃ¼ÄŁ": 5973,
      "ĠAntrenÃ¶rÃ¼": 5974,
      "Ġturuna": 5975,
      "Ġturdaki": 5976,
      "Ġsahalar": 5977,
      "ĠsahalarÄ±": 5978,
      "ĠsahadÄ±r": 5979,
      "ĠsahayÄ±": 5980,
      "ĠsahalarÄ±nda": 5981,
      "ĠArca": 5982,
      "ĠArna": 5983,
      "ĠArdÄ±ndan": 5984,
      "ĠArling": 5985,
      "Ġsponsorunu": 5986,
      "ĠsponsorluÄŁunu": 5987,
      "Ġ61": 5988,
      "Ġ65": 5989,
      "ĠdÃ¼ÅŁey": 5990,
      "ĠdÃ¼ÅŁÃ¼p": 5991,
      "ĠdÃ¼ÅŁmesiyle": 5992,
      "beyaz": 5993,
      "Ġkalp": 5994,
      "ĠkalmÄ±ÅŁ": 5995,
      "ĠkalmasÄ±na": 5996,
      "iyetin": 5997,
      "ĠhakkÄ±na": 5998,
      "Ġtarafa": 5999,
      "ĠtarafÄ±n": 6000,
      "ĠtarafÄ±nda": 6001,
      "ĠtarafsÄ±z": 6002,
      "ĠtarafÄ±ndaki": 6003,
      "Ġtaraftaki": 6004,
      "Ġligidir": 6005,
      "Ġservisle": 6006,
      "Ġbulunmak": 6007,
      "ĠbulunmasÄ±": 6008,
      "Ġbulundur": 6009,
      "Ġbulunmayan": 6010,
      "Ġbulunuldu": 6011,
      "ĠbulunmamÄ±ÅŁ": 6012,
      "ĠbulunmamaktadÄ±r": 6013,
      "ĠolmuÅŁtu": 6014,
      "ĠNing": 6015,
      "ĠNesli": 6016,
      "ĠNOT": 6017,
      "ĠNovo": 6018,
      "ĠNasri": 6019,
      "ĠNezin": 6020,
      "Ġanlatan": 6021,
      "ĠanlamlÄ±": 6022,
      "ĠÃľst": 6023,
      "ĠsÃ¼rede": 6024,
      "ĠsÃ¼rdÃ¼": 6025,
      "ĠsÃ¼resince": 6026,
      "ĠsayÄ±sÄ±": 6027,
      "ĠsayÄ±larÄ±nda": 6028,
      "ĠErÄ±ÅŁÄ±k": 6029,
      "ĠErcin": 6030,
      "naut": 6031,
      "Ġcart": 6032,
      "Ġceza": 6033,
      "Ġcamia": 6034,
      "Ġcetvel": 6035,
      "Ġkadarki": 6036,
      "ĠÃĩiÄŁ": 6037,
      "ĠÃĩizgiler": 6038,
      "ĠpasÃ¶rlÃ¼k": 6039,
      "Ġtekrarlama": 6040,
      "sÄ±ntÄ±": 6041,
      "ĠdevamÄ±nda": 6042,
      "ĠOyunlara": 6043,
      "ĠOyunlarÄ±na": 6044,
      "Ġekran": 6045,
      "Ġekonomi": 6046,
      "Ġeksik": 6047,
      "ĠFinallere": 6048,
      "imnas": 6049,
      "impaÅŁ": 6050,
      "Ġbelirleme": 6051,
      "Ġbelirleyen": 6052,
      "Ġbelirtildi": 6053,
      "ĠtakÄ±mlarÄ±mÄ±": 6054,
      "Ġortak": 6055,
      "ĠortalarÄ±nda": 6056,
      "ĠortalarÄ±na": 6057,
      "ĠortasÄ±ndan": 6058,
      "Ġortamda": 6059,
      "habir": 6060,
      "ĠgÃ¼nde": 6061,
      "ĠgÃ¼nÃ¼nde": 6062,
      "ĠgÃ¼ncel": 6063,
      "ĠgÃ¼nkÃ¼": 6064,
      "Ġziya": 6065,
      "ĠzÄ±t": 6066,
      "Ġedebilir": 6067,
      "Ġederiz": 6068,
      "Ġedebildi": 6069,
      "Ġederim": 6070,
      "Ġ1982": 6071,
      "Ġ1985": 6072,
      "Ġgereklidir": 6073,
      "ĠÃ§izgide": 6074,
      "ĠÃ§izgisine": 6075,
      "ĠÃ§izgilerinin": 6076,
      "ranlÄ±k": 6077,
      "ranjo": 6078,
      "liÄŁine": 6079,
      "liÄŁini": 6080,
      "ĠSarÄ±yer": 6081,
      "ĠaÃ§Ä±kladÄ±": 6082,
      "ĠkupalarÄ±na": 6083,
      "ĠAyda": 6084,
      "ĠAydÄ±n": 6085,
      "ĠAydan": 6086,
      "ĠAysun": 6087,
      "ĠAynur": 6088,
      "Ġfilelerde": 6089,
      "Ġmilli": 6090,
      "Ġuzuv": 6091,
      "Ġkolkola": 6092,
      "eride": 6093,
      "Ġfinalist": 6094,
      "Ġ80": 6095,
      "Ġbilhassa": 6096,
      "ĠÃ§alÄ±ÅŁan": 6097,
      "Ã¼yle": 6098,
      "ĠanlaÅŁma": 6099,
      "Ġgirdi": 6100,
      "Ġgirerek": 6101,
      "ĠgirmiÅŁ": 6102,
      "Ġgirdiler": 6103,
      "Ġgirmeyi": 6104,
      "Ġgirebil": 6105,
      "Ġgirerken": 6106,
      "amadÄ±": 6107,
      "amamÄ±ÅŁtÄ±": 6108,
      "klerinde": 6109,
      "ĠfarklÄ±lÄ±k": 6110,
      "Ġsporu": 6111,
      "Ġsporda": 6112,
      "Ġsporun": 6113,
      "Ġsporunda": 6114,
      "Ġsporcunun": 6115,
      "Ġsporudur": 6116,
      "Ġyenerken": 6117,
      "ĠgruplarÄ±nÄ±": 6118,
      "nia": 6119,
      "Ġzamanda": 6120,
      "ĠTÃ¼rkoÄŁlu": 6121,
      "ĠdÄ±ÅŁÄ±na": 6122,
      "Ġ1952": 6123,
      "Ġ1959": 6124,
      "ĠdeÄŁmesi": 6125,
      "ĠdeÄŁerse": 6126,
      "ĠdeÄŁdirmeyi": 6127,
      "miÅŁken": 6128,
      "ĠÅŁampiyonluklar": 6129,
      "ĠÅŁampiyonluktan": 6130,
      "ĠÅŁampiyonluklara": 6131,
      "ĠÅŁampiyonluklarla": 6132,
      "ĠÅŁampiyonluklarÄ±yla": 6133,
      "Ġrakiplerine": 6134,
      "Ġrakipsizlik": 6135,
      "ĠturnuvasÄ±": 6136,
      "ĠUnet": 6137,
      "ĠUralo": 6138,
      "Ġkendine": 6139,
      "ĠsÄ±kÄ±lan": 6140,
      "ĠMelis": 6141,
      "ĠMeral": 6142,
      "ĠMedia": 6143,
      "ĠMÃ¼hen": 6144,
      "2016": 6145,
      "ĠbÃ¶lgeyi": 6146,
      "ĠbÃ¶lgeye": 6147,
      "Ġitibari": 6148,
      "Ġ72": 6149,
      "lemeler": 6150,
      "Ġatma": 6151,
      "ĠatÄ±ÅŁ": 6152,
      "ĠatmasÄ±": 6153,
      "ĠatmÄ±ÅŁtÄ±r": 6154,
      "ĠattÄ±": 6155,
      "ĠatÄ±lmadan": 6156,
      "Ġatleti": 6157,
      "lerinizi": 6158,
      "ĠnumarasÄ±": 6159,
      "ĠnumarasÄ±nÄ±n": 6160,
      "ĠeÅŁya": 6161,
      "ĠeÅŁleÅŁ": 6162,
      "ĠeÅŁleÅŁme": 6163,
      "Ġfileyi": 6164,
      "ĠÃ¼zerine": 6165,
      "Ġvermeye": 6166,
      "Ġvermesine": 6167,
      "Ġgrubuna": 6168,
      "ĠgÃ¶sterir": 6169,
      "ĠgÃ¶sterse": 6170,
      "ĠgÃ¶steriyor": 6171,
      "ĠgÃ¶stererek": 6172,
      "ĠgÃ¶stermektedir": 6173,
      "ĠgÃ¶sterdiÄŁi": 6174,
      "ĠgÃ¶sterebilir": 6175,
      "ĠgÃ¶sterdiÄŁiniz": 6176,
      "ĠgÃ¶sterdiy": 6177,
      "ĠkulÃ¼pleri": 6178,
      "ĠkulÃ¼plere": 6179,
      "Ġtehlik": 6180,
      "Ġtepki": 6181,
      "Ġtevcih": 6182,
      "Ġtelaff": 6183,
      "ĠteceddÃ¼": 6184,
      "ĠbaÅŁlamak": 6185,
      "ĠbaÅŁlamasÄ±yla": 6186,
      "ĠkarÅŁÄ±laÅŁan": 6187,
      "ĠkarÅŁÄ±laÅŁmadan": 6188,
      "ĠkarÅŁÄ±laÅŁmasÄ±nÄ±": 6189,
      "omoti": 6190,
      "ommad": 6191,
      "Ġarada": 6192,
      "ĠaralarÄ±nda": 6193,
      "ĠetabÄ±nÄ±n": 6194,
      "Ġfavori": 6195,
      "ĠdeÄŁip": 6196,
      "Ġkurulda": 6197,
      "ĠkurulmasÄ±": 6198,
      "ĠkurulmasÄ±yla": 6199,
      "ĠbÃ¶lgelerden": 6200,
      "ĠbÃ¶lgesidir": 6201,
      "Ġnumaradan": 6202,
      "durlar": 6203,
      "Ġgalip": 6204,
      "Ġgalibiye": 6205,
      "Ġduruma": 6206,
      "ĠdurmasÄ±na": 6207,
      "ĠdurduklarÄ±": 6208,
      "Ġmemlek": 6209,
      "Ġmeydana": 6210,
      "Ġbasmak": 6211,
      "Ġbasarak": 6212,
      "Ġbaskani": 6213,
      "Ġbasket": 6214,
      "ĠbasÄ±nÄ±nÄ±n": 6215,
      "Ġistik": 6216,
      "Ġismini": 6217,
      "Ġkararlarla": 6218,
      "ĠkararÄ±yla": 6219,
      "Ġ101": 6220,
      "ulanger": 6221,
      "Ġonay": 6222,
      "Ġonayla": 6223,
      "ĠkullanÄ±lan": 6224,
      "ĠkullandÄ±ÄŁÄ±": 6225,
      "Ġkullanmaya": 6226,
      "Ġkullanacak": 6227,
      "Ġkullanarak": 6228,
      "ĠkullanmayÄ±": 6229,
      "ĠkullanÄ±lama": 6230,
      "ĠkullanÄ±lmalÄ±": 6231,
      "ĠkullanÄ±labilir": 6232,
      "ĠkullanÄ±lmasÄ±na": 6233,
      "ĠulaÅŁarak": 6234,
      "ĠulaÅŁmasÄ±nÄ±": 6235,
      "ĠulaÅŁmÄ±ÅŁtÄ±": 6236,
      "ĠulaÅŁamadÄ±": 6237,
      "1980": 6238,
      "1981": 6239,
      "1982": 6240,
      "1983": 6241,
      "1984": 6242,
      "1985": 6243,
      "Ġkurada": 6244,
      "Ġkurarak": 6245,
      "ĠkuramadÄ±": 6246,
      "ĠkapalÄ±": 6247,
      "ĠkapadÄ±": 6248,
      "Ġkapasi": 6249,
      "ĠkapandÄ±ÄŁÄ±": 6250,
      "ĠmÃ¼sabakalar": 6251,
      "ĠmÃ¼sabakalarÄ±nÄ±": 6252,
      "ĠmÃ¼sabakalara": 6253,
      "1990": 6254,
      "1991": 6255,
      "1992": 6256,
      "1993": 6257,
      "1994": 6258,
      "1997": 6259,
      "1998": 6260,
      "ĠhatasÄ±": 6261,
      "Ġzamana": 6262,
      "ĠzamanlamasÄ±na": 6263,
      "ĠgÃ¼Ã§lenen": 6264,
      "ĠyanÄ±": 6265,
      "Ġvurma": 6266,
      "Ġvurur": 6267,
      "Ġvurularak": 6268,
      "Ġadla": 6269,
      "ĠadÄ±ndaki": 6270,
      "Ġadresine": 6271,
      "Ġ169": 6272,
      "ĠdÃ¶rdÃ¼ncÃ¼lÃ¼k": 6273,
      "ĠdÃ¶rdÃ¼ncÃ¼sÃ¼": 6274,
      "Ġgalibiyetler": 6275,
      "Ġgalibiyetine": 6276,
      "Ġgalibiyetini": 6277,
      "viÄĩ": 6278,
      "Ġcem": 6279,
      "ĠtaktÄ±": 6280,
      "Ġtakdim": 6281,
      "Ġtakdirde": 6282,
      "ĠSelim": 6283,
      "ĠSemiz": 6284,
      "ĠSeÃ§kin": 6285,
      "Ġhangisinin": 6286,
      "ĠformalarÄ±": 6287,
      "ĠformasÄ±nda": 6288,
      "ĠformalarÄ±n": 6289,
      "Ġformalarla": 6290,
      "ĠformasÄ±nÄ±": 6291,
      "ĠformalarÄ±yla": 6292,
      "ĠformasÄ±nÄ±n": 6293,
      "ĠÅŁekillenmiÅŁtir": 6294,
      "ĠalÄ±nma": 6295,
      "ĠalÄ±ndÄ±": 6296,
      "ĠalÄ±nmÄ±ÅŁ": 6297,
      "ĠÃĸne": 6298,
      "ĠÃĸrse": 6299,
      "ĠÃĸÄŁre": 6300,
      "ĠbÃ¶lÃ¼me": 6301,
      "Ġkaybettiy": 6302,
      "ĠPasÃ¶rler": 6303,
      "tarma": 6304,
      "enko": 6305,
      "Ġetmemelidir": 6306,
      "ĠyenmiÅŁ": 6307,
      "ĠesasÄ±na": 6308,
      "Ġeskisi": 6309,
      "Ġesasen": 6310,
      "ĠSavaÅŁ": 6311,
      "ĠBaÅŁkent": 6312,
      "ĠulaÅŁtÄ±ÄŁÄ±": 6313,
      "Ġrakibe": 6314,
      "ĠyÃ¼kseldiÄŁi": 6315,
      "mekteydi": 6316,
      "ĠÅŁekildedir": 6317,
      "Ġsisteme": 6318,
      "Ġkoyan": 6319,
      "Ä±lÄ±larÄ±n": 6320,
      "Ä±lÄ±yorsa": 6321,
      "ĠdoÄŁal": 6322,
      "ĠdoÄŁrul": 6323,
      "ĠkazandÄ±ktan": 6324,
      "ĠkazandÄ±ysa": 6325,
      "lÃ¼ÄŁÃ¼ne": 6326,
      "lÃ¼ÄŁÃ¼nde": 6327,
      "ĠgÃ¶revini": 6328,
      "ĠgÃ¶revlidir": 6329,
      "ĠkaybettiÄŁi": 6330,
      "ĠsÄ±nÄ±rlarÄ±nÄ±": 6331,
      "Anna": 6332,
      "ĠJan": 6333,
      "ĠJimnas": 6334,
      "Ġrekora": 6335,
      "Ġrekorun": 6336,
      "ĠreklamÄ±": 6337,
      "razzo": 6338,
      "ĠadÄ±na": 6339,
      "ĠadÄ±nÄ±n": 6340,
      "ĠaÄŁÄ±rladÄ±": 6341,
      "ĠTemsil": 6342,
      "ĠdÃ¶nen": 6343,
      "ĠdÃ¶ndÃ¼k": 6344,
      "ĠÃ¼yelik": 6345,
      "ĠÃ¼yedir": 6346,
      "ĠsaÄŁlar": 6347,
      "ĠsaÄŁlama": 6348,
      "ĠsaÄŁlayan": 6349,
      "ĠsaÄŁlaya": 6350,
      "ĠsaÄŁlamÄ±ÅŁtÄ±r": 6351,
      "ĠsaÄŁlanmÄ±ÅŁtÄ±r": 6352,
      "ĠEtabÄ±nda": 6353,
      "ĠyaklaÅŁÄ±p": 6354,
      "ĠMÃ¼dÃ¼rlÃ¼ÄŁÃ¼nde": 6355,
      "ĠGrubuna": 6356,
      "Ġnoktada": 6357,
      "ĠnoktalamÄ±ÅŁ": 6358,
      "Ġfaaliyetlerin": 6359,
      "Ġfaaliyetlerinin": 6360,
      "rukla": 6361,
      "ĠkÄ±ta": 6362,
      "ĠkÄ±sÄ±m": 6363,
      "Ġbeden": 6364,
      "Ġbeach": 6365,
      "Ġilgin": 6366,
      "Ġilgisini": 6367,
      "ĠhÄ±zlandÄ±r": 6368,
      "Ġtempoda": 6369,
      "Ġtemennisi": 6370,
      "ĠbaÅŁlanÄ±r": 6371,
      "ĠGenellikle": 6372,
      "ĠkiÅŁiler": 6373,
      "ĠsÃ¼resiz": 6374,
      "ĠsÃ¼recin": 6375,
      "ĠsÃ¼recindeki": 6376,
      "ĠsÃ¼regelen": 6377,
      "Ġmetrelik": 6378,
      "Ġmetredir": 6379,
      "Ġimzalar": 6380,
      "Ġimzalayarak": 6381,
      "plasmanlÄ±": 6382,
      "Ġbiletini": 6383,
      "Ġamaca": 6384,
      "Ġkadrolar": 6385,
      "Ġkadroya": 6386,
      "Ġkadrosu": 6387,
      "Ġkadrosunda": 6388,
      "ĠAlt": 6389,
      "ĠAlberto": 6390,
      "ĠBeyaz": 6391,
      "ĠBedart": 6392,
      "ĠBedii": 6393,
      "ÅŁtiÄŁi": 6394,
      "lÄ±ÄŁa": 6395,
      "lÄ±ÄŁÄ±nÄ±n": 6396,
      "ĠyazÄ±": 6397,
      "ĠyazÄ±nda": 6398,
      "1970": 6399,
      "1971": 6400,
      "1972": 6401,
      "1973": 6402,
      "1974": 6403,
      "1975": 6404,
      "1976": 6405,
      "1977": 6406,
      "1978": 6407,
      "1979": 6408,
      "ĠayrÄ±larak": 6409,
      "ĠkaldÄ±lar": 6410,
      "ĠbaÄŁlamda": 6411,
      "ĠgeniÅŁletme": 6412,
      "ĠgeniÅŁliÄŁine": 6413,
      "ĠyaÅŁamÄ±ÅŁtÄ±r": 6414,
      "ĠatÄ±ÅŁtÄ±r": 6415,
      "asyonlarÄ±nÄ±n": 6416,
      "ĠAsma": 6417,
      "kararak": 6418,
      "ĠOlimpiyatlar": 6419,
      "ĠOlimpiyatlarÄ±ndan": 6420,
      "ĠkuruluÅŁtur": 6421,
      "ĠseÃ§erek": 6422,
      "ĠyakÄ±nÄ±ndan": 6423,
      "ĠpozisyonlarÄ±": 6424,
      "Ġpozisyonunu": 6425,
      "Ġpozisyondur": 6426,
      "birinci": 6427,
      "login": 6428,
      "Ġyollar": 6429,
      "ĠyollarÄ±n": 6430,
      "ĠbaÅŁarmÄ±ÅŁtÄ±r": 6431,
      "ĠDauphine": 6432,
      "ĠDayanÄ±ÅŁma": 6433,
      "ĠkatÄ±lmamÄ±ÅŁlardÄ±r": 6434,
      "ĠkulÃ¼bÃ¼nde": 6435,
      "ĠBirinciliÄŁi": 6436,
      "minton": 6437,
      "sandar": 6438,
      "demik": 6439,
      "ĠkÄ±rmaya": 6440,
      "ĠkÄ±rÄ±lmasÄ±": 6441,
      "Ġ129": 6442,
      "Ġtutulan": 6443,
      "Ġtuttu": 6444,
      "ĠolmasÄ±dÄ±r": 6445,
      "Ġpandem": 6446,
      "ĠHaji": 6447,
      "ĠHacÄ±m": 6448,
      "ĠHagh": 6449,
      "ĠHawai": 6450,
      "ĠHernÃ": 6451,
      "ĠdeÄŁiÅŁtirmiÅŁ": 6452,
      "ĠdeÄŁiÅŁtirildi": 6453,
      "ĠdeÄŁiÅŁtirebilir": 6454,
      "sporudur": 6455,
      "uzu": 6456,
      "veya": 6457,
      "Ã¼ldÃ¼": 6458,
      "Ġaksi": 6459,
      "Ġaktarma": 6460,
      "ĠdÃ¶nem": 6461,
      "ĠdÃ¶nemece": 6462,
      "ĠÃ§apÄ±ndadÄ±r": 6463,
      "Ġdeniz": 6464,
      "Ġdenilebilir": 6465,
      "ĠMert": 6466,
      "mizde": 6467,
      "ĠsÄ±ralamada": 6468,
      "ĠsevinÃ§": 6469,
      "Ġkurallar": 6470,
      "Ġkurallara": 6471,
      "ĠkurallarÄ±na": 6472,
      "ĠkuraldÄ±ÅŁÄ±": 6473,
      "ĠsavunmasÄ±": 6474,
      "Ġrekabete": 6475,
      "Ġrekabetteki": 6476,
      "Ġayakla": 6477,
      "Ġayakkab": 6478,
      "ding": 6479,
      "sallarda": 6480,
      "ĠbakÄ±larak": 6481,
      "ĠkaÃ§arak": 6482,
      "ĠkaÃ§madÄ±": 6483,
      "ĠkaÃ§Ä±rdÄ±ktan": 6484,
      "ĠgeliÅŁimi": 6485,
      "ĠgeliÅŁtirme": 6486,
      "ĠgeliÅŁtiÄŁi": 6487,
      "ĠgerÃ§ekleÅŁti": 6488,
      "ĠaltyapÄ±ya": 6489,
      "reditation": 6490,
      "ĠyÃ¶netiminin": 6491,
      "ĠyÃ¶netimlerin": 6492,
      "ĠvuruÅŁla": 6493,
      "ĠyÃ¼zeyin": 6494,
      "ĠyÃ¼zeyinden": 6495,
      "ĠyÃ¼zeylerde": 6496,
      "ĠzorundadÄ±r": 6497,
      "ĠoluÅŁturuldu": 6498,
      "ĠoluÅŁturduÄŁu": 6499,
      "Ġgetiren": 6500,
      "ĠgetirdiÄŁinden": 6501,
      "chuse": 6502,
      "chev": 6503,
      "chenko": 6504,
      "ĠZÃ©": 6505,
      "ĠZare": 6506,
      "ĠZoran": 6507,
      "ĠZongul": 6508,
      "ĠZenti": 6509,
      "ĠZelezni": 6510,
      "lemine": 6511,
      "ĠkucaklaÅŁmaya": 6512,
      "ĠkÃ¶klÃ¼": 6513,
      "ĠkÃ¶ÅŁede": 6514,
      "ĠolimpiyatlarÄ±nda": 6515,
      "Ġyetecek": 6516,
      "Ġyetenek": 6517,
      "ĠvarsayÄ±lÄ±r": 6518,
      "Ġistiyoruz": 6519,
      "ĠSalonunda": 6520,
      "ĠhattÄ±nda": 6521,
      "ĠhatÄ±rlamayan": 6522,
      "ĠÃ¼lkesinde": 6523,
      "ĠÃ¼lkesiydi": 6524,
      "ĠCaner": 6525,
      "ĠCanlÄ±": 6526,
      "ĠCannet": 6527,
      "ĠCanoe": 6528,
      "ĠCannes": 6529,
      "ĠaldÄ±ÄŁÄ±nda": 6530,
      "ĠGenÃ§ler": 6531,
      "Ġnedenle": 6532,
      "Ġnedenlerden": 6533,
      "Ġhabercis": 6534,
      "ĠoynadÄ±lar": 6535,
      "ĠartÄ±rdÄ±": 6536,
      "ĠdÃ¼zenlediÄŁi": 6537,
      "ĠUlusal": 6538,
      "ĠkarÅŁÄ±laÅŁmada": 6539,
      "ĠkarÅŁÄ±laÅŁmalarÄ±nÄ±n": 6540,
      "ĠÃ§aprazÄ±yla": 6541,
      "ĠCumhuriyetin": 6542,
      "leketi": 6543,
      "Ġbeklenen": 6544,
      "ĠSonraki": 6545,
      "ĠdeÄŁiÅŁim": 6546,
      "ĠdeÄŁiÅŁmesi": 6547,
      "Ġdurumdan": 6548,
      "Ġdurumlarda": 6549,
      "Ġdurumunun": 6550,
      "Ġilgilidir": 6551,
      "ĠgeniÅŁliÄŁindeki": 6552,
      "ĠgeniÅŁliÄŁindedir": 6553,
      "Ġblokta": 6554,
      "Ġhedefiyle": 6555,
      "Ġhedefleyen": 6556,
      "Ġgiyer": 6557,
      "Ġgiyen": 6558,
      "Ġgiydiler": 6559,
      "Ġgiymesiyle": 6560,
      "Ġgiyilmesi": 6561,
      "Ġgiymesinin": 6562,
      "Ġgeldiler": 6563,
      "ĠgeldiÄŁinde": 6564,
      "Ġgeldikler": 6565,
      "ĠgenÃ§liÄŁi": 6566,
      "ĠtÄ±klayarak": 6567,
      "ĠoluÅŁur": 6568,
      "ĠoluÅŁana": 6569,
      "ĠplajlarÄ±nda": 6570,
      "ĠoynatmasÄ±na": 6571,
      "ĠÃ¶zlediÄŁi": 6572,
      "ĠÃ¶zlemine": 6573,
      "ĠDeps": 6574,
      "ĠDeveli": 6575,
      "ĠuzanÄ±r": 6576,
      "ĠuzandÄ±ÄŁÄ±": 6577,
      "ĠTakÄ±mÄ±mÄ±zÄ±n": 6578,
      "ĠayrÄ±lmÄ±ÅŁtÄ±r": 6579,
      "ĠayrÄ±ldÄ±ÄŁÄ±": 6580,
      "ĠArshia": 6581,
      "ĠsponsorluÄŁuyla": 6582,
      "ĠKulÃ¼bÃ¼nÃ¼n": 6583,
      "ĠgiriÅŁmiÅŁken": 6584,
      "ĠeÅŁleÅŁtiÄŁi": 6585,
      "ĠkurulduÄŁu": 6586,
      "ĠkurulduÄŁunda": 6587,
      "ĠÃĸzlem": 6588,
      "ĠÃĸzpar": 6589,
      "ĠÃĸzbek": 6590,
      "ĠÃĸzÃ§elik": 6591,
      "Ġyenilgiyle": 6592,
      "Ġyenilmeden": 6593,
      "Ġsisteminde": 6594,
      "Ġboyu": 6595,
      "ĠyazdÄ±rma": 6596,
      "ĠyazdÄ±rÄ±p": 6597,
      "Ġbioderma": 6598,
      "Ġyedi": 6599,
      "Ġyelken": 6600,
      "ĠyÃ¶nÃ¼nde": 6601,
      "Ġelemelerini": 6602,
      "ĠAkdaÄŁ": 6603,
      "ĠAkkapÄ±": 6604,
      "ĠSÄ±ralamasÄ±": 6605,
      "ĠbirleÅŁtirici": 6606,
      "ĠEnter": 6607,
      "ĠEnÃ¼stÃ¼n": 6608,
      "ĠEnerji": 6609,
      "ĠÅŁampiyonada": 6610,
      "ĠÅŁampiyonayÄ±": 6611,
      "ĠÃ¼stÃ¼nlÃ¼ÄŁÃ¼": 6612,
      "ĠÃ¼stÃ¼nlÃ¼ÄŁÃ¼ne": 6613,
      "Ġgelecekte": 6614,
      "ĠRoberto": 6615,
      "ĠorganÄ±dÄ±r": 6616,
      "Ġorganizasyonu": 6617,
      "Ġbulunurken": 6618,
      "ĠsÃ¼rdÃ¼rmÃ¼ÅŁtÃ¼r": 6619,
      "ĠsÃ¼rdÃ¼rÃ¼p": 6620,
      "ĠÃ§izgilerden": 6621,
      "ĠeÅŁitliÄŁinde": 6622,
      "ĠbasÄ±ncÄ±": 6623,
      "Ġseviyeye": 6624,
      "Ġseviyesini": 6625,
      "ĠgetirildiÄŁi": 6626,
      "Kaan": 6627,
      "TakÄ±mlardan": 6628,
      "bilge": 6629,
      "emeleri": 6630,
      "tyapÄ±ya": 6631,
      "ĠWai": 6632,
      "ĠWilliam": 6633,
      "ĠWrocÅ": 6634,
      "ĠÃ¼niver": 6635,
      "layabildi": 6636,
      "ĠvÃ¼cudunun": 6637,
      "ĠiddiasÄ±nÄ±": 6638,
      "ĠiddialarÄ±nÄ±": 6639,
      "Ġtahta": 6640,
      "Ġtahsis": 6641,
      "Ġaittir": 6642,
      "ĠaÅŁamasÄ±": 6643,
      "ĠaÅŁamasÄ±nda": 6644,
      "ĠeÄŁime": 6645,
      "ĠTeksas": 6646,
      "ĠTekinalp": 6647,
      "ĠSahada": 6648,
      "ĠBercis": 6649,
      "ĠBergamo": 6650,
      "ĠBernard": 6651,
      "ĠolmadÄ±ÄŁÄ±": 6652,
      "ĠolmalarÄ±na": 6653,
      "mesinden": 6654,
      "Ġ1948": 6655,
      "ĠÅŁubesidir": 6656,
      "ĠModaspor": 6657,
      "ĠFederasyonun": 6658,
      "ĠbaÅŁantrenÃ¶r": 6659,
      "ĠbaÅŁantrenÃ¶rÃ¼": 6660,
      "ĠbaÅŁantrenÃ¶rlÃ¼ÄŁe": 6661,
      "ĠCeyda": 6662,
      "Ġvoleybolundaki": 6663,
      "ĠyapÄ±larak": 6664,
      "ĠyapÄ±lacak": 6665,
      "Ġyapamayan": 6666,
      "Ġsahiptir": 6667,
      "ĠsahipliÄŁinde": 6668,
      "ĠOyunu": 6669,
      "ĠOysaki": 6670,
      "ĠkatÄ±ldÄ±klarÄ±": 6671,
      "ĠgÃ¶nderdi": 6672,
      "ĠgÃ¶ndererek": 6673,
      "ĠyÃ¼kselirler": 6674,
      "ĠMedicana": 6675,
      "ĠbaÅŁardÄ±ÄŁÄ±nda": 6676,
      "Ġsakatlanmaya": 6677,
      "ĠsakatlÄ±ÄŁa": 6678,
      "ĠTurnuvasÄ±nda": 6679,
      "ĠSalihli": 6680,
      "Ġderecesi": 6681,
      "Ġdereceye": 6682,
      "ĠYÄ±ldÄ±zlarda": 6683,
      "BugÃ¼nkÃ¼": 6684,
      "Oyunun": 6685,
      "Oyuncunun": 6686,
      "gendir": 6687,
      "ĠIvan": 6688,
      "ĠImp": 6689,
      "Ġikisi": 6690,
      "Ġiplerden": 6691,
      "ĠKorneluk": 6692,
      "Ġdokunulabilir": 6693,
      "Ġdokuzu": 6694,
      "Ġsayede": 6695,
      "ĠÃ¶lÃ§Ã¼ldÃ¼": 6696,
      "celli": 6697,
      "izasyonlara": 6698,
      "ĠYazÄ±cÄ±": 6699,
      "ĠkatÄ±lÄ±mÄ±yla": 6700,
      "Ġkaybolan": 6701,
      "ĠkuruluÅŁlarÄ±": 6702,
      "ĠgeliÅŁmiÅŁtir": 6703,
      "ĠgeliÅŁim": 6704,
      "ĠgeliÅŁmesinden": 6705,
      "Ġsalonlarda": 6706,
      "Birinci": 6707,
      "Herhangi": 6708,
      "idetti": 6709,
      "janovi": 6710,
      "Ã©dÃ©": 6711,
      "Ġindirge": 6712,
      "Ġseneki": 6713,
      "rador": 6714,
      "Ġkumun": 6715,
      "Ġkumsallarda": 6716,
      "ĠbÃ¼tÃ§enin": 6717,
      "ĠbÃ¼tÃ§esini": 6718,
      "Ġasla": 6719,
      "ĠasÄ±l": 6720,
      "Ġaskerleri": 6721,
      "ĠSanta": 6722,
      "ĠhariÃ§": 6723,
      "Ġharice": 6724,
      "ĠteÅŁekkÃ¼r": 6725,
      "ĠBelÃ§ika": 6726,
      "ĠpatladÄ±": 6727,
      "ĠÃ§ekilme": 6728,
      "ĠÃ§ekilmiÅŁ": 6729,
      "ĠÃ§ekildiler": 6730,
      "ĠÃ§ekilmesiyle": 6731,
      "ĠderinliÄŁi": 6732,
      "mÄ±zÄ±lÄ±larÄ±n": 6733,
      "Ġoyunudur": 6734,
      "Ġtamamlanan": 6735,
      "ĠtamamlanmÄ±ÅŁ": 6736,
      "ĠtamamlanacaktÄ±r": 6737,
      "ĠtamamlanamamÄ±ÅŁtÄ±": 6738,
      "ĠDanÄ±ÅŁma": 6739,
      "ĠPartizan": 6740,
      "ĠOkrogli": 6741,
      "1962": 6742,
      "1967": 6743,
      "ĠkarÅŁÄ±lÄ±k": 6744,
      "ĠkarÅŁÄ±lÄ±yorsa": 6745,
      "ĠHandan": 6746,
      "ĠHanikoÄŁlu": 6747,
      "ĠkonumundadÄ±r": 6748,
      "ĠyarÄ±ÅŁÄ±nÄ±n": 6749,
      "ĠyarÄ±ÅŁarak": 6750,
      "Ġgerekiyorsa": 6751,
      "ĠkulÃ¼pleriyle": 6752,
      "ĠkapatmÄ±ÅŁ": 6753,
      "ĠkapatmÄ±ÅŁtÄ±r": 6754,
      "ĠkapatÄ±lmÄ±ÅŁ": 6755,
      "ĠkapatÄ±ldÄ±": 6756,
      "ĠÃĸnen": 6757,
      "Ġesnek": 6758,
      "ĠboÅŁluÄŁunun": 6759,
      "ĠJohn": 6760,
      "ĠisteÄŁinde": 6761,
      "ĠistediÄŁi": 6762,
      "ĠistediÄŁiniz": 6763,
      "ĠisteÄŁiyle": 6764,
      "ĠÃ¶zelliÄŁini": 6765,
      "ĠuzantÄ±sÄ±ndan": 6766,
      "ĠuzantÄ±sÄ±nÄ±n": 6767,
      "ĠboyutlarÄ±na": 6768,
      "ĠvÃ¼cutla": 6769,
      "Ġaverajla": 6770,
      "ĠaverajÄ±na": 6771,
      "ĠÃľniversiteler": 6772,
      "resini": 6773,
      "uyarÄ±": 6774,
      "iyaret": 6775,
      "Ġefendim": 6776,
      "ĠdikdÃ¶rt": 6777,
      "ĠpayÄ±": 6778,
      "ĠpaylaÅŁtÄ±": 6779,
      "ĠbirleÅŁmiÅŁtir": 6780,
      "ĠbirleÅŁerek": 6781,
      "Ġsabittir": 6782,
      "Ġmuhteli": 6783,
      "Ġmuvaffakiyet": 6784,
      "Ġmuhabir": 6785,
      "Ġdavetiyeyle": 6786,
      "ĠliberolarÄ±n": 6787,
      "kaptan": 6788,
      "ĠiÃ§erisine": 6789,
      "ĠÃ¼Ã§Ã¼ncÃ¼lÃ¼klerle": 6790,
      "ĠkatÄ±lamamÄ±ÅŁ": 6791,
      "Ġengelden": 6792,
      "ĠgÃ¶tÃ¼rerek": 6793,
      "ĠgÃ¶tÃ¼rmeyi": 6794,
      "Ġseferde": 6795,
      "ĠsporcularÄ±nÄ±n": 6796,
      "ĠdeÄŁmeden": 6797,
      "ĠdeÄŁmesini": 6798,
      "Ġkentindedir": 6799,
      "ĠarkadaÅŁlarla": 6800,
      "ĠGruplarÄ±nda": 6801,
      "ĠimzalandÄ±ÄŁÄ±": 6802,
      "Ġorganizasyonla": 6803,
      "Ġorganizasyonlar": 6804,
      "ĠorganizasyonlarÄ±": 6805,
      "KadÄ±nlarda": 6806,
      "Ġskorla": 6807,
      "Ġskorer": 6808,
      "TVF": 6809,
      "bino": 6810,
      "gÃ¼Ã¼Ã¼m": 6811,
      "kÄ±rmÄ±zÄ±": 6812,
      "kÄ±rmÄ±zÄ±lÄ±larÄ±n": 6813,
      "ovt": 6814,
      "ĠunvanÄ±nÄ±": 6815,
      "dalye": 6816,
      "Ġsorumludurlar": 6817,
      "ĠbranÅŁtÄ±r": 6818,
      "Ġibare": 6819,
      "Ġibaresine": 6820,
      "Ġibaresi": 6821,
      "Ġalamadan": 6822,
      "ĠKÄ±sta": 6823,
      "ĠKÄ±brÄ±": 6824,
      "ĠKano": 6825,
      "ĠKanti": 6826,
      "ĠKanaryalar": 6827,
      "ĠKarÅŁÄ±laÅŁmalar": 6828,
      "ĠKarÅŁÄ±yaka": 6829,
      "alÄ±nan": 6830,
      "ĠdÃ¼nyada": 6831,
      "ĠBahar": 6832,
      "Ġmaddesinin": 6833,
      "ĠdesteÄŁini": 6834,
      "Ġderiden": 6835,
      "ĠÅŁirketi": 6836,
      "ĠMiraÃ§": 6837,
      "ĠMicelli": 6838,
      "ĠMirador": 6839,
      "ĠMuham": 6840,
      "ĠMutibaÅŁ": 6841,
      "ĠMujanovi": 6842,
      "ĠKapalÄ±": 6843,
      "ĠÄ°lgili": 6844,
      "ĠÄ°Ã§eride": 6845,
      "Ġvoleybolcular": 6846,
      "ĠvoleybolcularÄ±n": 6847,
      "Ġvoleybolcularla": 6848,
      "ĠantrenÃ¶rleri": 6849,
      "ĠGÃ¼lden": 6850,
      "ĠGÃ¼ltek": 6851,
      "ĠGÃ¼lÃ§in": 6852,
      "ĠDemir": 6853,
      "ĠDominika": 6854,
      "ĠPortekiz": 6855,
      "Ġuygun": 6856,
      "Ġverdikleri": 6857,
      "ĠHazrat": 6858,
      "ĠYÃ¼ksekliÄŁi": 6859,
      "ĠYÃ¼ksekokulu": 6860,
      "ĠikinciliÄŁe": 6861,
      "ĠikinciliÄŁine": 6862,
      "ĠikinciliÄŁini": 6863,
      "ĠbuluÅŁup": 6864,
      "ĠgeÃ§iren": 6865,
      "ĠgeÃ§irdi": 6866,
      "ĠgeÃ§irmiÅŁtir": 6867,
      "ĠgÃ¶zlemci": 6868,
      "Ġbitirdikten": 6869,
      "ĠRequ": 6870,
      "ĠReggi": 6871,
      "ĠRecep": 6872,
      "ĠAntenler": 6873,
      "ĠAntenlerin": 6874,
      "ĠArkaya": 6875,
      "ĠtaraftarlarÄ±": 6876,
      "ĠNajdic": 6877,
      "ĠNatalia": 6878,
      "ĠNaranjo": 6879,
      "ĠÃĩevresi": 6880,
      "ĠzÄ±plar": 6881,
      "Ġrenginde": 6882,
      "ĠgiremediÄŁi": 6883,
      "ĠyÃ¼ksekliÄŁindeki": 6884,
      "ĠyÃ¼ksekliÄŁindedir": 6885,
      "Ġtebriklerini": 6886,
      "Ġfaullerde": 6887,
      "ĠuzunluÄŁundadÄ±r": 6888,
      "ĠyÃ¶neticileri": 6889,
      "ĠayaÄŁa": 6890,
      "ĠsaÄŁlamak": 6891,
      "ĠkÃ¶ÅŁelerde": 6892,
      "ĠkÃ¶ÅŁegen": 6893,
      "ĠkÃ¶ÅŁelerine": 6894,
      "ĠdeÄŁiÅŁikliÄŁinden": 6895,
      "ĠaÅŁaÄŁÄ±daki": 6896,
      "ĠgÃ¶ndermeye": 6897,
      "ĠÃ§evrim": 6898,
      "ĠÃ§evrilmiÅŁtir": 6899,
      "ĠÃ§evreleyen": 6900,
      "ĠkanalÄ±ndan": 6901,
      "ĠkoruduÄŁu": 6902,
      "Ġkorudularsa": 6903,
      "Ġkategoride": 6904,
      "ĠBrezilyalÄ±": 6905,
      "ĠrÃ¶vanÅŁta": 6906,
      "Eltop": 6907,
      "genellikle": 6908,
      "koviÄĩ": 6909,
      "Ä±sÄ±dÄ±r": 6910,
      "lacaÄŁÄ±na": 6911,
      "Ġsekizinci": 6912,
      "ĠkÃ¼rek": 6913,
      "ĠkÃ¼resel": 6914,
      "Ġkutlama": 6915,
      "ĠbÄ±rakarak": 6916,
      "Ġoturan": 6917,
      "Ġoturma": 6918,
      "Ġilerleyen": 6919,
      "yacaÄŁÄ±nÄ±": 6920,
      "Ġtertip": 6921,
      "Ġteniste": 6922,
      "ĠÃ§arpmasÄ±nÄ±": 6923,
      "ĠÃ§aÄŁrÄ±lan": 6924,
      "ĠdemeÃ§ler": 6925,
      "ĠdaÄŁÄ±ldÄ±": 6926,
      "Ġdaraltmak": 6927,
      "ĠElemelerinde": 6928,
      "ĠKazanan": 6929,
      "ĠDirsekli": 6930,
      "ĠHolding": 6931,
      "ĠayÄ±rdÄ±ÄŁÄ±": 6932,
      "ĠayÄ±rmÄ±ÅŁtÄ±r": 6933,
      "ĠkaldÄ±rma": 6934,
      "ĠÃĩoksak": 6935,
      "Ġziyaretinde": 6936,
      "Ġriski": 6937,
      "ĠduruÅŁunda": 6938,
      "Ġadresinden": 6939,
      "ĠdiziliÅŁi": 6940,
      "ĠdÃ¶nerler": 6941,
      "lÄ±ÄŁÄ±ndadÄ±r": 6942,
      "Ġprotesto": 6943,
      "Ġbeklemelidir": 6944,
      "Ġhedefimiz": 6945,
      "ĠyÃ¶nlendiren": 6946,
      "ĠhazÄ±rlanÄ±rken": 6947,
      "Ġdokunmak": 6948,
      "ĠÃ¶ÄŁretmeni": 6949,
      "Ġefsanevi": 6950,
      "Ġdikkatinden": 6951,
      "ĠstandartlarÄ±na": 6952,
      "294": 6953,
      "ball": 6954,
      "biyesi": 6955,
      "evic": 6956,
      "goj": 6957,
      "hooo": 6958,
      "tsovo": 6959,
      "tiyan": 6960,
      "ĠlakabÄ±yla": 6961,
      "ĠlakaplÄ±": 6962,
      "ĠÄ±sÄ±nacak": 6963,
      "ĠÄ±sÄ±nabilirler": 6964,
      "Ä±labilirler": 6965,
      "Ġsantimetre": 6966,
      "Ġsandalye": 6967,
      "Ġsuretle": 6968,
      "Ġsuretiyle": 6969,
      "Ġsizi": 6970,
      "Ġsizlerle": 6971,
      "ĠsÃ¶rfÃ§Ã¼ler": 6972,
      "Ġolayla": 6973,
      "ĠtaÅŁÄ±r": 6974,
      "ĠtaÅŁÄ±ndÄ±": 6975,
      "Ġtakip": 6976,
      "Ġtakimimiz": 6977,
      "Ġtakabilir": 6978,
      "Ġtakabilirler": 6979,
      "Ġalabilirken": 6980,
      "ĠalacaklarÄ±nÄ±": 6981,
      "ĠalacaktÄ±r": 6982,
      "Ġgitmesi": 6983,
      "Ġgitmesiyle": 6984,
      "asinda": 6985,
      "ĠKurayÄ±": 6986,
      "ĠKurallar": 6987,
      "Ġkademesi": 6988,
      "Ġkademelerinden": 6989,
      "Ġetapta": 6990,
      "ĠTerrazzo": 6991,
      "ĠTerbiyesi": 6992,
      "ĠAlanÄ±": 6993,
      "ĠAlanya": 6994,
      "ĠSiray": 6995,
      "ĠSivas": 6996,
      "ĠSezona": 6997,
      "ĠSezonu": 6998,
      "Ġdileklerinde": 6999,
      "Ġfoto": 7000,
      "ĠfotoÄŁraf": 7001,
      "ĠBojana": 7002,
      "ĠBoulanger": 7003,
      "ĠBakÃ¼": 7004,
      "ĠBakanÄ±": 7005,
      "ĠBigadi": 7006,
      "ĠBigarelli": 7007,
      "ĠLeix": 7008,
      "ĠLucien": 7009,
      "ĠLugoj": 7010,
      "mediac": 7011,
      "ĠÃ§Ä±karak": 7012,
      "ĠÃ§Ä±kararak": 7013,
      "ĠÃ§eÅŁidi": 7014,
      "ĠÃ§eÅŁitli": 7015,
      "ĠÃ§ektiÄŁini": 7016,
      "Ġmerkezi": 7017,
      "Ġmerkezli": 7018,
      "ĠdenemiÅŁ": 7019,
      "Ġdenemenin": 7020,
      "ĠÅŁubesine": 7021,
      "ĠÅŁubeyi": 7022,
      "ĠManisa": 7023,
      "ĠManescu": 7024,
      "ĠEÄŁitim": 7025,
      "ĠEÄŁitimi": 7026,
      "diklerinden": 7027,
      "ĠbaÅŁvurusu": 7028,
      "ĠCSM": 7029,
      "ĠCSV": 7030,
      "ĠÄ°ÅŁletme": 7031,
      "ĠÃ¶dÃ¼llerini": 7032,
      "ĠGuillermo": 7033,
      "ĠGuidetti": 7034,
      "ĠÅŀampiyonluklar": 7035,
      "ĠyaptÄ±ktan": 7036,
      "ĠyaptÄ±klarÄ±": 7037,
      "Ġoyuncusuna": 7038,
      "Ġoyuncusunun": 7039,
      "ĠoynanamamÄ±ÅŁ": 7040,
      "ĠoynanamamÄ±ÅŁtÄ±r": 7041,
      "Ġgeciken": 7042,
      "Ġgecikmedi": 7043,
      "1952": 7044,
      "1955": 7045,
      "ĠYaasme": 7046,
      "ĠYÄ±lmazoÄŁlu": 7047,
      "ĠkatÄ±labil": 7048,
      "ĠkatÄ±lacaÄŁÄ±na": 7049,
      "Ġikincilikte": 7050,
      "Ġserisini": 7051,
      "Ġserisinin": 7052,
      "ĠarkasÄ±ndaki": 7053,
      "Ġerecektir": 7054,
      "Ġbulunuyordu": 7055,
      "ĠyÃ¼kselemedi": 7056,
      "ĠyÃ¼kselemeyen": 7057,
      "ĠbitirmiÅŁlerdir": 7058,
      "ĠRasna": 7059,
      "ĠRasimpaÅŁ": 7060,
      "ĠkalÄ±nlÄ±ÄŁÄ±nÄ±n": 7061,
      "ĠkalÄ±nlÄ±ÄŁÄ±ndadÄ±r": 7062,
      "ĠNida": 7063,
      "ĠNima": 7064,
      "ĠÃľlkerspor": 7065,
      "Ġekibin": 7066,
      "Ġekibine": 7067,
      "Ġbelirleyecek": 7068,
      "ĠbelirleyeceÄŁi": 7069,
      "Ġzeminin": 7070,
      "Ġzeminine": 7071,
      "Ġzirvede": 7072,
      "Ġzirvesine": 7073,
      "Ġyakalama": 7074,
      "Ġyakalayabildi": 7075,
      "ĠUrnaut": 7076,
      "ĠUrbino": 7077,
      "ĠkenarÄ±yla": 7078,
      "ĠkuralÄ±yla": 7079,
      "ĠkaptanÄ±nÄ±n": 7080,
      "ĠkaptanlÄ±k": 7081,
      "ĠgÃ¼Ã§lendiren": 7082,
      "ĠgÃ¼Ã§lendirilmiÅŁ": 7083,
      "ĠadlandÄ±rÄ±lmaya": 7084,
      "ĠadlandÄ±rmÄ±ÅŁtÄ±": 7085,
      "ĠtaktiÄŁin": 7086,
      "ĠtaktiÄŁinde": 7087,
      "Ġyendikten": 7088,
      "ĠazalÄ±r": 7089,
      "ĠazaldÄ±ÄŁÄ±ndan": 7090,
      "ĠsÄ±nÄ±rlandÄ±rÄ±lmÄ±ÅŁtÄ±r": 7091,
      "ĠsÄ±nÄ±rlandÄ±rÄ±labilirler": 7092,
      "ĠsÃ¼reÃ§ten": 7093,
      "ĠsÃ¼reÃ§lerin": 7094,
      "ĠdostluÄŁu": 7095,
      "ĠdostluklarÄ±nÄ±": 7096,
      "ĠyaÅŁadÄ±lar": 7097,
      "ustafaoÄŁlu": 7098,
      "ĠiÅŁlemleri": 7099,
      "ĠiÅŁlemlerinizi": 7100,
      "ĠgerÃ§ekleÅŁtirilir": 7101,
      "ĠgerÃ§ekleÅŁtirilecek": 7102,
      "ĠoluÅŁturulmasÄ±": 7103,
      "ĠoluÅŁturulmuÅŁtu": 7104,
      "ĠyetersizliÄŁinden": 7105,
      "ĠyÃ¶nÃ¼dÃ¼r": 7106,
      "ĠMohsen": 7107,
      "ĠMohommad": 7108,
      "ĠsahipliÄŁimizde": 7109,
      "ĠTurnuvalarÄ±": 7110,
      "ĠsayÄ±lÄ±rken": 7111,
      "ĠÃ¶lÃ§Ã¼de": 7112,
      "ĠÃ¶lÃ§Ã¼lerinde": 7113,
      "ĠbÃ¼tÃ¼nÃ¼yle": 7114,
      "ĠGÃ¶ksan": 7115,
      "ĠGÃ¶ksel": 7116,
      "ĠHanÄ±mlar": 7117,
      "ĠunvanÄ±": 7118,
      "ĠbranÅŁlarÄ±nda": 7119,
      "Ġdesteklerini": 7120,
      "ĠÅŁirketinin": 7121,
      "ĠÅŁirketlerin": 7122,
      "ĠbuluÅŁmada": 7123,
      "Ġtaraftarlarca": 7124,
      "ĠzÄ±playabilir": 7125,
      "ĠzÄ±playamaz": 7126,
      "Ġrenklerinden": 7127,
      "ĠdeÄŁiÅŁikliklerle": 7128,
      "Ġkombinasyonu": 7129,
      "ĠkombinasyonlarÄ±nÄ±n": 7130,
      "ĠKuzeyboru": 7131,
      "Ġeyaletinde": 7132,
      "Ġeyaletindeki": 7133,
      "MÃ¼teakip": 7134,
      "Rochev": 7135,
      "siniz": 7136,
      "Ġsampiyonasinda": 7137,
      "ĠKurulunun": 7138,
      "Ġelendiler": 7139,
      "ĠSerbest": 7140,
      "ĠBÃ¶ylelikle": 7141,
      "ĠMonica": 7142,
      "ĠDÃ¶nmez": 7143,
      "ĠbaÅŁlayamamÄ±ÅŁ": 7144,
      "Ġakredite": 7145,
      "Erkeklerde": 7146,
      "AltyapÄ±ya": 7147,
      "BVA": 7148,
      "BelÃ§ika": 7149,
      "BÃ¼tÃ¼n": 7150,
      "ConfÃ©dÃ©": 7151,
      "DÃ¶nÃ¼ÅŁt": 7152,
      "Doktor": 7153,
      "Ezeli": 7154,
      "Ecebilge": 7155,
      "Federasyonun": 7156,
      "GÃ¶nder": 7157,
      "Ghani": 7158,
      "Ilshan": 7159,
      "KÃ¶rfez": 7160,
      "Marovt": 7161,
      "Marie": 7162,
      "NCAA": 7163,
      "Outrigger": 7164,
      "Salonsuz": 7165,
      "SmaÃ§Ã¶rlere": 7166,
      "Tarihi": 7167,
      "YayÄ±ncÄ±": 7168,
      "doÄŁulu": 7169,
      "doleanu": 7170,
      "gazete": 7171,
      "hÃ¼kmen": 7172,
      "karma": 7173,
      "kovac": 7174,
      "ldukÃ§a": 7175,
      "luluk": 7176,
      "nodar": 7177,
      "nasyonal": 7178,
      "posta": 7179,
      "parast": 7180,
      "pleksi": 7181,
      "retleriyle": 7182,
      "rganizasyonlara": 7183,
      "rbrau": 7184,
      "tulmaz": 7185,
      "tusunda": 7186,
      "vizyon": 7187,
      "vutluk": 7188,
      "work": 7189,
      "¡ndez": 7190,
      "ÄįiÄĩ": 7191,
      "Ġlacivert": 7192,
      "Ġunutulmaz": 7193,
      "Ġmetni": 7194,
      "Ġlastik": 7195,
      "Ã¼rata": 7196,
      "ĠsÃ¶yleyerek": 7197,
      "ĠsarsÄ±ntÄ±": 7198,
      "Ġsamimi": 7199,
      "ĠsÄ±navÄ±": 7200,
      "Ġsorumluluk": 7201,
      "Ġsunuyorum": 7202,
      "Ġseyircili": 7203,
      "Ġkereden": 7204,
      "Ġkesenin": 7205,
      "ĠkuÅŁak": 7206,
      "ĠkozlarÄ±nÄ±": 7207,
      "Ġkonfederasyonu": 7208,
      "Ġbenzeri": 7209,
      "ĠbÃ¼nyesinde": 7210,
      "Ġbize": 7211,
      "ĠbriÃ§": 7212,
      "ĠbazÄ±nda": 7213,
      "Ġbaraj": 7214,
      "Ġbayanlarda": 7215,
      "Ġbronz": 7216,
      "Ġotelde": 7217,
      "Ġoranla": 7218,
      "ĠokullarÄ±nÄ±": 7219,
      "Ġodaklanma": 7220,
      "Ġopsiyonlu": 7221,
      "Ġyeknesak": 7222,
      "ĠyÃ¶nde": 7223,
      "ĠyalnÄ±zca": 7224,
      "ĠyÃ¼rÃ¼ten": 7225,
      "Ġyumrukla": 7226,
      "Ġyoktur": 7227,
      "Ġvuramazlar": 7228,
      "ĠiliÅŁkin": 7229,
      "Ġidaresi": 7230,
      "ĠiÅŁtirak": 7231,
      "ĠtaÅŁÄ±yamazlar": 7232,
      "ĠtartÄ±ÅŁmalÄ±": 7233,
      "ĠtasarlandÄ±": 7234,
      "Ġavantaj": 7235,
      "ĠajanslarÄ±": 7236,
      "Ġambargo": 7237,
      "ĠadacÄ±klarÄ±nda": 7238,
      "Ġgiyebilirler": 7239,
      "Ġgayretleriyle": 7240,
      "Ġglobal": 7241,
      "Ġgiderken": 7242,
      "ĠKalchenko": 7243,
      "ĠKrasnodar": 7244,
      "ĠKanada": 7245,
      "ĠKompleksi": 7246,
      "ĠKullanÄ±cÄ±": 7247,
      "ĠKoleji": 7248,
      "ĠKiÅŁilik": 7249,
      "ĠKsennia": 7250,
      "ĠKemal": 7251,
      "ĠKnezevic": 7252,
      "ĠKÃ¼tahya": 7253,
      "ĠKenneth": 7254,
      "ĠkavuÅŁan": 7255,
      "ĠeuropÃ©": 7256,
      "Ġestetik": 7257,
      "Ġefeleri": 7258,
      "ĠTeÅŁvik": 7259,
      "ĠTesisler": 7260,
      "ĠTamamÄ±": 7261,
      "ĠTarihinde": 7262,
      "ĠTayland": 7263,
      "ĠTelekom": 7264,
      "ĠTokatlÄ±oÄŁlu": 7265,
      "ĠAcudoÄŁulu": 7266,
      "ĠAkademik": 7267,
      "ĠAteÅŁli": 7268,
      "ĠAtatÃ¼rk": 7269,
      "ĠAleksandar": 7270,
      "ĠAkatlar": 7271,
      "ĠAccreditation": 7272,
      "ĠAdnan": 7273,
      "ĠAgnieszka": 7274,
      "Ġoyundan": 7275,
      "amoku": 7276,
      "ĠSakallÄ±oÄŁlu": 7277,
      "ĠSinem": 7278,
      "ĠSikiric": 7279,
      "ĠSpikerleri": 7280,
      "ĠSchaffho": 7281,
      "ĠSÃ¼heyl": 7282,
      "ĠStalekar": 7283,
      "ĠSunalp": 7284,
      "ĠSultenlar": 7285,
      "Ġhissettir": 7286,
      "ĠhegemonyasÄ±nÄ±": 7287,
      "Ġhasreti": 7288,
      "Ġdrenaj": 7289,
      "Ġdoldurunuz": 7290,
      "Ġfutbol": 7291,
      "ĠfÄ±rsatÄ±nÄ±": 7292,
      "Ġtelevizyon": 7293,
      "ĠtuÅŁuna": 7294,
      "Ġtutamazlar": 7295,
      "ĠtezahÃ¼rata": 7296,
      "ĠBeylikdÃ¼z": 7297,
      "ĠBazen": 7298,
      "ĠBregoli": 7299,
      "ĠBozÃ¼yÃ¼k": 7300,
      "ĠBaysal": 7301,
      "ĠBoriÄįiÄĩ": 7302,
      "ĠBabat": 7303,
      "ĠBrandt": 7304,
      "ĠBESF": 7305,
      "ĠLokomoti": 7306,
      "ĠLajkovac": 7307,
      "ĠmahallÃ®": 7308,
      "Ġmalolan": 7309,
      "Ġmalzemeleri": 7310,
      "ĠVizura": 7311,
      "ĠVestel": 7312,
      "ĠVatansever": 7313,
      "ĠolmanÄ±za": 7314,
      "ĠolmayacakalrÄ±": 7315,
      "ĠpaylaÅŁmak": 7316,
      "ĠpekiÅŁtiren": 7317,
      "ĠbirliÄŁinin": 7318,
      "ĠÃ§Ä±plak": 7319,
      "ĠÃ§orap": 7320,
      "ĠsaygÄ±": 7321,
      "Ġmektubu": 7322,
      "Ġdetaylar": 7323,
      "ĠÅŁifresini": 7324,
      "ĠÅŁehrinde": 7325,
      "ĠMahiru": 7326,
      "ĠMesude": 7327,
      "ĠMemleketi": 7328,
      "ĠMiletler": 7329,
      "ĠMazur": 7330,
      "ĠMutluel": 7331,
      "ĠMilenkoviÄĩ": 7332,
      "ĠMorteza": 7333,
      "ĠMassachuse": 7334,
      "ĠsonlandÄ±rdÄ±lar": 7335,
      "ĠFederbrau": 7336,
      "ĠFransÄ±z": 7337,
      "Ġdaveti": 7338,
      "ĠdavranÄ±ÅŁ": 7339,
      "ĠEroÄŁlu": 7340,
      "ĠEgenen": 7341,
      "ĠEÅŁleÅŁmeler": 7342,
      "Ġlistesinde": 7343,
      "ĠKahanamoku": 7344,
      "ĠbaÅŁkenti": 7345,
      "ĠCesare": 7346,
      "ĠChateau": 7347,
      "ĠCatherine": 7348,
      "ĠCelaleddin": 7349,
      "ĠCharleroi": 7350,
      "ĠCermagica": 7351,
      "ĠÄ°brahim": 7352,
      "ĠÄ°htisas": 7353,
      "ĠÄ°zmit": 7354,
      "siteden": 7355,
      "sibirsk": 7356,
      "Ġilkesinden": 7357,
      "ĠÃ¶zerk": 7358,
      "ĠÃ¶mrÃ¼": 7359,
      "ĠGÃ¼mÃ¼ÅŁ": 7360,
      "ĠyapmanÄ±z": 7361,
      "ĠDuke": 7362,
      "ĠDicle": 7363,
      "ĠDinÃ§er": 7364,
      "Ġiletmeleri": 7365,
      "ĠkazanamamÄ±ÅŁ": 7366,
      "ĠettirdiÄŁi": 7367,
      "ĠPredoleanu": 7368,
      "ĠPerihan": 7369,
      "ĠPablo": 7370,
      "ĠPalininsic": 7371,
      "ĠPÃ¼rÃ¼zlÃ¼": 7372,
      "ĠmÃ¼dahalede": 7373,
      "ĠolduysanÄ±z": 7374,
      "ĠbulamadÄ±ÄŁÄ±": 7375,
      "ĠbulamamÄ±ÅŁlardÄ±r": 7376,
      "ĠoynanmÄ±ÅŁken": 7377,
      "ĠOdintsovo": 7378,
      "ĠgeleceÄŁine": 7379,
      "Ġveremediklerinden": 7380,
      "Ġvereceklerini": 7381,
      "Ġverilmemekteydi": 7382,
      "ĠyÃ¼kÃ¼mlÃ¼": 7383,
      "ĠHÃ¼cum": 7384,
      "ĠHossein": 7385,
      "ĠHayri": 7386,
      "ĠHristiyan": 7387,
      "ĠHonolulu": 7388,
      "Ġhararetle": 7389,
      "ĠhayÄ±rlÄ±": 7390,
      "ĠYÃ¶netim": 7391,
      "ĠYapÄ±": 7392,
      "ĠYoutube": 7393,
      "ĠYalÃ§Ä±npÄ±nar": 7394,
      "ĠYeÅŁilyurt": 7395,
      "Ġtamamlayabilirsiniz": 7396,
      "ĠaykÄ±rÄ±": 7397,
      "ĠartÄ±ran": 7398,
      "ĠarÄ±ndÄ±rÄ±lmÄ±ÅŁ": 7399,
      "ĠarenasÄ±ndaki": 7400,
      "ĠyerleÅŁmeden": 7401,
      "Ġ4000": 7402,
      "ĠeriÅŁilmesi": 7403,
      "ĠgeÃ§miÅŁe": 7404,
      "ĠgeÃ§mezler": 7405,
      "ĠyÃ¼kselecektir": 7406,
      "ĠgÃ¶nderebilirler": 7407,
      "ĠÄ°spanya": 7408,
      "ĠkaynaÄŁÄ±": 7409,
      "ĠdÃ¼zenleniyordu": 7410,
      "ĠAntrenÃ¶rlÃ¼ÄŁÃ¼nÃ¼": 7411,
      "ĠArnavutluk": 7412,
      "ĠArlington": 7413,
      "beyazlÄ±lar": 7414,
      "Ġbulundurulan": 7415,
      "ĠbulunmamÄ±ÅŁlardÄ±r": 7416,
      "ĠNingbo": 7417,
      "ĠNeslihan": 7418,
      "ĠNovosibirsk": 7419,
      "ĠErcins": 7420,
      "ĠcamialarÄ±": 7421,
      "Ġcetvelini": 7422,
      "ĠÃĩiÄŁdem": 7423,
      "ĠekranlarÄ±ndan": 7424,
      "Ġekonomik": 7425,
      "ĠtakÄ±mlarÄ±mÄ±za": 7426,
      "ĠgÃ¼ncellemeler": 7427,
      "Ġziyade": 7428,
      "ĠedebildiÄŁi": 7429,
      "Ġuzuvlu": 7430,
      "ĠgirmiÅŁler": 7431,
      "Ġgirebilmesi": 7432,
      "ĠfarklÄ±lÄ±klar": 7433,
      "ĠUraloÃ§ka": 7434,
      "ĠMelissa": 7435,
      "ĠMÃ¼hendis": 7436,
      "Ġatletizm": 7437,
      "ĠeÅŁleÅŁmiÅŁtir": 7438,
      "ĠeÅŁleÅŁmeleri": 7439,
      "ĠgÃ¶sterdiyse": 7440,
      "Ġtehlike": 7441,
      "Ġtelaffuz": 7442,
      "ĠteceddÃ¼d": 7443,
      "Ġgalibiyete": 7444,
      "Ġmemlekette": 7445,
      "Ġbasketbol": 7446,
      "ĠistikrarlÄ±": 7447,
      "ĠonaylanmÄ±ÅŁ": 7448,
      "ĠonaylamasÄ±nÄ±n": 7449,
      "ĠkullanÄ±lamayacaÄŁÄ±nÄ±": 7450,
      "ĠkullanÄ±lmalÄ±dÄ±r": 7451,
      "Ġkapasiteli": 7452,
      "ĠÃĸrselenmez": 7453,
      "ĠÃĸÄŁretim": 7454,
      "Ġkaybettiyse": 7455,
      "ĠSavaÅŁÄ±": 7456,
      "ĠdoÄŁrultusunda": 7457,
      "ĠgÃ¶revlidirler": 7458,
      "ĠJimnastik": 7459,
      "ĠTemsilcisi": 7460,
      "ĠdÃ¶ndÃ¼kleri": 7461,
      "ĠsaÄŁlayacak": 7462,
      "ĠkÄ±sÄ±mlarÄ±": 7463,
      "ĠilginÃ§": 7464,
      "ĠhÄ±zlandÄ±rmak": 7465,
      "ĠsÃ¼reciniz": 7466,
      "ĠDauphines": 7467,
      "mintonette": 7468,
      "Ġpandemisi": 7469,
      "ĠHacÄ±mustafaoÄŁlu": 7470,
      "ĠHaghparast": 7471,
      "ĠHernÃ¡ndez": 7472,
      "ĠayakkabÄ±sÄ±dÄ±r": 7473,
      "ĠZareÃ§ye": 7474,
      "ĠZonguldak": 7475,
      "ĠZentiva": 7476,
      "ĠZeleznicar": 7477,
      "Ġyeteneklere": 7478,
      "ĠhatÄ±rlamayanlar": 7479,
      "Ġhabercisiydi": 7480,
      "Ġgeldiklerinde": 7481,
      "ĠDepsaÅŁ": 7482,
      "ĠÃĸzpars": 7483,
      "ĠEnternasyonal": 7484,
      "ĠWaikiki": 7485,
      "ĠWrocÅĤaw": 7486,
      "ĠÃ¼niversiteden": 7487,
      "Ġtahsisat": 7488,
      "ĠImpel": 7489,
      "ĠÃ¶lÃ§Ã¼ldÃ¼ÄŁÃ¼nde": 7490,
      "ĠYazÄ±cÄ±oÄŁullarÄ±": 7491,
      "Ġindirgedi": 7492,
      "ĠteÅŁekkÃ¼rlerimi": 7493,
      "ĠOkroglic": 7494,
      "ĠJohnson": 7495,
      "ĠdikdÃ¶rtgendir": 7496,
      "ĠpaylaÅŁtÄ±lar": 7497,
      "Ġmuhtelit": 7498,
      "Ġmuvaffakiyetten": 7499,
      "Ġmuhabiri": 7500,
      "kÄ±rmÄ±zÄ±lar": 7501,
      "ĠKÄ±stak": 7502,
      "ĠKÄ±brÄ±s": 7503,
      "ĠMuhammet": 7504,
      "ĠMujanovic": 7505,
      "ĠGÃ¼ltekin": 7506,
      "ĠgÃ¶zlemciler": 7507,
      "ĠRequest": 7508,
      "ĠReggio": 7509,
      "Eltopu": 7510,
      "ĠÃĩoksakar": 7511,
      "hoooop": 7512,
      "Ġsantimetrelik": 7513,
      "ĠBigadiÃ§": 7514,
      "ĠLeixoes": 7515,
      "mediaclub": 7516,
      "ĠYaasmeen": 7517,
      "ĠkatÄ±labilmek": 7518,
      "ĠRasimpaÅŁa": 7519,
      "ĠgerÃ§ekleÅŁtirilecektir": 7520,
      "Rocheville": 7521,
      "ConfÃ©dÃ©ration": 7522,
      "DÃ¶nÃ¼ÅŁteki": 7523,
      "Salonsuzluktan": 7524,
      "ĠeuropÃ©enne": 7525,
      "ĠSchaffhouse": 7526,
      "Ġhissettiren": 7527,
      "ĠBeylikdÃ¼zÃ¼": 7528,
      "ĠLokomotiv": 7529,
      "ĠMemleketimiz": 7530,
      "ĠMassachusetts": 7531
    },
    "merges": [
      [
        "Ä",
        "±"
      ],
      [
        "l",
        "a"
      ],
      [
        "Ã",
        "¼"
      ],
      [
        "d",
        "a"
      ],
      [
        "l",
        "e"
      ],
      [
        "Å",
        "Ł"
      ],
      [
        "Ġ",
        "s"
      ],
      [
        "Ä±",
        "n"
      ],
      [
        "t",
        "a"
      ],
      [
        "i",
        "n"
      ],
      [
        "d",
        "e"
      ],
      [
        "m",
        "a"
      ],
      [
        "o",
        "n"
      ],
      [
        "r",
        "a"
      ],
      [
        "Ã",
        "§"
      ],
      [
        "Ġ",
        "k"
      ],
      [
        "Ġ",
        "b"
      ],
      [
        "a",
        "n"
      ],
      [
        "Ġ",
        "o"
      ],
      [
        "u",
        "n"
      ],
      [
        "la",
        "r"
      ],
      [
        "e",
        "r"
      ],
      [
        "e",
        "n"
      ],
      [
        "Ġ",
        "y"
      ],
      [
        "Ġ",
        "v"
      ],
      [
        "Ġ",
        "i"
      ],
      [
        "i",
        "r"
      ],
      [
        "i",
        "y"
      ],
      [
        "Ġ",
        "ta"
      ],
      [
        "Ä",
        "Ł"
      ],
      [
        "Ġ",
        "a"
      ],
      [
        "l",
        "i"
      ],
      [
        "Ä±",
        "m"
      ],
      [
        "e",
        "k"
      ],
      [
        "Ã",
        "¶"
      ],
      [
        "Ġv",
        "e"
      ],
      [
        "a",
        "r"
      ],
      [
        "Ġ",
        "g"
      ],
      [
        "k",
        "Ä±m"
      ],
      [
        "Ġ",
        "2"
      ],
      [
        "a",
        "s"
      ],
      [
        "e",
        "z"
      ],
      [
        "Ġ",
        "K"
      ],
      [
        "o",
        "l"
      ],
      [
        "Ä±",
        "r"
      ],
      [
        "Ġk",
        "a"
      ],
      [
        "Ġta",
        "kÄ±m"
      ],
      [
        "le",
        "y"
      ],
      [
        "Ġ",
        "1"
      ],
      [
        "le",
        "r"
      ],
      [
        "Ä±n",
        "da"
      ],
      [
        "Ġ",
        "e"
      ],
      [
        "Ġ",
        "T"
      ],
      [
        "o",
        "ley"
      ],
      [
        "u",
        "p"
      ],
      [
        "y",
        "a"
      ],
      [
        "b",
        "ol"
      ],
      [
        "oley",
        "bol"
      ],
      [
        "o",
        "r"
      ],
      [
        "Ġ",
        "'"
      ],
      [
        "u",
        "l"
      ],
      [
        "Ġ",
        "A"
      ],
      [
        "Ä±",
        "l"
      ],
      [
        "Ġo",
        "y"
      ],
      [
        "a",
        "l"
      ],
      [
        "a",
        "m"
      ],
      [
        "g",
        "i"
      ],
      [
        "la",
        "n"
      ],
      [
        "Ġ",
        "S"
      ],
      [
        "ez",
        "on"
      ],
      [
        "Ġ",
        "h"
      ],
      [
        "Ġs",
        "ezon"
      ],
      [
        "u",
        "r"
      ],
      [
        "Ġ",
        "d"
      ],
      [
        "Ã¼",
        "r"
      ],
      [
        "Ã¼",
        "n"
      ],
      [
        "Ġ",
        "f"
      ],
      [
        "Ġ",
        "t"
      ],
      [
        "Ġ2",
        "0"
      ],
      [
        "i",
        "l"
      ],
      [
        "a",
        "k"
      ],
      [
        "p",
        "iy"
      ],
      [
        "Ġ",
        "B"
      ],
      [
        "iy",
        "e"
      ],
      [
        "Ġ",
        "L"
      ],
      [
        "ÅŁ",
        "t"
      ],
      [
        "in",
        "de"
      ],
      [
        "am",
        "piy"
      ],
      [
        "ampiy",
        "on"
      ],
      [
        "un",
        "da"
      ],
      [
        "ra",
        "k"
      ],
      [
        "ĠL",
        "i"
      ],
      [
        "Ġ",
        "ma"
      ],
      [
        "Ġ",
        "V"
      ],
      [
        "Ġo",
        "l"
      ],
      [
        "a",
        "ÅŁ"
      ],
      [
        "Ġ",
        "Ã¼"
      ],
      [
        "m",
        "e"
      ],
      [
        "Ġ",
        "p"
      ],
      [
        "Ġb",
        "ir"
      ],
      [
        "d",
        "Ä±n"
      ],
      [
        "Ġ",
        "Ã§"
      ],
      [
        "Ġ1",
        "9"
      ],
      [
        "c",
        "u"
      ],
      [
        "Ã¼r",
        "k"
      ],
      [
        "Ġma",
        "Ã§"
      ],
      [
        "ĠLi",
        "gi"
      ],
      [
        "n",
        "e"
      ],
      [
        "d",
        "Ä±"
      ],
      [
        "i",
        "s"
      ],
      [
        "Ġs",
        "a"
      ],
      [
        "Ġ",
        "m"
      ],
      [
        "k",
        "i"
      ],
      [
        "l",
        "Ä±"
      ],
      [
        "Ġs",
        "Ä±"
      ],
      [
        "Ġ",
        "de"
      ],
      [
        "Ġ",
        "("
      ],
      [
        "ĠV",
        "oleybol"
      ],
      [
        "t",
        "i"
      ],
      [
        "Ġ",
        "ÅŁ"
      ],
      [
        "Ġ",
        "M"
      ],
      [
        "Ã¶",
        "r"
      ],
      [
        "as",
        "Ä±"
      ],
      [
        "s",
        "e"
      ],
      [
        "Ġs",
        "on"
      ],
      [
        "Ġy",
        "a"
      ],
      [
        "Ġ",
        "F"
      ],
      [
        "m",
        "i"
      ],
      [
        "Ã¼rk",
        "iye"
      ],
      [
        "Ġ",
        "da"
      ],
      [
        "up",
        "a"
      ],
      [
        "Ġoy",
        "n"
      ],
      [
        "2",
        "0"
      ],
      [
        "c",
        "i"
      ],
      [
        "Ġ",
        "E"
      ],
      [
        "ar",
        "Ä±"
      ],
      [
        "Ġ",
        "li"
      ],
      [
        "s",
        "Ä±"
      ],
      [
        "d",
        "i"
      ],
      [
        "Ġy",
        "Ä±l"
      ],
      [
        "s",
        "t"
      ],
      [
        "ĠK",
        "a"
      ],
      [
        "l",
        "u"
      ],
      [
        "m",
        "Ä±"
      ],
      [
        "Ä",
        "°"
      ],
      [
        "Ġoy",
        "un"
      ],
      [
        "ĠsÄ±",
        "ra"
      ],
      [
        "l",
        "k"
      ],
      [
        "ta",
        "n"
      ],
      [
        "ĠT",
        "Ã¼rkiye"
      ],
      [
        "in",
        "al"
      ],
      [
        "e",
        "t"
      ],
      [
        "Ġb",
        "aÅŁ"
      ],
      [
        "Ġ",
        "3"
      ],
      [
        "de",
        "n"
      ],
      [
        "Ġ",
        "C"
      ],
      [
        "Ġ",
        "Ä°"
      ],
      [
        "k",
        "a"
      ],
      [
        "ĠÅŁ",
        "ampiyon"
      ],
      [
        "Å",
        "ŀ"
      ],
      [
        "s",
        "i"
      ],
      [
        "Ã¼",
        "k"
      ],
      [
        "le",
        "n"
      ],
      [
        "Ä±n",
        "Ä±"
      ],
      [
        "la",
        "y"
      ],
      [
        "ĠKa",
        "dÄ±n"
      ],
      [
        "lar",
        "Ä±"
      ],
      [
        "Ġsezon",
        "unda"
      ],
      [
        "Ġ",
        "Åŀ"
      ],
      [
        "Ġa",
        "l"
      ],
      [
        "la",
        "rak"
      ],
      [
        "Ġv",
        "oleybol"
      ],
      [
        "v",
        "r"
      ],
      [
        "in",
        "ci"
      ],
      [
        "Ġi",
        "lk"
      ],
      [
        "Ġ",
        "Ã¶"
      ],
      [
        "Ġ",
        "an"
      ],
      [
        "d",
        "u"
      ],
      [
        "t",
        "e"
      ],
      [
        "on",
        "u"
      ],
      [
        "ÄŁ",
        "i"
      ],
      [
        "c",
        "e"
      ],
      [
        "n",
        "da"
      ],
      [
        "s",
        "a"
      ],
      [
        "ĠsÄ±ra",
        "da"
      ],
      [
        "Ġ",
        "G"
      ],
      [
        "Ġf",
        "inal"
      ],
      [
        "ĠÅŀ",
        "ampiyon"
      ],
      [
        "z",
        "an"
      ],
      [
        "Ġo",
        "larak"
      ],
      [
        "Ġli",
        "g"
      ],
      [
        "Ġya",
        "p"
      ],
      [
        "'",
        "d"
      ],
      [
        "d",
        "Ä±r"
      ],
      [
        "up",
        "asÄ±"
      ],
      [
        "y",
        "Ä±"
      ],
      [
        "e",
        "l"
      ],
      [
        "ĠK",
        "upasÄ±"
      ],
      [
        "Ġoyun",
        "cu"
      ],
      [
        "vr",
        "upa"
      ],
      [
        "o",
        "p"
      ],
      [
        "i",
        "z"
      ],
      [
        "ĠÃ¼",
        "Ã§"
      ],
      [
        "Ġ",
        "n"
      ],
      [
        "ma",
        "m"
      ],
      [
        "Ġta",
        "mam"
      ],
      [
        "ĠKadÄ±n",
        "lar"
      ],
      [
        "Ġ",
        "D"
      ],
      [
        "in",
        "e"
      ],
      [
        "a",
        "t"
      ],
      [
        "Ġ",
        ","
      ],
      [
        "Ġi",
        "le"
      ],
      [
        "Ġka",
        "zan"
      ],
      [
        "Ġe",
        "t"
      ],
      [
        "Ä±",
        "k"
      ],
      [
        "ĠA",
        "vrupa"
      ],
      [
        "c",
        "a"
      ],
      [
        "ÄŁ",
        "Ä±"
      ],
      [
        "a",
        "h"
      ],
      [
        "c",
        "Ã¼"
      ],
      [
        "r",
        "i"
      ],
      [
        "Ġ",
        "P"
      ],
      [
        "Ġ20",
        "1"
      ],
      [
        "Ġsa",
        "h"
      ],
      [
        "e",
        "de"
      ],
      [
        "k",
        "inci"
      ],
      [
        "en",
        "er"
      ],
      [
        "ra",
        "s"
      ],
      [
        "Ã§",
        "e"
      ],
      [
        "Ġm",
        "Ã¼"
      ],
      [
        "Ġ",
        "u"
      ],
      [
        "la",
        "ÅŁ"
      ],
      [
        "Ġ20",
        "2"
      ],
      [
        "Ġi",
        "Ã§"
      ],
      [
        "Ġd",
        "Ã¼"
      ],
      [
        "ma",
        "k"
      ],
      [
        "Ġi",
        "ki"
      ],
      [
        "li",
        "k"
      ],
      [
        "Ã¼n",
        "cÃ¼"
      ],
      [
        "z",
        "a"
      ],
      [
        "Ġi",
        "se"
      ],
      [
        "ĠtakÄ±m",
        "Ä±"
      ],
      [
        "p",
        "or"
      ],
      [
        "ÅŁt",
        "ir"
      ],
      [
        "e",
        "y"
      ],
      [
        "m",
        "u"
      ],
      [
        "Ġol",
        "du"
      ],
      [
        "Ġ",
        "Ã"
      ],
      [
        "Ä±n",
        "a"
      ],
      [
        "Ġk",
        "ez"
      ],
      [
        "ul",
        "Ã¼"
      ],
      [
        "Ġt",
        "op"
      ],
      [
        "ĠyÄ±l",
        "Ä±nda"
      ],
      [
        "Ġb",
        "u"
      ],
      [
        "E",
        "V"
      ],
      [
        "ÅŁ",
        "Ä±"
      ],
      [
        "ĠÃ¼",
        "st"
      ],
      [
        "Ġoyn",
        "an"
      ],
      [
        "i",
        "t"
      ],
      [
        "n",
        "de"
      ],
      [
        "i",
        "b"
      ],
      [
        "lar",
        "Ä±nda"
      ],
      [
        "a",
        "kÄ±m"
      ],
      [
        "e",
        "ÅŁ"
      ],
      [
        "Ġ",
        "O"
      ],
      [
        "Ġp",
        "as"
      ],
      [
        "Ġg",
        "e"
      ],
      [
        "1",
        "9"
      ],
      [
        "i",
        "k"
      ],
      [
        "ÅŁt",
        "Ä±r"
      ],
      [
        "in",
        "i"
      ],
      [
        "un",
        "u"
      ],
      [
        "en",
        "i"
      ],
      [
        "Ġv",
        "er"
      ],
      [
        "Ġy",
        "Ã¼k"
      ],
      [
        "ĠtakÄ±m",
        "Ä±n"
      ],
      [
        "ĠÃ¶",
        "n"
      ],
      [
        "Ä±",
        "ÅŁ"
      ],
      [
        "Ġg",
        "er"
      ],
      [
        "c",
        "Ä±"
      ],
      [
        "c",
        "ak"
      ],
      [
        "y",
        "la"
      ],
      [
        "Ġk",
        "ar"
      ],
      [
        "mÄ±",
        "ÅŁ"
      ],
      [
        "ah",
        "Ã§e"
      ],
      [
        "t",
        "r"
      ],
      [
        "da",
        "n"
      ],
      [
        "ma",
        "sÄ±"
      ],
      [
        "ĠT",
        "akÄ±m"
      ],
      [
        "ri",
        "h"
      ],
      [
        "ĠC",
        "EV"
      ],
      [
        "b",
        "ahÃ§e"
      ],
      [
        "ener",
        "bahÃ§e"
      ],
      [
        "ma",
        "n"
      ],
      [
        "Ġb",
        "Ã¶"
      ],
      [
        "Ġta",
        "rih"
      ],
      [
        "e",
        "s"
      ],
      [
        "lu",
        "ÄŁ"
      ],
      [
        "d",
        "ir"
      ],
      [
        "de",
        "le"
      ],
      [
        "ler",
        "i"
      ],
      [
        "Ġsezon",
        "u"
      ],
      [
        "ca",
        "dele"
      ],
      [
        "k",
        "ek"
      ],
      [
        "l",
        "Ã¼"
      ],
      [
        "Ġ",
        "ne"
      ],
      [
        "y",
        "on"
      ],
      [
        "Ġ",
        "H"
      ],
      [
        "ĠÃ¼Ã§",
        "Ã¼ncÃ¼"
      ],
      [
        "Ġt",
        "ek"
      ],
      [
        "Ġ20",
        "0"
      ],
      [
        "r",
        "ek"
      ],
      [
        "Ä±",
        "lan"
      ],
      [
        "Ġh",
        "a"
      ],
      [
        "ĠmÃ¼",
        "cadele"
      ],
      [
        "Ġ",
        "Y"
      ],
      [
        "Ġkar",
        "ÅŁÄ±"
      ],
      [
        "f",
        "f"
      ],
      [
        "i",
        "p"
      ],
      [
        "la",
        "ma"
      ],
      [
        "ra",
        "r"
      ],
      [
        "dÄ±",
        "ÄŁÄ±"
      ],
      [
        "Ġoyn",
        "a"
      ],
      [
        "Ġh",
        "ak"
      ],
      [
        "mi",
        "ÅŁtir"
      ],
      [
        "Ġka",
        "t"
      ],
      [
        "ĠiÃ§",
        "in"
      ],
      [
        "20",
        "2"
      ],
      [
        "Ġi",
        "kinci"
      ],
      [
        "Ġal",
        "t"
      ],
      [
        "ede",
        "ras"
      ],
      [
        "e",
        "m"
      ],
      [
        "o",
        "k"
      ],
      [
        "Ä±nda",
        "n"
      ],
      [
        "mÄ±",
        "ÅŁtÄ±r"
      ],
      [
        "ĠÅŀampiyon",
        "asÄ±"
      ],
      [
        "Ġs",
        "er"
      ],
      [
        "Ġson",
        "ra"
      ],
      [
        "Ġtamam",
        "la"
      ],
      [
        "n",
        "Ä±"
      ],
      [
        "r",
        "o"
      ],
      [
        "Ġa",
        "lan"
      ],
      [
        "u",
        "b"
      ],
      [
        "Ġa",
        "y"
      ],
      [
        "Ġa",
        "r"
      ],
      [
        "ib",
        "i"
      ],
      [
        "Ġk",
        "onu"
      ],
      [
        "Ġo",
        "lan"
      ],
      [
        "Ġe",
        "l"
      ],
      [
        "or",
        "ma"
      ],
      [
        "ĠdÃ¼",
        "z"
      ],
      [
        "lar",
        "Ä±nÄ±"
      ],
      [
        "ĠF",
        "enerbahÃ§e"
      ],
      [
        "ul",
        "tan"
      ],
      [
        "il",
        "ir"
      ],
      [
        "i",
        "le"
      ],
      [
        "ĠB",
        "u"
      ],
      [
        "lu",
        "k"
      ],
      [
        "v",
        "a"
      ],
      [
        "y",
        "onu"
      ],
      [
        "Ã¼",
        "cu"
      ],
      [
        "ĠS",
        "por"
      ],
      [
        "Ġb",
        "it"
      ],
      [
        "Ġ",
        "en"
      ],
      [
        "Ġk",
        "ur"
      ],
      [
        "un",
        "a"
      ],
      [
        "Ġy",
        "er"
      ],
      [
        "ĠS",
        "ultan"
      ],
      [
        "b",
        "aÅŁ"
      ],
      [
        "k",
        "en"
      ],
      [
        "Ġ",
        "5"
      ],
      [
        "Ä±n",
        "Ä±n"
      ],
      [
        "Ġka",
        "dÄ±n"
      ],
      [
        "k",
        "an"
      ],
      [
        "t",
        "Ä±r"
      ],
      [
        "Ġg",
        "r"
      ],
      [
        "lay",
        "an"
      ],
      [
        "g",
        "e"
      ],
      [
        "Ġ",
        "4"
      ],
      [
        "Ġ",
        "er"
      ],
      [
        "Ġ",
        "rak"
      ],
      [
        "ĠK",
        "ulÃ¼"
      ],
      [
        "Ã¶r",
        "e"
      ],
      [
        "y",
        "an"
      ],
      [
        "tr",
        "en"
      ],
      [
        "ĠbÃ¶",
        "l"
      ],
      [
        "Ġkat",
        "Ä±l"
      ],
      [
        "ederas",
        "yonu"
      ],
      [
        "v",
        "is"
      ],
      [
        "Ġb",
        "ul"
      ],
      [
        "Ġy",
        "arÄ±"
      ],
      [
        "Ġson",
        "u"
      ],
      [
        "Ġh",
        "er"
      ],
      [
        "ÅŁt",
        "ur"
      ],
      [
        "ĠÃ§",
        "iz"
      ],
      [
        "v",
        "am"
      ],
      [
        "â",
        "Ģ"
      ],
      [
        "Ġ19",
        "9"
      ],
      [
        "Ġge",
        "Ã§"
      ],
      [
        "ĠyÃ¼k",
        "se"
      ],
      [
        "e",
        "le"
      ],
      [
        "la",
        "ra"
      ],
      [
        "in",
        "in"
      ],
      [
        "Ġa",
        "Ã§"
      ],
      [
        "Ġh",
        "Ã¼cu"
      ],
      [
        "Ġ19",
        "6"
      ],
      [
        "o",
        "ÄŁ"
      ],
      [
        "Ġs",
        "et"
      ],
      [
        "Ġg",
        "Ã¶"
      ],
      [
        "ĠÄ°",
        "s"
      ],
      [
        "ĠÃ¶n",
        "ce"
      ],
      [
        "Ġbit",
        "ir"
      ],
      [
        "ĠÅŁampiyon",
        "luÄŁ"
      ],
      [
        "Ġet",
        "ti"
      ],
      [
        "ĠhÃ¼cu",
        "m"
      ],
      [
        "p",
        "on"
      ],
      [
        "Ġy",
        "eni"
      ],
      [
        "ĠSultan",
        "lar"
      ],
      [
        "Ġ",
        "R"
      ],
      [
        "ra",
        "y"
      ],
      [
        "Ġka",
        "y"
      ],
      [
        "ĠLi",
        "g"
      ],
      [
        "ĠG",
        "a"
      ],
      [
        "Ġtarih",
        "inde"
      ],
      [
        "y",
        "un"
      ],
      [
        "Ġ",
        "\""
      ],
      [
        "da",
        "r"
      ],
      [
        "ma",
        "ya"
      ],
      [
        "b",
        "ul"
      ],
      [
        "l",
        "Ã"
      ],
      [
        "Ġyap",
        "Ä±lan"
      ],
      [
        "c",
        "ek"
      ],
      [
        "y",
        "e"
      ],
      [
        "la",
        "ta"
      ],
      [
        "Ġs",
        "e"
      ],
      [
        "an",
        "a"
      ],
      [
        "lar",
        "da"
      ],
      [
        "Ġg",
        "Ã¶re"
      ],
      [
        "ul",
        "u"
      ],
      [
        "ĠÃ§",
        "Ä±k"
      ],
      [
        "ĠdÃ¼z",
        "en"
      ],
      [
        "u",
        "ra"
      ],
      [
        "Ġ19",
        "7"
      ],
      [
        "ĠbaÅŁ",
        "arÄ±"
      ],
      [
        "c",
        "za"
      ],
      [
        "ĠA",
        "n"
      ],
      [
        "Ã¼n",
        "ya"
      ],
      [
        "Ġt",
        "ur"
      ],
      [
        "cÄ±",
        "baÅŁ"
      ],
      [
        "cza",
        "cÄ±baÅŁ"
      ],
      [
        "czacÄ±baÅŁ",
        "Ä±"
      ],
      [
        "ta",
        "b"
      ],
      [
        "ma",
        "lÄ±"
      ],
      [
        "Ġo",
        "r"
      ],
      [
        "tan",
        "bul"
      ],
      [
        "sa",
        "ray"
      ],
      [
        "ĠÅŀampiyon",
        "lar"
      ],
      [
        "Ġsah",
        "a"
      ],
      [
        "âĢ",
        "Ļ"
      ],
      [
        "lata",
        "saray"
      ],
      [
        "a",
        "z"
      ],
      [
        "s",
        "or"
      ],
      [
        "u",
        "m"
      ],
      [
        "Ġs",
        "pon"
      ],
      [
        "ĠA",
        "r"
      ],
      [
        "Ġspon",
        "sor"
      ],
      [
        "Ġ",
        "6"
      ],
      [
        "ta",
        "ÅŁ"
      ],
      [
        "ra",
        "f"
      ],
      [
        "iy",
        "or"
      ],
      [
        "ĠB",
        "eÅŁ"
      ],
      [
        "ĠmaÃ§",
        "larÄ±"
      ],
      [
        "ĠdÃ¼",
        "ÅŁ"
      ],
      [
        "ik",
        "taÅŁ"
      ],
      [
        "ĠÄ°s",
        "tanbul"
      ],
      [
        "b",
        "e"
      ],
      [
        "iy",
        "le"
      ],
      [
        "Ġka",
        "l"
      ],
      [
        "iye",
        "t"
      ],
      [
        "inde",
        "n"
      ],
      [
        "el",
        "ir"
      ],
      [
        "Ġhak",
        "k"
      ],
      [
        "Ġk",
        "i"
      ],
      [
        "Ġta",
        "raf"
      ],
      [
        "Ġli",
        "gi"
      ],
      [
        "Ġser",
        "vis"
      ],
      [
        "Ġbul",
        "un"
      ],
      [
        "t",
        "Ä±"
      ],
      [
        "ra",
        "sÄ±"
      ],
      [
        "Ġol",
        "mu"
      ],
      [
        "ĠM",
        "il"
      ],
      [
        "ĠF",
        "ederasyonu"
      ],
      [
        "ey",
        "rek"
      ],
      [
        "Ġkonu",
        "s"
      ],
      [
        "f",
        "e"
      ],
      [
        "u",
        "t"
      ],
      [
        "Ġ",
        "N"
      ],
      [
        "ma",
        "s"
      ],
      [
        "un",
        "un"
      ],
      [
        "Ġp",
        "lay"
      ],
      [
        "lÄ±",
        "k"
      ],
      [
        "len",
        "en"
      ],
      [
        "Ġan",
        "la"
      ],
      [
        "ĠÃ",
        "ľ"
      ],
      [
        "ĠyÃ¼kse",
        "l"
      ],
      [
        "lÃ",
        "®"
      ],
      [
        "b",
        "ilir"
      ],
      [
        "v",
        "er"
      ],
      [
        "Ġs",
        "Ã¼r"
      ],
      [
        "in",
        "a"
      ],
      [
        "Ġk",
        "ulÃ¼"
      ],
      [
        "ĠK",
        "upa"
      ],
      [
        "ĠÃ§",
        "al"
      ],
      [
        "Ġsa",
        "yÄ±"
      ],
      [
        "ĠE",
        "r"
      ],
      [
        "ĠÄ°",
        "kinci"
      ],
      [
        "ĠD",
        "Ã¼nya"
      ],
      [
        "n",
        "a"
      ],
      [
        "s",
        "ek"
      ],
      [
        "t",
        "en"
      ],
      [
        "Ġ",
        "c"
      ],
      [
        "an",
        "k"
      ],
      [
        "ar",
        "k"
      ],
      [
        "Ġka",
        "dar"
      ],
      [
        "ĠE",
        "czacÄ±baÅŁÄ±"
      ],
      [
        "ĠÃ",
        "ĩ"
      ],
      [
        "Ġpas",
        "Ã¶r"
      ],
      [
        "Ġtek",
        "rar"
      ],
      [
        "ĠKulÃ¼",
        "b"
      ],
      [
        "r",
        "e"
      ],
      [
        "s",
        "Ä±n"
      ],
      [
        "Ġde",
        "vam"
      ],
      [
        "Ġfinal",
        "de"
      ],
      [
        "ĠO",
        "yun"
      ],
      [
        ".",
        ","
      ],
      [
        "n",
        "u"
      ],
      [
        "Ġ",
        "ek"
      ],
      [
        "Ġi",
        "ti"
      ],
      [
        "as",
        "Ä±l"
      ],
      [
        "is",
        "i"
      ],
      [
        "ĠF",
        "inal"
      ],
      [
        "Ġn",
        "asÄ±l"
      ],
      [
        "Ġkazan",
        "an"
      ],
      [
        "kek",
        "ler"
      ],
      [
        "ĠGa",
        "latasaray"
      ],
      [
        "ĠBeÅŁ",
        "iktaÅŁ"
      ],
      [
        "i",
        "m"
      ],
      [
        "ma",
        "Ã§"
      ],
      [
        "Ġb",
        "elir"
      ],
      [
        "li",
        "m"
      ],
      [
        "ĠtakÄ±m",
        "lar"
      ],
      [
        "Ġel",
        "de"
      ],
      [
        "Ġor",
        "ta"
      ],
      [
        "h",
        "a"
      ],
      [
        "y",
        "or"
      ],
      [
        "Ä±",
        "z"
      ],
      [
        "Ġg",
        "Ã¼n"
      ],
      [
        "ya",
        "rak"
      ],
      [
        "Ġoynan",
        "an"
      ],
      [
        "b",
        "ar"
      ],
      [
        "u",
        "ÅŁ"
      ],
      [
        "Ġ",
        "z"
      ],
      [
        "Ġe",
        "v"
      ],
      [
        "Ġe",
        "de"
      ],
      [
        "Ġ19",
        "8"
      ],
      [
        "mu",
        "z"
      ],
      [
        "Ġger",
        "ek"
      ],
      [
        "ĠÃ§iz",
        "gi"
      ],
      [
        "Ġolmu",
        "ÅŁtur"
      ],
      [
        "m",
        "ek"
      ],
      [
        "Ã¼",
        "m"
      ],
      [
        "ra",
        "n"
      ],
      [
        "ÄŁ",
        "u"
      ],
      [
        "li",
        "ÄŁ"
      ],
      [
        "ĠS",
        "arÄ±"
      ],
      [
        "ĠÃ§",
        "eyrek"
      ],
      [
        "ĠTakÄ±m",
        "Ä±"
      ],
      [
        "ĠaÃ§",
        "Ä±k"
      ],
      [
        "n",
        "Ä±n"
      ],
      [
        "Ġ",
        "r"
      ],
      [
        "Ä±",
        "f"
      ],
      [
        "Ġk",
        "upa"
      ],
      [
        "Ġy",
        "ak"
      ],
      [
        "Ã¶",
        "ne"
      ],
      [
        "ar",
        "mak"
      ],
      [
        "ĠA",
        "y"
      ],
      [
        "Ġf",
        "ile"
      ],
      [
        "Ġm",
        "il"
      ],
      [
        "ĠÅŁampiyon",
        "u"
      ],
      [
        "Ġu",
        "z"
      ],
      [
        "Ġoynan",
        "Ä±r"
      ],
      [
        "a",
        "li"
      ],
      [
        "c",
        "unda"
      ],
      [
        "s",
        "u"
      ],
      [
        "Ġk",
        "ol"
      ],
      [
        "er",
        "i"
      ],
      [
        "Ã¶",
        "n"
      ],
      [
        "Ġf",
        "ina"
      ],
      [
        "Ġlig",
        "de"
      ],
      [
        "Ġsonu",
        "cunda"
      ],
      [
        ")",
        ","
      ],
      [
        "n",
        "in"
      ],
      [
        "Ġ",
        "8"
      ],
      [
        "Ġb",
        "il"
      ],
      [
        "Ġson",
        "unda"
      ],
      [
        "tren",
        "Ã¶r"
      ],
      [
        "ĠÃ§al",
        "Ä±ÅŁ"
      ],
      [
        "Ġmil",
        "lÃ®"
      ],
      [
        "a",
        "ÄŁ"
      ],
      [
        "b",
        "et"
      ],
      [
        "Ã¼",
        "y"
      ],
      [
        "Ã¼",
        "z"
      ],
      [
        "Ġg",
        "ibi"
      ],
      [
        "Ġan",
        "laÅŁ"
      ],
      [
        "Ġbitir",
[...]
