#version: 0.2
Ä ±
Ã ¼
Å Ł
a r
e r
a n
i n
Ġ b
i l
i r
e n
Ä± n
Ä Ł
e t
Ã §
Ġ d
m a
Ġ k
e k
Ġ g
Ã ¶
Ġ v
l ar
u n
a k
e l
l a
Ġ s
Ġ y
a l
Ġ o
Ġv e
Ġ t
d i
d e
l er
d a
Ġ i
Ġb ir
l i
u r
Ġ h
m e
d Ä±
Ġ B
Ã¼ n
i m
a ÅŁ
i z
y a
o r
l e
o n
u l
d u
t Ä±
Ġ a
i y
l Ä±
Ä °
s t
e y
Ġo l
r a
s Ä±
Ä± ÅŁ
d an
e s
e m
Ġ m
i ÅŁ
Ġ K
Ġg Ã¶
e c
d en
a t
â Ģ
Ã ¢
ÄŁ Ä±
Ġd e
a y
Ġ M
Ä±n Ä±
u m
Ã¼ k
Ġ Ã§
in e
Ġ ÅŁ
Ã¼ ÅŁ
ma k
Ã¼ r
in i
a z
Ġb u
o l
Ġ e
Ġ A
a b
i k
a m
a p
Ã¼ z
il er
Ġd a
c e
d ir
t an
Ä± l
l et
lar Ä±
c a
t a
Ġ Ä°
Ä± k
ĠgÃ¶ r
lar Ä±n
in de
Ġ H
el er
Ġ il
b ir
ar a
Ġ n
y or
Ä± r
m ek
Ġ P
o k
Ġi Ã§
u z
s i
t i
Ä± z
Ã¶ n
t e
e v
m Ä±ÅŁ
s Ä±n
l an
c ak
aÅŁ a
Ã¶ z
du ÄŁ
s a
Ã ®
ler i
Ġ al
m iÅŁ
i t
Ġk ar
Ġ et
Ġ T
Ġs on
in in
m u
Ġb il
' d
er ek
Ġ S
âĢ Ļ
u y
ÄŁ i
a d
Ä± m
ul un
Ġb aÅŁ
Ġv er
m et
Ġ E
a h
li k
dÄ± r
il let
b il
ĠP aÅŁa
ĠB ey
ĠiÃ§ in
en di
y e
u s
b i
Ġ z
Ã¼ m
iy e
ÅŁ Ä±
Ġ an
un u
e Ã§
tÄ± r
t ir
lÄ± k
Ã¶ y
k a
e ÅŁ
Ġb ulun
Ġy ap
Ã¼ t
la y
ĠB u
iy or
k i
1 9
Ġe d
Ġ :
Ġ D
Ã¼ l
ur um
lar ak
Ä±n a
o ÄŁ
en d
Ġd Ã¼ÅŁ
h a
Ġi st
Ġ me
Ġ p
Ġk on
im iz
Ã¼z er
Ã »
ma sÄ±
c i
Ġil e
Ä±n da
Ã¼ y
ek il
o p
ma ya
Ã¶ r
Ġg el
Ã¶y le
Ġol duÄŁ
iy et
. .
ec e
ec ek
i Ã§
ak i
a s
la ÅŁ
st an
o mu
m an
Ġg i
ec li
Ġol an
Ġ C
el g
u k
b ul
Ġ Y
Ġson ra
- -
Ġ Ã¶n
Å ŀ
end iler
Ġ f
e d
Ġ G
Ġ N
Ġm illet
Ã¼k Ã»
Ġ Ã¼zer
in den
a ÄŁ
il me
r u
a v
ÄŁÄ± m
Ġa y
Ã¼t Ã¼n
es i
Ã¼kÃ» met
omu tan
Ġ ar
u t
Ã§ Ä±k
ad ar
y la
ek et
stan bul
Ġi ÅŁ
Ġo larak
Ġy er
ra f
u ÅŁ
ĠM ecli
Ġ O
Ġkar ÅŁÄ±
sÄ± z
i h
Ġ F
Ġ R
ÄŁ Ä±nÄ±
k an
un un
en i
yor du
Ġg Ã¼n
ek i
ĠgÃ¶r Ã¼ÅŁ
v e
Ġ in
t en
Ġg erek
e b
Ġ r
n in
f a
elg raf
Ġk adar
Ġde ÄŁ
ĠA n
Ä±n dan
di ÄŁ
ar Ä±
il Ã¢
i s
Ġgi bi
g il
l Ã®
y Ä±
Ġ uy
in iz
Ã¼y Ã¼k
Ġk ur
Ġo r
Ġg er
f endiler
a sÄ±
y an
c Ä±
Ġd urum
d er
n Ä±n
u v
lar Ä±nÄ±
un da
Ġda ha
ar ak
ĠÄ° stanbul
Ġg Ã¼
sÄ±n da
Ġt ar
g i
Ġb iz
am an
v et
Ġh er
Ġk ab
Ġs Ã¶z
Ġo n
il lÃ®
i f
ĠÃ§ Ä±k
ĠdÃ¼ÅŁ Ã¼n
Ġt op
Ġt elgraf
Ġ el
Ġ ce
Ġb Ã¼tÃ¼n
Ġh al
d aki
Ġn e
e p
s Ä±nÄ±
Ġbil dir
y i
ma dÄ±
Ġv ar
Ġk al
un a
s e
ara f
Ġg eÃ§
di k
ler in
st er
e z
âĢ ľ
ĠMecli s
âĢ Ŀ
Ġ "
lar a
s il
Ġb en
b u
lÄ± ÄŁÄ±
n e
az Ä±
Ã§ ek
Ġd oÄŁ
iy le
Ã¶ l
di ÄŁi
Ġk endi
al Ä±ÅŁ
Ġk i
Ġ 19
la dÄ±
l u
âĢ Ķ
Ġed il
b aÅŁ
a tÄ±
v er
sÄ±n a
ek li
Ġde v
Ġ Ã
Ġo la
Ġa Ã§Ä±k
ma l
E fendiler
o lay
Ġs Ã¼r
r et
ma z
Ġtar ih
t ur
Ġkar ar
l Ã¼
Ã¼r k
mu ÅŁ
Ġt araf
Ġy ar
le ÅŁ
Ġ V
Ġ en
ece ÄŁ
Ã¼ s
m er
l en
B u
el i
di m
Ġh ar
Ġ 2
em sil
s ini
Ġy ol
ĠB aÅŁ
Ġan la
e f
en in
o y
Ġy an
ler ini
k ar
Ġ u
s an
g Ã¶r
Ġz aman
k en
iyor du
ap tan
tÄ± k
ĠolduÄŁ u
g Ã¼n
me ye
ay Ä±
me si
-- --
dÄ± m
Ġbir lik
Ġh ak
ĠÃ§ ok
r an
Ġkab ul
Ã¼ Ã§
et ir
k ara
ĠgÃ¶ ster
el e
Ġt eÅŁ
ey e
Ġ -
Ġh Ã¼kÃ»met
Ä±n Ä±n
ĠÃ§ alÄ±ÅŁ
r Ä±
r e
t u
ĠgÃ¶r ev
d ur
c an
Ġuy g
p h
Ã ľ
or du
Ġ Ã¶z
Ġ em
im s
m eler
un dan
Ġ mak
ĠdeÄŁ il
d Ã¼
i p
s ine
Ġ 1
n a
Ä±l an
Ġme m
uv vet
ar t
d eki
' t
ĠK omutan
n Ä±
Ġh iÃ§
er i
e mal
e h
me y
Ġbulun an
s iz
la cak
iler i
ul u
Ġce v
m i
Ã¢ z
an a
g el
m Ä±z
A R
Ġ ara
Ġhar eket
ma sÄ±nÄ±
Ä±l dÄ±
s k
lÄ± ÄŁ
Ġy ok
ak Ä±m
ĠT Ã¼rk
ĠdoÄŁ ru
al Ä±
A N
Ġm illÃ®
gil i
ler inin
l eket
s un
t ik
Ġa d
Ġb el
Ġy az
la ma
s ek
ar et
ĠgÃ¶ n
ĠÅŁ u
ol u
a f
us u
h al
Ã§ a
Ġ l
larÄ±n a
mek te
Ġ uz
at an
Ġtop lan
m Ä±
v en
en iz
di ye
g Ä±
s on
Ġb Ã¼yÃ¼k
mÄ±ÅŁ tÄ±
bil ir
ak an
ca ÄŁÄ±
Ġk uvvet
ĠÅŁ ekil
in ci
en el
da ÅŁ
ilme si
ĠgÃ¶n der
ĠM illet
ÄŁ er
ev let
ĠBaÅŁ kan
i v
y Ã¼z
Ġ19 2
ab er
ĠÃ¼zer e
ok ta
t in
lar dan
ĠÃ¶n ce
d ar
Ġg etir
Ġi ki
al i
L E
k im
Ġ '
Ġet ti
ler e
Ġ Ã¶
Ġk a
mak ta
ĠK on
ĠolduÄŁ unu
du k
Ġs ay
ur a
ĠH az
Ġs or
larÄ±n Ä±n
k Ã¼
t im
Ġ Åŀ
Ġd er
li ÄŁ
Ã¼n Ã¼
Ġist e
il en
Ä±r ak
Ġm Ã¼
Ġs aÄŁ
ya p
n Ä±z
Ġy et
Ġi m
Ġb aÄŁ
Ġs Ã¶yle
ler ine
. âĢĿ
ekli f
t Ã¼
ÄŁÄ±m Ä±z
Ġ ma
dÄ± ÄŁÄ±
duÄŁ u
k Ä±
k ilÃ¢
Ġ es
em en
v ar
u f
ak at
Ġil gili
lar la
es in
ĠÅŁ ey
Ã¶l g
ĠH Ã¼kÃ»met
ĠE r
Ġbirlik te
ĠÃ¶z el
ab il
lik le
a ma
Ġy eni
al nÄ±z
ĠbaÅŁ ka
Ġ (
o ÅŁ
Ġb azÄ±
Ġy Ã¼z
st a
ĠK aptan
a cak
Ġk Ä±
ĠiÃ§ inde
mer ik
ĠAn kara
Ġs Ä±
dÄ± k
ĠÃ¶n em
ak Ä±n
im i
sÄ± yla
v ekil
ol ordu
Ã§ e
Ġe de
i c
az Ä±r
Ä±l mÄ±ÅŁ
Ġed er
d Ã¼ÅŁ
Ä° N
a uf
Ġd uy
e de
u Ã§
Ġa Ã§
ĠH ey
i st
ĠB ir
c Ã¼
eler i
Ġs eÃ§
ĠgÃ¼ ven
Ġal Ä±n
ĠÅŁekil de
l Ã¢
y ar
es inde
Ġger Ã§ek
ĠM Ã¼
Ġkon u
il miÅŁ
er k
il li
ma sÄ±na
Ġt eklif
olay Ä±
Ġg ir
ĠgÃ¶r e
Ġcev ap
Ġh ey
ĠD evlet
ur iyet
ĠgÃ¶ z
Ġor du
Ġs al
Ġh aber
Ã¼k sek
Ġmem leket
k at
g eÃ§
o m
ler de
Ġp ek
Ã¼n ya
Ġn okta
ka daÅŁ
ret leri
m en
Ġk ims
um h
d Ã¼r
k ur
Ġ ra
ĠÃ ĩ
Ġtaraf Ä±ndan
.. .
iv as
t ar
Ä± p
Ġg em
Ġmillet in
Ġal t
Ġor ta
i ya
Ġk or
lar dÄ±
ilÃ¢ f
Ġt ut
ĠÃ¼zer ine
al Ä±k
ĠK emal
b ulun
ur et
Ä± yor
Ä±m Ä±z
Ġ .
ĠÄ° n
kar ÅŁÄ±
Ġv atan
Ã¼ st
lar da
Ġan laÅŁ
Ġd ur
Ġk an
Ġs av
e ÄŁ
f endi
s el
Ġb Ä±rak
ma y
un an
Ġbil e
Ġuyg un
ek le
sk er
da m
Ġh a
larÄ±n da
y on
ĠKomutan Ä±
Ġb Ã¶lg
k on
n un
Ġk omutan
Ġar z
t op
Ġ c
ÄŁÄ± r
ĠT emsil
la t
ĠdÃ¼ÅŁÃ¼n c
Ġb a
ĠhiÃ§ bir
y er
me z
ĠHaz retleri
ĠÅŁ ah
ar b
Ġs iz
ĠM u
k al
ar bi
Ġil k
Ġdev let
can e
arbi cane
m Ã¼ÅŁ
ĠA r
ĠÄ° z
il e
Ã§ ok
Ã ĩ
ĠMecli si
ĠgÃ¼ Ã§
Ġdev am
Ġbel ir
A y
a di
il di
A n
Ġy Ã¶n
li ÄŁi
b et
Ã¢ n
ĠdÃ¼ÅŁ man
umh uriyet
Ġb ul
Ġbil g
ÄŁ r
ma yÄ±
ĠÃ§ ek
Ġt ek
Ġben im
g Ã¶
ra da
ĠB akan
Ġa sker
ay an
eler in
Ġgel en
gil iz
---- ----
dÃ¼ ÄŁ
Ġ ak
la mak
Ä±r Ä±
Ġet mek
ĠS ivas
Ġol ur
ĠÃ¼zer inde
kilÃ¢ t
Ġs a
Ġm an
ca ÄŁÄ±nÄ±
c u
i ca
s Ã®
ĠM illÃ®
ece ÄŁi
ed bir
sta fa
la ya
Ġh azÄ±r
im di
ĠK olordu
ĠÃ¶nem li
larÄ± mÄ±z
ĠÄ° t
miÅŁ ti
L Ä°
s at
il i
Ġd Ä±ÅŁ
et i
Ġd Ã¶n
Ġt edbir
ĠÄ° s
ÅŁ ah
Ġd ik
Ġm u
um uz
asÄ± l
uv a
in ce
Ġi yi
ĠB Ã¼yÃ¼k
Ġkon uÅŁ
iÃ§ in
Ġt ak
ad olu
ĠTemsil iye
z urum
Ġ ileri
Ġg it
Ġo lay
sÄ±n dan
h an
o z
ler le
ĠÃ§ ekil
I N
d Ä±n
k Ä±n
m ir
r ak
y et
er Ã§ek
b ay
r o
Ġs an
Ã¼m en
Ġar kadaÅŁ
s inin
Ġb Ã¶yle
Ġd olayÄ±
el ik
al an
Ã¼n de
mÄ±ÅŁ tÄ±r
ĠR auf
t Ã¼r
ey i
Ġk esin
h ar
Ġh emen
tÄ± ÄŁÄ±
Ġet me
o la
Ã ĸ
Ġb un
Ġr ica
ĠÃ§Ä±k ar
d d
Ã¼n e
g r
Ä±l masÄ±
Ġay nÄ±
ĠF akat
miÅŁ tir
Ġkur ul
a st
ĠK ur
Ã¶r t
g erek
Ġe di
ka Ã§
tÄ± l
.. ..
diÄŁ im
Ġbiz im
ĠTÃ¼rk iye
b Ã¼s
ek ir
ul lan
Ġol mak
Ġyer ine
B arbicane
Ã¼ ph
ĠgÃ¶r Ã¼l
c ek
de ÄŁ
Ġol ma
duÄŁ unu
Ġtarih li
Ã¢z Ä±m
larÄ±n dan
yor um
Ġdik kat
Ã¼n kÃ¼
ĠA merik
b a
Ġ Z
ler inden
Ã¼n cÃ¼
Ġm i
eÅŁ it
u p
z a
Ġs u
Ã¼r lÃ¼
Ġce ph
g Ã¶z
y ol
Ġt emsil
ilme sini
2 0
k Ã¼n
an cÄ±
Ġd en
ler den
ler imiz
Ġi h
Ġyar ar
ef et
M A
h at
Ġd ayan
Ġs eb
ĠÅŁ art
ti ÄŁ
adi ÅŁah
B ir
Ġh Ã¼k
em iyet
Ġmillet vekil
Ġ19 19
Ġy Ã¼ksek
me m
ru p
ĠÄ°n giliz
b in
Ġ L
es ini
te ÅŁ
E T
de v
Ġi s
Ġad Ä±na
us unda
ĠgÃ¼n Ã¼
leÅŁ tir
erk ez
Ġk ap
e bil
ĠY unan
diÄŁ ini
l Ã¼k
ma dan
Ġt a
iy i
ic h
k es
r i
Ġk Ã¶
el Ã¢
Ġo k
ĠAn cak
E R
Ġk ay
tÄ± ÅŁ
Ġol du
ĠdeÄŁil dir
ĠEr zurum
s man
Ġt es
em ek
ĠK uva
ev r
Ġdurum u
Ġtak dir
Ġd i
Ġs iya
aÅŁ Ä±
sÄ±n Ä±n
eb bÃ¼s
h em
Ä± s
Ġh Ã¢
ul an
Ġol madÄ±
ĠbaÅŁ ladÄ±
Ġz ar
ĠBaÅŁkan Ä±
A r
ma s
ik i
Ġorta ya
l Ã¼l
ek l
Ġg ay
Ġt er
mekte dir
ĠM illi
ĠAn adolu
. "
Ġb ura
iÅŁ i
Ġara sÄ±nda
A Åŀ
B aÅŁ
f er
Ä ŀ
Ġd eniz
Ä° stanbul
ey h
Ġem ir
son ra
laÅŁ tÄ±r
atÄ± l
u ma
Ġb akÄ±m
Ġs ah
Ġve ya
Ġt am
Ġa z
ĠÅŁ if
ĠdeÄŁ iÅŁ
Ġ Ã¢
Ä± lÄ±
ĠB en
Ġa ma
Ġa dam
cak tÄ±r
Ã¼m kÃ¼n
ĠC umhuriyet
Ġin an
g al
Ġb ana
Ġi dar
Ġh ay
Ä±l ma
d oÄŁ
Ġg en
Ġson uÃ§
Ġbiz e
Ġka Ã§
ĠbaÄŁ lÄ±
ĠDevlet leri
Ġalt Ä±nda
le y
Ä±nÄ± z
E N
f ik
v ran
Ġy Ã¼r
ĠB unun
az an
Ġkon usu
LE R
bet te
b Ã¼tÃ¼n
s uz
Ġd iye
Ġy ay
Ġt Ã¼rlÃ¼
da ha
me yi
Ä° L
ol an
Ġme c
eceÄŁ ini
Ġmak am
d iler
in deki
ÄŁ u
lÄ± ÄŁÄ±nÄ±
es ine
Ġe den
ĠA y
Ġin san
ĠdeÄŁ er
ĠÃ ĸ
r ar
Ġy azÄ±
ĠA li
ti ÄŁi
l ak
v an
Ġg enel
ĠE fendiler
ecek tir
Ġgerek ir
arb iye
ya z
Ġp ar
g u
Ġg iz
Ġt an
Ġn asÄ±l
ep h
Ġyok tur
s u
u yor
Ġ Ã¼y
Ġt eh
ĠH al
Ġyar dÄ±m
M u
Ġ 3
Ġk endiler
me den
Ġol duk
ĠN Ã¢z
Ġay rÄ±
ĠF ran
k omutan
s al
t akÄ±m
u yordu
Ġ Ã¼Ã§
Ġy ak
iler in
ĠsÃ¼r e
y lÃ¼l
Ġy alnÄ±z
diÄŁ imiz
Ġger i
Ġ192 0
sman lÄ±
Ġb in
ĠÅŁ Ã¼ph
ik a
ĠO r
Ġih ti
Ã¼n den
ab ancÄ±
gi bi
Ã¼ yor
la maya
Ġal an
Ġbelir t
n i
y ur
Ġi k
ĠteÅŁ ebbÃ¼s
ĠsÄ± ra
K aptan
o t
s in
ar Ä±ÅŁ
ma larÄ±
el im
Ġy a
k Ä±nda
m uz
Ä± yordu
den iz
Ġz at
ĠHÃ¼kÃ»met i
v ur
Ġ ,
ÄŁ a
ĠteÅŁ kilÃ¢t
Ġseb ep
? âĢĿ
L AR
k endi
ar r
ĠK ar
Ġd Ã¼z
Ġk ullan
Ġbu gÃ¼n
ĠG enel
h er
s Ã¶z
il ik
Ġt ab
ĠbaÅŁ kan
oÄŁ u
ĠN ed
ĠkarÅŁÄ± sÄ±nda
Ġhal de
baÅŁ Ä±
Ġkan un
ast on
Ġb eni
ler inde
ay gÄ±
ĠE kim
Ġme sel
ĠC emiyet
ÄŁÄ±m sÄ±z
Ġvar dÄ±
Ġetti ÄŁ
Ġkims eler
fendi m
f et
ler iyle
Ġbir i
Ġm Ã¼mkÃ¼n
uÅŁ tur
Ġuz un
l uk
z aman
er im
me sini
mak tan
ca ÄŁÄ±m
sun uz
Ġeder im
om is
karÅŁÄ± lÄ±k
ĠÄ°t ilÃ¢f
k Ä±r
o st
Ġd Ã¼nya
larÄ± yla
Ġan cak
a de
Ġb eÅŁ
Ġi di
Ġm Ä±
ĠÃ§ ar
ĠE ylÃ¼l
man Ä±n
ĠC eph
s ar
s or
t er
um lu
ca d
ev fik
Ġbil gi
ĠiÅŁ gal
makta dÄ±r
a Ã§
e st
m in
Ġb ekle
ca ÄŁ
aÅŁa ÄŁÄ±
Ġyap Ä±
imiz in
Ġay r
ĠMilli ye
Ġin c
Ġgerek li
ĠÄ°s met
o s
Ä° R
ĠS am
eh ir
erÃ§ek ten
arr uz
M ecli
Ġ er
Ġv asÄ±
Ġm er
ĠÅŁ ekl
Ġet miÅŁ
meler i
ĠÃ¶zel likle
BaÅŁ kan
Ġ Ã¶l
Ã¼ p
Ã¶ k
Ġs ev
Ġda vran
ce ÄŁ
dik leri
n dan
t eki
dÄ± ÄŁÄ±m
iniz e
Ġon un
lÄ±ÄŁ a
dÃ¼ÅŁ Ã¼n
Ġsa at
Ġteh lik
g Ã¼
s Ã¼r
v a
z et
Ġ ci
er it
Ġs ayÄ±
Ġy abancÄ±
ĠÃ§ Ã¶z
ĠbaÅŁ arÄ±
imiz i
d de
s et
t hem
un uz
Ã¢ r
gÃ¶r Ã¼ÅŁ
z am
Ġb unu
le me
Ġger eÄŁ
ĠdÃ¼ÅŁÃ¼n ce
len dir
Ġkonu da
fer an
e di
Ġs er
dÄ± ÄŁÄ±nÄ±
em iz
Ġbu yur
Ġhal k
Ġtarih inde
Ã¼Ã§ Ã¼k
Ġuz ak
P aÅŁa
d urum
ĠK Ã¢zÄ±m
Ġr es
Mu stafa
s ev
Ġb unun
Ġk end
Ġs un
ab a
Ġbil in
if e
dik ten
ĠKur ulu
Ġi z
Ã¼m Ã¼z
uk uk
ĠR efet
Ġvar dÄ±r
Ġgiz li
ĠNÃ¢z Ä±rÄ±
ĠOr du
b el
Ġs Ã¶y
bil dir
Ġyap Ä±lan
ĠO smanlÄ±
ĠgeÃ§ ir
ĠaÃ§Ä±k lama
A merik
d di
g re
le m
iy di
Ġm ek
dÄ±r Ä±
omis yon
S Ä°
b Ã¼yÃ¼k
e me
Ã¼ f
Ġal eyh
ĠV E
ĠkÄ± sa
g an
ÅŁ ey
Ġs Ä±nÄ±
de ÄŁer
Ġbir takÄ±m
Ġh at
Ġz or
y dÄ±
Ġd in
Ġk im
ĠB iz
Ġol un
az la
ad ra
Ġyap tÄ±
ĠBaÅŁkan lÄ±ÄŁÄ±
Ġsav aÅŁ
m illet
Ġb as
il ecek
Ġk oy
la bil
Ġt av
Ġa s
ĠP adiÅŁah
ĠKon gr
uret tin
ĠdolayÄ± sÄ±yla
Ġtakdir de
B ey
Ġ can
Ä± t
em el
Ġm erkez
lu b
Ġsu bay
Ġta arruz
C lub
M E
b ur
Ġb undan
Ġi b
ĠC emal
Ġgerek en
asÄ± m
ver di
ĠhÃ¼kÃ»met in
Ġcev ab
Ġes ki
Ġyeni den
ĠCemiyet i
Ġt e
Ġson u
ĠbaÅŁ Ä±nda
ĠgÃ¶rÃ¼ÅŁ meler
fa de
Ġen gel
ĠhÃ¢ kim
M aston
Ã§ alÄ±ÅŁ
de ÅŁ
Ġh us
Ġh ep
em i
ĠD ah
ich el
g etir
Ġ U
il ir
Ġk azan
es inin
ĠK an
Ġil Ã¢n
ĠS al
uy u
Ġtoplan tÄ±
t ak
u at
Ġ Ã¼st
ir mi
Ã§ i
Ġt ama
az et
tan at
Ġed erek
Ġkon usunda
Ġhak kÄ±nda
lÄ±ÄŁ Ä±n
-------- --------
adra zam
o larak
Ġb una
Ġk olay
Ġk atÄ±l
sÄ± l
Ġin ci
Ġasker Ã®
Ġet tik
ĠdÃ¼ÅŁÃ¼nc eler
Ġba ÄŁÄ±msÄ±z
gÃ¶ ster
0 0
B en
d ak
d Ã¼k
h iÃ§
y sa
Ġo ra
Ġde di
ĠÅŁ imdi
Ä±z a
ĠT Ã¼men
Ġel bette
ilÃ¢f et
Ġbilg iler
han gi
ĠvasÄ± ta
g en
t iler
Ġd ir
Ġy akÄ±n
lÄ± ÅŁ
Ġda vet
ĠE fendi
ĠF erit
Ġbiz i
Ġu ÄŁ
abil ir
Ġsiya sÃ®
s iye
un ma
Ġo y
Ġt eb
me sine
du m
19 19
ĠD oÄŁu
Ġme ÅŁ
ele g
Ġsay gÄ±
ĠÃĩ Ã¼nkÃ¼
b en
g ir
Ġk es
un daki
Ġy ine
Ġy Ä±l
Ã¢ tÄ±
larÄ± m
elg e
ĠkarÅŁÄ± lÄ±k
O R
p ar
ÅŁ te
ma yan
da fa
ĠT evfik
iyor um
maya cak
Ġgem i
ĠFran sÄ±z
D A
U R
b ar
b iz
p at
ma lÄ±
Ġk o
Ġk am
Ġg ec
Ġo rada
Ġi fade
ĠK ab
Ġp ro
Ġel de
ef endi
ĠÄ°z mir
Ġib aret
) .
a al
k adar
m Ã®
t ul
tÄ± m
em iÅŁ
ĠK asÄ±m
Ġn it
Ġet tir
ĠE them
lay an
lay arak
19 20
ĠF uat
ilÃ¢ h
Ġkendi sine
ĠKomutan lÄ±ÄŁÄ±
ĠMu stafa
eÅŁit li
Ar dan
dafa a
L A
T Ã¼rk
d Ã¶n
g Ã¶n
k in
s iniz
et le
al Ä±m
Ġa c
uy du
ĠbaÅŁ Ä±na
ĠR um
Ġma dde
An kara
Mecli s
Ġ aÅŁaÄŁÄ±
ar k
Ġb eri
al t
Ġi se
Ġbir Ã§ok
Ä° Y
ĠA v
sÄ±nÄ± z
madÄ± ÄŁÄ±
Ġkal dÄ±r
Ġanla ÅŁÄ±
Ġuyg u
Ġmek tu
ĠsÄ±nÄ± r
a Ã§Ä±k
d unun
g un
p ek
t ek
an la
ÄŁ Ã¼
ma t
Ġt ay
Ã¼n Ã¼n
ĠA l
sa v
Ġson unda
us an
Ġtelgraf Ä±
eceÄŁ im
Ġyan i
Ġmak sat
deÄŁ il
ĠÅŁif r
Ġtab i
ĠKongr esi
B iz
E r
s iyet
Ã¼ ce
Ġb arÄ±ÅŁ
Ä±n ca
Ġy Ã¼k
ĠB undan
iz met
Ġm ut
ab ekir
ĠbakÄ±m dan
Ġidar e
k iler
in c
Ġk omu
lar dÄ±r
ya t
ĠH arbiye
ĠH ukuk
Ġkar Ä±ÅŁ
Ġver di
Ġver mek
lÄ±k la
Ġme y
uk arÄ±
Ġay dÄ±n
Ġgir iÅŁ
R auf
U N
Ġb oÅŁ
et im
Ġde fa
mak la
imiz e
Ġar tÄ±k
Ġon u
Ġedil en
muÅŁ tur
k Ä±ÅŁ
t ut
Ġb it
Ġs akÄ±n
ta h
Ġf Ä±r
iniz i
mey en
dev let
h ak
ÄŁ Ä±n
Ã§ Ä±
Ġd Ã¶rt
Ġo t
me s
on ce
Ġa dÄ±
ik lÃ¢
lik te
Ġon a
ĠÃ ľ
Ġkor k
ĠAmerik a
h met
n ek
ĉ Ċ
la mÄ±ÅŁ
Ġs es
Ġs uret
li m
Ġol sun
dan a
ol duÄŁu
ĠV ali
oy un
Ġim k
Ġdur uma
ĠÄ°z zet
ÄŁr en
Ġman da
cad ele
' '
e den
m eni
Ġ ir
ĠÅŁ Ã¶yle
ĠH er
eler inin
Ġbulun duÄŁu
Ġme v
Ġanla t
Ġim za
Ġmemleket in
Ġolur sa
Ġbura da
Ġyay Ä±n
ĠKar abekir
S T
g in
m il
s Ã¶yle
et in
Ġs ar
Ġbir az
im in
ul uk
ay dÄ±
Ġe fendim
ta sar
Ġet tim
uy la
ah ya
ĠN urettin
Ġmak sa
ĠKon ya
ĠCeph esi
once il
1 0
L I
S I
p it
u oy
y ok
Ã¼ le
Ġd ok
Ġt aÅŁÄ±
iz in
iÅŁ leri
Ã¼z el
sa ÄŁ
bil ecek
Ġmem ur
lacak tÄ±r
ĠBakan lar
dÃ¼ÄŁ Ã¼
ĠdÃ¼z en
H ey
h am
t r
z Ä±
Ġ ek
Ġ Ã¼ncÃ¼
Ä±n daki
Ġs Ä±k
ur sa
Ġil iÅŁ
ĠiÃ§ ine
Ġf aal
ĠÃ§alÄ±ÅŁ ma
ĠhÃ¼k Ã¼m
E K
h is
m it
Ġ I
Ġbir kaÃ§
ĠB atÄ±
Ġa t
Ġol masÄ±
Ã¢ h
ĠM eb
sÄ±n daki
duÄŁ umuz
ĠS av
ed ak
madÄ± ÄŁÄ±nÄ±
ulu ÄŁ
Ä±lmÄ±ÅŁ tÄ±r
ĠaÃ§ Ä±
kur may
fet t
ĠSam i
Ġfaal iyet
a caÄŁÄ±
e ÄŁi
i d
z i
Ġ 5
ma mÄ±ÅŁ
Ġs ab
Ġt ali
Ġh em
ey en
ĠÃ§ evr
Ġede cek
ĠuÄŁ ra
a ÄŁÄ±r
b un
p or
in san
Ġb ak
ÄŁ men
Ġg ece
Ġy en
de di
ler dir
ĠB Ã¶yle
lÄ± yor
ĠA k
ĠP AÅŀ
ĠY alnÄ±z
Ġdurum un
kar ar
ĠdoÄŁru dan
dd Ã®
E vet
M ichel
o li
Ã¼ met
in baÅŁÄ±
Ġs ilÃ¢h
ra b
iler ek
Ä±l masÄ±nÄ±
Ġ' '
Ġder hal
Ġim z
ĠseÃ§ im
Ġhaber leÅŁ
Ġc Ã¼m
Ġdi ÄŁer
Ġhus us
E Y
I R
[ â
b eÅŁ
d Ã¶rt
m Ã¼
t ey
Ĩ Ĳ
Ġy or
al et
on u
lan masÄ±
bil e
ĠiÅŁ aret
Ġyer inde
sÄ±z lÄ±k
ĠgeÃ§ en
mer m
ĠteÅŁ kilÃ¢
Ġes as
Ġsah ip
ĠdeÄŁiÅŁ tir
gÃ¶n der
[â ĨĲ
[âĨĲ ]
G un
k inci
m eli
an d
mek ten
ez aret
baÅŁ ka
tÄ±k larÄ±
Ġyet ki
Ġha tÄ±r
ĠÅŁah Ä±s
mas ya
doÄŁ ru
ĠÅŁÃ¼ph e
Ġdavran Ä±ÅŁ
M illet
e bilir
i ci
k ab
z on
ï ¬
Ġ Ã¼n
Ä± cÄ±
Ġg azet
Ġv ak
la m
me miÅŁ
Ġal mak
ĠS ey
Ġf azla
Ġyer de
ĠdoÄŁru ya
ĠMÃ¼ dafaa
Ġtemsil c
ĠolmadÄ± ÄŁÄ±nÄ±
tasar rÄ±
ĠPAÅŀ A
D Ä°
d ek
k ap
t am
t araf
z at
Ġ Ã¼z
duÄŁ um
ĠR Ä±za
Ġtar tÄ±ÅŁ
rup a
Ġtes pit
ĠKab in
tasarrÄ± f
b aÄŁ
g Ã¼Ã§
k ili
l or
y Ä±l
il iye
Ġk iÅŁ
la caÄŁÄ±
ay ak
ol duÄŁunu
Ġkar deÅŁ
Ġver diÄŁi
Ġgel di
muÅŁ tu
Ġanla m
ĠkÃ¶ tÃ¼
U L
b Ã¶yle
al tÄ±
Ġt el
Ġh av
iÅŁ ehir
Ġe ÄŁ
ĠgÃ¶r Ã¼n
Ġn ci
endi ÅŁ
Ġed ilme
oÄŁ un
Ġmillet e
Ġdurum da
Ġher hangi
Ġkab in
Ġkab ine
ladÄ± k
Ġetti ÄŁi
Ġra por
Ġkomu ta
edak Ã¢r
rab zon
A K
n ce
Ġ Ä±
Ġ Ã¼m
Ġb ek
Ġd olay
el en
Ġt as
Ġh izmet
Ġol up
mek le
ĠP ar
Ġver il
ĠsÄ± rada
ĠAr if
ĠkonuÅŁ ma
Ġtabi Ã®
B unun
y di
Ġ li
Ġb oz
Ġs af
Ġt emel
eler e
ekil i
laÅŁ tÄ±
laÅŁ masÄ±
ĠY ahya
Ġuy an
Ġhal inde
Ġu ÄŁr
Ġuyg ulan
sk iÅŁehir
Ġ192 2
Ġyet er
dÄ±k tan
Ġduy gu
Ġra ÄŁmen
rak ya
tiÄŁ ini
Ġgen iÅŁ
aygÄ± deÄŁer
Ġkam uoy
n de
ar Ä±m
an Ä±n
Ġt aki
Ġkar ÅŁ
Ġet ki
Ġola cak
Ġem r
lÄ±ÄŁ Ä±na
Ġsor u
vekil i
ede f
.... ....
1 1
i fa
r es
r ez
Ġ aÅŁ
Ä± ma
Ġt ah
Ä° n
ĠK AR
ĠS on
ĠbaÅŁ vur
Ġver miÅŁ
Ã¼m an
Ġola bilir
yar e
Ġgem inin
ĠKan unu
A T
g e
i da
k or
n den
Ġ le
ÄŁ e
Ġk Ä±r
Ġg rup
Ġh an
Ġh Ä±z
Ġa teÅŁ
em muz
az geÃ§
am im
Ġda ÄŁÄ±
Ġist en
Ġist iyor
Ġp r
Ġhal kÄ±n
Ä±ldÄ± ÄŁÄ±
Ġede ceÄŁ
lÃ¢ m
ĠgerÃ§ek ten
ĠDevlet i
ĠdÄ±ÅŁ Ä±nda
Ġedi yor
Ġmec bur
TÃ¼rk iye
H Ã¼kÃ»met
O N
m enin
n u
r Ã¼
Ä± v
Ġd il
Ġk at
Ġk av
ler di
me di
ĠB ekir
ĠÃ§ eÅŁitli
bir i
lan dÄ±r
ĠS Ã¶z
Ġkur tar
lu ÄŁ
Ġ192 1
ilmiÅŁ tir
Ġsal tanat
Ġsiz in
ĠBakan Ä±
Ġtedbir ler
har eket
ĠÅŁekl inde
d Ã¼z
e mey
g er
h Ä±z
ma m
Ġt Ã¼men
Ġbir er
dÄ± ÄŁÄ±mÄ±z
ĠB un
em ir
Ġn Ä±n
lan dÄ±
lan tÄ±
Ġgel miÅŁ
ĠN ezaret
Ġ2 0
af er
ĠEr meni
ĠMÃ¼ cadele
Ġas la
eleg eler
F ran
b Ä±rak
k Ã¼r
m eniz
n da
t elgraf
z er
Ġ endiÅŁ
Ġd ost
ma mak
Ġk u
el t
ul masÄ±
Ġa sÄ±l
ey in
Ä±ÅŁ ma
ĠK endi
uz ak
Ġbulun dur
19 2
Ġf i
Ġtop rak
madÄ± k
Ġhak lÄ±
mÄ±ÅŁtÄ± m
olayÄ± sÄ±yla
Ġsal dÄ±rÄ±
Ġtek rar
ĠAmerik an
ĠÅŁif re
ĠHal ife
ĠsakÄ±n ca
Ġimk Ã¢n
1 8
D E
D evlet
H al
Y A
b ak
f es
n okta
s iyle
Ġ iler
er al
Ġo tur
ay Ä±m
ca ÄŁÄ±mÄ±z
eler le
lan an
ĠT emmuz
Ġist ek
Ġist iklÃ¢
as Ä±nÄ±
Ã¼s l
ĠgÃ¶rev i
Ġ1 5
Ġbel li
deÄŁ iÅŁ
Ġres mÃ®
bel ir
a lat
b est
d Ã¼m
h emen
m el
t Ã¢
ir an
ÄŁ Ä±na
Ġa v
Ġde dim
ol l
bir likte
ev zi
Ġver dim
Ġver ilen
ĠE sa
Ġay ak
Ġel e
Ġyan lÄ±ÅŁ
ura da
Ġyarar lÄ±
Ġolun ur
Ġte mas
ĠvasÄ±ta sÄ±yla
d o
y im
Ġ Ä±s
Ã¼ var
Ġb ah
Ä±n tÄ±
ÄŁ an
Ġd emek
ĠB unu
on a
Ġa ÄŁÄ±r
lÄ± yordu
ĠK ara
eÅŁ kilÃ¢t
Ã¼zer e
Ġne den
leÅŁ ik
Ġzaman da
Ġtama m
ĠAv rupa
Ä±v as
Ã¼sl Ã¼man
d ok
m iyor
s ak
s eniz
y eni
il l
Ã§ ev
es inden
ay Ä±r
ol um
Ġe v
te p
Ġkon us
ĠolduÄŁ undan
diÄŁ iniz
ĠBaÅŁ komutan
Ġbel ki
Ġorta dan
ĠL and
ĠbakÄ±m Ä±ndan
ĠmeÅŁ ru
Ġtali mat
1 2
D Ã¼nya
a ya
h ep
s inden
Ġ 4
il af
Ã§ ak
ĠB Ã¼tÃ¼n
or ta
Ä° s
Ġm illi
mek tey
ĠS adrazam
ĠE skiÅŁehir
Ġf ark
Ġmillet i
Ġyer i
Ġkur tul
Ġ2 3
Ġmilletvekil i
Ġik inci
ĠettiÄŁ im
ĠKabin esi
S aygÄ±deÄŁer
h Ã¼kÃ»met
s es
y en
Ġ Ã¶r
Ã¼ c
il diÄŁi
ma mÄ±z
Ġv ali
Ġs ak
im diye
du y
Ġa da
Ġa it
Ä° z
am Ä±z
eler ini
ĠE ÄŁer
Ġbulun uyordu
Ġist ir
Ġp ara
ci h
Ġf edakÃ¢r
Ġay n
ĠO cak
yordu m
Ġtelgraf ta
Ġedil di
san Ä±z
ĠsaÄŁ lamak
Ġis pat
Ġkay n
Ġzar ur
lak a
ĠsÄ±ra sÄ±nda
ĠhÃ¢kim iyet
Ġmektu p
Ġtaki p
alat ya
H arbiye
b er
g at
h il
k Ä±rÄ±
o c
s inde
Ġ J
Ã¼ tah
ar lÄ±
Ġd ak
el likle
ra m
let tin
Ġn er
si p
lan mÄ±ÅŁ
ĠBey efendi
Ġist er
ĠN a
ĠgÃ¼ c
Ġedil miÅŁ
ĠdeÄŁil di
Ġ1 3
siz lik
Ä±ldÄ± z
sek iz
LE T
abil ecek
An cak
ili ÄŁ
ĠÄ°s lÃ¢m
Ġis yan
ĠSal ih
ĠSey yare
Ã¼tah ya
E V
d in
t esi
y ak
y Ä±m
ÅŁ am
an dar
Ä±n lÄ±k
Ġk Ã¼Ã§Ã¼k
Ġy Ã¼ce
Ġh edef
iz e
Ä° M
Ġde st
eler de
Ġil gil
sa ade
Ġver diÄŁim
Ġbulun duÄŁunu
ĠdÃ¼ÅŁ Ã¼r
Ġp oli
Ġgel iÅŁ
ĠR eÅŁit
Ġhal kÄ±
ĠaÃ§Ä±k Ã§a
eceÄŁ iz
gÃ¶r e
gel en
ĠÃ¶ ÄŁren
Ġkor u
Ġtut uk
Ġvatan Ä±n
gÃ¶ k
oz an
ĠÃ§Ã¶z Ã¼m
ĠDah iliye
fett iÅŁ
meli dir
lor ida
b it
g erÃ§ek
i ÄŁ
o ta
il k
ÄŁ Ä±ndan
et ti
Ã§ evr
em leket
um u
Ä±r Ä±m
uz un
Ġal dÄ±ÄŁÄ±
ĠT rabzon
Ġist ifa
baÅŁ kan
gÃ¶r ev
Ãľ K
ĠKon feran
Ġkims elerin
kur ul
Ġsav un
Ġdikkat e
ich oll
Ġtan Ä±
A Z
B elge
G Ã¼n
K omutan
Y unan
g Ã¼l
Ġs ek
Ġs amim
Ġi tir
Ä° l
Ġm et
ĠgÃ¶ tÃ¼r
ec an
ec ik
ay et
ĠM art
ĠÄ° ÅŁte
Ã¶n ce
ah a
Ġkon gre
ĠolduÄŁ una
Ġgi der
ĠG Ã¶r
Ġkendi si
Ġu laÅŁ
duk larÄ±
Ġman ev
dev am
Ġkendiler ine
ĠGenel kurmay
Ġser best
ĠRum eli
fes Ã¶r
Ġdak ika
B undan
a ÄŁÄ±
a dam
h ey
k et
s en
t on
Ġk olordu
im de
sÄ± ra
es iz
ĠA masya
am p
Ã¼z Ã¼
ĠS a
Ġver ilme
ĠE l
Ã§Ä±k ar
Ġyer e
Ġr e
ĠÃ§Ä±k tÄ±
ladÄ± m
Ġola caktÄ±r
ĠmÃ¼ f
ÄŁÄ±r dÄ±
Ġyarar lan
Ġter cih
Ġihti ya
sev er
Ġzor unda
ĠfÄ±r sat
ĠteÅŁkilÃ¢ tÄ±
Ã¼var i
H er
f Ä±r
o ca
Ġ 6
ar kadaÅŁ
et mek
Ġk omisyon
Ġs ordu
ĠB una
aÅŁ Ä±r
iz i
es ap
Ã¼r t
iler e
ĠÄ° kinci
ĠH Ã¼k
eler den
sa h
ĠT rakya
bi ad
Ã¼zer ine
Ã¼y le
Ġf akat
ĠF evzi
Ġbiz zat
Ġola maz
hal de
ĠHaz iran
Ġder ece
liÄŁ e
ic dan
Ġordu s
ĠÃ¼m it
olum biad
G erÃ§ekten
K on
O r
P eki
U M
b ra
t ab
v Ã¢
Ġ Ã¼l
Ä± yla
Ġk ad
Ġg Ã¼zel
Ġv al
la mÄ±ÅŁtÄ±
ul du
Ġol sa
Ġol maz
Ġe ÅŁ
ĠS Ä±vas
ĠG Ãĸ
ĠgÃ¶rÃ¼ÅŁ me
atÄ± ÅŁ
ĠsÃ¶yle di
var dÄ±
ĠkÄ± s
Ġeder iz
Ä°N E
Ã¼st Ã¼
kon uÅŁ
Ġsiz e
ĠAr alÄ±k
laya cak
Ġtemsil ci
ĠYunan lÄ±
ĠyÃ¼r Ã¼t
ÄŁu st
ĠyapÄ± lacak
Ġdir en
Ġnit elik
Ġzarur Ã®
E l
i bi
ÄŁ in
Ġd o
Ġy av
Ġy ola
ĠB ursa
uz ur
miÅŁ tim
Ġan a
Ġyap Ä±l
ha va
imiz de
Ġgel ecek
Ġgi de
ĠC onceil
Ġger eÄŁi
Ġsor um
dÃ¼ÅŁ man
bulun an
Ġha yat
Ġbun larÄ±n
ĠKur may
ĠayrÄ± ca
ĠSav unma
ĠmÃ¼f rez
C umhuriyet
a dÄ±
h ay
i dd
k Ã¶
y alnÄ±z
Ġ 7
Ġ 8
Ġ Ä±ÅŁ
Ġb oyun
Ġd iyor
ek Ã¢
Ġt az
de mir
da p
me c
lÄ± ÄŁÄ±mÄ±z
ĠM ar
ik lik
Ġal tÄ±
Ġal mÄ±ÅŁ
Ġver me
bil mek
ĠÃ¶n c
Ġar ka
yan i
Ġkendi sini
mer mi
rÄ± ca
Ġder in
Ġduy ur
ĠyÃ¶n etim
caÄŁ Ä±na
Ġci ddÃ®
Ġkim se
Ġcevab Ä±
his ar
kab ul
ï¬ ģ
ĠNezaret i
B il
L AN
d al
k uvvet
y Ã¼k
an cak
Ġg ez
la bilir
Ġs uÃ§
ĠB arbicane
im le
on un
si t
Ġz Ã¢tÄ±
Ã¼l en
Ġor dunun
Ġger Ã§e
Ãľ Åŀ
mÄ± yor
ĠyÃ¼z Ã¼nden
Ä±mÄ±z a
Ġdevlet in
ĠÃ§ar p
Ġiz in
hiÃ§ bir
ĠEsa siye
Ġistir ham
Ġpoli tik
M ET
N e
g it
k il
t ayÄ±
y Ã¶n
y se
y irmi
er ef
Ġk ut
Ġv ur
la maz
Ġy aÅŁa
Ġi ddi
ĠB il
tÄ± cÄ±
es iyle
Ã¢ vÃ¢
ĠÅŁ ekli
az arÄ±
ĠÄ° Ã§
ara sÄ±nda
Ġn ok
Ġal dÄ±m
Ä±m Ä±
laÅŁ ma
man Ä±z
ĠiÅŁ i
Ġgerek tiÄŁi
Ġor tak
asÄ± f
Ġher kes
Ġbildir i
iyordu m
Ġyok tu
ĠÅŀ u
ĠÅŁah siyet
ĠdÄ±ÅŁ arÄ±
LER Ä°
Ġac ele
Ġtay in
ĠaydÄ±n lat
ĠVali si
ĠÄ±s rar
3 0
B akan
N ed
b unun
b oÅŁ
d il
g a
k un
k ullan
y um
an rÄ±
Ġb elg
Ġv azgeÃ§
Ġv icdan
la b
Ġs ok
Ã¼n yan
Ġol uÅŁtur
em li
ĠM ayÄ±
mak t
ĠA hmet
Ã¼zer inde
ĠG erÃ§ekten
ĠgÃ¼n lerde
Ġkal an
Ġkendi sinin
Ã¼s eyin
len en
Ġ2 4
Ġes ir
ĠgerÃ§ek leÅŁtir
kon u
Ġbilg inize
larÄ±mÄ±z Ä±n
Ġihti mal
caÄŁ Ä±ndan
malÄ± dÄ±r
ĠÃ¼n van
' m
B Ã¶yle
F lorida
d et
d Ã¶k
k esin
y erek
z or
Ġ 9
Ġ Ã¶yle
er Ã§ev
in an
ma sÄ±nÄ±n
Ġk ana
Ġg ru
Ġv ekil
lar ca
Ġs Ä±r
Ġt ep
da t
li s
ya y
Ġa larak
lÄ± r
ĠK omisyon
ĠÅŁ un
ĠA ÄŁust
uz ey
Ġyap tÄ±ÄŁÄ±
Ġist eyen
op a
ecek ti
ilme sine
Ġola caÄŁÄ±nÄ±
Ġyar at
Ġ2 2
Ġyan dan
Ġem in
Ġ1 8
hal if
ĠMillet vekili
acak tÄ±r
tar ih
Ġalt Ä±na
ĠgÃ¼Ã§ lÃ¼k
har eb
lerimiz i
ĠÅŁart lar
sor u
dÃ¼ÅŁÃ¼n c
ĠgereÄŁ ini
Ġcan av
Ġsonu cu
ĠaÃ§Ä± ÄŁa
ĠkarÅŁ Ä±lan
Ġayn en
andar ma
A L
R efet
b at
b azÄ±
g Ä±n
l endi
in dir
Ġk ol
el li
Ġy ukarÄ±
al Ä±n
Ġi ken
me dik
dÄ± lar
ĠB EY
on d
Ġm iydi
at eÅŁ
ĠM Ä°L
eler ine
mu t
Ã¼l Ã¼
Ġkon gr
Ġkon feran
iÃ§ inde
ĠO nun
der ece
ĠÃ§Ä±k an
eceÄŁ ine
mey ecek
Ġiste ÄŁ
Ġma dd
ĠalÄ±n an
Ġsal dÄ±r
ĠbÃ¶lg esinde
ĠÄ°z mit
larÄ±mÄ±z Ä±
Ġedi yordu
elÃ¢ lettin
ĠBunun la
ĠÃ¶l dÃ¼r
ĠDah a
---------------- ----------------
Ġmey dan
ĠuÄŁr aÅŁ
Ä°s met
Ġtaz min
Ã¼nyan Ä±n
opa gan
! âĢĿ
1 5
2 8
A LÄ°
k iÅŁ
l in
y Ä±z
Ä± lacak
Ã¼ me
an laÅŁ
Ã§ Ã¼
Ġd iy
Ġd Ã¢vÃ¢
Ġy ara
Ġy irmi
Ġh ilÃ¢fet
ĠB Ä°R
Ġol uÅŁ
Ġol umlu
iÅŁ li
ĠK Ã¼tahya
ĠM erkez
ĠM Ã¼slÃ¼man
Ã¼r s
eler inde
Ġz an
ĠD Ä±ÅŁ
maya caÄŁÄ±
Ġgi di
ĠN e
Ġay kÄ±rÄ±
Ġbildir il
lÃ¼ yor
Ġyol unda
ĠhÃ¼kÃ»met i
Ġmem nun
Ġ192 3
ĠKon gre
ĠsaÄŁ lan
ĠBakan lÄ±ÄŁÄ±
Ġtes lim
ĠbugÃ¼n kÃ¼
Ġinc el
Amerik a
Ġteb li
sav aÅŁ
Ġsuret iyle
ĠcÃ¼m le
Fran sÄ±z
mektey di
A F
A ma
E Åŀ
S on
S ivas
h i
h azÄ±r
k er
k azan
il us
Ġd al
ma lar
Ġk ayÄ±
ler ce
Ġbir liÄŁi
me sinin
ul muÅŁ
tÄ± yla
em in
ĠK Ã¼rt
ay Ä±n
ĠM alatya
ĠÅŁ uydu
ik Ã¢
Ä±l maz
ĠT eÅŁkilÃ¢t
Ġed ilmesi
Ã¼l mÃ¼ÅŁ
ĠC ev
ĠÃ¶n er
ĠsÃ¶z ler
if re
Ġkal kÄ±ÅŁ
ĠV ekili
Ãľ N
ĠÃ¶ teki
Ġder ec
Ġkor un
An adolu
ĠhazÄ±r lÄ±k
Ġok un
Ġsah ibi
ĠÃ¢ sÃ®
Ġzat en
Ġtehlik eli
ĠÅŁifr eli
ÄŁan Ã¼stÃ¼
ĠKonferan sÄ±
dap azarÄ±
Y OR
b e
k ez
k ims
n iyet
o lacak
s eÃ§
t Ä±n
u cu
er ken
et li
ek kÃ¼r
Ġy aÅŁ
da yan
dÄ± ÅŁ
Ã¼n Ã¼z
iy an
lÄ± ca
ey im
sÄ± m
ay nÄ±
ĠÃ§ ev
ĠA ma
ĠH ar
ĠH Ã¢
Ä±r ken
ti p
ti si
Ġal Ä±na
Ġet raf
Ã¼m Ã¼
ut ilus
ĠiÅŁ in
Ġben ims
ĠÃ¶ ÄŁ
liÄŁ ine
ĠyÃ¼z den
dÄ±k larÄ±
ilmiÅŁ ti
yer ine
ĠMu tasarrÄ±f
mem leket
Äŀ I
ĠÃ¼y eleri
ĠyardÄ±m cÄ±
LAR I
gÃ¼ ven
Ġhan gi
Ġre j
Ġsorum l
opagan da
) ,
M Ã¼
N icholl
g ul
g Ã¢h
h im
s er
an da
Ġy Ä±k
Ġh uzur
aÅŁ tÄ±r
ya cak
le mek
tÄ± lar
ĠÃ§ aÄŁ
Ã¼r r
Ġver ildi
us ul
Ã¼m eni
Ġbulun uyor
ĠolduÄŁ umuz
Ġkur mak
Ġola bil
ĠV asÄ±f
eli ÄŁ
meler ini
Ġhareket e
ĠgÃ¼ven ilir
Ä±yor um
Ġkesin likle
hat tin
Ġsiya set
Ä±lÄ± r
Ġci ddi
Ġtav Ä±r
Ġpro g
Ġmut laka
Ġir ade
Ġsab ah
Ġhav a
Ġkabin enin
ĠAÄŁust os
B Ã¼tÃ¼n
E M
c uluk
d ost
f yon
h aber
k tan
l Ä±nda
r ist
Ä± Ä±
an dÄ±r
ir ken
ma sÄ±ndan
Ġk Ã¶y
li b
Ä° ÅŁte
ol ur
Ä±l masÄ±na
ĠÄ° l
larÄ±n daki
Ġn iyet
ti f
Ġver ilmesi
Ġan da
Ġyap Ä±lmÄ±ÅŁ
ĠD Ã¼nya
Ġme s
Åŀ imdi
ĠG Ã¼n
ĠO ysa
ih ayet
larÄ±nÄ± z
Ġbildir dim
madÄ± m
Ġola caÄŁÄ±
Ġ2 8
gÃ¼n kÃ¼
ĠÃ§alÄ±ÅŁ an
liÄŁ in
ĠEr men
ĠBir inci
Ġteklif i
ba ÄŁÄ±rdÄ±
ley en
Ġolduk Ã§a
ĠSam sun
Ġkend ini
ĠAl bay
Ġvak it
taraf Ä±ndan
Ġsaf ha
ĠistiklÃ¢ l
amp a
ĠGÃĸ R
ĠMayÄ± s
Ã¼rr iyet
A P
A l
a c
b uriyet
e mez
k end
w n
y le
Ã¼ ye
en eral
Ġk iÅŁi
Ġbir leÅŁ
Ġh is
du lar
Ġm il
ĠÅŁ ar
ĠÅŁ eh
az i
ab uk
ce v
ta cak
bir kaÃ§
Ã¶n er
Ġyap mak
Ġyap mÄ±ÅŁ
ĠD Ã¼ÅŁ
Ġme den
Ġp adiÅŁah
Ã» t
maya caÄŁÄ±nÄ±
Ġf er
ru h
iniz in
baÅŁ ladÄ±
Ġyaz dÄ±m
abil mek
Ġcevap ta
Ġtut um
Ġvatan sever
ĠÃ§ek in
cad el
Ġaleyh inde
Ġgec ik
bra him
Ġiddi a
A M
B inbaÅŁÄ±
C olumbiad
K ur
U T
b Ã¶lg
k ay
k uÅŁ
r en
r usu
t aÅŁ
u lacak
ar ip
ak lÄ±
ĠB inbaÅŁÄ±
at i
ĠÃ§ et
bir liÄŁi
te d
Ġal dÄ±ÄŁÄ±m
lay Ä±p
Åŀ I
ĠAn t
uv ar
Ġtelgraf Ä±n
lÃ¼ ÄŁ
Ġ1 2
liÄŁ ini
geÃ§ ir
Ġmu h
ro fesÃ¶r
MA SI
Ġdayan arak
teÅŁ kes
ebil ecek
Ġik ti
Ġmer m
gir iÅŁ
ĠiliÅŁ ki
Ġtemsilc iler
dok uz
erÃ§ev esinde
A B
A Y
H ayÄ±r
S Ã¶z
i ster
k u
s ay
s am
t aki
y Ã¼r
y Ã¼ksek
y Ä±ldÄ±z
Ġ unu
Ġ mal
ÅŁ u
in a
Ġb Ã¶l
Ġk Ä±ÅŁ
Ġk Ã¼rs
la h
al ip
da ÄŁÄ±
ey le
ra ca
em iyor
den in
ay r
ol du
ĠA b
ĠgÃ¶r dÃ¼ÄŁ
ĠbaÅŁ lan
lÄ±k tan
lay Ä±cÄ±
Ġp art
Ġon dan
Ġtelgraf la
Ġ2 6
tÄ±k tan
ĠgÃ¶ster en
ĠgÃ¶ster mek
Ġmak ine
ĠÅŁu dur
Ä±mÄ±z Ä±n
Ġkomutan Ä±
Ãĩ ok
ĠhazÄ±r lan
Ġmilletvekil lerinin
ter e
Ġbuyur ur
bar ut
Ġimz asÄ±
Ġsek iz
Ġihtiya Ã§
G enel
a maz
k oy
o tur
t um
t Ã¼m
Ġb ekli
Ġb akan
Ġk atÄ±
ek s
me mek
me diÄŁi
tÄ± ra
lÄ± dÄ±r
es ir
Ã¢ b
ĠÅŁ eref
ye di
masÄ± yla
ĠY Ã¼ksek
Ġgerek tir
Ġel ver
lÃ¼ ÄŁÃ¼
ĠV atan
Ġyol da
Ãľ R
AR I
Ġara cÄ±
son uÃ§
Ġkuvvet leri
Ġsay Ä±n
ĠmÃ¼ saade
ĠsaÄŁ lam
ĠMÃ¼ dÃ¼r
umh ur
Ä±yor lardÄ±
Ä±mÄ±z dan
Ġbizim le
Ġolma yan
ĠolmadÄ± ÄŁÄ±
Ġolduk larÄ±
ĠÃ¼st Ã¼n
Ġmey dana
ĠÃ¼z Ã¼n
Ġpr opaganda
Ġkonus undaki
Ġkurtul uÅŁ
ĠgerÃ§e ÄŁi
ĠKomisyon u
1 6
A S
D AN
ar Ä±n
Ġs iv
tÄ± ÄŁÄ±m
lÄ± ÄŁÄ±m
ĠÅŁ idd
Ä±l mak
Ä±l mÄ±ÅŁtÄ±
ĠH ilÃ¢fet
ĠiÃ§ ten
ĠiÃ§ eri
ĠT anrÄ±
ĠbaÅŁ ar
Ġver erek
bi Ã§
Ġyap Ä±ldÄ±
Ã¼l mesi
Ġgel diÄŁi
Ġgel ince
ĠÃ¶n Ã¼ne
ĠO n
gil tere
Ġbildir ilmesini
Ġtaraf tar
Ġanla mÄ±
siz in
Ġkuvvet li
Ġnokta lar
dÃ¼r b
ĠMu h
mÃ¼ÅŁ tÃ¼r
ĠÄ°t ilaf
Ġolay lar
Ġzar uret
Ġhay van
Ġmec buriyet
Ġpar ti
Ġbiri bir
Ġinc ele
Ġbilin en
ĠsÃ¶y len
Amerik an
Er zurum
Ġtas arÄ±
makt aydÄ±
ĠDÄ±ÅŁ iÅŁleri
1 4
2 2
A li
B Ã¼yÃ¼k
G Ã¶r
b ekle
d Ã¼nya
f en
g Ã¼r
i b
k olay
k Ã¼Ã§Ã¼k
y ukarÄ±
z alan
Ä± ÄŁ
er Ã§i
Ġb ulu
Ã§ Ã¶z
Ġd emiÅŁ
Ġd emir
de mek
Ġa tan
iy arb
es aret
em inin
Ã¢ lÃ®
Ã¢ nÄ±
ĠÃ§ aÄŁÄ±r
ĠÃ§ oÄŁun
ĠÅŁ imdiye
mak am
yor lardÄ±
bil g
oÄŁ az
ece p
ĠiÅŁ e
ĠkarÅŁÄ± laÅŁ
sÄ±z Ä±n
ĠgÃ¼n ey
Ġhal if
Ġben zer
ĠsÃ¼r ekli
Ġ2 5
Ġ2 7
Ġyan Ä±na
ĠhÃ¼kÃ»met e
Ġ1 4
tik ten
ĠmÃ¼ cadel
ist e
ĠalÄ±n masÄ±
ĠÄ°ngiliz ler
Ġ3 0
Ġzat Ä±n
Ġsebep le
BaÅŁkan Ä±
Ġbas kÄ±
Ġtav siye
Ġkolay lÄ±kla
Ġteb liÄŁ
Ġmaksa dÄ±
Ġle h
Ġtebli gat
fyon kara
umhur baÅŁkan
D I
M art
a caÄŁÄ±nÄ±
b uy
b unu
d ret
h iÅŁ
k Ä±l
k endiler
l o
r ik
s y
Ã¼ yordu
il Ã®
Ã§ Ã¼nkÃ¼
ma mÄ±ÅŁtÄ±
Ġk ara
Ã¶ v
lar sa
Ġs ey
Ġs Ã¼vari
Ġt u
Ġi ti
ul ur
Ġa lay
Ġa cÄ±
Ġa tÄ±l
Ä° Z
Ä° t
Ġm en
ĠM al
ĠA s
ik met
Ġda ir
ĠÄ° ST
sa f
Ġet kili
bil im
Ġyap acak
Ã¼t hiÅŁ
iyor sunuz
Ġist erim
diÄŁ inden
diÄŁ imi
ĠsÃ¶z leri
Ġben deniz
lu ÄŁu
Ġtarih te
Ġkarar lar
Ġanla mak
gÃ¼n Ã¼
Ġad Ä±nda
ĠgÃ¶nder il
duk larÄ±nÄ±
ĠÅŀ imdi
Ġiste diÄŁi
ĠsÃ¶yle dim
var dÄ±r
yar dÄ±m
ĠgerÃ§ek leÅŁ
ĠÅŁah sÃ®
Ġiyi ce
Ġceph e
Bir leÅŁik
ĠÃĸ z
ĠsÃ¶y lÃ¼yor
ĠtaÅŁÄ± yan
Ġyeter li
Ä°n giliz
Ġkav ra
ĠErmeni stan
belir t
mel iy
Ġsak in
Ġkayn ak
ĠNa utilus
Ġsordu m
Ġyav aÅŁ
rist iyan
2 4
D U
H az
K uva
S al
a cÄ±
a caÄŁÄ±m
h lik
i ma
n ci
s ey
t Ã¼k
Ã ©
Ġ usul
an lat
Ã§ u
Ã§ ar
ma larÄ±nÄ±
ek tif
ak Ä±r
Ġs ez
Ġbir inin
tÄ± ÄŁÄ±nÄ±
tÄ± ÄŁÄ±mÄ±z
Ġa ÄŁ
Ä° K
at en
Ã¢ ne
um suz
ĠÄ° st
ĠÄ° brahim
eler inden
sa at
ĠE n
bil in
endi ÄŁ
Ġz ih
Ã¼l dÃ¼
ha f
maya caktÄ±r
ĠY eni
Ġf elÃ¢
ĠgÃ¶rÃ¼ÅŁ mek
ĠgÃ¶rÃ¼ÅŁ Ã¼nÃ¼
ĠÃ§Ä±k Ä±ÅŁ
ĠgeÃ§ miÅŁ
ĠaÃ§Ä±k lan
Ġ2 1
ĠteÅŁ ekkÃ¼r
ĠgÃ¶rev den
AN I
Ġyaz Ä±lan
Ġtoplan masÄ±
ĠgÃ¶nder diÄŁi
Ġma h
Ġteklif inde
ĠgÃ¼Ã§ lÃ¼
Ġedi p
Ġpar Ã§a
Ġolduk larÄ±nÄ±
ĠyaptÄ± ÄŁÄ±m
orta ya
Ġilgil en
ĠkayÄ± t
ted bir
Ġsiv il
2 3
2 5
2 7
? "
C emal
C onceil
D EN
T emsil
Y E
c Ä±k
k e
o u
u ÄŁr
y Ä±k
Ä± larak
er e
an i
an lar
Ġd u
Ġk uÅŁ
la caÄŁÄ±nÄ±
ler im
da ÄŁ
da hal
ĠB ay
im li
Ġol umsuz
ra hat
ĠM emleket
az Ä±m
eler ek
Ġn ota
uy gun
Ġver diÄŁimiz
Ġyap Ä±lmasÄ±
Ġyap tÄ±klarÄ±
Ġgel iÅŁi
ĠolduÄŁ um
ĠÃ¶n Ã¼nde
Ġf ik
ed il
ru bu
is e
is inin
Ġhal ine
ladÄ± ÄŁÄ±
baÅŁ arÄ±
Ã¼s Ã¼
gÃ¶r Ã¼n
Ġhak k
ĠgÃ¶rev ini
ĠÃ¶z et
Ġem ri
Ġhey ecan
Ġra hat
Ġmu halif
Ġkurul uÅŁ
ast am
ĠhÃ¼k Ã¼met
Ġok u
Ġzar ar
est ir
ĠsayÄ± lÄ±
Ġres men
Ġtama men
ĠyÃ¼k sel
Ġmev ki
GÃ¼n eÅŁ
Ä°l gi
ĠHÃ¼k Ã¼met
Ġnitelik te
Ġkut sal
Ġkana at
ĠkÄ±ÅŁ kÄ±r
iyarb akÄ±r
fyonkara hisar
2 6
2 9
A H
B UL
D aha
E S
F akat
a da
b ana
e x
f at
f azla
i me
k az
k ol
o met
r aki
s ki
s ordu
t o
y arÄ±
ÅŁ ekil
in g
en Ã¼z
ma sÄ±nda
ek im
un us
Ġt ec
Ġh af
Ã¼n c
le yi
Ä° T
Ġol muÅŁtur
es ki
ĠK ON
Ã¢ tÄ±ÅŁ
Ã¼k rÃ¼
ol uÅŁ
ĠA d
iler den
Ä±l maya
ĠH am
Ġn Ã¼f
yor lar
Ġkar arÄ±
Ġet mey
Ä±m da
Ġver iyor
ĠE fendim
ah ra
Ġbulun duÄŁumuz
ĠG alip
ĠN is
ĠiÅŁ leri
ĠO ndan
is ini
Ġuy ar
Ġdurum unda
Ġon larÄ±n
ĠgeÃ§ ti
ĠgeÃ§ ici
dik lerini
Ġkarar sÄ±zlÄ±k
eceÄŁ imiz
len mesi
kar ÅŁ
ayÄ± f
lÄ±ÄŁ Ä±nda
Ġad Ä±nÄ±
gÄ± Ã§
liÄŁ inden
Ġiste ÄŁi
ĠbaÄŁ lan
ĠÅŁey i
ĠgÃ¼ven lik
ĠalÄ±n dÄ±
ĠMÃ¼ fettiÅŁ
erk es
Ġkims enin
alÄ±k esir
ĠAr tÄ±k
ile bilir
mayÄ± p
Ġbenim le
Ġak Ä±l
IN DA
Ġsan Ä±rÄ±m
gerek ir
ebil mek
ĠhÃ¢ lÃ¢
Ġaz Ä±nlÄ±k
ĠAy dÄ±n
ĠdeÄŁer li
Ġmesel esi
ĠgereÄŁ ince
Amerik alÄ±
Ġgec esi
Ã¼le cek
merm inin
ÃľK Ãľ
ond ra
Ġprog ram
raca at
Ġelver iÅŁli
astam onu
1 7
C E
M illÃ®
T I
T o
T evfik
g ay
h esap
k it
n am
s Ã¼z
t uk
y u
z ar
Ġ ruh
an e
in Ã§
Ġb ur
ir a
ÄŁ it
el ki
Ġy Ä±
Ġt Ã¼f
Ġbir inci
ĠB AÅŀ
im d
Ġa h
Ġa tÄ±
ĠÃ§ erÃ§evesinde
ĠA ra
ĠA lay
tan Ä±n
larÄ± mÄ±
te hlik
Ġet meye
Ġet tiler
ĠT elgraf
Ġson una
Ġan lay
Ġyap maya
iyor uz
ĠD urum
ed er
Ġmillet Ã§e
Ġmillet imizin
ĠiÅŁ lem
ĠgÃ¼n de
diÄŁ ine
Ġon ay
Ġbildir ildi
Ġvar lÄ±ÄŁÄ±nÄ±
dik kat
Ġyol u
kar Ä±ÅŁ
Ġhak kÄ±
ĠgÃ¶ster diÄŁi
Ġ1 1
ĠalÄ±n mÄ±ÅŁ
Ġmemleket i
ĠÄ°n giltere
ĠanlaÅŁ ma
Ġak ÅŁam
ĠÄ°t al
ĠkonuÅŁ maya
Ġbun larÄ±
Ġolmak la
ĠettiÄŁ imiz
kÄ±r k
Ġayr Ä±ntÄ±
gen iÅŁ
Ġmaksat la
ĠkarÄ±ÅŁ Ä±k
mil yon
ĠsilÃ¢h lÄ±
ĠeÄŁ il
dÃ¼z en
meniz i
iliÄŁ inden
Ġmanev Ã®
Ġbuyurur sanÄ±z
Ġfik ir
ex as
ahra man
1 3
K AR
K Ã¢zÄ±m
T ampa
Y alnÄ±z
b Ã¼r
b as
b oy
b akÄ±m
b akan
k oÅŁ
n asÄ±l
o d
o bil
t eye
Ġ ca
ÅŁ imdi
en gel
Ġd el
Ġd Ã¶k
Ġd elegeler
ma den
Ġg iy
Ġg af
Ġo da
da vran
li t
ur iye
Ġh oÅŁ
ec ati
ol dur
Ġe ÄŁer
ĠA dapazarÄ±
ĠgÃ¶r dÃ¼k
ĠH at
ĠH ikmet
Ġil gi
yor uz
Ã¶n emli
duÄŁ undan
Ġver en
lÄ±k larÄ±
ka v
ĠD er
Ġolan lar
ĠG un
ĠN adi
Ġar tÄ±r
Ġyer den
ĠgÃ¼n e
Ġr ed
is ine
Ġtar z
ĠsÃ¶z Ã¼
ĠsÃ¶z Ã¼nÃ¼
Ġel li
Ġvar sa
Ġanla ya
ĠgÃ¶rev lendir
lÄ±ÄŁ Ä±nÄ±n
usu f
ĠgÃ¶nder ilen
Ġhaber dar
Ġnokta da
Ä±mÄ±z Ä±
ĠbÃ¶lg e
ĠAr dan
Ġasker lik
dÃ¼ÄŁ Ã¼nÃ¼
Ġmi dir
Ġbura ya
ĠbaÅŁkan Ä±
ĠCeph e
leme v
Ġora ya
ĠaÅŁaÄŁÄ± daki
Ä±nca ya
tr ik
ĠcÃ¼m l
Ġyor um
Ġdolay larÄ±nda
ĠendiÅŁ e
Ġku dret
Ġfi ilÃ®
Ġkoru mak
ĠÃ¶nc eki
Ġnok tayÄ±
zor unda
ĠMÄ°L LET
ĠCev at
To wn
imd ilik
A D
E n
K Ä°
M er
O smanlÄ±
T Ä°
c iler
d olayÄ±sÄ±yla
e bi
e gen
g ez
i si
k iÅŁi
p er
s im
t emsil
v res
Ġ j
Ġ un
Ġ um
Ä± sa
Ġb alÄ±k
il iyordu
Ġd ile
ma mÄ±ÅŁtÄ±r
Ġk en
ek trik
Ġg Ã¼l
Ã¶ sy
Ġs il
Ġs elÃ¢
Ġbir bir
im iyet
ya v
Ġa lacak
iy esi
Ġm uk
at le
ĠM ah
um uÅŁ
ĠA N
ĠA teÅŁkes
ce ÄŁi
dir ne
ĠÄ° ÅŁ
ĠgÃ¶r mek
ĠH Ã¼seyin
Ä±r h
duÄŁ unuz
ĠbaÅŁ lamÄ±ÅŁtÄ±
Ġver ici
Ġz afer
Ã» m
Ġgi d
ĠG rubu
ve di
yan us
Ġkab il
Ġon larÄ±
Ġedil ecek
Ġzaman Ä±
Ġem el
Ġ1 0
ulu ÄŁu
AN BUL
Ġyaz dÄ±ÄŁÄ±
Ġyaz Ä±ÅŁma
ĠmÃ¼ dahal
Ġduy g
Ġkonu daki
tar tÄ±ÅŁ
ĠanlaÅŁ Ä±ldÄ±
Ġha in
top u
Ġba sÄ±n
ĠyÃ¶n et
ĠyÃ¶n el
gÃ¶ tÃ¼r
larÄ±mÄ±z a
ĠarkadaÅŁ larÄ±
Ġbun lar
ĠAmerik alÄ±
ĠZ Ã¢tÄ±ÅŁ
tiÄŁ im
Ġgay ret
yaz Ä±
ĠFran sa
ĠdÃ¼z elt
Ġmer ak
Ġhat tÃ¢
biz im
deÄŁil dir
Ġdok un
tr ol
Ġfi ilen
Devlet ler
amÄ±z da
ĠteÅŁkilÃ¢tÄ± mÄ±z
Ġordus unun
ikÃ¢ yet
Ã© vres
ĠNis an
Ã¶sy Ã¶
C LÄ°
E L
H iÃ§
N IN
O L
g ali
g emi
m iyordu
p Ä±n
s ab
t ma
y ara
ÅŁ Ã¶yle
ar ken
il ip
et leri
Ġk ul
Ġk uzey
Ġt aÅŁ
ur ken
Ġh es
Ġh Ã¼c
dÄ± ra
ul masÄ±nÄ±
Ġol muÅŁ
Ã¢ hattin
ĠM aston
Ä±nÄ± l
ĠgÃ¶r en
ĠH ristiyan
ĠP rofesÃ¶r
Ã¶n etim
Ã¶z ellikle
sa ma
it ekim
Ġson raki
ĠbaÅŁ layarak
ĠbaÅŁ lamÄ±ÅŁ
eÅŁ al
Ġist iyordu
Ġkon uyu
Ġgel ip
ĠC umhurbaÅŁkan
Åŀ ifre
ĠG erÃ§i
ĠN ecati
Ġyer leÅŁtir
ĠkarÅŁÄ± ya
sÄ±z lÄ±ÄŁa
ĠgÃ¶rÃ¼ÅŁ ler
ĠgÃ¶rÃ¼ÅŁ lerini
ĠÃ§Ä±k mÄ±ÅŁ
Ġtelgraf Ä±nda
Ġben den
Ġkendi m
ĠsÃ¼r Ã¼k
Ġ2 9
san iye
tu p
ims el
Ġyok sa
Ġl Ã»t
son unda
ĠÃ¶ den
ĠÅŀ Ã¼krÃ¼
Ġder nek
yap Ä±lmÄ±ÅŁ
Ġyet k
tÃ¼ ÄŁ
kÄ± sa
yar ar
Ġsal on
Ġmemleket te
Ä±yor uz
kon usunda
Ġetme yi
ĠÄ°ngiliz lerin
ĠBen im
Ä±nÄ±z Ä±
Ġkendiler ini
Ġyak Ä±ndan
ot uz
ĠteÅŁkilÃ¢t Ä±n
sÃ¼r e
Ġsonu c
00 0
Ġora dan
ĠÅŁimdi den
Ġnit eliÄŁ
alt Ä±nda
Ä°Y ET
Ġot urum
Ã¢h Ã¢ne
Ġbek len
ĠkÄ±r k
deÄŁiÅŁ tir
Ġsamim Ã®
Ġsamim iyet
sÄ±ra sÄ±nda
Ġboyun ca
Ġtazmin at
Ġrej im
Ġmes ele
ĠÃ¼zÃ¼n tÃ¼
yav aÅŁ
Ġkabil iyet
A V
I Z
K an
b oyun
c Ä±m
d Ã¼l
h Ã¼k
i stan
s em
s aydÄ±
t el
y aÅŁ
y akÄ±n
Ġb er
Ġb iÃ§
Ġb oy
Ġd an
ak a
Ġy arÄ±
Ġt erk
Ġi y
ĠB arÄ±ÅŁ
Ã¼n deki
le ye
sÄ± r
ĠK astamonu
ĠM ichel
ĠÃ§ Ã¼nkÃ¼
ĠÅŁ unu
dir en
ĠH iÃ§
ĠH ÃľKÃľ
te den
Ã¶z el
Ġal Ä±p
Ġal Ã§ak
Ġet mesi
Ġver ilecek
ka tÄ±l
Ġbulun masÄ±
as ker
ĠiÅŁ it
ĠgÃ¶rÃ¼ÅŁ leri
iniz den
Ġkur ulu
Ġbildir di
ĠgeÃ§ mek
Ġdev r
ĠÃ Ĥ
Ġola ÄŁanÃ¼stÃ¼
ĠaÃ§Ä±k tan
Ġkarar laÅŁtÄ±r
Ġtaraf tan
Ġyol unu
gÃ¼n e
eh met
Ġara da
Ġara sÄ±ndaki
alÄ± ÄŁÄ±
Ġtoplan an
Ġgetir ilmesi
ĠbaÄŁ lantÄ±
ĠsÃ¶yle yerek
ĠkÄ± yÄ±
ĠgÃ¶z den
Ġordu su
Ġra st
Ġc esaret
Ġbilg ileri
MA K
Ġkay b
Äŀ Ä°
Ġdeniz in
Ġhay siyet
Ġpar Ã§
Ġtan Ä±n
Ġyak laÅŁ
Mecli si
ĠÃ§Ã¶z Ã¼me
durum u
bel li
Ġas lÄ±nda
Ġtaarruz a
ĠaÅŁaÄŁÄ± da
ĠanlaÅŁÄ± lÄ±yordu
Ġdok uz
ladÄ±k tan
........ ........
Ġpr en
ĠedeceÄŁ im
oc uk
Ġitir af
Ġolmaz sa
Ġdo laÅŁ
ĠÃ§ev ir
biÃ§ im
ĠfelÃ¢ ket
ĠMÃ¼fettiÅŁ liÄŁi
A v
D olayÄ±sÄ±yla
H ill
L ozan
M illi
O M
S a
c uluÄŁ
h ut
m Ã¼r
t emel
Ġ W
Ġ âĢľ
ar d
Ġb ay
ma masÄ±
ak ar
el de
la s
di p
de ce
Ġh enÃ¼z
me dim
le meye
Ä±ÅŁ Ä±
ĠK erim
ĠgÃ¶ k
Ġde dik
ay dÄ±n
Ã¼r lÃ¼k
ta mam
ĠgÃ¶r Ã¼yor
Ġn am
lan arak
Ġal ma
Ġal dat
Ġet k
Ġbil im
Ġver ir
ĠiÃ§in deki
us unu
lÄ±k lar
eÅŁ tir
iyor lardÄ±
ĠD elegeler
Ã¼l Ã¼k
Ã¶r d
man Ä±
ĠY Ã¼z
ĠY AP
ĠY usuf
Ġmillet inin
ĠÃ¼zer inden
ĠiÅŁ birliÄŁi
Ġuy arÄ±
Ġne dir
Ġbildir ilmesi
Ġvar mÄ±ÅŁ
una caÄŁÄ±m
Ġtarih Ã®
eceÄŁ inden
mer kez
Ġyan Ä±nda
Ġyan Ä±ma
Ã¢z Ä±ÄŁ
AN LI
Ġyaz dÄ±r
duk tan
yap Ä±lan
Ġyet kili
esin deki
ĠkÄ± ya
om obil
Ä±yor lar
top lantÄ±
Ġman tÄ±k
Ġkurul masÄ±
Ġkurul muÅŁ
tiÄŁ imiz
Ġdi sip
ĠdeÄŁiÅŁ ik
ĠyÃ¼r Ã¼
uÅŁtur ma
umlu pÄ±n
Ġkend ine
Ġibaret tir
ĠhatÄ±r lat
Bunun la
Ġdemek tir
ĠkÄ±s m
lab alÄ±k
ĠÅŁar tÄ±yla
cev ap
ĠimzasÄ± yla
ÅŁekil de
umlupÄ±n ar
B atÄ±
E Ãĩ
E them
N urettin
b oz
b ancÄ±
c er
g em
h us
k o
k Ã¢r
o h
u c
Ġ maz
Ġ ekle
ar an
in di
Ġb i
Ġb or
Ġb es
il gili
ÄŁ Ä±nda
Ã§ ekil
Ã§ aÄŁ
ma dde
Ġk az
la tÄ±l
Ġs ef
Ġy at
Ġt en
Ġh usu
aÅŁ kÄ±n
Ġm is
iÅŁ te
ec i
Ã¼r b
ab et
ĠgÃ¶r dÃ¼m
Ġn in
Ġn az
ok sa
Ä±z Ä±l
Ã¶n Ã¼nde
sa d
Ġal dÄ±
ĠT op
ĠS eÃ§
uy gu
Ġz ayÄ±f
Ġbulun du
Ġbulun mak
Ġist emiÅŁ
Ã¶r f
ĠC elÃ¢lettin
ed erim
ĠN azÄ±r
ĠÃ¼zer indeki
Ġar t
Ġar aÅŁtÄ±r
ĠiÅŁ ler
ĠiÅŁ te
Ġin kÄ±l
Ġgerek tiÄŁini
ĠAn laÅŁmasÄ±
Ġkur ma
ĠgÃ¼ cÃ¼
Ġbiz den
ĠÃ§Ä±k arÄ±
ĠdÃ¼ÅŁÃ¼n Ã¼l
Ġel inde
Ġhal ife
Ġbildir en
Ġvar lÄ±ÄŁÄ±
ĠdoÄŁ r
ladÄ± ÄŁÄ±m
baÅŁ Ä±na
Ġkarar lÄ±
Ġtaraf ta
ĠV ER
eli ÄŁi
Ġyol undaki
Ġyan a
Ġu f
Ġhak larÄ±nÄ±
gel iÅŁ
Ġl Ã¢zÄ±m
Ġgetir mek
Ġsor un
ĠmÃ¼ racaat
ĠsaÄŁ lanmasÄ±
Ġyet kiler
tÃ¼ ÄŁÃ¼
Ġede yim
lÃ¢ n
Ġnokta larÄ±
Ġra zÄ±
ĠanlaÅŁ maz
ĠdÃ¼ÅŁÃ¼nc esi
ĠyÃ¶n elt
ba ÄŁÄ±msÄ±z
ĠL ozan
ĠkÃ¶ t
ĠdeÄŁiÅŁ iklik
Ġhay al
LER Ä°N
Ġmec lis
Ġmakam Ä±nÄ±n
Ġkendiler inin
Ġihti ma
edi z
Ġhalk Ä±nÄ±n
ĠkÄ±sa ca
Ġsonu ca
Ġbilgiler e
Ä°Y OR
ĠkaldÄ±r Ä±lmasÄ±
ĠanlaÅŁÄ± lÄ±yor
Ġuygu lama
ĠboÅŁ al
ĠKAR ÅŀI
192 1
Ä°z mir
Ġdest ek
Komutan Ä±
ĠGÃ¶r Ã¼ÅŁ
Ġtemsilci si
hareb esi
lib re
ĠDÃ¼ÅŁ man
Kur ulu
ĠmaksadÄ± yla
Temsil iye
G Ã¶z
I I
O ysa
a caÄŁÄ±mÄ±z
b inde
c Ä±nda
f ran
g ece
g erÃ§ekten
k em
m is
n it
r oÅŁ
s ur
s Ã¶y
s eb
Ġ )
er li
Ġb Ã¼s
ir et
Ã§ iz
Ã§ ap
Ġk it
un Ã§
al lÄ±
Ġt emiz
me diÄŁini
ĠB alÄ±kesir
ul tan
Ġa Ã§a
iy ecek
Ä° Åŀ
em o
ĠÃ§ abuk
ĠÅŁ an
ol un
ol la
ĠA dana
iler le
ĠgÃ¶r mÃ¼ÅŁ
Ä±r sÄ±z
ad aki
ĠE ski
ĠE dirne
dÄ±r mak
bil gin
Ã¼l dÃ¼ÄŁÃ¼
imiz den
ĠY Ã¶netim
Ġsonra dan
ed eki
ĠO rada
ĠF et
is inde
ĠgÃ¼ ver
Ġtop l
Ġel ine
ep ey
sÄ±nÄ± r
Ġbildir miÅŁ
bu ki
Ġedil diÄŁi
Ġkarar larÄ±
Ġkarar gÃ¢h
eceÄŁ imi
len miÅŁ
Ġem ret
lÄ±ÄŁ Ä±ndan
Ġyaz dÄ±ÄŁÄ±m
caÄŁÄ± z
ĠÃ¶ ÄŁr
Ġka fa
ĠÅŀ er
ĠÅŀ eyh
ama t
ĠkÄ± sÄ±m
Ġgir di
geÃ§ en
Ġgem iye
iya de
Ġkan unun
Ġba sit
Ġedi yorum
Ġdikkat ini
gÃ¶z Ã¼
ĠÅŁart larÄ±
ĠhÃ¼k um
Ġter tip
Ġbura dan
Ġinsan lar
ĠÃ¼y elerinin
ĠÃ§ar e
Ġbekle mek
Ġayr Ä±ldÄ±
ĠetmiÅŁ tim
ĠÃ¶l Ã§Ã¼
Ã¼mÃ¼z Ã¼
Ġaleyh ine
ĠBiz im
Ä±t ladÄ±
Ġko v
ĠÃľ Ã§
Ġmaksa d
ĠBÃ¶yle ce
IR I
ĠkiÅŁ inin
ĠPar is
Ġkamuoy unu
Ġtah min
ĠSon ra
Ġku w
ĠÃ¶r nek
Ġitir az
ton e
ĠSa it
ĠÃ¼l k
BÃ¶yle ce
Ġderec eye
buy ur
Haz retleri
ĠZÃ¢tÄ±ÅŁ Ã¢hÃ¢ne
Ã¶rf ez
roÅŁ Ã¼r
ĠbÃ¼s bÃ¼tÃ¼n
4 0
B un
D ah
D oÄŁ
I Åŀ
K ar
M Ä°L
R A
T elgraf
V e
Y ar
b or
c ut
f i
g eri
g Ã¼zel
k alÄ±
n et
t es
t iyet
t arÄ±
y ecek
ar tÄ±k
an ka
in ir
Ġb atÄ±
Ġd Ã¼
Ġd olu
Ġd eleg
Ġd Ã¼nyanÄ±n
Ġk oÅŁ
Ġg arip
Ġg elerek
Ã¶ ÄŁren
la ÅŁÄ±
Ġs adrazam
Ġy e
Ġy ah
ler ek
Ġh Ä±r
Ġh esap
tÄ± p
lÄ± yorum
st ur
Ġol maya
Ġol masÄ±nÄ±
dan Ä±n
ĠM ak
ĠM Ã¶syÃ¶
ĠM ehmet
ĠÃ§ iz
Ã¼z Ã¼k
iler ine
Ġda hil
ĠH oca
bir lik
mÄ±ÅŁ lardÄ±
Ġal maya
ĠbaÅŁ layan
ĠbaÅŁ lÄ±ca
ĠE f
ka s
Ġbulun muÅŁ
Ġyap an
Ġyap tÄ±r
Ġyap Ä±lma
ĠdÃ¼ÅŁ en
Ġist ey
Ġp eÅŁ
ĠY oksa
ed erek
ĠG eneral
ĠR ecep
ĠgÃ¼n den
Ġgerek iyordu
Ġbiz ce
Ġtelgraf a
Ġtelgraf han
lÄ±ÄŁÄ± yla
ĠdoÄŁ u
Ġtaraf Ä±mÄ±zdan
Ġyan Ä±l
Ġhak imiyet
ĠÃ§alÄ±ÅŁ mak
Ġ1 6
Ġ1 7
siz e
Ã¢z Ä±r
tik leri
tik Ã§e
hal inde
mÄ± yordu
Ġkuvvet ler
Ġsor umlu
Ġiste di
ĠsÃ¶yle mek
ĠsÄ± fat
Ġsav unma
Ġbul dum
ĠdÃ¶n Ã¼ÅŁ
Ġtedbir leri
Ġmu tasarrÄ±f
ĠÃ§ekil en
ĠarkadaÅŁ lar
Ãĸ z
Ġdikkat i
gÃ¶z lem
lerimiz in
mem iz
Ġzar arlÄ±
ĠyazÄ± lÄ±
ĠNÃ¢z Ä±r
muz un
kendi sine
Ġkanun Ã®
ĠEkim de
gÃ¼ c
Ġkend iliÄŁinden
Ã§alÄ±ÅŁ ma
Ġkazan mÄ±ÅŁ
dÃ¼k ten
Ġora daki
Ġdir ektif
ben im
Ã¢tÄ± devlet
Ġac aba
mes inde
mes inden
Ġmanda ter
acaÄŁÄ± z
ĠtartÄ±ÅŁ ma
ĠPar tisi
ĠSon unda
ĠBaÅŁkomutan lÄ±k
Ã§evr esinde
ĠÄ±ÅŁ Ä±k
tarih inde
ĠÃ¶ner g
ĠGÃĸR ÃľÅŀ
Genel kurmay
Ġiti bar
Ġzih niyet
ĠHÃ¼kÃ¼met i
ĠtÃ¼f ek
ĠHÃľKÃľ MET
Ġpren sip
A masya
B una
D Ã¼ÅŁ
K endi
M emleket
O nun
R U
b Ã¼y
g ar
g enel
k am
m illÃ®
t Ä±na
u larak
v atan
y aÅŁa
y olu
Ġ Ä±n
Ġ akÄ±m
ÅŁ ehir
an lÄ±k
ir se
Ġk ez
Ġg Ã¼t
Ġv a
ak Ä±l
la makta
Ġy Ä±lÄ±
di yordu
ler se
Ġi miÅŁ
li sin
ĠB urada
or gan
Ġa dÄ±m
Ä° LÄ°
Ä° kinci
Ġol muÅŁtu
ra st
es ef
iÅŁ tir
at or
ay yar
ĠM er
ĠM olla
ĠA sker
ĠA fyonkarahisar
ab ilmesi
am b
am Ä±ÅŁ
Ã¼z ce
ĠÄ° Ãĩ
ara ya
lan acak
Ġal Ä±yordu
Ġver ilmesini
Ġz ul
Ġan t
ka tÄ±
Ġyap tÄ±k
iyor lar
Ġed ilerek
ĠD eniz
oÄŁ uk
Ġp en
Ġkon trol
iÃ§ er
as eb
ĠG emi
av allÄ±
ĠiÅŁ gali
Ġyer lerde
uÅŁ ma
Ġdurum una
Ġvar lÄ±k
dik Ã§e
ne ÄŁin
ret tin
Ġtaraf sÄ±z
Ġyar Ä±n
gel ince
ĠgÃ¶nder ilmesini
LE N
Ġiste dim
Ġim ti
abil eceÄŁi
ĠBir leÅŁik
ĠDevlet ler
Ġnokta ya
Ġha ince
kon usu
Ġc emiyet
yer de
Ġilk e
Ġdevlet lerin
ĠdÃ¼ÅŁman Ä±n
ili ÄŁi
Ġolay Ä±
Ġolay larÄ±n
IN A
Ġbun alÄ±m
Ġmilletvekil leri
teÅŁ ebbÃ¼s
ri d
Ġadam Ä±n
ĠyÃ¼r Ã¼y
suz luk
ĠHal k
Ġkimseler den
ĠmÄ± dÄ±r
Ġinc elen
Ġsev gi
ĠyaptÄ± ÄŁÄ±mÄ±z
Ġbas tÄ±r
Ġettik leri
ĠdÃ¼ÅŁÃ¼nceler ini
dak ika
Ġoy un
biz e
Ġtay fa
Ġmut l
Ġkork unÃ§
fett iÅŁi
ĠhaberleÅŁ me
gÃ¼Ã§ lÃ¼k
Ġbek ler
Ġuyan Ä±k
ĠateÅŁ kes
ĠfedakÃ¢r lÄ±k
Ã¼zÃ¼ ÄŁ
Ġkad er
ĠYunanlÄ± lar
El bette
manÄ±z Ä±
kun Ã§
ĠsÄ±r f
Ġhis set
ĠAnt laÅŁmasÄ±
Ġca hil
Ġmuk ad
Ġsef er
ĠFet hi
aseb etle
B ekir
C elÃ¢lettin
E kim
H emen
L AÅŀ
P adiÅŁah
S av
T A
V er
Y AN
c alÄ±
g iz
g azet
h Ã¢
h endi
m Ã¼yor
p r
p am
s iy
t ay
u laÅŁ
y ine
z e
Ã¼ cÃ¼
an ik
Ġb al
ÄŁ Ä±nÄ±n
et miÅŁ
Ġd iyordu
Ġk ahraman
Ġo ya
Ġt at
Ġi f
Ġbir leÅŁtir
Ġh az
me sel
me miÅŁti
ĠB ur
Ã¼n asebetle
or e
or dunun
ul duÄŁu
lÄ± lar
Ä° ST
Ġol uyor
ĠK UR
Ġde me
ĠM E
Ä±nÄ± za
ĠÃ§ ap
ĠÅŁ ikÃ¢yet
ol mak
Ä±l maktadÄ±r
ĠH ak
bir takÄ±m
Ġn ot
te st
ĠT ayyar
ĠS el
ĠS uriye
Ġver ecek
met i
tÄ±r Ä±
Ġyap Ä±lmasÄ±nÄ±
Ã¼t b
ĠD amat
Ġgel diÄŁini
Ġgi den
Ġolan larÄ±
ĠC afer
ĠY ap
ĠY Ã¼ce
ih ti
kan Ä±t
ĠgÃ¶rÃ¼ÅŁ Ã¼l
eb b
Ġce zalan
yi ÄŁit
Ġkal Ä±n
Ġkal mak
ne den
Ġedil miÅŁtir
ĠaÃ§Ä±k laya
ken t
gÃ¼n Ã¼n
Ġhareket i
Ġyaz ar
af kas
Ġkuvvet lerini
Ġsay esinde
ĠmÃ¼ fettiÅŁ
ĠsaÄŁ laya
Ġyet in
Ġes er
Ġes eri
dÃ¼ÅŁ Ã¼r
ist en
yar at
Ġvatan daÅŁ
Ġdur dur
top lan
ĠdÃ¼ÅŁÃ¼nc eleri
Ġilk eler
dÃ¼ÄŁ Ã¼m
Ġak la
Ġsa dece
Ġgit mek
Ġgit miÅŁ
Ġgit tim
lerimiz e
MA S
Ġkap Ä±
fer sah
ĠkaÃ§ Ä±nÄ±l
ĠyÃ¼r Ã¼rlÃ¼k
Ġmakam Ä±
ĠAy nÄ±
Ġteh di
ĠÅŁÃ¼ph esiz
ĠbaÅŁkan lÄ±k
Ġer tesi
ĠbaÅŁarÄ± ya
Ġser t
durum da
Ġbilin mektedir
millet in
Ġmerkez i
ĠmeÅŁ gul
UR UM
Ä°Y E
ĠAv ni
Er tesi
Ġbit ir
Ġsar sÄ±l
yok tu
Ġedecek tir
ĠteÅŁkilÃ¢ ta
ĠÅŁahÄ±s larÄ±n
Ġtemsilc ileri
Ġtel kin
Ġkurtar mak
Hal ife
Ġbah set
ses le
Ġner ede
ĠMar eÅŁal
Ġarka sÄ±ndan
yÃ¼k sel
ĠÄ°Ã§ iÅŁleri
ĠalÄ±na cak
ĠGÃ¼n ey
Ã¢b Ä±
ĠMÃ¼dÃ¼r Ã¼
ĠhÃ¼c um
ĠkÄ±ya fet
ĠboÅŁal tÄ±l
Ġyah ut
amb rid
ambrid ge
! "
2 1
B Ä°R
K ab
K olordu
O n
S adrazam
T exas
U F
Z aten
e ma
g ulan
i ÄŁer
o sta
o va
p Ä±r
r uk
t us
u ÄŁ
u le
v asÄ±
v azgeÃ§
y ola
an ya
il mek
en lerin
Ã§ iler
Ã§ esi
Ġd ar
Ġk op
Ġs unacaÄŁÄ±m
Ġy ur
Ġy edi
Ġy oÄŁun
al tim
Ġo ÄŁ
da ÅŁÄ±
Ġh Ã¼rriyet
me v
ya ver
Ġa m
Ġa labil
ey se
Ġm us
ĠK AB
Ã¢ t
ol ma
ol sa
ab eri
ce ph
tan Ä±
ta v
ĠH ay
duÄŁ una
Ġal Ä±nÄ±
Ġson a
ĠS iz
uy un
Ä±m dan
Ġver meye
Ġver ilmiÅŁ
ah r
bil eceÄŁini
Ġyap arak
ĠD umlupÄ±nar
Ġkon unun
iÃ§ ine
ĠC E
ed d
ĠG ediz
ilme z
ilme sinin
Ġar amÄ±zda
ĠiÅŁ le
ĠO R
ĠgÃ¶rÃ¼ÅŁ Ã¼
Ġr ol
diÄŁ inde
Ġkur u
yan Ä±tladÄ±
der in
Ġel eÅŁtir
ĠsÃ¼r dÃ¼
ĠsÃ¼r dÃ¼r
Ġtarih lerde
Ġyar gÄ±
Ġhak kÄ±n
Ġara ya
Ġyok sun
lama dan
Ġkuvvet lerinin
yÃ¼z Ã¼nÃ¼
yap Ä±
ĠbaÄŁ daÅŁ
ĠHÃ¼kÃ»met in
Ġkonu larda
ĠgÃ¶z e
ĠgÃ¶z Ã¼k
karÅŁÄ± sÄ±nda
Ã¼st Ã¼n
ĠanlaÅŁ masÄ±
yer leÅŁtir
Ay nÄ±
gerek iyordu
ĠgÃ¶rÃ¼l dÃ¼
ĠL ondra
ĠkÃ¶ k
Ar alÄ±k
Ġveya hut
Ä±lÄ± p
ĠsonuÃ§ lar
ley erek
ĠAy rÄ±ca
Ġgerekir di
luk la
ĠÃ¶l Ã§
gÃ¶rÃ¼ÅŁ meler
ME SÄ°
ĠSal tanat
Ġettik ten
Biz im
Ġimk Ã¢nÄ±
ï¬ Ĥ
Ġanlam sÄ±z
Ġdil ek
ĠsaldÄ±rÄ± ya
ĠJ andarma
ĠgÃ¼c Ã¼nÃ¼
hey ecan
ĠEl Ã¢zÄ±ÄŁ
ekÃ¢ let
ĠzÃ¢tÄ± devlet
ĠÅŀu bat
Bakan lar
yay Ä±n
Ġcanav ar
Ġdiy erek
EÅŀ K
andÄ±r ma
ÃľR K
ĠMal iye
meliy im
ĠkayÄ±t sÄ±z
Ġsil ah
ĠNazÄ±r Ä±
fran k
altim ore
3 9
A k
B urada
E ÄŁer
H ar
H Ã¼seyin
T op
Y Ã¼ksek
a if
b una
b undan
j i
k ul
l ek
m Ã¼mkÃ¼n
r elik
s arÄ±
s akÄ±n
t ap
t eklif
t aÅŁÄ±
Ġ Ã¼
Ã¼ ven
an an
en ler
et e
Ã§ uk
ma tÄ±
Ġk il
Ġg Ã¼r
Ã¶ bÃ¼r
Ġv ekili
Ġt Ã¼meni
di yor
ler imi
me ÅŁ
ĠB unda
ĠB elki
ya bancÄ±
Ġa la
Ġa ta
Ä±ÅŁ Ä±n
em enin
ĠK ap
ol sun
Ġil Ã¢
bir bir
ara sÄ±
ara fa
Ġn Ã¢zÄ±r
Ã¶n Ã¼
te dir
lan n
Ġal da
miÅŁ lerdir
Ġet mekte
Ġbil ir
ĠS ar
ĠS er
ĠbaÅŁ la
ah rettin
us uz
Ã¼m Ã¼ÅŁ
Ġed in
Ġed elim
ĠD EV
Ã¼l t
Ã¼l tÃ¼
Ġp at
Ġgel ir
ecek leri
ĠY arb
aÄŁ aÃ§
Ġay Ä±r
Ġgerek siz
eb olu
ĠgÃ¼ v
Ġel den
Ġhal ka
Ġkal Ä±r
ladÄ± ÄŁÄ±nÄ±
Ġedil ir
baÅŁ Ä±nda
ĠsÃ¼r Ã¼len
maz dÄ±
Ġkarar Ä±n
Ġu laÅŁtÄ±r
meler inin
Ġmak in
mey erek
alÄ± ÄŁÄ±n
Ġl Ã¢
Ġl Ã¼z
Ġkuvvet in
ĠMillet in
Ġgetir meye
ĠmÃ¼ st
ĠsaÄŁ layacak
Ġma ddÃ®
ĠÅŁey den
ede ceÄŁ
ĠBir kaÃ§
Ġkims eye
ĠbÄ±rak mak
Ġha ya
Ġkomutan larÄ±n
Ġc in
ĠTemsil iyesi
ĠÅŁah sen
Ġsiz i
kal Ä±n
ĠdÃ¼ÅŁman a
IN I
Ġsan cak
Ġkurul an
ĠgÃ¶rÃ¼l mÃ¼ÅŁtÃ¼r
deÄŁ ildi
ĠZ iya
yol cu
Ġdayan an
Ġseb eb
Ġseb ebi
Ġgay eye
Ä±lma sÄ±ndan
Ġgen elge
ĠdeÄŁer lendir
ĠdÃ¼nya ya
ĠEylÃ¼l de
Ġuzak laÅŁtÄ±r
ĠaÃ§Ä±klama lar
Ġeski den
ĠgÃ¶rÃ¼ÅŁmeler in
tak dir
ĠyakÄ±n larÄ±nda
ĠsaygÄ± deÄŁer
alt mÄ±ÅŁ
hak kÄ±nda
Ġot omobil
Ġek s
ĠiliÅŁ k
karar laÅŁtÄ±r
ĠPar ti
ĠtabiÃ® dir
Ġli st
Ġboz gun
Ġuyan dÄ±r
Ġkamuoy unda
Ġetki si
HÃ¼kÃ»met i
rÃ¼ b
ĠBun lar
iÄŁ it
Ġgide cek
Ġgru bun
Ġkongr enin
ĠHar p
ĠÃ§aÄŁ daÅŁ
Ġmeden Ã®
Ġmeden iyet
Ġikti dar
dÃ¼rb Ã¼n
Ġmecburiyet inde
Ġtu tan
Ä°t ilÃ¢f
uÄŁr aÅŁ
ĠÄ°tal yan
lemev i
Ġdeme Ã§
test o
) '
A hmet
C emiyet
D Ä°R
G R
H UR
O k
S an
T Ä°N
c h
d iniz
i dar
o lacaktÄ±r
p ey
s ayÄ±
t or
z an
Ġ !
Ġ ey
Ġ ï¬ģ
Ġ Ã¼ye
il iyor
et ki
et leme
Ġd Ã¼n
Ġd ay
Ġd arb
Ġk eÅŁ
Ġk eli
Ġk estir
ak ÅŁam
Ġy umuÅŁ
Ġt Ã¼r
Ġt ren
ler deki
Ġbir den
Ġh as
Ġh aberi
me diÄŁim
ĠB azÄ±
ĠB olu
ĠB oÄŁaz
le di
ul maz
iy aret
lÄ± p
Ä° yi
Ä±ÅŁ tÄ±r
em mel
Ġm Ã¼nasebetle
ĠK Ã¼Ã§Ã¼k
Ã¼k emmel
ĠÅŁ aÅŁÄ±r
ĠÅŁ imdilik
Ġbu y
Ġbu dur
ĠA R
iler inin
ĠÄ° LE
ĠH emen
ara sÄ±ndaki
Ġn a
ĠP on
mÄ±ÅŁ tÄ±k
lan ma
Ġal dÄ±ÄŁÄ±nÄ±
Ġet miÅŁtir
ad alÄ±
ah det
bil imsel
endi k
endi ÄŁi
Ġz atÄ±
Ġbulun acak
Ġbulun duÄŁum
ĠD iyarbakÄ±r
Ġist emiyor
Ġgel miÅŁti
as yon
Ġolan larÄ±n
ĠG erek
ĠN ihayet
ĠN emo
ilme mesi
Ã§Ä±k an
Ã§Ä±k tÄ±
ĠiÅŁ lerine
Ġyer ini
ĠR us
ĠgÃ¼n Ã¼n
Ġkur may
yan a
Ġdurum dan
Ġtop lamak
Ġtelgraf lar
Ġtelgraf Ä±nÄ±
Ġtelgraf Ä±na
madÄ± ÄŁÄ±ndan
Ġkal k
bu gÃ¼nkÃ¼
ĠBaÅŁ bakan
ef ik
kar deÅŁ
tu ÄŁu
Ãľ Y
Ãľ Ã§
meler ine
sk oca
mÄ± yorum
yÃ¼z den
duk Ã§a
Ġiste diÄŁini
Ġyet en
ĠyÃ¼z ey
ĠyÃ¼z yÄ±l
Ġeder ken
ede cek
ĠMÃ¼ fettiÅŁi
kur tar
bulun duÄŁunu
ĠanlaÅŁ Ä±lmÄ±ÅŁtÄ±r
eÄŁ en
ĠbÃ¶lg ede
ĠMu harebesi
mÃ¼ÅŁ tÃ¼
ĠgÃ¼Ã§ lendir
Ġbelir li
ĠÃ§ekil di
ĠÃ§ekil mek
gerek li
Ġceph eye
ĠÅŁart tÄ±r
Ġkay bet
Ġoldu bit
Ġemir ler
Ä±lÄ± ÅŁ
Ġinan Ã§
Ġhay Ä±r
Ġgen elg
Ä±nÄ±z dan
ĠÃĸ n
Ġkendiler i
Ġya sama
Ġkimseler e
ĠvasÄ± f
Ġmer mi
Ġdin Ã®
millet vekil
ĠgÃ¶rÃ¼ÅŁmeler e
Ġhep si
ĠSal Ã¢hattin
ĠtoplantÄ± da
dÃ¶n Ã¼ÅŁ
Ġuygu lamaya
ĠsÄ±nÄ±r larÄ±
inc eye
Ġot or
mes iyle
iklÃ¢ l
Ġanlat mak
ĠdÃ¼zen li
ĠsÄ±k Ä±
Ġyen il
bÃ¶yle ce
Ġli der
Ġuygulan masÄ±
ĠaÅŁ iret
ĠhÄ±z la
hÄ±z la
ĠBun larÄ±n
Ġada mÄ±
Ġmektup ta
Ġdest ekle
Ġmet re
ĠHÃ¼k um
Or du
UM HUR
kÃ¶ ÅŁ
lÄ±ÄŁÄ±mÄ±z Ä±
ĠzÃ¢tÄ± Ã¢lÃ®
Ġpolitik a
konu da
Ġtazmin atÄ±
Ġgidi ÅŁ
ĠMutasarrÄ±f Ä±
Ġciddi yet
Ġmil yon
Ġunu t
ĠbaÅŁlan gÄ±Ã§
ĠÃĸz ellikle
ĠHam di
ĠBAÅŀ K
ĠeÄŁil im
ĠHat tÃ¢
Ġj andarma
Ġhes ab
OM UT
Ġnaz ik
ĠSeÃ§ im
ĠME CLÄ°
ĠhakkÄ±n daki
ĠYarb ay
ahdet tin
3 5
3 7
3 8
A SI
C eph
D eniz
G eneral
I e
K ara
P H
S ayÄ±n
S Ã©vres
T AN
T rakya
U S
Y an
b urada
c Ä±nÄ±n
d olu
d denin
k ut
m Ã¼thiÅŁ
n ik
o da
p o
r ika
s ap
s up
t em
t mak
t ilÃ¢
Ġ Ã¼r
ÅŁ ak
ar ka
ar ih
an Ä±
Ġb ar
Ġb ey
Ġb oÄŁ
en e
ÄŁ ini
et tir
et imiz
Ġd Ã¼rb
ma ma
Ġg e
Ġs ol
Ġs akat
Ġs inir
Ġy alan
Ġy atÄ±ÅŁ
al dÄ±
Ġt Ã¼m
Ġt akÄ±n
im den
iz li
ya bil
Ġa p
Ġa il
iy se
Ä° ÅŁ
Ä° Ã§
Ä° st
ey dan
em iyordu
ĠK afkas
at Ã§Ä±
ay la
ol mayan
ol madÄ±ÄŁÄ±nÄ±
Ġe fendiler
ĠA z
ik ri
ĠH ep
si ya
sÄ±n tÄ±
lan masÄ±nÄ±
Ġal Ä±k
Ġal dÄ±r
Ġal dÄ±k
it ir
Ġkar ak
Ġet miÅŁti
ad de
ad Ã¼f
ah h
ah ÅŁ
ah met
Ġyap ma
ĠBu gÃ¼n
Ã¼l k
Ġp er
Ã» r
ĠolduÄŁ umu
ecek siniz
Åŀ u
ĠG Ã¶z
ĠG rup
ÄŁÄ±m Ä±
eni p
ĠgÃ¶rÃ¼ÅŁ Ã¼nde
ilÃ¢ n
yan usu
Ġdurum unu
der at
ĠsÃ¶z e
Ġon lar
Ġon lara
ĠÃ§Ä±k acak
ĠdÃ¼ÅŁÃ¼n erek
Ġkal mÄ±ÅŁ
lerin deki
Ġben z
ne ÄŁi
Ġedil ebilir
Ã¼rk en
leÅŁ miÅŁ
ĠV ekil
eceÄŁ imizi
Ġzaman Ä±nda
ĠteÅŁ ebb
ĠgÃ¶rev lerini
dÃ¼ ler
mey eceÄŁini
Ä±ldÄ± ÄŁÄ±nÄ±
Ġad alet
Ġyaz Ä±lmÄ±ÅŁ
hal k
bilir im
Ġkuvvet i
kim i
Ġka lacak
Ġsay fa
liÄŁ inde
ĠmÃ¼ sa
kÄ± yÄ±
ĠÅŁey ler
dÃ¼ÅŁ Ã¼nÃ¼
ĠseÃ§ il
ĠgÃ¼ven ce
yar arlÄ±
ĠÃĩ ok
bulun duÄŁu
Ä±mÄ±z da
ĠÄ°n ebolu
eÄŁ ini
ĠbÄ±rak arak
kal e
ile bil
Ay rÄ±ca
Ġtek er
ĠdÃ¶n mek
Ġtedbir lerin
oz gat
ĠbÃ¶yle ce
tÃ¼r lÃ¼
Ġbun lara
ba sit
gÃ¶z Ã¼k
Ġdayan dÄ±ÄŁÄ±
ĠÅŁart sÄ±z
ĠkÃ¶ ÅŁ
elÃ¢ l
ĠbaÅŁladÄ± m
Ä±lÄ± yordu
Ġadam larÄ±
Ġgen soru
ĠbaÄŁlÄ± dÄ±r
Ä±nÄ±z da
Ġyak alan
Ġbin baÅŁÄ±
ĠteÅŁebbÃ¼s lerde
ĠsÄ±ra sÄ±
Ġsebep ler
Ġtab ur
zaman da
Ġayr Ä±l
ĠÅŁekl inin
Ġtehlik eye
emiz i
Ġbunun la
Ġhat ta
Ġzor la
Ġsubay lar
ĠU z
ĠtoplantÄ± ya
ĠbaÄŁÄ±msÄ±z lÄ±ÄŁÄ±nÄ±
Ben im
larÄ±m la
sav vur
LI K
EK LÄ°
ĠI rak
ĠÃ§evr esinde
ĠAk sine
Ġyetki si
ĠgÃ¶rÃ¼n Ã¼ÅŁ
Ġemr ine
ĠKAR ARI
Ġdil le
192 3
madÄ±k Ã§a
Devlet leri
do lar
yeni den
ĠEl bette
ĠzarurÃ® dir
hay van
ĠMar aÅŁ
ĠÃ§arp Ä±ÅŁ
Ġkorun masÄ±
dÄ±ÅŁ arÄ±
lÃ¼ÄŁ Ã¼nÃ¼
ĠAs lan
Ã§ar p
Ġgaf let
gez egen
Ġun sur
tartÄ±ÅŁ ma
ĠCumhurbaÅŁkan Ä±
Ġoturum da
boyun ca
Ġnam us
ĠYÃ¼z baÅŁÄ±
Ġdisip lin
Ġhusu sta
Ġkuw et
Yar kurul
Ġzul Ã¼m
hendi s
pam uk
Ġtehdi t
ĠlÃ¼z um
takdir de
UMHUR Ä°YET
' s
. ''
C Ä°
E fendim
E SÄ°
G emi
M ak
O ndan
S tone
T E
T rabzon
T eÅŁkilÃ¢t
V atan
Y eni
b al
b ey
b atÄ±
d un
d Ã¼nyanÄ±n
g az
g Ã¼t
i g
m iyordum
p ara
s aygÄ±
y n
Ġ ..
Ã¼ yorum
Ã¼ lerek
ÅŁ art
ÅŁ aÅŁÄ±r
ar uz
in can
en le
Ã§ eÅŁitli
ma da
Ġk Ã¢
Ġk Ä±z
Ġk ere
Ġs ap
Ġy as
al ya
Ġt or
de st
Ġi diler
Ġi vedi
ĠB ana
ĠB Ã¶lg
ĠB andÄ±rma
Ã¼n ce
im za
ya ÄŁÄ±
or a
Ä° S
Ä° ki
Ġol masÄ±na
es as
Ã¢ p
Ã¢ de
ĠÅŁ aÅŁkÄ±n
mak sa
ĠA t
let mek
ĠÄ° S
ĠgÃ¶r Ã¼r
ĠH av
ĠH Ã¼rriyet
eler iyle
ĠiÃ§ er
lan nÄ±
lan dÄ±ÄŁÄ±nÄ±
Ġal Ä±r
Ġet kiler
Ġbil iyor
ĠS ab
Ġver dik
lik leri
us ur
lÄ±k larÄ±na
ha van
Ġp lÃ¢n
Ġp iyade
Ã» n
ecek lerini
ĠY an
ed ilmiÅŁ
ĠG azi
Ġmillet imiz
ĠiÅŁ lerini
Ġyer siz
ĠO ra
ĠO nu
ĠF ahrettin
ĠF ikri
kan un
ĠgÃ¶rÃ¼ÅŁ e
eb ze
Ġr Ã¼tb
Ġkur maya
Ġdurum umuz
gi der
ĠsÃ¶z leÅŁ
ĠsÃ¶z lerini
ĠÃ§Ä±k art
Ġkal dÄ±
ĠdoÄŁ ura
Ã¶l Ã§
Ã¶l dÃ¼r
Ã¶l Ã§Ã¼
Ġkendi mi
ladÄ± lar
Ġtarih e
Ġkarar sÄ±zlÄ±ÄŁa
ĠV al
eceÄŁ inin
eceÄŁ iniz
Ã¼s v
Ã¼s Ã¼nÃ¼
Ġyol una
gÃ¼n de
Ġhak sÄ±z
tu ÄŁ
ĠgÃ¶rev li
ĠgÃ¶rev ine
ph i
mÄ±z Ä±
Ġyaz Ä±k
ĠÅŁu b
hal efet
Ġtoplan mÄ±ÅŁ
ĠgÃ¶nder ilmesi
Ġka st
ĠmÃ¼ dÃ¼r
Ġim kan
ĠsÃ¶yle miÅŁ
oÅŁ kun
Ġduy ul
ĠgÃ¼ven ini
Ġsal ona
Ġmemleket e
Ġra hmet
Ġalt Ä±ndaki
bulun uyordu
ĠbÃ¶lg enin
Ġkomutan Ä±n
Ġkomutan lara
ĠdÃ¼ÅŁÃ¼nc esini
Ġba ÄŁÄ±r
yer e
kal k
Ãĩ Ã¼nkÃ¼
ĠÃ§ekil mesi
Ġceph ede
Bir inci
ĠbaÅŁladÄ± k
Ġdeniz e
Ġadam lar
Ġhay ret
ĠkaÃ§ Ä±n
Ġmakam Ä±na
caÄŁÄ±m Ä±
ĠmÄ± ydÄ±
caÄŁ Ä±nÄ±n
ĠÅŁekl indeki
Ġonun la
Ġres mi
ĠOrdu su
dÄ±rÄ± cÄ±
ME K
Ġkolay ca
ĠbaÄŁÄ±msÄ±z lÄ±ÄŁÄ±
par ator
ĠFransÄ±z lar
Ġko ya
Ġmadde si
anla ÅŁÄ±
inc el
ĠiliÅŁ kiler
ĠhÃ¼kÃ¼m leri
uluÄŁ unu
ĠaÃ§Ä± sÄ±ndan
Ġtali matÄ±
ĠAk si
Ġesas lÄ±
Ġvak t
gÃ¼Ã§ lÃ¼
UL U
ĠeÄŁ it
ladÄ±k larÄ±
laÅŁtÄ± ra
Ġyeter ince
kor kunÃ§
luÄŁ unu
ĠsakÄ±nca lar
Ġtamam iyle
tep e
mamÄ±z Ä±
Ä°z mit
Ġner eye
aÄŁÄ± z
Kon gr
tab i
ĠYunanlÄ± larÄ±n
yalnÄ±z ca
ĠdÄ±ÅŁarÄ± da
ĠÃ¼nvan Ä±
ĠÅŁun larÄ±
ĠMÄ°L LÄ°
Ġgidi p
Ġincel em
ĠHÃ¢ lit
ĠÃ¶ÄŁ ret
MÃ¼ dafaa
haber leÅŁ
kend ini
ĠÅŁeh it
Ġhaf ta
ĠnÃ¼f uz
ĠselÃ¢ meti
saniye de
akar ya
Ġuf ak
Dah iliye
ĠEf e
bÃ¼y Ã¼t
Ġimti yaz
Ġmus unuz
ĠKAB Ä°NE
Ġeks ik
ĠyumuÅŁ ak
ĠPon tus
ÃľY ÃľK
3 4
3 6
A t
D emek
M alatya
M organ
O Z
Y I
Y ol
Y unus
a la
b an
b ek
b ah
b ekli
b eri
e da
f ret
h oÅŁ
h izmet
h erkes
k Ã¢n
m inin
m Ã¼l
n ca
o ma
r nek
s eler
t Ä±nÄ±
y alÄ±
y uvar
z incan
Ġ ....
ÅŁ ek
ÅŁ aÄŁÄ±
ar lar
ar da
an s
Ġb Ã¼y
Ġb roÅŁÃ¼r
il gil
il mekte
ir i
ÄŁ Ã¼n
et inize
Ġd ola
Ġd uvar
ma sa
Ġk as
Ã¶ t
ak larÄ±
el bet
el alet
la f
Ġs en
Ġy emek
Ġy Ä±ldÄ±z
al eyh
Ġt akÄ±m
Ġt arafa
de m
de y
ler inizi
ler inizden
Ġh ukuk
le dim
tÄ± yordu
Ġa ÄŁÄ±
lÄ± m
ra t
sÄ± k
sÄ± cak
sÄ± rada
Ġm iy
Ġm Ã¼sv
iÅŁ e
ĠK ay
ĠK Ä±sa
at lÄ±
ÄŁÄ± rÄ±
Ã¼r ler
az a
ik inci
ĠgÃ¶r Ã¼p
ĠH as
bir inde
ara cak
mek sizin
si j
ev ket
mÄ±ÅŁ lardÄ±r
Ġal Ä±ÅŁ
ĠT Ã¼meni
mu yor
ĠS Ã¼
uy gulan
ad Ä±na
Ġver iyordu
Ġver dikleri
Ġz Ä±p
Ġbulun duklarÄ±
lay Ä±n
ĠD E
ĠdÃ¼ÅŁ mÃ¼ÅŁ
Ġist iyorum
Ġp ay
imiz le
laÅŁ maya
ĠC elÃ¢l
bul ut
ĠY ine
Ġf ar
ed de
aÄŁ z
ĠO L
ĠO k
ĠR aif
yordu k
ĠgÃ¶rÃ¼ÅŁ meleri
Ġin dir
is ak
Ġkur tu
der ec
gi de
Ġher k
Ġon ur
ĠdÃ¼ÅŁÃ¼n mek
Ġtop ra
Ġne z
Ġbildir iyor
madÄ± lar
madÄ± ÄŁÄ±mÄ±z
Ġben ce
Ġkendi siyle
Ġkendi sinden
ladÄ± ÄŁÄ±mÄ±z
ĠaÃ§Ä±k lÄ±k
ĠaÃ§Ä±k lamak
ĠsÃ¼r en
ĠsÃ¼r erek
muÅŁ tum
ĠV er
ĠV ahdettin
Ġanla mÄ±ÅŁ
ef on
oy u
Ġu Ã§
Ġbirlik leri
Ġhak larÄ±
ĠÃ§alÄ±ÅŁ Ä±yor
ĠÃ§alÄ±ÅŁ Ä±rken
dur uma
ph ist
Ãľ st
ĠdeÄŁil im
mey iz
mey dana
siz liÄŁe
ĠgÃ¶n Ã¼l
olu p
Ġuz man
Ġuz adÄ±
Ġtoplan ma
Ġtoplan masÄ±nÄ±
mÄ± yla
Ġkuvvet le
ĠgÃ¶nder miÅŁ
ĠÃ¶ teden
Ġsay arÄ±m
ĠHaz ret
Ġiste dikleri
ĠsaÄŁ lamaya
ĠsÃ¶yle dik
ĠÅŁey in
ĠMÃ¼ st
erk Ã¼r
... "
Ġvatan Ä±mÄ±zÄ±n
may Ä±n
may Ä±z
may arak
Ġkomutan larÄ±
kal dÄ±r
Ã¢n ik
ĠdÃ¼ÅŁman larÄ±n
Ġbilg iyi
Ġgit ti
IN IN
yet miÅŁ
ĠarkadaÅŁ larÄ±n
tÃ¼r Ã¼
har ika
Ãĸ nce
gerek tiÄŁini
ĠgÃ¶rÃ¼l dÃ¼ÄŁÃ¼
teÅŁ kilÃ¢t
ebil eceÄŁi
Ġok ul
ER Ä°
Ġtes adÃ¼f
Ġgay e
Ġter s
ĠÃ¢ c
Ġgen Ã§
ĠkaÃ§ Ä±r
ley in
EN Ä°
Ġmec lisin
Ġpar lak
su bay
ĠÃ¼y esi
ĠHal buki
Ġ3 1
Ä±yordu k
her hangi
ĠmÃ¼mkÃ¼n dÃ¼r
ĠyabancÄ± larÄ±n
Ġhus usunda
ĠU m
par lak
Ġgemi den
Ġpro fesÃ¶r
Ġpro testo
efendi m
ĠAl man
Ġses siz
ĠhÃ¼kÃ¼m dar
ĠkiÅŁ ilik
Ġtas ar
kor k
ĠdaÄŁÄ± l
Fran sa
Ä°z zet
Ġkayn aÅŁ
ĠBil dir
Ġbildiri de
ĠÅŁun lardÄ±
mut laka
ĠoluÅŁ an
ÄŀI M
Ġolabil eceÄŁini
ĠErmen iler
ĠÄ°ST ANBUL
ĠaÄŁ z
ing ton
Ġtec rÃ¼b
Ġanlay Ä±ÅŁ
KAR A
bakÄ±m dan
Ġdel il
Ġilgi si
ĠMah mut
Ġgid erek
ĠniteliÄŁ inde
Ġber aber
Ã¶rd Ã¼ncÃ¼
oh bet
ĠanlaÅŁmaz lÄ±k
ĠÅŀer if
MÄ°L LÄ°
ĠAsker Ã®
ĠÄ°Ãĩ Ä°N
Ġmukad derat
ahr iye
Ġï¬ģ k
Ġday ana
Ġrahmet li
elalet tin
phist on
A dapazarÄ±
B unu
C ev
C ambridge
D iyarbakÄ±r
E ylÃ¼l
K iÅŁ
M ar
N asÄ±l
P ar
T am
a dÄ±m
b alÄ±k
c inin
d oldur
e ÄŁer
g ele
i di
k um
k usuz
l iler
n daki
s ekli
ÅŁ ekl
an ak
Ġb Ä±
Ġb elge
ÄŁ im
Ġd oldur
ek tup
Ã¶ ÄŁ
ak lar
ak sÄ±z
al mak
Ġbir ini
ur ur
me mesi
dÄ± ÅŁÄ±
Ã¼n lÃ¼
or k
ul us
du var
Ġa tÄ±ÅŁ
st alÄ±k
ey ve
Ġol mayÄ±p
Ä±ÅŁ Ä±k
em de
Ġm ik
at a
Ġde f
ĠM eydan
ĠÃ§ eki
ĠÅŁ Ã¼k
mak tÄ±r
Ã¼r Ã¼k
Ã¼r se
ini p
Ġbu la
ol duÄŁumuz
Ġe z
ĠA Y
ab Ä±
ab Ä±t
Ġda ÄŁ
ta Ã§
ĠÄ° L
ĠÄ° m
ĠÄ° ki
ĠÄ° Åŀ
Ġil Ã¢nÄ±
bir Ã§ok
ara da
ara cÄ±
ara sÄ±na
Ġn ak
ok un
ok at
ti hat
Ã¶n e
ev ki
lan mak
lan maya
lan masÄ±na
sa tÄ±
Ġal dÄ±ÄŁÄ±mÄ±z
Ġbil iyorum
ĠS u
ĠS en
ad Ä±nÄ±
ĠbaÅŁ landÄ±
Ġver dir
ĠE T
ĠE sat
us una
Ġz avallÄ±
ka f
Ġbulun madÄ±ÄŁÄ±
Ġyap Ä±ldÄ±ÄŁÄ±
Ã¼t fen
Ġed ilmesini
ĠD ÃľÅŀ
ĠD Ã¼zce
ĠD iÄŁer
Ġist emek
Ġme z
Ġp lan
Ġgel iyordu
iÃ§ i
ĠC olumbiad
ĠY unus
Ġf eda
ed iler
ĠG el
ĠG EN
ĠN icholl
ĠN itekim
Ã¼kÃ» n
av ur
ĠiÅŁ lerle
Ġyer inden
Ġyer lerden
ĠO sman
Ġr ak
fa tÄ±yla
Ġkur un
yan Ä±nda
ĠdÃ¼ÅŁÃ¼n dÃ¼k
ĠdÃ¼ÅŁÃ¼n dÃ¼m
Ġtop lu
Ġel bi
Ġbildir dik
Ġkal masÄ±
ĠgeÃ§ erek
bu har
ĠdoÄŁ acak
Ġedil eceÄŁi
Ġedil miÅŁti
ver ir
Ġola bilecek
Ġtarih ten
Ġkarar larÄ±nÄ±
len erek
len iyordu
Ġhar p
Ġhar ekÃ¢
Ġyol uyla
gÃ¶r Ã¼l
Ġzaman Ä±n
ayÄ± p
Ġbirlik ler
Ġhak aret
ĠgÃ¶ster erek
ĠÃ§alÄ±ÅŁ tÄ±m
re de
ĠgÃ¶rev e
dur dur
mÄ±z a
Ġara Ã§
Ġara sÄ±ndan
lama yÄ±
hal kÄ±n
Ã§a ÄŁÄ±r
Ġuz at
Ġkuvvet lerin
yÃ¼z Ã¼nde
Ġiste diÄŁimiz
Ġma ddenin
abil eceÄŁini
Ä°N Ä°N
ĠaÃ§ Ä±ldÄ±
ĠseÃ§ ilmiÅŁ
ĠalÄ±n mÄ±ÅŁtÄ±r
ĠgÃ¶z Ã¼
Ġordu muz
Ġnokta sÄ±
Ġgem iyi
ĠÄ°n Ã¶nÃ¼
karÅŁÄ± laÅŁ
Ã¼st Ã¼ne
Ġkan lÄ±
ĠbÃ¶lg esi
ĠbÃ¶lg elerinde
Ġkomutan lar
kal dÄ±
ile mez
ĠgÃ¼Ã§ sÃ¼z
Ġetmek le
Ġsa tÄ±r
Ġman z
yet in
Ġsan iye
elik le
ĠÃ§Ä±kar larÄ±nÄ±
Ġkurul masÄ±nÄ±
Ã¼ph e
ĠgÃ¶rÃ¼l en
Ġceph an
Ġis abet
Ġta ahh
Ġta savvur
Ġaz im
Ġaz iz
Ġama Ã§
Ġadam larÄ±n
doÄŁ rusu
Ä°L AT
ĠÃĸ nce
Ġyak a
Ġyak Ä±nda
Ġbelirt mek
sin ler
ĠKar ar
Ġmesel eler
ĠettiÄŁ ini
Ġtehlik e
edi yor
Ġsubay larÄ±n
Ġtaarruz u
Ġcevab Ä±n
Ġcevab Ä±nÄ±
Ġhep sini
ĠKan un
ĠbaÄŁÄ±msÄ±z lÄ±k
ĠsaygÄ± lÄ±
par Ã§
Ġgemi de
Ġibaret ti
Ġmadde de
ĠAl lah
sav un
ĠadÄ± yla
Ġses le
Ġmev cut
yok tur
Ã¼le bilir
saÄŁ lam
ĠSav aÅŁÄ±
insan larÄ±n
Ġimz alÄ±
baÄŁ lÄ±
ĠkardeÅŁ i
Ġolabilir di
ĠhÄ±z lÄ±
Ġisten en
ĠedeceÄŁ iz
ĠedeceÄŁ ini
Ġsizin le
ĠKendi si
deÄŁiÅŁ iklik
ilaf et
duy gu
gÃ¼l le
Ġmet ni
Ġderece de
Kon ya
ĠBil ecik
dÃ¶k me
Ġzan n
ĠÃ¶ÄŁ le
ĠistiklÃ¢l ini
Ġmerm inin
ĠkÃ¼rs Ã¼ye
ĠAb dÃ¼l
ĠMuh ip
kendiler ine
Ġmen sup
omet re
to ise
ĠEfendim iz
nam lu
ĠkarÄ±ÅŁÄ±k lÄ±k
ĠlÃ»t f
Ġsamimiyet le
hus us
Ġmaz ur
ĠkÃ¶t Ã¼lÃ¼k
Ġihtima li
seb ep
RA UF
ĠSel Ã¢nik
ĠkaÃ§Ä±nÄ±l maz
EÅŀK Ä°LAT
ĠlÃ¢ yÄ±k
ĠHarp ut
Ġotor it
EKLÄ° F
anak kale
A SÄ°
D oÄŁu
F ER
F erit
G E
H Ã¢
H Ã¼k
I K
K Ã¼tahya
S ey
X V
Y ahya
a denin
b ine
b Ã¶l
b ura
c Ä±mÄ±z
c ilerin
d el
f ed
g ec
i dir
i ta
k lin
k estir
m Ã¼f
n er
n deki
p ir
p ay
r al
t Ã¼n
t ok
u yorum
y iyecek
z Ä±rh
z avur
ÅŁ un
an ca
an av
in t
Ġb ol
il eceÄŁi
en miÅŁ
et inin
Ã§ ilerin
Ã§ abuk
Ġd ek
Ġk ey
Ġk af
Ġk om
ek ler
lar ken
Ġve sil
Ġt ef
Ġt Ã¼zÃ¼k
Ġt Ã¼zÃ¼ÄŁ
Ġi Ie
me d
me mi
me miÅŁtir
ĠB a
ĠB ÃľYÃľK
ĠB ahriye
im kÃ¢n
ul t
ul masÄ±na
Ġa sil
lÄ± larÄ±n
ra mÄ±
Ġm Ã¼thiÅŁ
Ġm Ã¼kemmel
iÅŁ it
ĠK uvvet
ĠK ema
ec anla
Ġde dikten
ay rÄ±ca
ĠÅŁ eye
Ã¼ÅŁ tÃ¼
Ġbu z
ol o
ol uÅŁtur
ol duÄŁundan
Ġe pey
am ber
Ä±l g
ta sarÄ±
Ġil g
bir az
ĠiÃ§ i
ti bat
Ã¶n em
ev k
lan mÄ±ÅŁtÄ±
lan dÄ±ÄŁÄ±
lan Ä±p
miÅŁ lerdi
Ġson suz
ĠS Ã¼vari
uy an
uy sa
ĠbaÅŁ ara
ĠbaÅŁ komutan
Ġver diler
ĠE vet
Ġz Ä±rh
Ã¼m le
Ġan ladÄ±m
Ġbulun dum
Ġyap ar
Ã¼l Ã®
ha tÄ±r
Ġgel mek
ĠolduÄŁ unuz
man a
ĠY ozgat
ru tiyet
Ġar dÄ±n
ĠgÃ¼n lÃ¼k
ĠgÃ¼n lerce
Ġuy u
iniz le
Ġkur al
cÄ± sÄ±
Ġdurum lar
Ġher halde
ĠdÃ¼ÅŁÃ¼n Ã¼yor
Ġel ektrik
Ġne fret
Ġbildir iniz
Ġkal dÄ±k
Ġkal mamÄ±ÅŁtÄ±
azÄ± cÄ±k
ĠdoÄŁ rusu
Ġedil emez
Ġdev ir
ĠaÃ§Ä±k la
ĠaÃ§Ä±k lamaya
ĠsÃ¼r Ã¼l
Ġkarar Ä±nÄ±
Ġkarar larÄ±n
Ġtaraf Ä±nda
Ġyol dan
Ġyan Ä±mda
ĠgÃ¶ster ecek
ĠgÃ¶ster ilen
ĠteÅŁ kil
ĠÃ§alÄ±ÅŁ tÄ±ÄŁÄ±
ĠÃ¶z eti
mey eceÄŁi
mÄ±z Ä±n
mÄ±z da
Ġhareket leri
mÄ± yordum
son ucu
ĠMillet ler
yÃ¼z Ã¼ndeki
Ġsor uÅŁtur
ĠsaÄŁ lama
yap Ä±lacak
kilÃ¢ tÄ±
ama m
ĠsÄ± ÄŁÄ±n
dÄ±k larÄ±nÄ±
Ġede bil
yar Ä±m
Ġteklif in
Ġgir miÅŁ
ĠgÃ¶z Ã¼nde
ĠgÃ¶z lem
ĠgÃ¶z Ã¶nÃ¼nde
kat Ä±na
Ġalt Ä±n
Ġvatan Ä±
kon gr
top ra
Ġc Ã¼r
yer inde
Ġilk eleri
ĠdÃ¼ÅŁman lar
Ġbul an
Ġbul mak
dÃ¼ÄŁ Ã¼mÃ¼z
Ġsa dÄ±k
caÄŁÄ±nÄ± z
ĠÃ¶nemli dir
LÄ° K
Ġmu am
han e
Ġsan dal
ĠarkadaÅŁ larÄ±nÄ±n
Ãĸ N
Ãĸ Z
ĠKur ul
Ġolma dan
Ġdikkat li
ĠZ aten
Ġden ilen
Ġih tilÃ¢
MA YA
ĠÅŁart lara
Ġkap at
evr es
ĠhÃ¢ tÄ±ra
BaÅŁ komutan
atÄ±l dÄ±
Ġama cÄ±
ĠCumhuriyet i
ĠsonuÃ§ landÄ±r
ley man
ĠÃĸ rnek
uyor lardÄ±
ĠÃ¼Ã§ Ã¼ncÃ¼
malarÄ± m
Ġkanun suz
Ġkimseler le
Ġbiri biri
omis er
ĠdÃ¼nya sÄ±na
ĠdÃ¼nya sÄ±nÄ±n
sor un
aÃ§ Ä±
Ġayr Ä±lma
Ġsev inÃ§
ĠyabancÄ± lar
ĠbaÅŁarÄ± lÄ±
ĠgereÄŁ inin
emiz in
Ġuzak laÅŁ
bel ki
ĠgeÃ§ir mek
Ġaleyh imizde
labil ecek
labil mesi
gÃ¶ster di
ĠuÄŁ ur
Ġoy n
par Ã§a
Ġnit eliÄŁi
ĠsakÄ±n calÄ±
ĠfÄ±r satÄ±
Ġsuret ini
Ġir adenin
sÃ¶yle di
Ġmemur larÄ±
bun larÄ±n
Ġhusus larÄ±
doÄŁru ya
Ġedilme miÅŁtir
Ġkabin eyi
Ġdolay lÄ±
ĠkonuÅŁma cÄ±
ĠaÅŁ Ä±rÄ±
Ä°n san
ĠvermiÅŁ tim
hÄ±z Ä±
ĠBun lardan
ĠKendi sine
uzak lÄ±k
ĠimkÃ¢n sÄ±z
bak Ä±ÅŁ
Ġotur an
Ġada y
Ġsavun mak
AZ I
Ä°l k
aha sÄ±na
ĠGÃ¶r ev
Ġgide ceÄŁ
ĠmÃ¼frez e
Ġgru bu
Ġkonferan s
ĠisteÄŁ inde
Ġmadd eler
Ġetraf lÄ±
memleket in
Ġsoruml uluk
ĠGÃ¼n eÅŁ
ac aba
Ġgerektir en
ĠÅŁidd etli
ĠÄ°st iklÃ¢l
karÅŁ Ä±n
karÅŁ Ä±lan
koÅŁ ul
yanus un
ĠmÃ¼dahal e
ĠbiÃ§ imde
ĠtanÄ±n mÄ±ÅŁ
Ġdedik o
Ġyat kÄ±n
sad Ã®
ĠinkÄ±l Ã¢p
ĠlÃ¢zÄ±m dÄ±r
ĠÃ¶lÃ§Ã¼ de
Ġmaksad Ä±na
anka ya
Ġmandater lik
Ä°ST ANBUL
vasÄ± ta
ĠCE PH
tap ot
ĠSer vet
ĠKABÄ°NE SÄ°
KiÅŁ iye
A z
A Äŀ
A LI
B AÅŀ
B altimore
D IR
G azi
I L
K Ãľ
K Ä±sa
N Ä°N
N itekim
R O
R eÅŁit
R ecep
S ab
S izin
V ali
b es
b eni
b ayÄ±
c Ä±na
d Ã¶
d alÄ±k
e g
g Ã¼rlÃ¼
g amber
k Ã¢
k Ä±nÄ±
k ad
k Ã¶r
k inden
m iydi
n Ã¼n
r fa
r ica
t taÅŁ
y ken
y oÄŁun
Ġ ÄŁ
Ã¼ se
Ã¼ cu
ÅŁ an
er ak
an in
an laya
in diÄŁi
Ġb at
Ġb unda
Ġb aba
Ġb eÄŁen
il iÅŁ
il son
ir kin
et a
et er
et tiÄŁi
Ġd on
Ġd em
Ġd ip
ma ÅŁ
ma larÄ±na
ma mÄ±
Ġk asÄ±
Ġk usur
Ġg aran
Ġv arÄ±
lar daki
un cu
ak it
Ġs us
Ġs ist
Ġs uyun
Ġs ohbet
al ih
Ġt elÃ¢
ur ra
me de
ĠB oz
ĠB Ã¢bÄ±
im ini
or d
on gul
tÄ± yor
Ġa f
Ġa ya
Ġol uyordu
Ġol saydÄ±
ra tik
sÄ± kÄ±
dan ya
es el
iÅŁ in
ĠK a
ĠK Ä±zÄ±l
den e
ay rÄ±
ĠM ektup
um un
ĠÃ§ Ã¶k
ĠÃ§ ocuk
mak in
Ã¼r Ã¼t
Ġbu Ã§uk
ol masÄ±
ĠA L
ĠA da
ab ey
am Ä±
iler iyle
ĠÄ° h
ĠgÃ¶r Ã¼lecek
ĠH a
Ġn ut
Ġn ihayet
ĠP aÅŁ
ok u
ti mat
Ã¶n Ã¼ne
lan Ä±yordu
Ġal mayÄ±
Ġkar anlÄ±k
Ġet meleri
ĠT E
ĠT okat
Ġbil en
ĠS izin
ĠS ultan
ĠS akarya
ĠbaÅŁ Ä±ndan
Ġver miÅŁti
lik ten
ĠiÃ§in den
us unun
Ġz iyaret
Ã¼m in
Ġan lÄ±yorum
unu t
tÄ±r mak
lÄ±k larÄ±nÄ±
Ġbulun madÄ±ÄŁÄ±nÄ±
Ġyap mayÄ±
Ġyap acaÄŁÄ±
Ġyap Ä±lÄ±r
Ã¼t Ã¼ph
iyor sa
ĠD oÄŁ
ĠD iv
oÄŁ azÄ±
oÄŁ lu
end er
ĠdÃ¼ÅŁ er
ĠdÃ¼ÅŁ tÃ¼ÄŁ
imiz deki
Ã¶r en
Ã¶r Ã¼n
ĠolduÄŁ unun
iyet le
man lar
ĠC elalettin
ed ilen
ĠG erÃ§ek
ĠN ur
ĠN az
Ġar d
ĠiÅŁ lerde
ĠgÃ¶rÃ¼ÅŁ Ã¼ne
Ġgerek tiÄŁ
fa at
ĠdeÄŁ eri
Ġuy dur
Ġger ic
Ġher kesin
ĠsÃ¶z de
ĠÃ§Ä±k mak
Ġel inden
Ġbildir inin
Ġbildir ilen
sil ah
Ġedil mektedir
Ġedil ecektir
Ġtarih i
Ġtarih inden
Ġyar arÄ±
Bu gÃ¼n
eli p
Ġyol la
ĠBaÅŁ ka
ĠÃ§ok tan
ele diye
ĠÃ§alÄ±ÅŁ mÄ±ÅŁ
ĠÃ¶z etle
meler in
eri at
eri dun
ulu yordu
Ġara larÄ±nda
Ä±ldÄ± ktan
lama lar
Ġl ira
ĠgÃ¶nder ilecek
ĠÅŀ ark
ĠÅŀ evket
Ġyet iÅŁ
ĠbaÄŁ lamak
ĠsÃ¶yle y
tÃ¼ f
ÄŁÄ±mÄ±z da
ĠyÃ¼z eye
ĠsÄ± fatÄ±yla
Ġeder seniz
ĠaÃ§ an
ĠBir az
ĠBir Ã§ok
ĠMÃ¼ f
Ġnokta dan
Ġtut mak
ĠanlaÅŁ maya
Ġsav aÅŁa
ĠbÃ¶lg esine
Ġarz u
top un
top rak
ĠÅŁah sÄ±
Ġsiz ce
kal an
Ġdevlet ler
Ġbul uÅŁ
Ġbul muÅŁ
ĠÃ§ek en
Ġak sine
Ġolur du
ĠdÄ±ÅŁ Ä±
Ġolay Ä±n
Ġolay larÄ±
ĠÃ§ekil meye
yet ki
ro s
gerek en
gerek tir
tÄ±l mÄ±ÅŁ
Ġolma larÄ±
ĠZ eki
Ġmilletvekil lerinden
ET TÄ°N
ĠbaÅŁladÄ± lar
Ar tÄ±k
Äŀ Ä°M
ĠÃ¢ mir
Ġadam larÄ±nÄ±n
doÄŁ r
EN DÄ°
Ġyay gÄ±n
Ġmakam Ä±nda
lÄ±ÄŁÄ±nÄ± z
Ġinsan larÄ±n
uyor lar
ĠÃ¼y elerinden
ĠHal it
ĠÅŁÃ¼ph eli
ĠteÅŁebbÃ¼s ler
ĠKar ÅŁÄ±
ĠbugÃ¼n e
Ġmesel elerin
Ġmesel eyi
kÄ±r dÄ±
ĠÃ§ar esi
Ġbilgi si
Ġsaat te
edi yorum
Ġsun arÄ±m
Ã¼mÃ¼z e
Ã¼mÃ¼z Ã¼n
Ġtav siy
ĠU ÅŁak
ĠU rfa
ĠÃ¼st Ã¼nde
Ġbilgiler den
ĠmeÅŁ r
larÄ±m Ä±n
ĠkarÅŁÄ±lÄ±k lÄ±
ĠKab ine
ĠkaldÄ±r mak
ĠanlaÅŁÄ± lÄ±r
ĠsÄ±nÄ±r lÄ±
tek er
Ġmut lak
Ġot uz
Ġsuret i
ĠÅŁÃ¶yle ydi
mil yar
Ġmemur lar
ĠsÄ±k Ä±ntÄ±
ĠAk deniz
Ġhusus lar
mÃ¼ yordu
Ġyor gun
Ġesas lar
ĠdeÄŁiÅŁtir ilmesi
ĠÅŁahÄ±s lar
kap Ä±
duÄŁum u
ĠtartÄ±ÅŁ malar
ĠkardeÅŁ im
Ġtel aÅŁ
Ġtel efon
Ġuygulan masÄ±nÄ±
Ġyeter siz
Ġkamuoy una
Ġtah am
Ġistiyor uz
Ġdost um
Ġbulundur mak
192 4
nokta sÄ±na
caÄŁÄ±mÄ±z Ä±
do laÅŁ
Ġfark lÄ±
oc aman
ĠNa il
yak laÅŁ
Ġhedef e
gerÃ§ek leÅŁtir
GÃ¼n ey
Komutan lÄ±ÄŁÄ±
tab ak
ĠkÄ±s mÄ±
Ġgelecek teki
yÃ¼k sekli
ĠÃ§arp Ä±ÅŁma
Ġpolitik asÄ±
Ne w
yÃ¶n et
Ġbelg eler
Ġemin im
lendi ÄŁi
ĠyukarÄ± da
ĠisteÄŁ ine
Ġbildiril iyordu
Son unda
ikÃ¢ y
Ġsabah Ä±
ĠÄ°l k
ĠÅŁeh r
Ġgecik tir
Ġikti sadÃ®
Ġmal Ã»m
ĠgÃ¶rdÃ¼ÄŁ Ã¼m
ĠgÃ¶rdÃ¼ÄŁ Ã¼mÃ¼z
Ġpart inin
eks eni
ĠVatan Ä±n
ĠÃĸz el
ĠyÃ¼ksel t
ĠakÅŁam Ä±
bakÄ±m Ä±ndan
Ġgaf il
davran Ä±ÅŁ
Ġken t
ĠteÅŁkilÃ¢tÄ±mÄ±z Ä±n
ĠlÃ»t fen
IZ A
hÃ¼k Ã¼m
ĠparÃ§ alan
Milli ye
Sa at
ko skoca
Ġten kit
GÃ¶z lemevi
nit elik
ĠdÃ¼ ÄŁ
Memleket in
Ġcezalan dÄ±r
ĠyÃ¼rÃ¼rlÃ¼k te
ĠDEV LET
Ġhaya tÄ±
Ġbozgun cu
Cemiyet i
Ġoldubit ti
Ġyas ak
ilgil en
ĠaÄŁÄ± z
ĠmÃ¼sv edde
ĠSÃ¼ leyman
mÃ¼f rez
ĠardÄ±n ca
ongul dak
ĠÅŀark iye
3 2
B ay
D er
E s
F E
F ET
F Ä°K
H at
I YOR
K erim
L ondra
M AN
M adde
O K
P ek
T Ã¼men
T anrÄ±
a deniz
b ed
b re
b arÄ±ÅŁ
c Ä±nÄ±
c esine
c oÅŁkun
d ile
d Ä±nÄ±z
g o
g arip
h ÅŁ
k Ã¶y
k uyu
k ocaman
l um
m r
n ak
o b
p i
r esi
s Ã¼
s Ã¼n
s ol
s us
t iÅŁ
t uz
y el
y al
Ġ Ä±r
Ã¼ las
ar Ä±z
ar aÅŁtÄ±r
Ġb Ä±r
Ġb Ã¼t
il ecektir
et ler
et ine
et te
Ġd eyim
ma il
Ġk uz
Ġk elim
ak il
el bette
la mÄ±ÅŁtÄ±r
la caÄŁÄ±na
Ġs e
Ġs el
Ġs unu
Ġs oy
Ġy aÄŁ
al e
Ġt Ä±
Ġi ade
Ġbir liÄŁine
Ġh im
me me
ĠB ura
im ine
ya s
ya man
on g
on lar
on larÄ±n
ul muÅŁtur
Ġa sk
st ir
ey di
ey gamber
Ġol mayacak
em ber
iÅŁ le
iÅŁ gal
Ã¢ l
Ġde diler
Ġde hÅŁ
ay da
ĠÃ§ oÄŁ
ĠÃ§ eÅŁit
ĠÃ§ atÄ±ÅŁ
ĠÅŁ ehir
ol madÄ±
ol duklarÄ±nÄ±
ĠA f
ik kat
Ġda ima
Ä±l makta
larÄ± ma
ca sÄ±
ca sÄ±na
ĠH AR
Ġil i
ara Ã§
Ġn amaz
ok sil
Ä±z Ä±
Ġal masÄ±
Ġal Ä±yor
Ġal kÄ±ÅŁ
it tin
it Ã¼las
ĠT AR
ĠT eklif
ĠT ampa
ĠT EÅŀKÄ°LAT
ĠS Ã©vres
uy ar
ĠbaÅŁ ta
Ġver eceÄŁi
ah ir
dÄ±r an
ĠBey ler
Ġz ap
Ġz abÄ±t
Ġan lar
ka sÄ±
eÅŁ rutiyet
Ġbulun arak
Ġyap a
Ġyap abilecek
ha v
Ġist asyon
ci ddi
man da
man ev
Ġgi b
bul uÅŁ
Ġf a
Ġf or
Ġf Ä±k
ed ilme
ed ilmiÅŁtir
ĠG em
ĠN azÄ±m
ilme miÅŁ
av Ã¼z
Ġay Ä±
Ġay ar
Ġyer lere
ĠO LA
ÄŁÄ±nÄ± z
ĠgÃ¼n kÃ¼
ĠgÃ¼n lerinde
ĠgÃ¶rÃ¼ÅŁ Ã¼n
Ġin ce
Ġgerek ti
ĠAn zavur
diÄŁ ince
is iz
Ġkur t
Ġkur arak
Ġor an
yan sÄ±
arak ol
Ġbiz de
ĠsÃ¶z lerinin
ĠsÃ¶z leriyle
ĠdÃ¼ÅŁÃ¼n mÃ¼ÅŁ
Ġtelgraf larÄ±
ep er
Ġbildir mek
Ġbildir iyordu
ĠgeÃ§ er
bu gÃ¼n
Ġedil iyor
baÅŁ vur
ver en
ver diÄŁi
Ġkarar sÄ±z
len in
Ġyol un
Ġyol culuÄŁ
ĠBaÅŁ yaver
Ġanla ma
Ġzaman dÄ±r
Ġbirlik lerinin
ĠgÃ¶ster ir
ĠgÃ¶ster iler
ĠgÃ¶ster dikleri
ĠhÃ¼kÃ»met Ã§e
ĠÃ§alÄ±ÅŁ maya
re w
tu lar
Ġem re
Ġbulunan larÄ±n
ulu p
gel miÅŁ
AR RU
alÄ± p
Ġyaz Ä±ÅŁ
hal ine
Ġuz laÅŁma
bilir siniz
Ġkuvvet lerimiz
yÃ¼z Ã¼
yÃ¼z Ã¼nden
yÃ¼z yÄ±l
Ġgetir ilmesini
kim iyet
kim se
ĠHaz Ä±r
Ġder neÄŁin
ĠbaÄŁ Ä±ÅŁ
ĠÃ¶nem i
ĠÃ¶nem le
Ġeder se
Ä°N Ä°
ĠaÃ§ tÄ±
ĠgÃ¼ven li
ĠalÄ±n arak
ĠalÄ±n dÄ±ÄŁÄ±
ĠMÃ¼ saade
Ġkonu lar
ĠgÃ¶z ler
Ġordu yu
Ġhaber siz
Ġnokta lara
ĠÃĩ erkez
Ġkor uyu
Ġtut umu
ĠanlaÅŁ Ä±lmÄ±ÅŁ
Ġdur ul
kon us
Ġkomutan lÄ±k
Ġkomutan lÄ±ÄŁÄ±
Ġc umhuriyet
mez se
ĠAr z
ĠdÃ¼ÅŁman Ä±
ĠÃ§ek mek
Ġtek nik
ĠdÃ¶n Ã¼p
ĠkonuÅŁ mayÄ±
Ġsan ki
Ġetme mek
Ġkurul masÄ±na
Ã¼ph esiz
ĠgÃ¶rÃ¼l Ã¼yor
Ġceph ane
yol culuk
MA L
Bir kaÃ§
Ġkap an
lÃ¼l Ã¼
Ġgay enin
Ġbura larda
Ġemir leri
laÅŁtÄ±r mak
Ä±lÄ± yor
Ġinan cÄ±nda
Ġidar esi
ĠbaÄŁlÄ± lÄ±k
fik ir
Ä°L AF
Ġmakam Ä±n
gu ya
ĠsÄ±ra larda
kendi sini
sÃ¶z Ã¼
aygÄ± t
sar sÄ±ntÄ±
sor unu
sor unun
est en
BaÅŁkan lÄ±ÄŁÄ±
ĠsayÄ± sÄ±
ÅŁey ler
Ġhat tÄ±
Ġolun ca
Ġkoy duÄŁu
ĠgÃ¶rÃ¼ÅŁmeler de
Ġhus usu
ĠkatÄ±l mÄ±ÅŁ
ĠdÃ¼ÅŁÃ¼nceler ine
gen eral
ben z
Ġko va
aal esef
Ġettir mek
gÃ¶n Ã¼l
Ġuygu laya
tek rar
Er men
Ġkomu tayÄ±
UN U
tut uk
Ġmanda sÄ±
Ġmanda sÄ±nÄ±
Ġanlat tÄ±m
Ġmemur larÄ±n
Ġek on
uluÄŁ un
id or
Ġsab Ä±rsÄ±z
Ġimz alan
Ġimz asÄ±nÄ±
Millet in
baÄŁ Ä±ÅŁ
Ġkav uÅŁ
luÄŁ unun
emey ecek
emey eceÄŁi
ĠKendi sini
ĠÅŁifre de
Hal k
miyor lar
ill on
Ã§ev ir
Ġev lÃ¢
Ġmilli yet
ĠÃ¶r gÃ¼t
Ġbulunuyordu m
oc k
ĠdÃ¼ÅŁÃ¼r mek
iÄŁ de
AZ IR
Ġserbest Ã§e
Ġyararlan arak
arkadaÅŁ larÄ±
Ġval inin
ĠeÅŁ it
konuÅŁ ma
ĠyÃ¼rÃ¼t me
El phiston
Ġhayat Ä±nÄ±
Ġverme mek
ĠoluÅŁtur an
kesin likle
derece de
Ġmadd eleri
ĠsaldÄ±r gan
-------------------------------- ----------------
-------------------------------- ------------------------------------------------
ĠdÃ¢vÃ¢ ya
Ġyara tÄ±
Son ra
ĠÃ¢sÃ® ler
dÄ±ÅŁ Ä±nda
ĠÃ§aÄŁ r
larÄ±nÄ±z Ä±n
kend ine
SÃ¶z Ã¼n
ĠkÃ¼rs Ã¼
ĠkÃ¼rs Ã¼s
eks ik
ĠMÃ¼dÃ¼r lÃ¼ÄŁÃ¼
ĠÅŁidd etle
ĠMuh ittin
Ġbiribir inden
demek tir
ĠÃ§oÄŁun luk
kendiler ini
Ã¶v Ã¼ÅŁ
Ġmen faat
Sal ih
ou illon
Ġhaf if
ĠAd alet
AmerikalÄ± lar
Ġah lÃ¢
ĠÄ°tal ya
ĠayrÄ±ntÄ± lÄ±
Ġred de
Av rupa
ĠW ilson
Ġbor Ã§
Ġmis iniz
Ã§iz g
ĠhÃ¼kum et
Ã¶rfez i
tes lim
Ã¢tÄ±devlet lerinin
iÃ§er sinde
ĠyÃ¼rÃ¼y Ã¼ÅŁ
Ġbal ina
ĠsarsÄ±l maz
pÄ±r da
ĠyargÄ± sÄ±na
ĠkÃ¶k lÃ¼
ĠilÃ¢ ve
Ġmakin eli
Ġsebeb ini
Ġbar ut
ĠteÅŁebb Ã¼se
ĠHas an
ĠzÄ±p kÄ±n
ĠuzadÄ± ya
ĠÃ¢c iz
ĠUm um
Ġmez hep
ĠMuhip ler
Ġdediko du
Ġgaran ti
timat om
Ã¼min yum
itÃ¼las yon
ARRU Z
3 1
9 19
9 20
A teÅŁkes
A fyonkarahisar
B er
B ur
B eÅŁ
B azÄ±
B oÅŁ
D urum
E fendi
E skiÅŁehir
G el
G Ã¼ven
H ilÃ¢fet
H aklÄ±
I LAN
K a
K uzey
N ezaret
O Äŀ
S u
T ek
T Ä°R
T ÃľRK
Y erkÃ¼r
b on
b ol
c his
d elik
f alan
f ark
f edakÃ¢r
g im
g una
g atÄ±
h um
j ektif
k uy
k omu
k aygÄ±
m ini
m iyorum
m Ã¼lÃ¼
o bÃ¼s
p erim
r arÄ±
s eri
s uret
s ilÃ¢h
s amim
s yum
s oÄŁuk
t maya
t Ä±nÄ±n
t emiz
v ik
y iz
y ley
Ã Ĥ
Ġ la
Ġ Ä±z
Ġ Ã¼rk
ÅŁ idd
ar e
ar ÅŁ
ar dÄ±
ar am
in da
in dan
Ġb e
il meleri
il melidir
ir ci
et k
Ã§ Ä±n
Ã§ et
Ġd et
Ġd iler
ma si
Ġk est
Ġk omiser
Ġg az
Ġv at
Ġv ekÃ¢let
ak larÄ±nda
la caÄŁÄ±ndan
Ġy iÄŁit
al mÄ±ÅŁ
al dÄ±ÄŁÄ±
Ġt on
da dÄ±r
Ġi dam
Ġbir liÄŁ
Ġbir liÄŁin
li ye
ur chis
Ġh ev
Ġh atÄ±
ĠB ouillon
Ã¼n Ã§
im inde
ya sa
on ur
Ġa st
Ä° F
ra h
Ġm Ã¼r
iÅŁ an
iÅŁ ini
iÅŁ aret
ĠK endiler
ĠK azÄ±m
ĠgÃ¶ Ã§
ec er
at Ä±na
Ã¢ li
Ġde mec
ĠM il
ĠM isak
ĠÃ§ irkin
mak sÄ±zÄ±n
Ġbu labil
ol ek
ab asÄ±
ik ast
ca ya
ta arruz
Ä±k lÄ±
ĠgÃ¶r Ã¼nÃ¼
ĠH AL
ĠH AZIR
Ġil Ã§
bir ine
Ġn eler
Ġn iÃ§in
Ä±r lar
mek tup
ĠP ek
ĠP eki
ĠP oli
uz u
ev gili
lan a
aÅŁa sÄ±n
Ã® n
Ã® r
Ġal dÄ±ktan
Ġkar ara
Ġet meyecek
Ġet meliyim
ĠT exas
mu sunuz
Ġbil me
Ġbil diÄŁim
Ġbil diÄŁiniz
ĠS iya
ĠS EÃĩ
ad Ä±nda
Ä±m Ä±n
Ä±m la
ĠbaÅŁ lÄ±
Ġver ip
met re
ĠE y
ĠE dip
bil gi
endi m
Ġz evk
Ã¼m sey
lÄ±k lara
ka lab
ka labalÄ±k
Ġbulun mayan
Ġyap Ä±lmÄ±ÅŁtÄ±r
ĠD olayÄ±sÄ±yla
ĠD URUM
end ek
Ġist em
Ġist ik
Ġp ahasÄ±na
ci sim
Ġgel iyor
Ġgel dikten
Ġgel diÄŁinde
ĠC uma
ĠY abancÄ±
Ġf Ã¼lÃ®
ed ildi
ĠG ER
ĠG EÃĩ
ĠG eyve
ĠN ig
ilme sinde
Ġay larca
Ġar alÄ±k
ĠiÅŁ ine
ĠiÅŁ lerin
ĠiÅŁ lere
ĠiÅŁ lerinde
ĠO l
ĠkarÅŁÄ± laÅŁtÄ±
ĠF lorida
ĠF eridun
ĠF rew
ĠR IZA
ĠgÃ¶rÃ¼ÅŁ mÃ¼ÅŁ
Ġr en
ĠAn aya
diÄŁ er
diÄŁ inin
diÄŁ inizi
is inden
Ġuy arak
Ġkur ulacak
yan dan
yan lÄ±ÅŁ
gi d
ĠsÃ¶z lerin
ĠsÃ¶z lerden
Ġon larla
ĠÃ§Ä±k Ä±p
ĠÃ§Ä±k tÄ±ÄŁÄ±
ĠÃ§Ä±k tÄ±m
Ġtop Ã§u
ĠbÃ¼tÃ¼n lÃ¼ÄŁÃ¼
Ġhal e
Ġbildir ir
Ġbildir erek
Ġbildir ilme
ĠgeÃ§ tik
ĠgeÃ§ miÅŁti
ĠgeÃ§ miÅŁtir
ĠdoÄŁ ur
Ġedil mekte
Ġola ÄŁan
Ġtaraf Ä±n
Ġtaraf Ä±nÄ±zdan
ĠV e
Ġen er
Bu gÃ¼nkÃ¼
Ġhar ek
Ġhar ika
Ġyan aÅŁ
Ġzaman larda
iyordu k
Ġbirlik lerin
ĠgÃ¶ster di
ĠgÃ¶ster meye
ĠteÅŁ vik
dur madan
can lÄ±
ims iz
art esi
mey le
Ġbulunan lar
ulu yor
ulu ÄŁa
Ã¢z Ä±rÄ±
ana cak
gel di
gel ecek
Ġara sÄ±na
AN SI
tik lerini
Ġad larÄ±
Ġl ek
Ġtoplan masÄ±na
son suz
bilir di
ĠgÃ¶nder erek
ĠgÃ¶nder ilmiÅŁ
ĠgÃ¶nder ildi
ĠMillet vekil
ĠBaÅŁkan lÄ±k
Ġgetir t
Ġsay arak
Ġsor uÅŁturma
kÃ¼ p
liÄŁ im
Ġiste mez
Ġiste diÄŁim
ĠmÃ¼ cadele
yap mÄ±ÅŁ
yap maya
yap tÄ±ÄŁÄ±
Ġma sa
var lÄ±k
ĠÅŁey leri
ĠEr zincan
acak tÄ±
acak lardÄ±r
ĠsÄ± cak
Ġede bilecek
Ġduy ar
ist eyen
ĠseÃ§ ilen
ĠseÃ§ imi
ĠseÃ§ kin
ĠgÃ¼ven sizlik
yar Ä±ÅŁ
ĠgerÃ§ek te
Ġteklif ini
Ġcevap lar
ĠgÃ¶z daÄŁÄ±
Ġnokta sÄ±nda
kur tu
kur tul
Ġorta sÄ±nda
Ġtut ul
bulun madÄ±ÄŁÄ±
Ġsav aÅŁÄ±
ĠbÄ±rak Ä±lmÄ±ÅŁ
ĠbÄ±rak Ä±lmasÄ±
ĠbÃ¶lg edeki
Ġc am
lat mak
Ġba ÄŁÄ±rdÄ±
ĠÅŁah sÄ±n
Ġdevlet i
ĠgÃ¼Ã§ tÃ¼r
Ġdevam Ä±
Ġbelir siz
ĠyÃ¶n tem
Ġbul ur
Ġbul du
Ġbul ut
dÃ¼ÄŁ Ã¼nden
Ġak lÄ±
larÄ±mÄ±z la
larÄ±mÄ±z dan
ĠÄ°t tihat
Ġtedbir i
umuz a
iÃ§in deki
ĠÃ§ekil me
ĠÃ§ekil miÅŁ
IN DAN
ola ÄŁanÃ¼stÃ¼
Ġbun ca
Ġbun lardan
ĠÃ§Ä±kar larÄ±
tÄ±l masÄ±
Ġdikkat le
ba sÄ±n
ĠZ Ã¢tÄ±
Ġceph enin
ĠÅŁart larÄ±n
ĠhÃ¼k met
mem ur
ebil mesi
ebil eceÄŁini
ĠYunan istan
iyi ce
kes inin
Ġok uy
Ġkay gÄ±
ĠolmadÄ± ÄŁÄ±ndan
Ġgay esi
Ġgay ri
Ġter cÃ¼
Ġsah il
Ġinan dÄ±r
Ġinan dÄ±rÄ±cÄ±
ĠkaÃ§ Ä±ÅŁ
Ġeden ler
ĠÃĸ yle
ĠyazÄ± sÄ±
Ġgerekir se
yaz Ä±k
yaz manÄ±
ĠÃ¼y eler
ĠHal if
ĠFran klin
sal dÄ±rÄ±
ĠOr ta
Ġihti yat
ĠettiÄŁ imi
Ġidi yse
Ġbekle yen
ĠÅŁekl ini
Ġsev k
dÃ¼ÅŁÃ¼n ce
ĠyabancÄ± lara
ĠbaÅŁarÄ± yla
edi yordu
Ġsun ayÄ±m
Ġgizli ce
ĠsÃ¶y lÃ¼
bildir dim
Ġhat Ã¢
ĠBiz i
millet i
Ġcan lÄ±
ĠU y
ĠÃ¼st Ã¼ne
ĠÅŁimdi ki
abilir di
abilir iz
Ġoy unu
Ġoy na
Ġteb rik
ĠyÄ±l Ä±nÄ±n
DA KÄ°
UR ETTÄ°N
pat layÄ±cÄ±
Ġkam ara
ĠsÄ±nÄ±r larÄ±mÄ±z
anla mÄ±yla
deÄŁil se
Er meni
Ġmut lu
ĠboÅŁ a
ĠÃľ st
Ġkork u
Ġmaksa dÄ±n
ĠdÃ¼zen len
ĠÃ§alÄ±ÅŁma larÄ±na
EK Ä°L
ĠSav aÅŁ
Ġfaaliyet e
ĠuÄŁra mÄ±ÅŁ
Millet vekili
Ġgazet eci
Ġvak ti
DÄ° ÄŀÄ°M
ĠÃ¼z Ã¼l
lacaÄŁÄ± z
Ġkabine de
Ġbek lenen
Ġveril mek
Ġsaf sat
Ġduygu larÄ±nÄ±
Ġolacak tÄ±
Ġemr inde
ĠateÅŁ li
Ġediyor lar
Ġkurtar Ä±lmasÄ±
ĠasÄ±l sÄ±z
ĠKendi sinin
18 6
hÃ¼kÃ»met in
duy g
iliÄŁ ine
EV FÄ°K
bit ir
ota syum
gÃ¶rev lendir
Yunan istan
adam Ä±n
fÄ±r Ä±n
sah ip
ĠÄ±ÅŁ Ä±
Ġarka daÅŁÄ±
Ġnok tanÄ±n
Ġherkes e
ĠaydÄ±nlat mak
Bakan lÄ±ÄŁÄ±
ĠkarÅŁÄ±lan dÄ±
medik Ã§e
ond ros
ateÅŁ li
ĠNe w
Ġdal ga
ĠCev ap
ĠkalkÄ±ÅŁ mak
Ġokun du
ĠHar eket
Ġetraf Ä±nda
ser t
Ġhuzur unda
lib relik
ĠErmen ilerin
ĠBirinci si
ĠbirleÅŁ erek
baÅŁladÄ± lar
ĠAnt alya
Ġmuh temel
barut un
Ġbekli yordu
ARI Åŀ
tÄ±ÄŁÄ±m da
ĠiÃ§ten likle
dÃ¼rb Ã¼nÃ¼
Ġleh imize
Ġilgilen diren
Ġhakk Ä±nÄ±
Ġmevki ine
Ã¼nc Ã¼sÃ¼
ĠKON GR
ĠKON FER
ĠazÄ±nlÄ±k lar
ĠyÄ± ÄŁÄ±n
Ġaskerlik ten
ĠcÃ¼ml eler
ĠAN KARA
ĠAmerikalÄ± lar
Ġdokun ulmaz
ĠÃ¶den ek
ĠHiÃ§ bir
ĠkÄ±sm Ä±nÄ±
Ġkit ap
ĠgÃ¼ver teye
DoÄŁ ru
ĠÃ§iz g
Ãĸz ellikle
Ġif ad
ĠHak kÄ±
ĠYap Ä±lan
ihti ya
ĠaÃ§Ä±klaya yÄ±m
Kab in
ĠOR DU
ĠbaÄŁdaÅŁ tÄ±rÄ±
sakÄ±n ca
Ġdarb e
ĠRus ya
Ġyeten ekli
ĠHÃ¼kum eti
Ã»r Ã¢
ĠUz un
ÅŁekl inde
ĠihtilÃ¢ l
Ġdip lo
Ã¶rÃ¼n g
yley se
urchis on
Ã¼msey erek
ĠNig eh
" .
. ]
A h
B in
C I
D Ä±ÅŁ
D ER
D ost
E sa
G er
G em
H a
H am
H av
H EM
K A
K E
K im
K ut
K asÄ±m
N a
N eden
N ihayet
O l
P rofesÃ¶r
S Ãľ
V AS
Y ine
Y abancÄ±
Z aman
Z URUM
a Ã§a
c Ã¼k
d Ä±nÄ±
d ara
e dan
f k
f ab
f Ã®
g iy
g eminin
h o
h ele
h id
h edef
i fade
k Ä±na
k op
k ayÄ±
l il
l ilerin
l enip
n ini
o sk
r un
r Ä±ÅŁ
s unun
s eti
s esini
s ch
t sÄ±z
v el
y in
y arak
y itir
Ġ 0
Ġ ekli
ÅŁ ar
ÅŁ unu
ar daÄŁ
an ta
an as
Ġb l
Ġb asÄ±
Ġb akÄ±n
Ġb alÄ±ÄŁÄ±
il ordu
il dikten
ÄŁ ine
ÄŁ Ã¼s
et me
et iniz
et tim
Ã§ ocuk
Ġd ol
Ġd ura
Ġk er
Ã¶ tÃ¼rÃ¼
Ġv az
Ġv ahÅŁ
ak r
ak la
el inde
el ektrik
la ta
la hattin
Ġs at
Ġs am
Ġs os
Ġy um
Ġy ed
Ġy atan
al ev
al kÄ±ÅŁ
al Ã§ak
Ġo yla
Ġo danÄ±n
di z
ler ken
ler imin
Ġi dim
Ġbir ine
Ġbir inde
li man
Ġh e
Ġh Ã¼r
me diler
ĠB oÄŁazÄ±
ĠB run
im inden
le meler
on ya
ul lah
du yur
tÄ± larak
Ġa ÄŁa
Ä° m
ra g
em r
Ġm Ã¼slÃ¼man
Ġm aruz
ĠK o
ĠK or
ĠK OMUT
Ã¢ mi
ÄŁÄ± t
Ġde diÄŁi
ĠÃ§ iÄŁ
ĠÃ§ aÄŁÄ±
az har
ol duklarÄ±
ĠA sÄ±l
am Ä±yor
iler ini
Ġda v
larÄ± dÄ±r
ĠÄ° K
ĠgÃ¶r ecek
ĠgÃ¶r Ã¼s
ĠgÃ¶r Ã¼le
ĠH an
ĠH AK
ĠH acÄ±
Ġil im
Ġil lerinin
bir ini
bir inin
bir leÅŁ
Ġn es
ĠP at
ĠiÃ§ yÃ¼zÃ¼nÃ¼
si hat
Ã¶n c
sÄ±n dak
lan d
lan Ä±r
it er
Ġkar an
ĠT A
ĠT ek
ĠT am
ĠT EKLÄ°F
Ġbil mek
Ġbil mem
ĠS Ä±r
ĠS iv
ĠS evres
ĠbaÅŁ lÄ±k
ĠbaÅŁ larÄ±nda
ĠbaÅŁ lat
Ġver mekte
Ġver meyi
Ġver eceÄŁim
Ġver irken
ah ip
dÄ±r lar
us un
Ġz ehir
Ã¼m de
tÄ±r maya
lÄ±k ta
ka fa
Ġbulun ma
Ġbulun duÄŁuna
lay Ä±
ĠBu gÃ¼nkÃ¼
Ġ: "
ĠD in
ĠD Ã¶rt
oÄŁ raf
Ġist if
ci si
Ġgel dik
iÃ§ inden
iÃ§ eri
ĠC um
ĠÃ¶n lenmesi
Ġf et
ĠG eminin
ĠG ebze
ĠN er
ĠN iÄŁde
Ġmillet lerin
ĠÃ¼zer ime
ĠiÅŁ lerinin
Ġyer in
ĠF ar
ĠR es
ĠR Ã¼ÅŁtÃ¼
ĠgÃ¼n eÅŁ
ĠgÃ¼n dÃ¼z
ĠgÃ¶rÃ¼ÅŁ meye
ĠgÃ¶rÃ¼ÅŁ lerinin
ĠgÃ¶rÃ¼ÅŁ lerine
ĠgÃ¶rÃ¼ÅŁ tÃ¼m
ĠgÃ¶rÃ¼ÅŁ tÃ¼k
ve ya
Ġin saf
Ġgerek Ã§e
Ġr ef
is iyle
Ġuy uÅŁ
Ġkur ucu
Ġor t
yan Ä±na
cÄ± lar
Ġdurum larÄ±n
ĠsÃ¶z lerle
if t
ĠÃ§Ä±k arak
ĠÃ§Ä±k mÄ±ÅŁtÄ±r
ĠdÃ¼ÅŁÃ¼n en
Ġel iyle
ep e
Ġbildir iler
yi p
madÄ± ÄŁÄ±mÄ±
Ġkal madÄ±
una cak
ĠgeÃ§ iÅŁ
ĠgeÃ§ tiler
ĠdoÄŁ usunda
ver mek
ver iyordu
Ġola mayacaÄŁÄ±
ĠaÃ§Ä±k layarak
ĠaÃ§Ä±k ladÄ±ktan
ĠsÃ¼r Ã¼
ĠsÃ¼r esi
ĠsÃ¼r ede
maz lar
maz sa
Ġtaraf Ä±
Ã¼s kÃ¼r
len miÅŁti
Ġyol suzluk
Ġyan sÄ±
Ġu c
gÃ¶r mÃ¼ÅŁ
tÄ±k larÄ±nÄ±
tÄ±k Ã§a
ĠgÃ¶ster miÅŁ
ĠgÃ¶ster iyor
ĠgÃ¶ster iyordu
ele di
ĠÃ§alÄ±ÅŁ tÄ±
ĠÃ§alÄ±ÅŁ malarÄ±
ĠÃ§alÄ±ÅŁ Ä±yorlardÄ±
ĠÃ¶z gÃ¼rlÃ¼
Ġem ek
na ÄŁÄ±
eh bi
Ġhareket in
Ġhareket lere
Ä±ldÄ± zÄ±
Ġad lÄ±
Ġyaz mÄ±ÅŁ
lama larÄ±
Ġtoplan dÄ±
eniz i
bilir iz
ĠgÃ¶nder dim
yÃ¼z Ã¼ne
Ġgetir di
Ġgetir miÅŁ
Ġgetir ilmiÅŁ
ĠÃ¶ v
Ġka larak
Ġka labalÄ±k
ĠÅŀ ur
ĠÅŀ imdiye
Ġma lÃ®
kÄ± ya
acak lar
Ġduy dum
ede bil
ĠaÃ§ ik
ĠaÃ§ Ä±l
ĠaÃ§ Ä±lan
ĠaÃ§ Ä±lÄ±ÅŁ
ĠseÃ§ ilmesi
ĠseÃ§ ilecek
yar dalÄ±k
Ġteklif te
ĠgÃ¶z et
Ġordu da
Ġordu ya
Ġhaber ler
geÃ§ miÅŁ
om ik
om uz
Ġkims eleri
Ġkims eyi
ĠÃĩ anakkale
ĠÃĩ ankaya
Ġalt mÄ±ÅŁ
iya t
Ġkor uma
ĠanlaÅŁ Ä±l
Ġdur up
Ġdur madan
Ġkan una
Ġsav unu
ĠbÄ±rak Ä±p
may Ä±nÄ±z
kon feran
Ġc uma
Ġba yaÄŁÄ±
Ġilk esi
ĠÃ§ek tim
ĠÃ§ek tiÄŁi
Ġgelen leri
Ġak l
Ġak Ä±ÅŁ
laya bil
ÅŁah Ä±s
Ġmu dur
Ġmu hareb
Ġmu halefet
umuz un
Ġtak dim
Ġolay dan
yet er
Ġetme sini
Ãĸ n
ĠÃ§Ä±kar mak
ĠÃ§Ä±kar larÄ±na
gerek siz
ĠgÃ¶rÃ¼l me
ĠgÃ¶rÃ¼l memiÅŁ
Ġolma mak
Ġolma sÄ±ndan
ĠZ onguldak
Ġsu stur
Ġsu ikast
Ã¼rlÃ¼ ÄŁe
Ġden eme
Ġden etleme
lerimiz den
ĠhÃ¼k m
rup alÄ±
teÅŁ kilÃ¢tÄ±
Ġkay makam
Ġsiya si
Ġgay emiz
Ġdeniz i
Ä±lÄ± Ã§
Ġidar Ã®
Ġidar esini
Ä±lma sÄ±nÄ±n
ley ecek
Ä°L DÄ°R
olan aksÄ±z
Ġmakam Ä±nÄ±
Ġmakam lara
ĠyazÄ± da
Ġtan Ä±t
ĠÃ¼y elerin
Ġolduk tan
ĠyalnÄ±z ca
Ġbin a
Ã¼yor sunuz
ĠteÅŁkilÃ¢t Ä±nÄ±
Ġkullan arak
Ġmesel enin
Ġuzun ca
ĠyapÄ± labil
ĠyapÄ± lacaÄŁÄ±
ĠÃ¶l Ã¼m
Ġci d
leme sine
ĠgereÄŁ inden
ĠdÃ¼ÅŁÃ¼nce de
durum un
Ġbilin meyen
Ġaleyh te
ÅŁey den
ĠyaptÄ± m
millet vekili
Ġsubay larÄ±
ME M
ME CLÄ°
ĠKan adalÄ±
Ã§i si
lÄ±ÄŁÄ±n daki
Ġbilgiler inize
ben ims
ben zer
gir di
ĠFransÄ±z larÄ±n
biz i
Ġac el
Ġtay ini
Biz e
inc ir
ĠboÅŁ alt
tah ta
tah min
Ġmev z
gin Ã§
mil lik
Ġsar ay
ĠtaÅŁÄ± dÄ±ÄŁÄ±
his set
id ye
Ġbak Ä±ÅŁ
merm iye
Ġyetki sini
ĠÅŁahÄ±s larÄ±
Millet vekil
ĠÃ¼n lÃ¼
memiÅŁ tim
DÄ° ÄŀÄ°
ĠKabin enin
ĠkiÅŁ iye
Ġkamuoy u
Ġetki siyle
Ġsoru lar
kor u
Ġistiyor lar
ger eÄŁ
ger eÄŁi
ĠgelmiÅŁ ken
zer inde
ĠistiklÃ¢ li
ĠistiklÃ¢ lim
ĠKara deniz
ĠKara aÄŁaÃ§
dok un
dok san
miyor uz
Ġev inde
ĠmeÅŁru tiyet
Ġister seniz
ĠgÃ¼c Ã¼nÃ¼n
ĠÃ¶ÄŁren mek
gÃ¶k bilim
Ġsavun maya
Ġkongre de
Ġolamaz dÄ±
Ġordus unu
ĠÃ¼l kesinin
Ġkad eri
Ġval ilik
Ġdiren me
ĠyapÄ±l makta
kÃ¶ tÃ¼
Ġdiyor lar
mec bur
ĠsuÃ§ lu
ĠyaÅŁa ma
Ġherkes Ã§e
det a
dÃ¶k Ã¼m
Ġyarat tÄ±ÄŁÄ±
tarih li
Ġcanav arÄ±
alÄ±n masÄ±
Ã¼lÃ¼ yordu
ĠuÄŁraÅŁ an
Ġmemnun iyetle
Ġtebli gatÄ±
ÃľN Ãľ
Ġrej imi
Ġsoruml uluÄŁu
Ġsoruml uluÄŁunu
Ä±lÄ±r sa
ĠtavÄ±r la
dost larÄ±m
ĠÅŁar tÄ±
Ġmuh taÃ§
Ġtemsilciler ine
yÃ¼r Ã¼t
ayr Ä±ntÄ±
Ġbekli yoruz
ĠkatÄ± lan
ĠaracÄ± lÄ±ÄŁÄ±
AS INDA
lÄ±ÄŁÄ±m Ä±
ĠanlamÄ± yla
Ġzaruret i
GÃ¶r Ã¼ÅŁ
ib dat
ĠgÃ¼ney inde
Ġhalif enin
buy sa
Ġkara ya
Ġalay Ä±
Ġbendeniz in
Ä°ngiliz lerin
Ġkavra mÄ±ÅŁ
endiÄŁ ini
ĠaÃ§Ä±klan masÄ±nÄ±
lerim den
Ġrahat sÄ±z
Ġtec avÃ¼z
leyi ci
Ġetmey in
TI ÄŀIM
ÄŁit im
Ġah tapot
ĠatÄ± lan
od man
od yum
Mer minin
ĠgÃ¼l le
sab ah
Ġkul ak
Ġhes aba
Ġsonuc un
Kan unu
ĠÃĤ dil
ANLI ÄŀI
ĠdeÄŁiÅŁiklik ler
ĠaÃ§a cak
ĠÃ¶ÄŁr endik
Ġant laÅŁma
Ġpen cer
Ġmutl uluk
Ġhisset tir
Sav aÅŁ
ĠalÄ±nÄ± p
ĠgÃ¼r Ã¼ltÃ¼
Ġtren le
ĠBoÄŁaz lar
ĠbaÅŁlangÄ±Ã§ ta
ĠdÃ¼rb Ã¼n
ĠalÄ±k oy
ĠmÃ¼sa adeniz
maksa dÄ±
ĠÄ°S MET
Kongr esi
tabi i
ĠKay seri
Ġnez ak
Ãľst elik
Ġmik tar
Ġkurun tu
HÃ¼k Ã¼met
tok ol
ĠtelÃ¢ ÅŁ
Ã¼tÃ¼ph an
ĠNaz illi
ĠMÃ¼f it
konus undaki
Ġekon omik
ĠkÃ¼rsÃ¼ den
GÃ¼ven likle
Ġihtiyat lÄ±
osk ova
sch el
anas tÄ±r
ĠBrun ot
! ..
. )
4 5
A b
A s
A ra
A ÅŁaÄŁÄ±
B Ãľ
B elki
C UMHURÄ°YET
D Ã¼n
E h
E FET
F evzi
G erek
G eminin
H an
H erkes
K I
K endiler
K ET
M al
N A
N ot
N UN
N eyse
O P
R I
S A
S iz
S am
S Ä±vas
S uriye
S evgili
T arih
T erak
U K
U Z
U z
Y a
Y Ã¼z
a larak
a caÄŁÄ±na
b Ä±
b ini
b elg
b unda
b om
c ileri
c Ä±mÄ±
c abey
d olayÄ±
d unuz
d Ã¶rd
e or
f or
g h
g ecik
h ilÃ¢fet
h uzur
i er
i ver
k el
k ilerin
k Ã»m
l y
l unun
l ilik
m illi
p a
p an
p ro
q u
r enin
s ok
s uÃ§
s indeki
s aygÄ±deÄŁer
t at
t az
y r
y Ä±ÅŁ
y mÄ±ÅŁ
y dÄ±k
y Ã¼ce
y Ã¢t
Ġ ?
Ä± ra
Ä± sÄ±
Ä± lacaÄŁÄ±
Ä± sÄ±r
Ã¼ b
Ã¼ yordum
ÅŁ if
ÅŁ eyi
ÅŁ ifre
in en
in op
Ġb az
ir li
en gin
et ini
et meye
et inizi
Ã§ eki
Ã§ erÃ§evesinde
Ã§ eper
Ġd Ä±
Ġd Ã¶
Ġd Ã¶rdÃ¼ncÃ¼
ma larÄ±n
ma dd
ma malÄ±dÄ±r
Ġk um
Ġk Ä±l
Ġk Ã¶r
ek t
Ġg urur
Ã¶ mÃ¼r
Ġv ap
ak larÄ±nÄ±
la v
Ġs Ã¶n
Ġs ultan
Ġy eme
Ġy emin
al dÄ±r
al esef
Ġo muz
Ġt em
Ġt Ä±r
Ġt it
Ġt ez
Ġt alih
de si
de fa
de yim
da la
da vet
Ġbir liÄŁe
Ġh i
Ġh ap
Ġh it
Ġh ilafet
Ġh ikÃ¢y
ĠB at
ĠB ro
ĠB ARIÅŀ
im leri
iz likle
ya caÄŁÄ±m
ya yÄ±m
or ada
on da
on dan
on ay
on larÄ±
ul maktadÄ±r
tÄ± ÅŁÄ±
Ġa man
lÄ± sÄ±
ey ecek
sÄ± kÄ±n
em iyorum
Ġm ili
ĠK am
ĠK AN
ĠK aÃ§
ĠK arakol
ĠK atÄ±na
ĠgÃ¶ m
den eme
den emenin
ay na
ĠM anda
ĠM ister
ĠM evki
ĠM eÅŁrutiyet
Ä±nÄ± r
ol d
ol madÄ±ÄŁÄ±
ol ursa
Ġe bed
ĠA dÄ±
ĠA Ã§Ä±k
ĠA dam
ab u
ab an
ab Ä±n
ta ma
ĠÄ° LAN
ĠgÃ¶r dÃ¼ÄŁÃ¼
inde dir
ĠH em
eler iniz
Ġil leri
Ġn Ã¼s
Ä±r Ä±l
ok ra
te de
lan na
Ã¶z gÃ¼
Ġal maktan
it o
it lis
Ġet mektedir
ĠT ab
ĠT eÅŁ
ĠT arih
Ġbil diÄŁi
Ġbil iyorsunuz
ĠS ek
ĠS Ä°Y
ĠbaÅŁ lamak
Ġver miÅŁtir
Ġver dikten
Ġver ilerek
Ġver ilmiÅŁtir
Ġver eyim
Ġver menizi
ĠE mir
ĠE ÄŁitim
ah at
ah kem
ĠiÃ§in dir
Ġan i
tÄ±r Ä±cÄ±
eÅŁ ilordu
Ġbulun ur
Ġbulun malarÄ±
Ġyap makta
Ġyap Ä±p
Ġed iniz
ĠD emek
urum uz
Ġist ekli
Ġp an
Ġp aÅŁa
Ġp osta
Ã¼y eleri
maya caÄŁÄ±ndan
Ġgel meye
Ġgel mesi
Ġgel miÅŁtir
Ġgel ebilir
Ġgel ebilecek
iyet i
as im
man tÄ±k
ĠC UMHURÄ°YET
ĠC Ã¢mi
uk ur
ĠY en
ĠÃ¶n e
Ġf es
ed erken
ĠG Ãľ
Ġmillet ler
Ġmillet ten
ilme ye
ÄŁÄ±m da
Ġay Ä±n
Ġar dÄ±m
ĠO na
ĠkarÅŁÄ± lÄ±ÄŁÄ±
ĠR e
ĠR efik
kan lÄ±
ĠgÃ¼n eye
ĠgÃ¶rÃ¼ÅŁ erek
ĠgÃ¶rÃ¼ÅŁ lÃ¼
ĠgÃ¶rÃ¼ÅŁ lerimizi
Ġin ancÄ±
Ġgerek Ã§
Ġr ez
ilÃ¢ yÃ¢t
Ġkur muÅŁ
Ġkur duÄŁu
Ġdurum la
Ġtar zÄ±
gi den
ĠsÃ¶z lere
Ġon arÄ±m
ĠÃ§Ä±k mÄ±ÅŁtÄ±
ĠdÃ¼ÅŁÃ¼n Ã¼lebilir
Ġtelgraf Ä±mÄ±za
Ġkal em
Ġkal mÄ±ÅŁtÄ±
se z
se di
ĠgeÃ§ meden
ĠgeÃ§ erli
âĢĿ ,
Ġben de
Ã§ek in
Ġedil mek
Ġedil iyordu
Ġedil dikten
baÅŁ lÄ±
baÅŁ lan
ver ilen
ĠsÃ¼r Ã¼p
ĠsÃ¼r esinin
ĠsÃ¼r dÃ¼ÄŁÃ¼
ret er
Ġtarih in
Ġkarar Ä±mÄ±
Ġyar atan
Ġyar dak
eli dir
Ġhar ita
Ġyol culuk
oy na
Ġyan Ä±
gÃ¶r dÃ¼k
Ġzaman a
gÃ¼n ey
gÃ¼n eÅŁ
gÃ¼n lerde
Ġbirlik lerimiz
Ġhak larÄ±nÄ±n
ĠgÃ¶ster i
ĠÃ§alÄ±ÅŁ tÄ±k
ĠÃ§alÄ±ÅŁ Ä±yordu
ĠgÃ¶rev in
ĠgÃ¶rev leri
ĠgÃ¶rev inin
can av
Ġmak ama
ĠdeÄŁil se
art al
mey eceÄŁim
siz i
Ġad Ä±ndaki
Ġyaz dÄ±k
lama mÄ±ÅŁtÄ±r
hal kÄ±
Ġuz anan
ĠgÃ¶nder mek
Ġ192 4
ĠÃ¶nce den
Ġgetir erek
Ġgetir ildi
Ġiki si
LE Åŀ
ĠÃ¶ t
ĠÃ¶ perim
Ġka ya
Ġka lacaktÄ±r
Ġsay Ä±lan
Ġsor duÄŁum
ĠÅŀ Ã¼phesiz
ĠsaÄŁ layan
yap Ä±t
Ġyet iÅŁtir
ĠbaÄŁ r
ĠsÃ¶yle diÄŁi
ĠsÃ¶yle yen
ĠÅŁey h
ĠEr tesi
ĠyÃ¼z de
acak larÄ±
acak larÄ±nÄ±
ĠkÄ± lÄ±
ĠÃ¶nem siz
ic iye
dÃ¼ÅŁ Ã¼ÅŁ
Ġduy ulan
ist ek
ist eÄŁ
ĠseÃ§ mek
Ġteklif lerini
Ġmemleket imizde
om ur
Ġnokta sÄ±na
Ġorta da
Ġtut ulmasÄ±
Ã¼st e
Ã¼st ah
Ã¼st Ã¼nde
ĠanlaÅŁ Ä±lmasÄ±
Ġkan Ä±
ĠbÄ±rak mÄ±ÅŁ
kon uyu
ĠdÃ¼ÅŁÃ¼nc elerin
ĠdÃ¼ÅŁÃ¼nc esiyle
yer lerde
ĠMu danya
ĠAr kadaÅŁ
ile bilecek
Ay dÄ±n
ĠÃ§ek meye
dÃ¼ÄŁ Ã¼nÃ¼z
Ġak si
Ġak tar
Ġolur uz
Ġolur sak
Ġsa Ã§
ĠhazÄ±r lamak
ĠdÃ¶n erek
ĠdÃ¶n mesi
ĠdÃ¶n dÃ¼
ĠdÃ¶n mÃ¼ÅŁ
ĠÄ°s mail
Ġgit meden
yet erli
ĠarkadaÅŁ Ä±nÄ±n
Ġetme den
Ãĸ yleyse
ĠÃ§Ä±kar Ä±lmasÄ±
Ġkurul du
diÄŁim de
Ġolmak tan
ĠgÃ¶rÃ¼l Ã¼yordu
Ġolma masÄ±
gÃ¶z le
yol c
yol unu
Ġden ilmekte
Ġdayan dÄ±r
Ġdayan Ä±ÅŁma
tiÄŁ inde
ĠÄ°ngiliz lere
Ġkap alÄ±
Ġkap Ä±lma
Ġok sij
Ġok yanusun
Ġkay naÄŁÄ±
Ġdi binde
Ġsiya seti
Ġgay eyi
Ġgay esini
Ġter tibat
Ġdeniz lerde
laÅŁtÄ±r Ä±lmasÄ±
ĠBen deniz
Ġgen eral
ĠsonuÃ§ larÄ±
ĠkaÃ§ maya
Ġinsan Ä±n
Ġgenel likle
Ġtan e
sal dÄ±r
sal tanat
Ġyak laÅŁtÄ±
diÄŁimiz de
lamaya cak
lamaya caÄŁÄ±
Ġalan Ä±
Ġbelirt ti
Ġik na
ĠsÄ±ra dan
Ġsebep lerle
kendi sinin
her halde
Ġtab ak
ĠbaÅŁkan lÄ±ÄŁÄ±nda
Ġkanun lar
Ġkanun larÄ±n
Ġmesel eleri
ĠdÃ¼nya ca
ĠbeÅŁ inci
Ġbekle y
Ġbekle diÄŁi
Ġer t
Ã¼p iter
Ġsev in
Ġsev da
dÄ±ÄŁÄ±m da
Ġtehlik ede
sÃ¼r Ã¼
sÃ¼r ekli
sÃ¼r dÃ¼r
Ġhalk Ä±nÄ±
Ġsun duÄŁum
ĠaÃ§Ä±klama larÄ±
ĠaÃ§Ä±klama larda
SÄ° VAS
Ġdin le
ĠBiz e
ĠsavaÅŁ tan
millet e
Ġkoy mak
Ġhep sinin
ilir se
Ġkazan mak
ĠbaÄŁÄ±msÄ±z lÄ±ÄŁÄ±mÄ±z
Ġkes kin
Ġgemi si
Ġko yan
ĠKab ul
Ġpro j
Ġpro tokol
Ġettir ilmesi
LA YAN
Ġmektu bu
Ġmaksat larla
ĠÅŁifr enin
ĠbarÄ±ÅŁ Ä±n
ĠaydÄ±n lan
ĠboÅŁ una
Ġbit ti
hak lÄ±
ĠÃľ Z
Ġses sizlik
Ġanlat tÄ±
ĠyayÄ±n lanan
ĠtaÅŁÄ± t
saÄŁ lamak
ĠdÃ¼zen e
ĠÃ§alÄ±ÅŁma larÄ±nÄ±
ĠhÃ¼kÃ¼m lerinin
Ġat lÄ±
edak ar
ĠuÄŁra tÄ±l
bun lar
bun lardan
insan lar
Ġyen ilik
ĠhaberleÅŁ meler
mÃ¼ hendis
tey di
sÄ±zlÄ±k tan
Ġesas larÄ±
ĠhatÄ±r Ä±ma
DÄ° Åŀ
dek iler
ĠkardeÅŁ leri
ĠkÃ¶tÃ¼ ye
Ġkomuta sÄ±nda
Ġli bre
ĠgeniÅŁ let
ĠKAR AR
ĠbaÅŁvur arak
Ġhan edan
Ġisten iyordu
HÃ¼kÃ»met in
landÄ±r mak
luÄŁ unda
madÄ±k larÄ±
Devlet i
ĠyanlÄ±ÅŁ lÄ±k
Ġbah an
ĠaÄŁÄ±r lÄ±k
ĠBaÅŁkomutan Ä±
hep si
Ġvali si
ĠfedakÃ¢r lÄ±ÄŁÄ±
Ġispat a
ĠhÃ¢kimiyet i
Ä±nlÄ±k larÄ±n
ĠKonferan s
AZ IRI
Yunan lÄ±lar
Ġmanev i
Ġmanev ra
hey ecanla
Ã¼zÃ¼ ÄŁÃ¼
ĠSa at
fÄ±r sat
Ġ6 1
tab aka
ĠÃ¼l timatom
ĠyapÄ±l masÄ±na
ĠgereÄŁi dir
ĠmÃ¼frez esi
hay ran
kÃ¶ p
mec it
Ġderin lik
Ġduyur mak
Bil indiÄŁi
Ġpolitik acÄ±
git ti
lamaz dÄ±
ĠÅŁahsiyet leri
ĠÅŁahsiyet lerinin
ĠdÄ±ÅŁarÄ± dan
bunun la
ĠoluÅŁtur duÄŁu
ĠÅŁun lardÄ±r
Ġcanav arÄ±n
bazÄ± larÄ±
Ġkol ordunun
Ġkonferan sÄ±n
Ġkonferan sa
ĠisteÄŁ ini
ĠÃ¶ldÃ¼r me
kiÅŁ inin
anlaÅŁ Ä±ldÄ±
ĠhilÃ¢fet in
ĠoluÅŁ u
Ġzan ne
ĠsaÄŁlan masÄ±na
ker e
ĠÃ¶ner ge
kims eler
seÃ§ im
ĠHar iciye
ĠHÃ¢ mit
ĠalÄ±na caktÄ±r
MÃ¼ cadele
Ġbulunuyor uz
ĠolduÄŁumuz u
Ġirade ye
Ġniyet li
Ġniyet inde
Ġfer sah
Ġvatansever lik
ÅŀI YOR
say dÄ±m
taki p
Ġmal z
ĠaracÄ± lÄ±k
ĠÃ¼zÃ¼n t
ĠkurtuluÅŁ u
ĠiÃ§eri de
Ġbiribir ini
ĠsÃ¶ylen tiler
bekle mek
gÃ¼r Ã¼ltÃ¼
Ġbulu p
ĠdemiÅŁ tim
Ġtebligat ta
Ġsey ret
ĠatÄ±l dÄ±
ĠMal ta
Ġyapacak larÄ±
Ġbendeniz e
Ġkaynak lardan
Sal Ã¢hattin
ani sa
Ġnota ya
Ġheyecan lÄ±
Ġrahat Ã§a
leyi p
oluÅŁ an
AmerikalÄ± larÄ±n
zar ar
Ġbur asÄ±
Ġbur adaki
ĠAra p
ĠAra mÄ±zda
ĠDurum u
ĠDer hal
ĠDer sim
per ver
temsil ciler
ĠyÃ¶nel miÅŁ
sab Ä±rsÄ±z
kÄ±sa sÄ±
Ġbeklen medik
Kan adalÄ±
ĠalÃ§ak Ã§a
ĠparÃ§ asÄ±
................ ................
ard Ä±ndan
ĠmantÄ±k sÄ±z
Ġdisip l
ĠdeÄŁiÅŁik liÄŁi
Ġmaz er
uygu lama
ĠkararlÄ± lÄ±k
Ġihtima le
ĠÃľÃ§ Ã¼ncÃ¼
tes pit
ĠhÄ±r s
ĠgÃ¼t tÃ¼ÄŁÃ¼
Ver ne
hÃ¢ lÃ¢
ĠboÅŁaltÄ±l masÄ±
ule s
ĠoÄŁ lu
tav Ä±r
edd Ã¼t
ĠSar ay
Ġcin ayet
Ok yanusu
Ġna sihat
Ġlider leri
ĠzÃ¢tÄ±Ã¢lÃ® n
Ġhesab Ä±na
ĠMECLÄ° SÄ°
ahmet li
Ġbenz eri
Ġnamus lu
ĠSab ri
At lan
OZ AN
Yol culuk
Ġdola ÅŁÄ±
Ġdef ter
ĠSu phi
Ġelbi seler
Ġmanz ara
Ġtaahh Ã¼t
parÃ§ alan
ĠÃ¶ÄŁle den
Sey yare
Ġmuam el
vasÄ±ta sÄ±yla
ALI ÅŀIYOR
maÅŁ tÄ±rÄ±cÄ±
ĠkasÄ± t
ĠyapÄ±lÄ±r ken
Ġkuz eye
ĠahlÃ¢ k
ĠzÄ±pkÄ±n Ä±nÄ±
Ġdet ay
Ġvat ana
olek Ã¼l
ĠAnaya sa
ĠTA ARRUZ
ĠmÃ¼saadeniz i
ĠBat um
Ġebed Ã®
Ġyardak Ã§Ä±
4 4
4 7
4 8
5 7
6 0
8 0
A Ã§Ä±k
B ah
B ana
B akÄ±n
B alÄ±kesir
C AK
C anav
D aÄŁ
D Ã¶k
D IRI
E B
E y
E DE
E ski
G erÃ§ek
G erÃ§i
H ep
H ukuk
I er
I eri
J ules
K al
K eÅŁ
K emal
K Ã¶rfezi
M ER
N E
N Ã¢zÄ±rÄ±
O nu
S er
S ist
S aygÄ±
S UN
T LAÅŀ
U H
V E
V ER
X I
Y ap
Y iÄŁit
Y aÅŁasÄ±n
a sa
a labil
c c
c Ä±n
c Ä±l
c usu
c ilik
c ecik
c Ã¼mle
d unu
d olay
e ak
e mem
f il
g ara
g Ä±lan
g ram
h ir
h es
h ayÄ±r
h ington
i ga
k ir
k li
k Ä±z
k Ã¼t
k Ã¼Ã§
k ahraman
l eler
m iz
n an
n az
n eler
n ok
n ut
n ard
o f
o su
p otasyum
r y
r ek
s pr
t arak
t ali
t Ã¼men
t Ä±nÄ±z
u sta
v al
y o
y esi
y eri
y emek
y ecektir
z Ã¢de
Ġ Ä±m
Ġ ).
ÅŁ aÅŁ
ÅŁ eye
ÅŁ imdiye
ÅŁ ikÃ¢yet
ÅŁ Ã¼phe
ar z
ar if
ar amÄ±zda
Ġb ez
il lerin
il diÄŁini
ir iÅŁ
Ä±n an
ÄŁ ret
et iyle
Ã§ ileri
Ã§ alÄ±
Ã§ uluk
Ġd ini
Ġd aki
ma sÄ±n
ma masÄ±nÄ±
ma tik
ma ddÃ®
Ġk ah
Ġk aptan
Ġk olu
ek ten
Ġg ev
Ã¶ h
un ca
el den
el ini
el ver
la mÄ±yor
Ġs esi
Ġs oÄŁuk
Ġy i
Ġy el
Ġy Ä±p
Ġy uvar
Ġy iyecek
al Ä±r
al Ã¼minyum
Ġo I
Ġt Ã¼n
di yerek
de miÅŁ
de yse
Ġi p
Ġi t
Ġi dik
ur n
ur du
Ġh uz
dÄ± ÄŁÄ±na
ĠB altimore
ĠB itlis
im zalan
aÅŁ Ä±rÄ±
or tak
or anla
on lara
ul larÄ±
tÄ± lan
Ġa b
Ġol unan
Ġol mayÄ±
ra ÄŁÄ±
ra cak
ra ÄŁmen
sÄ± kÄ±ÅŁ
Ġm el
Ġm iÅŁ
Ġm uydu
Ġm ill
ĠK al
ĠK Ä±lÄ±Ã§
at mak
âĢ ¦
Ã¢ k
Ġde diÄŁimiz
ĠM ondros
ĠM azhar
ĠM anisa
ĠÃ§ a
ĠÃ§ erÃ§ev
ĠÅŁ eriat
ini st
az Ä±l
az zam
Ġbu cak
ol n
ol malÄ±
ol muÅŁtur
ol dukÃ§a
Ġe f
Ġe h
ĠA dil
ab etli
ap ka
Ä±l gÄ±n
ĠÄ° M
ĠgÃ¶r erek
ĠH arb
ĠH erkes
Ġil ginÃ§
Ġn i
Ä±r k
Ä±r Ä±z
Ä±r kasÄ±
Ã¶n et
Ã¶n eri
ev kal
lan mÄ±ÅŁtÄ±r
lan maktadÄ±r
sa Ã§
sa ÄŁa
leri me
Ġal madan
Ġet mez
Ġet menin
Ġet kil
ĠT ali
ĠT ÃľRK
ĠT anin
ĠT akr
mu yordu
Ġbil imsel
ĠS or
ĠS aÄŁ
ĠS aygÄ±
ĠS ON
ĠS tone
ĠS Ã¼kÃ»n
ĠS inop
uy arak
ad Ä±n
ĠbaÅŁ tan
ĠbaÅŁ yaz
Ġver iniz
Ġver ebilmek
ĠE N
ĠE v
bil mem
us uyla
Ã¼m Ã¼n
Ã¼m lÃ¼
unu p
tir as
lÄ±k larÄ±n
eÅŁ ar
eÅŁ at
Ġbulun ul
Ġbulun ayÄ±m
Ġbulun uldu
Ġbulun acaktÄ±r
Ġbulun dular
Ġbulun duÄŁunuz
Ġyap tÄ±ktan
Ġyap acaÄŁÄ±m
lay Ä±nÄ±z
ĠD en
ĠD Ã¼n
ĠD ÃĸN
Ã¼l Ã¼yor
Ã¼l mesine
ha c
ha in
Ġist ilÃ¢
Ġist ediler
Ġist ibdat
Ġp lÃ¢
Ã¼y esi
maya caÄŁÄ±na
Ã¶r nek
Ġgel mekte
Ġgel mez
Ġgel diler
Ġgel mesini
as hington
laÅŁ a
laÅŁ manÄ±n
man larÄ±
Ġolan Ä±
Ġolan lardan
ĠY er
ĠY arÄ±n
ĠY ani
ĠY eÅŁilordu
Ġsonra ya
ĠÃ¶n len
ĠÃ¶n lemek
Ġf alan
Ġf ilÃ¢n
ĠG E
ĠG er
ĠG eÃ§
ĠN asÄ±l
ĠN AZIRI
Ġmillet imizi
ilme den
ilme sinden
Ġay dan
Ġay gÄ±
Ã§Ä±k arÄ±
ĠiÅŁ leme
Ġyer lerinde
Ġyer yÃ¼zÃ¼ndeki
uÅŁ u
ĠR eÅŁat
ĠgÃ¼n Ã¼ne
ĠgÃ¶rÃ¼ÅŁ te
ĠgÃ¶rÃ¼ÅŁ lere
ĠgÃ¶rÃ¼ÅŁ meden
Ġin kÃ¢r
Ġgerek lerini
Ġgerek lerine
Ġr ek
is el
is indeki
yÄ± p
iniz de
Ġor tam
yan Ä±ndan
Ġdurum larÄ±
Ġdurum unun
larÄ±nÄ± zÄ±
gi dip
Ġbiz leri
Ġkab ule
ĠsÃ¶z lerine
ĠsÃ¶z lerinden
ĠÃ§Ä±k tÄ±k
ĠÃ§Ä±k masÄ±na
Ġtop layarak
Ġel lerine
ĠbÃ¼tÃ¼n lÃ¼ÄŁ
Ġne fes
ep tÃ¼n
Ġbildir diÄŁi
Ġbildir ilmiÅŁtir
Ġvar dÄ±k
Ġkal kÄ±n
Ġkal mÄ±ÅŁtÄ±r
Ġkal madÄ±ÄŁÄ±
Ġkal mamÄ±ÅŁ
Ġkal mamÄ±ÅŁtÄ±r
una caktÄ±r
se fer
ĠgeÃ§ ecek
ĠgeÃ§ ip
ĠMeclis in
sil indir
ne dir
ĠdoÄŁ a
ĠdoÄŁ muÅŁ
Ġkendi me
Ġki me
Ġedil ip
Ġedil diÄŁini
baÅŁ ar
baÅŁ lÄ±ca
ver ecek
ver dim
ver ilmesini
Ġola caÄŁÄ±na
Ġola mayacaÄŁÄ±nÄ±
ĠaÃ§Ä±k tÄ±r
ĠsÃ¼r ece
ĠsÃ¼r mÃ¼ÅŁ
Ġkarar Ä±nda
Ġkarar larÄ±nÄ±n
Ġtaraf Ä±mdan
Ġtaraf indan
len ecek
len meye
Ġhar f
Ġhar ca
Ġyol larla
Ġanla tÄ±l
Ġu tan
Ġu sta
san Ä±n
dÄ±m Ä±z
Ġhak larÄ±ndan
Ġkabul Ã¼
ĠÃ§alÄ±ÅŁ makta
ĠÃ§alÄ±ÅŁ tÄ±klarÄ±
re j
re den
ĠgÃ¶rev inden
dur du
dur rah
can Ä±m
Ãľ Z
ĠÃ¶z enle
ĠdeÄŁil iz
ĠKomutan lÄ±ÄŁÄ±na
mey ecektir
gel ir
gel diÄŁi
AR B
Ġhareket ini
Ġhareket lerinin
alÄ± yordu
AN DA
lama mÄ±ÅŁ
hal e
hal ka
Ġuz laÅŁmaya
Ġtoplan acaÄŁÄ±
mÄ± dÄ±r
son uc
ĠgÃ¶nder ilme
Ġgetir ecek
ali ba
LE KET
ĠÅŀ ah
ĠÅŀ ifre
ĠÅŀ efik
ĠÅŀ Ã»rÃ¢
Ġiste me
ĠsaÄŁ lamÄ±ÅŁ
yap Ä±lmasÄ±
ĠsÃ¶yle ye
ĠsÃ¶yle diÄŁim
ĠsÃ¶yle dikleri
ĠsÃ¶yle yecek
Ġma den
Ġma cer
Ġma alesef
Ġes aret
var sa
var lÄ±ÄŁÄ±nÄ±
uf uk
esin likle
ĠbazÄ± larÄ±nÄ±n
ĠyÃ¼z Ã¼nde
ĠyÃ¼z baÅŁÄ±
ic o
ic aret
Ä°N CÄ°
ĠBir i
ĠBir lik
ĠseÃ§ ilmesini
ĠgÃ¼ven liÄŁi
yar da
Ġkonu larÄ±nda
ĠgÃ¶z leri
Ġordu muzun
Ġhaber leri
Ġmemleket imizin
geÃ§ iyordu
Ġnokta larÄ±n
ĠÃĩ or
Ġgem ilerin
Ġkor idor
Ġkor usun
Ġtut ma
Ġtut arak
Ġtut tuÄŁu
bulun muÅŁ
bulun uyor
Ġdur sun
Ġsav ur
eÄŁ men
ĠbÃ¶lg eye
ĠbÃ¶lg esinin
ĠbÃ¶lg elerde
top lanan
top Ã§u
ĠdÃ¼ÅŁÃ¼nc esinde
ĠdÃ¼ÅŁÃ¼nc eyi
yer ber
kal mÄ±ÅŁtÄ±
kal kÄ±ÅŁ
Ġilk elerin
Ġilk esini
Ãĩ ev
Ãĩ eÅŁitli
Ġbelir en
ĠÃ§ek tir
Ġbenim se
Ġasker leri
Ġman tÄ±
Ġman zar
ĠhazÄ±r lanan
ĠÃ¶nemli si
ĠÃ¶nemli ydi
Ġtedbir in
Ġtedbir lere
Ġmu hak
umuz u
ĠkonuÅŁ manÄ±n
Ġgit me
Ġgit mesi
Ġgit tikÃ§e
Ġolay lara
yet en
yet kin
ĠarkadaÅŁ larÄ±yla
ĠarkadaÅŁ larÄ±m
elik ten
Ġetme dim
Ġetme mesi
ola bil
ĠÃ§Ä±kar Ä±lan
gerek ti
gerek tiÄŁi
Ġolma sa
Ġolma mÄ±z
Ġdikkat imi
Ġdikkat inizi
ba ÄŁÄ±rÄ±
ĠZ ira
gÃ¶z ler
gÃ¶z den
yol da
Ġden g
lerimiz de
hat tÃ¢
tiÄŁ iniz
Ġmilletvekil lerini
Ġmilletvekil lerine
Ġmilletvekil liÄŁinden
mem ize
ĠL inc
leÅŁtir mek
ER Ä°NE
Ġoldu m
Ġoldu lar
Ġoldu gu
Ġtes elli
Ġdi bin
ĠolmadÄ± ÄŁÄ±mÄ±z
ĠbaÅŁladÄ± ktan
Ar if
Ġter sine
Ġter eddÃ¼t
atÄ±l mÄ±ÅŁ
atÄ±l masÄ±
ĠÃ¢ let
Ä±lma masÄ±
Ä±lma masÄ±nÄ±
ĠsonuÃ§ suz
ĠkaÃ§ mak
ĠyÃ¼r Ã¼rlÃ¼ÄŁe
LER Ä°NE
Ġinsan larÄ±
ĠÃĸ teki
ĠyazÄ± lar
ĠyardÄ±m Ä±nÄ±
ĠyardÄ±m cÄ±m
Ġkendiler iyle
ĠayrÄ± lÄ±k
ĠayrÄ± lÄ±r
ĠsÃ¼re gelen
ĠÅŁÃ¼ph eye
Ġbelirt tim
yur ttaÅŁ
Ġik iÅŁ
ĠteÅŁebbÃ¼s Ã¼n
ĠteÅŁebbÃ¼s leri
ot urum
kendi si
Ġkullan Ä±lan
Ġkullan dÄ±ÄŁÄ±
ĠCemiyet leri
luk ta
zaman lar
zaman Ä±nda
ĠmÄ± yÄ±z
maktadÄ±r lar
aÃ§ tÄ±
Ġbekle mekte
Ġayr Ä±lmak
os ya
Ġsev gili
dÄ±ÄŁÄ±m Ä±
Ġsaat lik
gÃ¼ cÃ¼
ĠsayÄ± da
ĠsayÄ± larÄ±
ĠÃ§Ã¶z Ã¼l
ĠgereÄŁ ine
ĠgereÄŁ inde
dÄ±ÄŁÄ±nÄ± z
emiz e
Ġbuyur ulmasÄ±nÄ±
sev e
sev imli
sev inÃ§
Ġkend inden
Ġsun mak
ĠsÃ¶y lenen
ĠsÃ¶y lendi
eme di
Ġaleyh indeki
ĠsÄ±nÄ± rÄ±
deÄŁer li
Ġkoy muÅŁ
ĠPadiÅŁah Ä±mÄ±z
ĠKongr enin
ME YE
Ġgereken lere
ĠilÃ¢n Ä±na
ĠtoplantÄ± sÄ±
ĠÃ¼st Ã¢
Ġkolay lÄ±k
ĠkatÄ±l masÄ±
ĠdÃ¼ÅŁÃ¼nceler e
ĠdÃ¼ÅŁÃ¼nceler le
ĠdÃ¼ÅŁÃ¼nceler imi
Ben ce
ĠsaygÄ± larÄ±mÄ±
Ġkes ildi
ĠyÄ±l lÄ±k
OR D
par mak
ĠFransÄ±z ca
Ġifade si
Ġmektu bun
aÃ§Ä±k lama
anla m
sav unma
ĠbarÄ±ÅŁ a
inc ele
ĠkarÄ±ÅŁ tÄ±r
Ã§Ä± lar
ĠÄ°zzet tin
Ġmanda yÄ±
Ġanlat maya
ĠyayÄ±n lan
sÃ¶yle dim
yok sa
Ã¼le ceÄŁi
saÄŁ layacak
ĠsÄ±k Ä±ÅŁtÄ±r
EK Ä°R
ĠI s
ĠMeb usan
Ġfaaliyet ine
bun larÄ±
ĠsilÃ¢h landÄ±r
ĠseÃ§im lerin
ĠhaberleÅŁ menin
Ġhusus larÄ±n
merm iyi
gÃ¶nder ilmesi
Ġyetki sinin
ĠdavranÄ±ÅŁ larÄ±
Ġgazet esi
taraf Ä±mÄ±zdan
Ġanlam lÄ±
UL MASI
bÃ¶yle sine
ĠÄ± sÄ±
Ġdolay larÄ±ndaki
Ġveril iyordu
Ġboz guna
Ġuygulan masÄ±na
Ġduygu larÄ±
ĠkarÅŁ Ä±n
Ġsoru lara
res mi
ĠKAR DE
ĠdaÄŁÄ± t
luÄŁ un
Ġsaltanat Ä±n
hareket e
emey iz
emey eceÄŁini
hÄ±z lÄ±
ĠtÃ¼men le
emir ci
Ġbulundur arak
192 2
ĠhaklÄ± sÄ±nÄ±z
Hal buki
Ġistek leri
Ġbelli ydi
Ġayak lanma
ĠKara cabey
Ġkonus unun
Ġikinci si
mamÄ±z a
amÄ±z Ä±
Ġner eden
Ġister iz
iliÄŁ ini
din gin
yak Ä±ndan
Ġhedef ine
Ġilgil ilere
ĠgeliÅŁ me
Ġkoru ya
Ġtutuk lu
ĠÃ§Ã¶zÃ¼m Ã¼
Ã§evr esindeki
ĠgÃ¶tÃ¼r Ã¼l
Ġdakika ya
sÄ±ra dan
Ġyararlan ma
Ġkomisyon a
ĠÄ°kinci si
Ġordus una
ĠÃ¼mit sizliÄŁe
Or dunun
bra ham
tab anca
Ġval iyi
Ġolsa lar
ĠyapÄ±l mak
ĠmÃ¼frez eler
hay kÄ±rdÄ±
Ġduyur u
Bil dir
Ġgez i
Ġgez egen
ĠdÄ±ÅŁarÄ± ya
Bakan Ä±
ĠÃ¼nvan Ä±nÄ±
ĠgÃ¼Ã§lÃ¼k ler
ĠgÃ¼Ã§lÃ¼k leri
AL TAN
AL DIRI
medik lerini
kiÅŁ iler
Ġdiy en
ĠdÃ¢vÃ¢ yÄ±
Ġyara yacak
ĠMerkez i
ĠcÃ¼mle si
kazan dÄ±r
ĠhazÄ±rlÄ±k larÄ±
ĠÃ¢sÃ® lerin
kims eye
ĠyaÅŁ ayan
ĠÃ¶ÄŁ Ã¼t
gÃ¼ven ilir
Ġprog ramÄ±
ĠÄ°l leri
Al bay
ĠpadiÅŁah Ä±n
ĠÃ§et esi
ĠÃ§et elerin
Ġmuh tÄ±ra
Ġmerm iye
ĠbÃ¶l Ã¼ÅŁ
ĠgÃ¶rdÃ¼ÄŁ Ã¼nÃ¼z
koy uldu
otur tul
ĠÃ¼stÃ¼n lÃ¼k
Ġpropaganda lar
tÄ±ÄŁÄ±m Ä±
ĠtasarÄ± sÄ±
gÃ¼r Ã¼lt
Ġdemir yolu
bilg iler
bilg inize
ĠatÄ±l mÄ±ÅŁ
saf ir
yardÄ±m cÄ±
yardÄ±m Ä±yla
Ġkavra yÄ±ÅŁ
Sal tanat
ima v
anlat mak
bilin meyen
Ġzih in
Ġmah kÃ»m
Ġdu a
ĠMemleket in
gÃ¶rÃ¼n Ã¼ÅŁ
ĠhÃ¼kÃ¼met e
ĠkÄ±ÅŁkÄ±r tma
yarÄ± sÄ±
Ã¼nc eler
ĠAd nan
ĠnÃ¼f us
gerekir di
tehlik eli
boy ut
kav uÅŁ
kav uÅŁtur
Ġum ut
ĠselÃ¢ m
ĠAN TLAÅŀ
ĠyazÄ±ÅŁma lar
ĠCumhurbaÅŁkan lÄ±ÄŁÄ±
Ġkendim izi
yarar lan
Ġsalon una
ĠyarÄ± mada
asker Ã®
Ġhaysiyet ini
aydÄ±n lat
ĠgÃ¶rÃ¼yor uz
ĠYAP ILAN
ĠkÄ±sm Ä±nÄ±n
Ġbor cu
Ġbes len
ĠTop Ã§u
Ġart tÄ±r
Ġyetkiler ini
LERÄ°N Ä°
LERÄ°N Ä°N
ĠGÃ¶rÃ¼ÅŁ me
olun ur
Ġtopl um
Ġemret tim
ĠhÃ¼kum etin
Ġkov uÅŁturma
Ġdeleg e
Ãĸz el
DÃ¼ÅŁ man
kam uoy
Ġcemiyet in
Ġbekler iz
Ġkader ini
Sav unma
ĠBur nu
Ġyetin eceÄŁim
yÃ¼ksel di
Ġyur du
ĠiÅŁle min
ĠÃ¶lÃ§ Ã¼lÃ¼
gÃ¶rÃ¼ÅŁmeler e
Ġkil ometre
Ġalda tÄ±cÄ±
Ġbilir siniz
ĠgÃ¼v eni
ĠmÃ¼st akil
ĠiliÅŁk ileri
idar e
ÃľÃ§ Ã¼ncÃ¼
ĠhayÄ±r lÄ±
ĠvasÄ±f larÄ±
Ġciddiyet le
Ceph e
Ceph esi
Ġbey efendi
ĠtÃ¼m enin
siya set
Ġkarak ter
Ġtor p
ĠBÃ¶lg esi
ĠAt las
ĠgÃ¶rÃ¼r Ã¼z
ĠHav za
ĠdoÄŁura caÄŁÄ±
parator luÄŁu
Ġincelem eler
ĠÃ¶ÄŁret im
bek len
yuvar la
yuvar lak
Ġmiy iz
bulut su
Ġherk esten
ĠaÄŁz Ä±ndan
Ġmukadderat Ä±nÄ±
Ġï¬ģk r
aracÄ± lÄ±ÄŁÄ±yla
buhar lÄ±
gÃ¶rÃ¼l memiÅŁ
ĠKarar gÃ¢h
Ġkom p
ĠKema lettin
AZI M
Ġsist em
ĠBoz kÄ±r
ĠÄ°h san
ĠDiv an
ĠmeÅŁr uluÄŁ
Ġtaham mÃ¼lÃ¼
Ġsel am
Ġfor mÃ¼l
ĠfÄ±k ra
Ä°LAF ET
konuÅŁma cÄ±
ĠyaratÄ± lÄ±ÅŁ
ĠkÃ¼rsÃ¼s Ã¼nden
ĠUmum iye
Nezaret i
YerkÃ¼r e
Ġton uyla
ĠhatÄ± ra
ecer ik
ĠPoli s
ĠSiya sÃ®
Ġharek Ã¢tÄ±
Ermeni stan
Ġsafsat a
ĠyÄ±ÄŁÄ±n ak
Ġsam imi
Ġsos yal
rag ut
ĠÃ§aÄŁÄ± rÄ±
ĠSÄ±r rÄ±
ĠFar ragut
Ġmuhareb e
OP LAN
ekt ri
Ġvap ur
Ġhi may
sÄ±kÄ±n tÄ±
old spr
ĠardÄ±m cÄ±m
Ġbahan esiyle
evkal Ã¢de
ĠTakr Ã®r
durrah man
ĠLinc oln
ĠKARDE Åŀ
ALTAN AT
oldspr ing
, "
0 1
3 3
6 2
? ..
? ''
B ar
B olu
B ura
B uysa
C A
C AN
C umhurbaÅŁkan
D en
D Ãľ
D Ã¼zce
G ebze
G oldspring
H urra
I a
J andarma
K or
K omisyon
K OMUT
K AZIM
L T
L and
L OZAN
M Ä°
M ah
M eb
M Ã¼slÃ¼man
M IZ
M IÅŀ
M aalesef
O sman
O LA
P A
P eak
R odman
R EFET
S ar
S ize
S Ä°NÄ°N
T amp
U B
V al
V EKÄ°L
Y er
Y LE
Y UN
Y ani
a u
a si
b uz
b oÄŁaz
c aman
d on
e dir
f ar
g Ã¢
g Ä±r
g iye
g unu
h r
h ap
h os
i I
i ir
i ÄŁi
i ddi
j ans
k ini
k inin
k uzey
k Ä±zÄ±l
l Ä±nÄ±
l om
n Ã¼f
n eyse
o o
o ya
p adiÅŁah
p anya
r um
r Ã¼k
r ev
r if
r ef
s ma
s ola
s ayÄ±m
s ber
t ec
t iye
t Ã¼y
t aydÄ±
u tan
v o
v de
v ara
v eÃ§
v ha
v akit
y alan
y Ã¶rÃ¼ng
y Ä±ldÄ±zÄ±
z ih
z Ä±p
Â ·
Ġ Ä±nÄ±
Ġ raf
Ġ Ã¼c
Ä± h
Ä± da
Ä± lacaktÄ±r
ÅŁ al
ÅŁ ev
ÅŁ ama
ÅŁ aÅŁkÄ±n
ar sa
ar ÅŁÄ±
ar aba
an et
an iz
Ġb Ã¼r
Ġb oÄŁaz
en lem
ÄŁ unu
et raf
et lerinin
et miÅŁtir
et imize
Ã§ lar
Ã§ ele
Ã§ ember
Ġd ey
Ġd um
Ġd endi
Ġd osya
Ġk Ã¼l
Ġk Ä±lan
Ġk Ã¼stah
Ã¶ teye
lar sÄ±nÄ±z
ak larÄ±n
el l
el Ã§
la tÄ±
la madÄ±
la caÄŁÄ±mÄ±z
la tacak
Ġs Ã¼
Ġs Ä±z
Ġs Ã¼t
Ġs arÄ±
Ġs Ã¼var
Ġs odyum
Ġy al
Ġy Ã¶r
al da
al Ä±na
al maya
al iyet
Ġt Ã¼k
Ġt ap
di yorum
de dikten
Ġi c
li y
li yordu
li yorlardÄ±
dÄ± ÄŁÄ±ndan
ĠB ul
ĠB eni
Ã¼n van
im z
im an
iz le
ya tÄ±ÅŁ
or an
or aya
ul ana
Ä° vedi
st e
st r
ey erek
ey alet
Ġol d
Ġol gun
em eler
Ġm it
iÅŁ ler
iÅŁ ine
iÅŁ Ã§i
ĠK Ã¼r
ĠK uÅŁ
ĠK ENDÄ°
ĠK adÄ±n
at ma
at la
at li
at Ä±nÄ±
ay i
ay ar
ĠM a
ĠM ec
ĠM ut
ĠM oskova
ĠÃ§ o
ĠÃ§ aba
ĠÃ§ Ä±lg
ĠÃ§ ift
ĠÅŁ er
ĠÅŁ aÅŁÄ±
Ã¼ÅŁ av
mak sat
Ġbu har
ol maz
ol muÅŁ
ol muÅŁtu
ol malÄ±dÄ±r
ol duÄŁumu
ĠA S
ĠA sÄ±m
ĠA ÅŁaÄŁÄ±
ĠA braham
ab Ä±nÄ±
am parÃ§a
Ã¼z Ã¼n
ce zalan
tan atÄ±
ĠÄ° k
ĠÄ° yi
Ä±k amÄ±ÅŁ
ĠgÃ¶r meye
ĠgÃ¶r medim
ĠgÃ¶r mÃ¼yor
ĠH ele
ĠH endek
Ġil an
Ġil in
Ġil et
Ġil lere
Ġil lerinde
bir e
ara daki
Ġn u
Ġn Ä±
Ġn et
Ġn cÄ±
Ä±r lÄ±
ĠP or
ok tor
uz an
si st
Ä±z da
te b
sÄ±n lar
lan dÄ±ktan
duÄŁ unda
Ġal bay
Ġal dÄ±klarÄ±
miÅŁ ler
miÅŁ tik
Ġkar si
ĠT a
ĠT e
ĠT or
ĠT as
ĠT araf
ĠT EÅŀ
ĠT UT
ĠT ahir
ĠT OPLAN
mu h
ĠS Ã¼r
ĠS elÃ¢
ĠS ize
ĠS izi
ĠS ayÄ±n
ĠS AV
ĠS ÃĸZ
ĠbaÅŁ Ä±
ĠbaÅŁ lay
ĠbaÅŁ Ä±mÄ±za
Ġver mesi
Ġver ebil
Ġver meden
Ġver eme
Ġver imli
ĠE M
ĠE min
ah alÄ±
dÄ±r mÄ±ÅŁ
dÄ±r lÄ±k
bil imin
ĠPaÅŁa eli
Ġz Ä±t
Ġz incir
Ġan layarak
Ġan ladÄ±k
tir a
ka maÅŁtÄ±rÄ±cÄ±
Ġbulun a
Ġbulun masÄ±na
Ġbulun duklarÄ±nÄ±
Ġbulun duÄŁundan
Ġyap il
Ġyap mÄ±ÅŁtÄ±
Ġyap makla
Ġyap amaz
Ġyap arken
lay Ä±k
ĠD A
ĠD ost
ĠD emirci
Ã¼l dÃ¼ÄŁÃ¼nÃ¼
ĠdÃ¼ÅŁ tÃ¼
Ġist iyordum
Ġist endiÄŁi
Ġme saf
Ġp Ã¼skÃ¼r
Ã» k
Ã» ÅŁ
Ġgel eceÄŁini
Ġgel dikÃ§e
Ã¶yle yse
ĠC anik
ĠC ambridge
ĠY ar
ĠY Ã¼r
ĠY emen
ĠÃ¶n der
Åŀ eyh
Åŀ imdiye
Ġf en
Ġf el
ed Ã¼z
ed ildiÄŁi
ed onya
ĠG en
ĠG izli
Ã¼kÃ» net
av ÅŁan
Ġar an
Ġar Ä±n
Ġar tan
Ã§Ä±k mÄ±ÅŁ
ĠiÅŁ ten
Ġyer ler
Ġyer lerine
ĠkarÅŁÄ± laÅŁtÄ±r
ĠR A
ĠR ahip
ĠgÃ¶rÃ¼ÅŁ mesi
ĠgÃ¶rÃ¼ÅŁ Ã¼p
Ġin ana
Ġgerek iyor
eb e
Ġr ota
ilÃ¢ yet
is iniz
is han
Ġuy mak
Ġuy umlu
Ġuy ruk
Ġkur an
Ġkur tarÄ±
yan aÅŁ
Ġdurum dur
der ken
uv er
gi si
ĠsÃ¶z lÃ¼
Ġon lardan
ĠÃ§Ä±k maya
ĠÃ§Ä±k maz
ĠdÃ¼ÅŁÃ¼n Ã¼p
Ġtop lamaya
Ġel le
Ġel ini
Ġce za
ĠbÃ¼tÃ¼n lÃ¼ÄŁÃ¼nÃ¼
Ġbildir iyi
Ġbildir menizi
Ġvar lÄ±ÄŁÄ±mÄ±z
Ġvar lÄ±ÄŁÄ±mÄ±zÄ±
Ġkal p
Ġkal masÄ±nÄ±
Ġkal Ä±p
Ġkal dÄ±rÄ±
Ġkal madÄ±ÄŁÄ±nÄ±
Ġkal dÄ±ktan
ĠgeÃ§ mesi
ĠgeÃ§ erken
lerin ce
Ã§ek im
lu ÄŁa
baÅŁ ara
baÅŁ laya
baÅŁ lamÄ±ÅŁ
baÅŁ lamÄ±ÅŁtÄ±
ver erek
ver ildi
ekli ï¬ģ
Ġola caÄŁÄ±ndan
ĠaÃ§Ä±k tÄ±
ĠaÃ§Ä±k ladÄ±
ĠsÃ¼r Ã¼yor
maz lÄ±k
Ġtarih ine
Ġtarih lerinde
Ġkarar Ä±na
Ġkarar larÄ±na
Ġyar dÄ±
Ġyar Ä±ÅŁ
Ġyar ayan
Ġyar aÅŁÄ±r
ĠV ekÃ¢let
ĠV ehbi
eceÄŁ in
len ir
Ġyol larÄ±
Ġanla maya
Ġu stalÄ±k
san tim
san Ä±rÄ±m
gÃ¶r en
gÃ¶r ebil
gÃ¶r Ã¼ldÃ¼ÄŁÃ¼
gÃ¶r dÃ¼ÄŁÃ¼m
Ġzaman lar
Ġzaman ki
gÃ¼n dÃ¼z
Ġhak em
Ġhak larÄ±na
Ġkabul Ã¼nÃ¼
ĠgÃ¶ster miÅŁtir
ĠteÅŁ rif
eye bilir
ĠÃ§alÄ±ÅŁ maktan
ĠÃ§alÄ±ÅŁ tÄ±ÄŁÄ±mÄ±z
ĠÃ§alÄ±ÅŁ Ä±yorlar
tu tan
ĠgÃ¶rev imiz
Ġuyg ar
Ãľ M
ĠÃ¶z gÃ¼r
Ġem niyet
Ġmak ina
mey in
mey dan
mey iniz
mey eceÄŁiz
lacak tÄ±
mi stir
gel miÅŁti
Ġhareket le
Ġhareket siz
Ä±ldÄ± k
alÄ± ÄŁa
sun lar
Ġad lÃ®
Ġad eta
Ġyaz arak
Ġyaz Ä±lmÄ±ÅŁtÄ±r
Ġyaz Ä±ldÄ±ÄŁÄ±
lama mak
ĠÅŁu ur
Ġtoplan makta
Ġtoplan dÄ±ÄŁÄ±
Ġtoplan acak
mÄ± ydÄ±
Ġkuvvet lendir
ĠgÃ¶nder di
ĠgÃ¶nder miÅŁti
ĠgÃ¶nder ildiÄŁi
ĠgÃ¶nder ilmiÅŁti
yÃ¼z de
yÃ¼z ey
yÃ¼z Ã¼nÃ¼n
Ġgetir diÄŁi
ali de
Ġka la
Ġka lab
ĠKon unun
Ġsay dÄ±ÄŁÄ±m
ura cak
Ġsor unu
Ġsor uyu
ĠÅŀ eref
Ġiste dik
Ġiste diÄŁimi
ĠmÃ¼ hendis
ĠsaÄŁ lÄ±k
yap an
yap tÄ±
yap mak
yap Ä±m
ĠsÃ¶yle miÅŁtir
ĠsÃ¶yle dikten
kÄ± s
abil diÄŁi
ama yÄ±z
ĠbaÅŁka larÄ±
ĠbazÄ± larÄ±
ĠbazÄ± larÄ±nÄ±
acak larÄ±na
ĠkÄ± pÄ±rda
ĠiÃ§inde dir
Ġede mez
Ġede ceÄŁi
Ġede meyiz
dÃ¼ÅŁ manÄ±n
Ä°N DE
ist ir
ist iyor
ist iyorum
ist emiÅŁ
ĠseÃ§ tir
ĠseÃ§ men
ĠgÃ¼ven liÄŁin
ĠalÄ±n masÄ±nÄ±
lÃ¢ mÃ®
ĠgerÃ§ek leri
ĠgerÃ§ek tir
erk esin
Ġteklif ler
Ġteklif ine
Ġteklif lerin
Ġgir me
ĠgÃ¶re bil
ĠgÃ¶re mez
ĠgÃ¶z Ã¼yle
Ġordu dan
geÃ§ ti
Ġnokta larda
kur u
ĠÃĩ IK
ĠÃĩ ALIÅŀIYOR
Ġtut ulacak
bulun duklarÄ±
ĠanlaÅŁ Ä±lan
Ġdur u
eÄŁ e
eÄŁ il
ĠbÄ±rak Ä±lmÄ±ÅŁtÄ±r
ĠbÃ¶lg elerinin
Ġkomutan Ä±na
Ġba sÄ±nda
yer in
yer den
mez den
ĠÅŁah si
ĠMu haf
kal dÄ±lar
kal mamÄ±ÅŁtÄ±
ĠgÃ¼Ã§ lerini
Ġbelir tisi
ĠyÃ¶n t
ĠyÃ¶n Ã¼
ĠyÃ¶n de
ĠdÃ¼ÅŁman larÄ±
Ġbul mu
Ġbul duÄŁumuz
Ġbul duÄŁum
Ġbilg in
Ġbilg ilerin
ĠÃ§ek ti
Ġetmek tir
cu lar
laya caÄŁÄ±nÄ±
ĠdÄ±ÅŁ Ä±ndaki
ĠdÃ¶n em
Ġmu azzam
ĠkonuÅŁ masÄ±
Ġileri de
Ġgit tiler
Ġolay larla
rak am
yet iÅŁ
ĠarkadaÅŁ larÄ±nÄ±
ĠarkadaÅŁ larla
ĠdolayÄ± dÄ±r
Ġetme mi
ola caÄŁÄ±nÄ±
Ãĸ R
Ġkurul muÅŁtu
ĠgÃ¶rÃ¼l mÃ¼ÅŁ
ĠgÃ¶rÃ¼l mektedir
ĠgÃ¶rÃ¼l Ã¼rse
Ġolma lÄ±
Ġolma sÄ±n
Ġolma lÄ±dÄ±r
ba ÄŁÄ±r
ĠZ aman
Ġceph esi
Ġceph esinde
gÃ¶z e
Ġden etle
Ġih tiras
hat ta
Ġdayan ma
Ġdayan ak
bin lerce
ĠL Ã»t
Ġis abetli
ebil en
Ġta aruz
ER ZURUM
Ġkay de
Ġtes pi
lÃ¼l Ã¼k
Ġter temiz
Ġdeniz ci
Ġemir lere
Ġemir lerine
Ġhay li
Ġhay ran
Ä±lma larÄ±
Ä±lma mÄ±ÅŁ
Ä±lma sÄ±nda
ĠsonuÃ§ larÄ±nÄ±
ĠkaÃ§ mÄ±ÅŁ
EN Ä°M
Ä°L MESÄ°
Ġinsan lÄ±ÄŁÄ±n
ĠÃĸ ÄŁret
ĠyazÄ± larÄ±
ĠyazÄ± yordu
van Ä±n
ĠayrÄ± lÄ±ÄŁÄ±
diÄŁimiz i
Ġgeri de
ĠÅŁÃ¼ph em
Ġalan da
Ġbelirt ilen
ĠteÅŁebbÃ¼s lerin
ĠteÅŁebbÃ¼s lere
deniz den
vur du
vur uÅŁ
Ġsebep leri
LAR IN
arr ington
ĠbugÃ¼n Ã¼n
ĠbaÅŁkan lÄ±ÄŁÄ±
Ġmesel esini
Ġmesel esine
Ġmesel elerde
ĠettiÄŁ iniz
sunuz dur
ĠmÄ± sÄ±nÄ±z
sor um
sor umlu
ter s
ĠiÅŁgal ine
ĠiÅŁgal inden
ĠyapÄ± sÄ±
Ġgerekli dir
Ġer di
Ġer ken
Ġsev iy
Ġsaat e
sÃ¼r Ã¼k
ĠyabancÄ± larla
unuz u
edi p
Ġbuyur ul
Ġbuyur duÄŁunuz
Ġsun ulur
Ġbilin diÄŁi
Ġbilin iyordu
Ġbilin mesi
Ġiz i
bildir ilmesini
ĠaÃ§Ä±klama lardan
ĠkÄ±sa sÄ±
ĠsavaÅŁ la
Ġbas maya
Bey efendi
Ġmerkez inin
Ġmerkez inden
Ġsubay Ä±n
bur t
Ġcevab Ä±nÄ±zÄ±
Ġengel le
Ġhep imiz
getir t
ĠilÃ¢n Ä±ndan
ĠtoplantÄ± sÄ±nda
Ġettik lerini
ĠbaÄŁÄ±msÄ±z lÄ±ÄŁÄ±mÄ±zÄ±
Ben deniz
Ġdavet i
ĠyÄ±l dÄ±r
OR DU
Ġko caman
LA MA
LA DI
Ġmadde yi
alt Ä±na
Ġuygu lamak
Ġuygu lamakta
ĠsÄ±nÄ±r landÄ±r
aÃ§Ä±k tan
aÃ§Ä±k Ã§a
Ã¼nÃ¼n Ã¼n
ĠtelgrafÄ± ma
ĠÅŁifr esinde
Ġtabi i
ĠyÃ¼k lÃ¼
Ġvermek le
tut um
devlet in
hak kÄ±
Ã§Ä± ÄŁ
ĠHer halde
Ġanlat ayÄ±m
ST E
sÃ¶yle yerek
Ġmaksa da
SI Z
yok sun
Ġdok tor
ĠhÃ¼kÃ¼m lerine
uluÄŁ unun
Ġfaaliyet ini
id alÄ±
Ġ5 6
ĠuÄŁra dÄ±
ĠuÄŁra dÄ±ÄŁÄ±
aÄŁÄ±r lÄ±ÄŁÄ±
Ġbak alÄ±m
Ġyen ilen
karar lar
karar lÄ±
EY E
IR AK
mÃ¼ yorum
mÃ¼ racaat
Ġesas larÄ±nÄ±
Ġyetki sine
doÄŁru dan
ĠdavranÄ±ÅŁ lar
Ġgazet esinde
Ġgazet esinin
Ġfazla sÄ±yla
Ġtemsilc ilerin
DÄ° M
kap alÄ±
zat en
baÄŁ rÄ±ÅŁ
Ġhav ayÄ±
Ġedilme mesi
Ġkabin eye
ladÄ±k larÄ±nÄ±
Ġrapor larÄ±
Ġrapor unda
Ġkomuta sÄ±
elen mesi
Ġveril diÄŁi
Ġboz ucu
ĠuÄŁr unda
ĠbaÅŁvur mak
Ġle z
Ġhan g
Ġisten iyor
Ġkat li
Ġkat Ä±nda
ĠSÃ¶z de
ger eÃ§
ger eÄŁini
telgraf Ä±
ĠendiÅŁ eye
Ġdost u
Ġdost luk
ĠsakÄ±nca larÄ±
bak alÄ±m
nokta ya
Ġiler le
Ġiler isinde
Ġotur up
deÄŁiÅŁ mez
Ġbah ane
ĠKara hisar
tep esine
Ġtalimat Ä±n
hep imiz
orta dan
mektey im
Ġkurtul mak
ĠfedakÃ¢r lÄ±ÄŁa
ĠhÃ¢kimiyet in
ĠgÃ¼c en
ĠgÃ¼c Ã¼n
Ġhedef i
Ä°M Ä°Z
Ġpoli s
ĠÃ§Ã¶zÃ¼m len
gerÃ§ek leÅŁ
gÃ¶rev ini
kurul uÅŁ
ĠtanÄ± mak
Ġgider ken
Ġdakika da
Ã¼zÃ¼ cÃ¼
Ġverilme z
Ġverilme mesi
Ġverilme mesini
Ã§Ä±kar mak
ĠÃ§Ä±ktÄ± ÄŁÄ±nÄ±
ĠÃ§Ä±ktÄ± ÄŁÄ±mÄ±zda
ĠfÄ±rsat Ä±nÄ±
ĠfÄ±rsat ta
arkadaÅŁ larÄ±nÄ±n
Ġkomisyon un
Kon gre
Or t
Ġval ilere
ĠeÅŁ ya
ĠkÄ±s men
ĠYunanlÄ± lara
hava ya
Ġhayat Ã®
ĠÄ±ÅŁ Ä±n
ĠsuÃ§ lama
Ġvur mak
ĠÄ±srar la
kullan Ä±lan
Ġbelg eleri
Ġbelg elerle
ĠgerÃ§ekleÅŁtir mek
ĠgerÃ§ekleÅŁtir ilmesi
konu daki
inan Ã§
dÃ¼ÅŁÃ¼nc eleri
ĠkarÅŁÄ±lan mÄ±ÅŁtÄ±r
Ġkonferan sta
ĠdÃ¢vÃ¢ nÄ±n
ĠoluÅŁ muÅŁ
Ġincel emek
Ã¼lmÃ¼ÅŁ tÃ¼
Ġkorun masÄ±nÄ±
Ġokun arak
be yaz
kims ecik
olacak tÄ±
ĠÃ§ev rede
Ġbenims en
ser best
ĠyÄ±k Ä±cÄ±
Ġbulunuyor lardÄ±
Ġolabil mesi
dost um
ĠÄ°l hak
ĠErmen ilere
Ġsafha larÄ±
Ġsafha larÄ±nÄ±
ĠGÃĸR EV
Al tÄ±n
Ġhis s
ĠpadiÅŁah a
bÃ¶lg esinde
kay bet
kay nak
kuÅŁ k
kuÅŁ ku
Ġtemsilciler inden
AY IN
ister seniz
say esinde
yÃ¼r Ã¼
Ġunu tul
ĠAb durrahman
ĠbaÅŁlan gÄ±
Ġpart iye
Ġpart ilerin
Ġbuyurur sunuz
Ġbekli yorum
Ġbakan larÄ±n
Ġgerektir diÄŁi
ĠOn lar
ĠOn larÄ±
Ġincele me
ib aret
kolay ca
Ġbulu yorum
Ã§Ã¶z Ã¼m
Ġdemir yol
ĠÃ§oÄŁun luÄŁunun
Ġhalif elik
Ġleh ine
Ġleh inde
rik han
Ġsey irci
ĠgÃ¶nderil ecektir
ĠgerÃ§ekleÅŁ mesi
Ä°ngiliz ler
meliy iz
Ġusul Ã¼
Ġusul Ã¼ne
haf ta
ĠfelÃ¢ k
ĠyazÄ±lan lar
tedbir ler
tedbir leri
DEN Ä°Z
ou gh
ĠBay burt
rahat Ã§a
Ġmuhalif lerin
Ġoku dum
kaz ma
omet relik
Ġuyar Ä±nca
ĠakÄ±l lÄ±
ĠazÄ±nlÄ±k larÄ±n
tuk larÄ±
zar arlÄ±
tanÄ±n mÄ±ÅŁ
tehlik eye
ĠhakkÄ± yla
ĠeÄŁil imi
dÃ¼zen li
ÅŁimdi ki
ĠdÃ¶k me
maden sel
Ġoda da
ĠgÃ¶rdÃ¼k ten
ĠHat ta
ĠartÄ±r mak
Ġtarz Ä±nda
Ġkudret e
per de
temsil ci
ĠgÃ¼l Ã¼mseyerek
Ġmuk tedir
ĠMah kem
ĠÄ°ÅŁ gal
Ġzafer e
Ġduyg ulan
ĠanlaÅŁÄ±ldÄ± ktan
ĠdÃ¼zelt ilmesi
OL U
ĠgÃ¶rÃ¼ÅŁler imi
Ġkendim iz
ĠsÃ¼rÃ¼k le
Ġyetk ileri
tÃ¼ÄŁ Ã¼mÃ¼z
ĠniteliÄŁ ini
yaÅŁ am
Ġboy una
ĠdolaÅŁ an
biÃ§im indeki
Ġaldat arak
Ġetk ileri
ANLI Äŀ
gem iler
Ġekle dim
Ġbes le
ĠaraÅŁtÄ±r ma
ĠinkÄ±l Ã¢b
ĠdÃ¼ÅŁÃ¼nÃ¼l meye
ĠdoÄŁr ult
ĠVER DÄ°ÄŀÄ°M
ĠkÄ±saca sÄ±
II I
ĠÃ§abuk laÅŁtÄ±r
ĠÅŁan lÄ±
ĠÃ¶lÃ§Ã¼ lerle
Bun lar
MÄ°L LET
bor u
geri de
kalÄ± p
anka sÄ±
ĠbatÄ± ya
Ã¶ÄŁren mek
ĠMak edonya
ĠpeÅŁ ine
ĠpeÅŁ inde
ĠyanÄ±l gÄ±
ĠsÄ±fat Ä±nÄ±
ĠtartÄ±ÅŁma lara
ĠGÃĸRÃľÅŀ ME
Ġitibar en
Ġitibar iyle
Ġzihniyet i
ĠHÃľKÃľMET Ä°N
Kendi sine
akÄ±l lÄ±
Ä°kinci si
Ġtayfa lar
Ġbekler ken
Ver diÄŁim
hÃ¢ kimiyet
Ġhaz in
ĠBur adaki
ihti mal
yarat tÄ±ÄŁÄ±
ĠÅŁÃ¼phesiz dir
Kab ul
ĠHay dar
ĠalÄ±nÄ± r
heyecan lÄ±
meÅŁ ru
edeceÄŁ iz
Ġotomobil le
San to
Ġkeli me
Ġbuy du
ĠÃĸn c
kut sal
ĠGÃ¶z lemevi
ĠVekil liÄŁi
Ġadalet li
ĠgÃ¶rÃ¼nÃ¼ÅŁ te
ÅŁaÅŁÄ±r tÄ±cÄ±
ĠkÃ¢ ÄŁÄ±t
dest ek
Ã¶lÃ§Ã¼ de
Ġimkan sÄ±z
kalk tÄ±
aÄŁÄ±z dan
Ġimtiyaz lar
aleyh inde
ĠKÄ±sa casÄ±
Ġherk esi
ĠMÃ¼st ahkem
ĠBildir i
Par ti
ĠÃ§eki ci
olduÄŁumuz u
ĠÄ°L K
ĠSen at
ĠGEN EL
Ġrak am
ĠharekÃ¢ t
Ġisabet siz
ĠAbdÃ¼l mecit
bura dan
pir oksil
Ġvesil e
ĠzÄ±rh lÄ±
Az iz
Ġaya ÄŁa
Ġnut uk
teker le
tabak asÄ±
Bay lar
Hat tÃ¢
Ġsunu yorum
Ġask eri
ĠHAR EK
Ġzap t
ĠyolculuÄŁ un
ĠArz u
komu ta
suret iyle
ÅŁidd etle
ĠMil ne
ĠgÃ¶rÃ¼nÃ¼ yor
Ġistik la
Ġener j
Ġokuy alÄ±m
ĠtercÃ¼ mesi
ĠKONGR ESÄ°
ĠKONFER ANSI
Esa siye
Na utilus
kayÄ± tsÄ±z
etiniz ce
ĠaÄŁa Ã§
Ä°m za
Ġmaruz at
ĠCum artesi
Ġref ah
ĠÃ¶zgÃ¼rlÃ¼ ÄŁ
ĠistiklÃ¢lim izi
eor ge
pan yol
ĠsÃ¶n dÃ¼r
ĠBro wn
Ġaman sÄ±z
tama men
ĠnÃ¼s ha
Ġrez alet
ĠÃľZ ERÄ°NE
DaÄŁ larÄ±
Sist emi
Ġmacer a
ĠikiÅŁ er
Ġtorp id
Hurra a
Tamp ico
lom sber
cezalan dÄ±r
lomsber ry
" ,
. âĢĻ
0 2
4 2
4 9
5 8
7 5
8 7
9 3
9 22
A sker
A dana
A ÄŁust
B ra
B eni
C Ãľ
C afer
D in
D Ã¶rt
D erken
D umlupÄ±nar
D ikkat
E LER
E min
F A
F uat
F lor
G ece
G ez
G Ã¼Ã§
G azet
G UL
G Ä°LÄ°
H ristiyan
H Ä°LAFET
J Ã¼piter
K ol
K ap
K Ã¼Ã§Ã¼k
K AT
K Ã¼rt
L MASI
L ou
M eks
M Ã¶syÃ¶
M Ä°Åŀ
M IYOR
O S
O tuz
P ho
R um
R Ä±za
R oma
S t
S or
S Ã¼r
S Ã¶yle
S izi
U V
U Y
U m
U y
U YOR
V EN
Y ENÄ°
Z Ã¢tÄ±devlet
a it
a sÄ±z
b o
b y
b Ä±n
b inden
b eyin
c o
c in
c im
c imiz
c Ã¼man
c ere
d eler
d eli
d eleg
d elegeler
d Ã¼nÃ¼z
e meye
f ir
g on
g ini
g ru
g alan
h Ã¼r
h it
k Ã®
k omisyon
k amp
l uy
m Ä±n
m ara
m ile
m Ä±rÄ±l
m olekÃ¼l
p e
p eÅŁ
p ren
p ratik
r Ä±nÄ±
r it
r eye
r ona
s oy
s ulu
s bor
s by
t y
t Ä±nda
t eri
t atlÄ±
u ÄŁu
v i
v iye
v iÃ§
v arÄ±
v icdan
v ator
v ahÅŁ
y ali
y eceÄŁi
z if
z ama
z ayÄ±f
z avallÄ±
Â ł
Ã Ń
Ġ ;
Ġ larÄ±
Ġ leri
Ġ uÅŁ
Ä± labilir
Ã¼ ver
ÅŁ a
ÅŁ aka
ar Ä±nda
ar tÄ±ÅŁ
er a
er ler
er iÅŁ
er tesi
an ma
an larÄ±n
an lamak
an lÄ±yorum
in miÅŁ
in iyet
Ġb aÅŁa
Ġb ed
Ġb ilerek
Ġb eyin
Ġb arÄ±n
Ġb alÄ±ÄŁÄ±n
il g
il le
il mektedir
il eceÄŁini
il mekteydi
ir e
ir m
ir ler
ir iz
ir ket
ÄŁ n
ÄŁ imiz
et inden
et lerin
et lerine
Ã§ li
Ã§ at
Ã§ oÄŁ
Ã§ esine
Ã§ ilik
Ã§ oÄŁu
Ã§ atÄ±ÅŁ
Ã§ Ä±lg
Ġd Ã¼r
Ġd Ä±r
Ġd Ã¼s
Ġd Ã¼men
Ġd elik
ma ÄŁÄ±
Ġk imi
Ġk Ä±rÄ±
Ġk Ä±lmak
Ġk ral
Ġk Ã¼tÃ¼phan
ek k
Ġg al
Ã¶ ÄŁr
Ã¶ teden
Ã¶ fk
Ġv ek
Ġv Ã¼cu
un lar
un ter
ak sa
ak tar
el ine
el eyen
el eÅŁtir
la sÄ±
la tan
la masÄ±
la manÄ±n
la ÄŁanÃ¼stÃ¼
Ġs i
Ġs lo
Ġs Ã¼kÃ»n
Ġy o
Ġy aÅŁÄ±
al ma
al im
al maz
al mÄ±ÅŁtÄ±r
al dat
Ġt i
Ġt ir
Ġt Ä±p
Ġt Ã¶ren
Ġt ekliï¬ģ
di s
di ÅŁ
di stan
di bine
ler inizin
da ydÄ±
Ġi man
Ġi sk
Ġh ur
me mektedir
me sin
ĠB ri
ĠB Ä°Z
ĠB AZI
ĠB elediye
ĠB IRAK
im lerini
iz de
iz ik
ya m
ya ÄŁ
ya cÄ±
ya hat
le d
le s
le si
tÄ± lÄ±
Ġa lacaÄŁÄ±
iy im
iy on
Ä° H
Ä° P
Ä° LE
Ä° SÄ°
Ä° brahim
st alÄ±
ey n
Ġol mayacaktÄ±r
Ä±ÅŁ kÄ±r
em iyordum
Ġm etin
iÅŁ ten
iÅŁ siz
iÅŁ lem
ĠK eÅŁ
ĠK ut
ĠK AD
ĠK artal
at Ä±n
at Ã¼r
at ih
at arak
Ã¢ sÃ®
Ġde gil
ay kÄ±rÄ±
ĠM Ã¼s
ĠM Ãľ
ĠM usul
ĠM EM
ĠM ac
ĠM esel
ĠM urchison
ĠM anastÄ±r
ĠM Ä±sÄ±r
ĠM UH
ĠÃ§ alÄ±
ĠÃ§ abu
ĠÅŁ aÅŁ
mak al
az Ä±nlÄ±klarÄ±n
Ġbu lama
ol duÄŁ
ol malarÄ±
ol mayacak
Ġe vet
ĠA Ãĩ
ab ilme
ik Ã¢r
ap or
Ġda hi
larÄ± z
ta s
ta at
Ä±k Ä±r
ĠgÃ¶r i
ĠgÃ¶r Ã¼
ĠgÃ¶r dÃ¼
ĠgÃ¶r mekte
ĠgÃ¶r eceÄŁiz
ĠH art
ĠH EY
ĠH arrington
eler deki
Ġil inin
Ġil lerin
Ġil lerden
Ġil mÃ®
Ġil tif
bir er
bir den
Ġn an
Ġn de
Ä±r sa
mek ti
mek anik
ĠP osta
ok sij
uz anan
si v
ti t
lan lar
lan nÄ±n
lan Ä±yor
lan masÄ±ndan
sa s
Ġal mÄ±ÅŁtÄ±
Ġal makta
Ġal nÄ±z
Ġal mÄ±ÅŁtÄ±r
Ġal etleri
Ġal Ä±yoruz
Ġal dÄ±rmak
Ġkar sil
Ġet meniz
ĠT el
ĠT EL
ĠT Ã¼zÃ¼ÄŁ
ĠT EVFÄ°K
ĠT avÅŁan
Ġbil mesi
Ġbil gili
ĠS ancak
ĠS AF
uy uÅŁ
uy muÅŁ
Ġver eceÄŁini
Ġver elim
Ġver ilmiÅŁti
lik lerini
ĠPaÅŁa lar
ye bilirim
us lu
us rev
bi stan
Ġz a
Ġz ed
Ġz iya
Ġz engin
Ġan ah
Ġan layÄ±p
Ġan sÄ±zÄ±n
unu yor
Ġbulun masÄ±nÄ±
Ġbulun duk
Ġbulun ama
Ġbulun uyorum
Ã¼t fi
lay Ä±ÅŁ
ĠD e
ĠD Ã¼y
ĠD ikkat
ĠD ÃľZ
Ã¼l ke
ĠdÃ¼ÅŁ mesine
Ġp ir
Ġp ratik
masÄ± z
Ã¼y dÃ¼
Ã¼y elerinden
maya caÄŁÄ±mÄ±z
Ġgel dim
Ġgel mektedir
Ġgel dikleri
Ġgel medi
laÅŁ mÄ±ÅŁ
ĠC em
ĠC eb
ĠC EV
uk arda
ĠY ukarÄ±
ĠY ork
ĠÃ¶n Ã¼mÃ¼z
Ġf eci
Ġf edakar
ed in
ĠG Ä°
ĠG ez
ĠG elen
ĠN URETTÄ°N
Ġmillet leri
ĠÃ¼zer i
aÄŁ Ä±nÄ±
aÄŁ Ä±nda
av cÄ±
Ġar aba
Ã§Ä±k tÄ±ÄŁÄ±
ĠiÅŁ lerden
Ġyer li
Ġyer leÅŁ
Ġyer liler
ĠkarÅŁÄ± lama
ĠkarÅŁÄ± sÄ±ndaki
sÄ±z lÄ±ÄŁÄ±
ĠR asim
kan a
kan Ä±
ĠgÃ¼n ler
ĠgÃ¼n lerin
ĠgÃ¶rÃ¼ÅŁ lerin
ĠgÃ¶rÃ¼ÅŁ Ã¼nÃ¼n
ĠgÃ¶rÃ¼ÅŁ menin
ĠgÃ¶rÃ¼ÅŁ Ã¼mÃ¼zÃ¼
Ġgerek Ã§esi
fa aliyet
ĠAn laÅŁ
ĠAn tep
yÄ± ÄŁÄ±n
Ġkur mayÄ±
Ġkur up
Ġor man
Ġger iye
Ġger gin
yan ardaÄŁ
Ġdurum lara
Ġdurum larda
der hal
nÄ±n Ä±n
ĠgÃ¼ den
ĠgÃ¼ dÃ¼
Ġtar if
Ġtar tÄ±ÅŁÄ±
gi b
ĠÃ§Ä±k ma
ĠÃ§Ä±k madan
ĠdÃ¼ÅŁÃ¼n dÃ¼r
ĠdÃ¼ÅŁÃ¼n dÃ¼ÄŁÃ¼
ĠdÃ¼ÅŁÃ¼n dÃ¼ÄŁÃ¼nÃ¼
ĠdÃ¼ÅŁÃ¼n Ã¼yordum
Ġtop lar
Ġtop la
Ġel i
Ġel indeki
Ġbildir dikten
Ġbildir isini
yi v
Ġvar mak
Ġvar lÄ±ÄŁÄ±na
Ġvar lÄ±ÄŁÄ±ndan
Ġvar sayÄ±m
Ġkal eme
Ġkal dÄ±ra
se den
ĠgeÃ§ me
ĠgeÃ§ elim
ĠgeÃ§ tiÄŁini
Ġ" ...
bu dur
Ã§ek iÅŁ
ĠdoÄŁ an
atÄ± yla
atÄ± yordu
ver miÅŁ
ver meye
ver ilmesi
ĠaÃ§Ä±k lÄ±ÄŁa
ĠaÃ§Ä±k ladÄ±ÄŁÄ±m
ĠsÃ¼r Ã¼lerek
Ġkarar Ä±nÄ±n
muÅŁ lardÄ±r
Ġtaraf Ä±na
Ġyar dim
leÅŁ meler
ĠV ilÃ¢yÃ¢t
Ġhar fi
Ġyol c
Ġanla mÄ±ÅŁtÄ±m
Ġyan Ä±ndan
Ġyan Ä±mÄ±za
kar anlÄ±k
kar bon
Ġu laÅŁtÄ±
san Ä±
san at
san ki
gÃ¶r Ã¼yor
gÃ¶r Ã¼len
Ġzaman dan
ĠolduÄŁu ma
Ġbirlik lere
Ġhak lar
Ġhak larÄ±n
Ã¼Ã§ te
Ã¼Ã§ Ã¼ncÃ¼
ĠgÃ¶ster ilecek
ĠhÃ¼kÃ»met le
ĠÃ§alÄ±ÅŁ arak
ĠÃ§alÄ±ÅŁ tÄ±ÄŁÄ±nÄ±
ĠÃ§alÄ±ÅŁ Ä±yorduk
tu f
ĠÃ¶z Ã¼r
Ġem muz
meler inde
eh r
eh lik
siz leri
Ġcev aptan
AR TÄ°
Ġara mak
Ġara daki
Ġhareket ler
Ġhareket te
Ġhareket lerin
Ġhareket lerine
Ġhareket lerinden
Ġhareket leriyle
ĠTÃ¼rk ler
ĠTÃ¼rk lerin
ĠdoÄŁru dur
alÄ± yor
AN A
Ġyaz an
Ġyaz dÄ±
Ġyaz Ä±ldÄ±
olu yordu
Ã§a ÄŁÄ±
Ġl Ã¼tfen
Ġuz an
Ġtoplan mak
Ġtoplan arak
Ġtoplan masÄ±ndan
Ġkuvvet e
Ġkuvvet lere
Ġkuvvet leriyle
ĠÅŁekil deki
ĠBaÅŁkan lÄ±ÄŁÄ±na
tin a
Ġgetir en
Ġgetir ilme
Ġgetir ildiÄŁi
Ġgetir ilmesinin
ali si
ĠÃ¶ bÃ¼r
ĠÃ¶ mr
ĠKon uÅŁ
Ġsay an
Ġsay dÄ±k
Ġsor ul
Ġsor mak
Ġsor unun
Ġsor guya
liÄŁ inin
liÄŁ indeki
Ġiste mem
Ġiste diÄŁiniz
ĠmÃ¼ j
yap Ä±ldÄ±
yap acaÄŁÄ±m
yap tÄ±ÄŁÄ±mÄ±z
Ġim zam
ĠbaÄŁ lanmasÄ±
ĠbaÄŁ naz
ĠsÃ¶yle meye
ĠsÃ¶yle mekten
Ġma s
kÄ± p
kÄ± v
ĠbaÅŁka larÄ±nÄ±n
ĠyÃ¼z Ã¼
ĠÃ¶nem ini
Ã§e ÄŁi
dÃ¼ÅŁ en
ĠaÃ§ ar
ĠaÃ§ mÄ±ÅŁ
ĠaÃ§ Ä±lmasÄ±
ĠaÃ§ abilecek
ĠHey et
ist iyordu
ist emek
ist edi
ist ifa
ĠBir likte
ĠseÃ§ ildi
ĠalÄ±n masÄ±na
ĠalÄ±n yazÄ±
Ġkonu larla
Ġteklif leri
Ġteklif imi
Ġteklif lerde
Ġteklif imin
Ġgir ecek
Ġgir dik
Ġgir dim
Ġgir ip
Ġgir diÄŁini
ĠgÃ¶z le
Ġhaber ini
Ġmemleket imiz
Ġnokta dÄ±r
Ġnokta larÄ±nÄ±
Ġnokta daki
kur am
ĠÃĩ Ã¶z
ĠÃĩ AR
tar la
Ä±p lak
Ġalt Ä±ndan
Ġkor unma
Ġtut ar
bulun madÄ±ÄŁÄ±nÄ±
Ġvatan Ã®
ĠanlaÅŁ Ä±ldÄ±ÄŁÄ±
Ġdur du
Ġdur mak
Ġdur duÄŁunu
Ġkan unu
ĠbÄ±rak tÄ±
ĠbÄ±rak mayacak
ĠbÄ±rak Ä±lmasÄ±nÄ±
may Ä±ÅŁ
Ġha sta
ĠbÃ¶lg eleri
Ġkomutan larÄ±na
Ġc es
ĠdÃ¼ÅŁÃ¼nc enin
ĠdÃ¼ÅŁÃ¼nc esine
ĠdÃ¼ÅŁÃ¼nc emi
Ġba sÄ±na
Ġba ÄŁÄ±rÄ±
Ġsiz den
Ġilk elere
Ġdevam Ä±na
An t
ĠyÃ¶n e
ĠdÃ¼ÅŁman lÄ±k
ĠdÃ¼ÅŁman lara
ĠdÃ¼ÅŁman larla
Ġbul makta
Ġbul andÄ±r
ĠÃ§ek miÅŁ
ĠÃ§ek erek
ĠÃ§ek tik
ĠÃ§ek meyi
ĠÃ§ek tiÄŁim
gÃ¶ Ã§
gÃ¶ ÄŁÃ¼n
ĠBakan larÄ±n
elerin deki
Ġak sini
Ġak Ä±ma
Ġetmek ten
Ġsa ad
laya bilecek
laya caÄŁÄ±z
ĠhazÄ±r lÄ±ÄŁÄ±
ĠhazÄ±r lanmÄ±ÅŁ
LÄ° Äŀ
LÄ° ÄŀÄ°
ili ÄŁe
ĠdÄ±ÅŁ Ä±na
ĠdÃ¶n meye
ĠdÃ¶n dÃ¼ÄŁÃ¼
ĠdÃ¶n emde
ÅŁah siyet
ĠBÃ¼yÃ¼k Millet
ĠkonuÅŁ mak
Ġgit tik
Ġgit tiÄŁi
Ġolay lardan
ĠÃ§ekil diÄŁi
ĠÃ§ekil mesini
ĠÃ§ekil irken
Ġsan Ä±lan
Ġsan mÄ±yorum
Ġsan dala
ĠarkadaÅŁ lara
ĠarkadaÅŁ larÄ±na
ĠarkadaÅŁ larÄ±mÄ±z
ĠarkadaÅŁ larÄ±nÄ±zÄ±n
Ġkesin dir
Ġetme di
Ġetme diÄŁi
Ġetme sine
ĠÃ§Ä±kar larÄ±nÄ±n
ĠÃ§Ä±kar dÄ±ÄŁÄ±
Ġedi yordum
tÄ±l dÄ±ÄŁÄ±
ekir daÄŁ
ĠgÃ¶rÃ¼l Ã¼r
Ġdikkat lerini
ba a
ĠZ Ã¢tÄ±devletlerinin
za de
Ġsu larÄ±nda
Ġceph eler
Ġceph eden
Ġceph elerinde
yol unda
20 0
Ġden k
Ġden et
Ġden iliyordu
lerimiz le
Ġyarar larÄ±
Ġyarar Ä±na
ĠhÃ¼k mÃ¼
mem izi
ĠÄ°ngiliz lerle
ET Ä°
leÅŁtir meye
Ġkap Ä±l
Ġkap sam
Ġkap Ä±larak
Ġkap itÃ¼lasyon
kes kin
ĠkÃ¶ pek
elÃ¢ h
Ġok ut
Ġok unan
Ġkay dÄ±
evr en
Ġdi be
Ġdi bine
Ä±s rar
ĠbaÅŁladÄ± ÄŁÄ±
ĠbaÅŁladÄ± ÄŁÄ±mÄ±z
Ar kadaÅŁ
ekl endi
BaÅŁ ka
Äŀ U
Äŀ Ãľ
Ġsah n
Ġsah ib
Ġaz dÄ±r
Ġaz alt
Ġaz imli
ĠBen den
Ġinan mak
Ġinan dÄ±rmak
Ġhay kÄ±r
ĠsonuÃ§ lan
ley eceÄŁi
Ġkonusu dur
Ġyay Ä±lmasÄ±
olan larÄ±n
Ġinsan lÄ±k
Ġinsan lardan
ĠÃĸ zet
rar lÄ±
ĠyazÄ± p
ĠyazÄ± lÄ±dÄ±r
Ġgenel leÅŁtir
yaz ar
Ġtan Ä±r
ĠÃ¼y elerini
ĠÃ¼y elerine
ĠHal il
ĠyardÄ±m Ä±yla
Mu tasarrÄ±f
Ġolduk larÄ±na
ĠayrÄ± lacaÄŁÄ±
komutan Ä±
komutan larÄ±
uyordu k
Ġgeri ci
Ġalan Ä±na
ĠteÅŁebbÃ¼s lerinin
ot oÄŁraf
sin da
malarÄ± yla
Ġzat a
LAR DI
LAR ININ
ĠdÃ¼z el
Ġkullan Ä±lacak
ĠbugÃ¼n lerde
sÃ¶z e
sÃ¶z ler
sÃ¶z Ã¼n
sÃ¶z leri
sÃ¶z Ã¼nÃ¼
sÃ¶z cÃ¼
sÃ¶z cÃ¼k
Ġkanun la
Ġmesel esinin
uÅŁtur maya
ĠdÃ¼nya da
Ġbekle meye
Ġbekle diÄŁim
Ġbekle diÄŁimiz
ĠyapÄ± la
ĠyapÄ± lacaktÄ±r
Ġayr Ä±lmÄ±ÅŁ
Ġinc it
Ġer iÅŁ
Ġmer ham
Ġsev g
ceÄŁ ini
dÃ¼ÅŁÃ¼n erek
Ġtehlik esi
gÃ¼ ver
Ġbuyur ulan
Ġhalk tan
Ġuzak ta
sev gili
sev indir
Ġsun ar
Ġsun mama
Ġsun arÄ±z
Ġiz lemek
ĠgeÃ§ir me
ĠgeÃ§ir miÅŁ
ĠaÃ§Ä±klama da
eme miÅŁ
ĠsÄ±nÄ± f
Ġdin lemek
Ġkim in
ĠBiz de
ĠyaptÄ± ÄŁÄ±nÄ±z
ĠsavaÅŁ ta
millet inin
Ġkoy ma
Ġkoy dum
Ġmerkez e
Ġmerkez de
Ġsubay lardan
Ġte or
Ġte masa
Ġhep sine
ĠU sta
ĠilÃ¢n Ä±nda
Ġtama mÄ±
ĠkatÄ±l dÄ±
ĠkatÄ±l mak
ĠdÃ¼ÅŁÃ¼nceler inde
gÃ¶ster diÄŁi
ĠvasÄ±ta larla
ĠyakÄ±n Ä±nda
abilir ler
Ġoy u
Ġkes erek
Ġkes ilmesi
Ġkes imi
Ġkes ilmiÅŁ
larÄ±m dan
bar ek
biz den
malÄ± yÄ±z
Ġko med
emiÅŁ ti
ĠKasÄ±m da
ĠEthem Bey
LA LET
ĠRum larÄ±n
Ġmadde sinde
ĠsÄ±nÄ±r lar
deÄŁil im
ĠyÃ¼k Ã¼mlÃ¼
kiler e
kiler ini
ĠkarÄ±ÅŁ tÄ±
ĠgiriÅŁ ilen
ĠgiriÅŁ tiÄŁi
UN UN
kÄ±ÅŁ kÄ±r
Ġbit en
Ġbit tikten
ĠfÄ±r tÄ±na
Ã§Ä± lÄ±k
ĠÃľ ye
Ġses leri
ĠÅŁÃ¶yle dir
ĠHer schel
Ġmev cu
Ġmev zi
Ġsar f
Ġsar sÄ±ntÄ±
Ġmaksa dÄ±m
LI ÄŀI
Ã¼le mez
ĠdÃ¼zen le
ĠsÄ±k Ä±cÄ±
ĠhÃ¼kÃ¼m ler
ĠI n
ĠI stanbul
Ġat maya
ĠolmasÄ± dÄ±r
duÄŁumuz u
Ġfaaliyet i
Ġsab it
ĠÃ§evr elerinde
insan larÄ±
Ġbak arak
oli tik
merm iler
Ġsahip leri
ĠdeÄŁiÅŁtir erek
gÃ¶nder ildi
gÃ¶nder ilmesini
ebilir di
Ġgazet e
Ġgazet ec
Ġgazet eler
Ġgazet enin
ĠtartÄ±ÅŁ maya
baÄŁ lÄ±dÄ±r
yÄ±l lÄ±k
ayak lÄ±k
Ġhav aya
ĠgÃ¶rÃ¼n en
Ġedilme sine
Ġrapor da
Ġkomuta sÄ±nÄ±
ĠÃ¼m id
Ġtas la
Ġveril iyor
ĠkonuÅŁma lar
Ġtemel ini
Ġkamuoy unun
Ġetki sini
Ġemr imle
Ġsoru ya
Ġsoru larÄ±
res mÃ®
Ġtah lil
kor un
ĠkÄ±r mak
Ġgrup larÄ±
ĠdaÄŁÄ± tma
Ġisten ildiÄŁi
Ġediyor uz
ON D
Ġdil de
Ġkat lan
Ġkat Ä±na
Ġkav uÅŁtur
ĠSÃ¶z Ã¼
luÄŁ una
emey eceÄŁim
ĠtÃ¼men e
madÄ±k larÄ±nÄ±
bak tÄ±
nokta sÄ±nda
Ġbelli dir
hemen cecik
Ġav Ä±
Ġav lan
Ġav lamak
do lara
ĠÄ±s rarÄ±
Ġbah s
ĠaÄŁÄ±r lÄ±ÄŁÄ±
ses sizlik
ĠÃ¶r neÄŁi
Ġada ya
amÄ±z daki
Ġistir idye
ĠfedakÃ¢r ca
ĠhÃ¢kimiyet ini
Ġister lerse
Ġisyan lara
ĠSalih li
yak a
ĠdÃ¼ÅŁÃ¼r meye
Ġkoru maya
Ġtutuk lanmasÄ±
gÃ¶k bilimsel
uzun cu
Ġistifa sÄ±
ĠtanÄ± dÄ±ÄŁÄ±m
Yunan lÄ±larÄ±n
Ġsek sen
ĠgÃ¶tÃ¼r mek
ĠulaÅŁ mak
ton luk
Ġverilme miÅŁ
Ġzorunda yÄ±z
Her halde
fÄ±r tÄ±na
arkadaÅŁ larÄ±m
Ġkomisyon da
ĠHaziran da
Kon feran
ĠÃ¼l kÃ¼
Ġkad ro
ĠeÅŁ lik
ĠAralÄ±k ta
El Ã¢zÄ±ÄŁ
Ġyav er
Ġhayat Ä±nÄ±n
adÄ± yla
hay siyet
kÃ¶ mÃ¼r
demir den
mec lisin
ĠÃ¶nc esinden
ĠÃ¶nc elikle
Ġduyur ulmasÄ±
kuvvet li
mÄ±yor sam
Ġizin li
git miÅŁ
git tikÃ§e
Ġortak laÅŁa
Ġbildiri si
ĠaydÄ±nlat ma
boÅŁ al
yum uÅŁ
ĠÃ¼nvan Ä±nÄ±n
inan cÄ±nda
Ġgru ba
Ġisteyen lerin
Ġyarat tÄ±
dÃ¼ÅŁÃ¼nc eler
Ġcanav ara
Ġkongr eye
Ġkonferan stan
ĠÃ¶ldÃ¼r Ã¼l
Ġmeydan dadÄ±r
ĠuÄŁraÅŁ mak
ALÄ° H
ALÄ° FE
kiÅŁ iye
Ġyara tÄ±k
mayacaÄŁÄ± z
Ġbildiril iyor
ĠcÃ¼mle yi
AF ER
kazan mak
emin ol
ĠKÃ¼rt lerin
ayÄ±n dÄ±rlÄ±k
Ġderec eli
Ġkorun mak
ĠhazÄ±rlÄ±k lar
ĠÃ¢sÃ® leri
ĠÃ¢sÃ® lerle
kims enin
dayan ak
ĠHÃ¢ mi
Ġetraf a
Ġrej imin
Ġhuzur u
Ġirade sini
ĠkÃ¶y leri
olur du
larÄ±nÄ±z da
ĠÃ§alÄ±ÅŁan larÄ±n
ac ele
emez di
kend inden
Ã¶ner di
Ã¶ner iyorum
Ġfer t
Kur ul
kuÅŁ kusuz
ren kli
Ġmerm iyi
giriÅŁ im
ĠiliÅŁki de
ĠiliÅŁki si
Ġtemsilciler inin
AB EKÄ°R
ister im
ĠbÃ¶l Ã¼m
daÄŁÄ± t
ĠAb uk
Ġsekiz inci
biÃ§ imde
ĠyapÄ±ldÄ± ÄŁÄ±nÄ±
Ġtaraftar larÄ±nÄ±n
Ġbiribir ine
Ġincele meye
Ã§Ã¶z Ã¼me
ĠdemiÅŁ ti
Ġatan an
ĠÃ§aÄŁÄ±r dÄ±m
bilg isiz
Ġbenzer leri
ĠmÃ¼cadel eye
iste diÄŁi
iste dikleri
ĠbaskÄ± sÄ±
rik asÄ±
Ã¶v al
Ġtu haf
Ġiti ma
Ä°t ilaf
Ġyeterli dir
belirt mek
Haz iran
sey di
endiÄŁ iniz
uÄŁr unda
rahat sÄ±z
Ġnota da
baÅŁarÄ± ya
baÅŁarÄ± yla
Ġmuhalif ler
ĠhÃ¼kÃ¼met in
ĠkÄ±ÅŁkÄ±r tÄ±cÄ±
ĠKON US
ĠAd liye
ĠHam it
ĠkararÄ± yla
ĠazÄ±nlÄ±k lara
Ã¼lecek tir
Ġprogram Ä±n
CE LALET
Ġanlay Ä±nca
Ġanlay Ä±ÅŁÄ±
eder iz
dikkat ini
karÄ±ÅŁ Ä±k
ĠkarÄ±ÅŁÄ±k lÄ±ÄŁa
ĠdÃ¶k Ã¼m
Ġoda ma
Ġoda sÄ±na
Ġred det
Ġtarz da
Ġtarz Ä±nÄ±
ĠcÃ¼ml elerle
AD OLU
Ġum arÄ±m
ĠAN LAÅŀ
Ġemel lerini
ĠyazÄ±ÅŁma lardan
Ġduyg usu
Ġhain liÄŁi
ĠdÃ¼zelt mek
HiÃ§ bir
miyordu k
Ġkul Ã¼p
ĠtaÅŁ Ä±n
Ġsalon da
Ġsonuc una
Ġoturum unda
Ġboy lu
Ġiy iniyet
leye bilecek
diren me
Ġtoplanan larÄ±n
Av rupalÄ±
ard Ä±nda
Ġbay rak
Ġetk ilen
ĠuyarÄ± da
ĠvarmÄ±ÅŁ tÄ±k
ĠyazdÄ±r dÄ±m
ĠyÃ¼rÃ¼ dÃ¼
hus usunda
ko v
Ġekle di
indi stan
Ġkaz ana
latÄ±l masÄ±
ĠÃ§Ä±karÄ± p
ĠkÃ¶t Ã¼lÃ¼
nit eliÄŁ
sÃ¶y ler
sÃ¶y len
Ã§ap Ä±
ĠÅŁan sÄ±
sÄ±nÄ±r Ä±na
ĠkarargÃ¢h Ä±na
ĠÃ¶ÄŁr endim
Ġkafa sÄ±nda
ĠayrÄ±ldÄ± ktan
Ġmaksad Ä±nÄ±
roÅŁÃ¼r Ã¼n
DoÄŁ rusu
Kar abekir
kalÄ± yordu
ĠyapÄ±lma sÄ±nÄ±n
ĠpeÅŁ inden
ĠdoÄŁu ya
ĠÃ¶nerg esi
Ġitibar la
DÃ¼ÅŁ Ã¼n
yaÅŁa ya
ĠakÄ±m Ä±
ĠMer sin
amÄ±ÅŁ tÄ±
ĠDeniz i
Ġpen cere
dakika da
pr opaganda
Ġtat lÄ±
Ġif tira
ĠKUR ULU
ĠKUR ULMASI
ĠÃ§ap ta
Ġnot ayÄ±
Ġeseri dir
On lar
pÄ±r Ä±l
uÄŁ ra
Ġkop ya
Ġyur t
mev cut
Ġalabil diÄŁine
ĠCE MAL
ĠiÅŁle mi
Ġrol Ã¼
derin lik
Ã¼stÃ¼n lÃ¼k
EÅŀK ES
Har ika
kul ak
kul Ã¼p
sakÄ±n calÄ±
taÅŁÄ± yan
ĠgÃ¼r Ã¼lt
diyor sunuz
ĠSar Ä±kamÄ±ÅŁ
edeceÄŁ im
Ġbozgun culuk
GR AF
Ġey lem
Ġey alet
ĠkeÅŁ fet
ĠÅŁaÅŁÄ±r tÄ±cÄ±
ĠAR Ä°F
ĠGerek en
ĠgÃ¼Ã§lendir mek
ĠgÃ¼Ã§lendir ilmesi
ĠHÃ¼kum et
ĠMECLÄ° S
Yan ki
ĠyatÄ±ÅŁ tÄ±r
ĠAz iz
ĠGÃ¶z lerinizden
Ġsayfa sÄ±nda
dÃ¼ÅŁÃ¼nÃ¼ le
ilebil mesi
gÃ¶zÃ¼k en
bey efendi
dest ekle
havan Ä±n
Ġdurumumuz u
ĠVal iliÄŁi
ĠeÄŁit imin
tabi Ã®
ĠbroÅŁÃ¼r Ã¼n
Ġkas aba
aleyh ine
rat le
Ġfar kÄ±nda
derec elik
gide cek
Ġtopra ÄŁÄ±n
ĠgÃ¶nÃ¼l lÃ¼
ĠkaynaÅŁ ma
Cev at
Ã¶ÄŁ ret
ĠÃ§eki p
ĠÅŁÃ¼k ran
ĠGel ecek
verir seniz
ĠaraÃ§ larÄ±
Ġordumuz u
Ġtaahh Ã¼
ĠlÃ»tf u
pay laÅŁ
ĠKuvvet leri
olo ji
kongr enin
ĠuÄŁur suz
koÅŁul larda
Sab ah
anlaya caÄŁÄ±nÄ±z
Ġbaba sÄ±nÄ±n
iliÅŁ ki
Ġdem okra
ĠBÃ¢bÄ± Ã¢lÃ®
ĠBÃ¢bÄ± Ã¢li
dene meye
ĠTE MAS
Ġuydur ma
ĠyetiÅŁ miÅŁ
tÃ¼f ek
Ġtelefon la
ĠÅŁehr in
nitelik te
ĠdÃ¼ÄŁ Ã¼m
ob jektif
ĠbÄ±r akan
Ġhim Ã¢
Ġhim met
ĠBura ya
ĠdehÅŁ et
ĠAf rika
ĠTAR AF
ĠTAR Ä°H
Ġgib iydi
Ġoran Ä±nda
lÃ¼lÃ¼ ÄŁÃ¼
ĠevlÃ¢ t
Ġredde d
HaklÄ± sÄ±nÄ±z
TÃľRK Ä°YE
ĠÃ¼rk Ã¼t
etk ilen
Ġhev es
ĠHAL K
ĠEy Ã¼p
kalab alÄ±ÄŁÄ±n
ĠaralÄ±k sÄ±z
Ġren k
yarÄ±ÅŁ tÄ±ÄŁÄ±
ĠZÃ¢tÄ± Ã¢lÃ®
ĠsÃ¶ylÃ¼ yorum
Ġdokunulmaz lÄ±ÄŁÄ±
Kabin esi
ĠNigeh bancÄ±
KE Z
Kut sal
Ġbl ok
Ġyed inci
liman Ä±na
ĠÄ°K TÄ°
ĠSiv erek
MECLÄ° S
Kendiler ine
Sam sun
Terak ki
Uz un
bom ba
lav uz
deyim iyle
ĠÄ°LAN I
ĠTab ur
kÃ¶p rÃ¼
tavÄ±r la
Ġdetay lÄ±
EB BÃľ
elver iÅŁli
âĢ¦ âĢĿ
ĠbaÅŁyaz arÄ±
ĠmantÄ± ÄŁÄ±n
baÄŁÄ±rÄ± yordu
ĠZira at
Ġdibin deki
Bildir i
koyuldu lar
oturtul muÅŁ
ĠKarargÃ¢h Ä±
ĠmeÅŁruluÄŁ umuz
ÅŁal lah
ÅŁev ik
ĠBul gar
imz asÄ±
sist em
ĠTEÅŀ EBBÃľ
ĠpÃ¼skÃ¼r t
ĠRA UF
ĠLÃ»t fen
ĠÃĸÄŁret im
sorum l
Ġerken den
Ġhang isinin
ĠMahkem eleri
ĠdoÄŁrult usunda
Flor idalÄ±
Meks ika
kamp anya
rona x
sbor ough
Âł Ċ
ĠKAD AR
ĠTavÅŁan cÄ±l
ĠCEV AP
Ġkomed ya
CELALET TÄ°N
. ,
4 1
4 6
5 0
5 6
5 00
6 1
6 3
6 8
6 9
7 0
8 1
9 5
9 21
A d
A f
A DA
B ursa
B lomsberry
D e
D ev
D AR
D elegeler
D Ä°YOR
D iÄŁer
E m
E LE
E LERÄ°
E dirne
G Ãľ
G Ã¶k
G ÃľN
G ediz
H em
H ay
H ip
H art
H azÄ±r
H adi
H oca
I i
K Ã¶
K ay
K EN
K IR
K Ä°M
K astamonu
K AD
K Ä±zÄ±l
L en
M a
M erkez
M Ä°T
M ANLI
M isak
M urchison
N o
N Ä°
N emo
N URETTÄ°N
N eptÃ¼n
O Y
O t
O ra
O rada
R es
R EN
R ock
S Ä°L
S INDA
S Ä°NÄ°
S imav
S atÃ¼r
S eminol
T U
T araf
T EKLÄ°F
T amam
T anin
T EVFÄ°K
V ekili
W ashington
Y Ä°
Y ok
Y ON
Y Ã¶net
Z ET
a lay
a sÄ±na
a lacak
b ez
b olu
b akÄ±n
b os
b eÄŁen
b jektif
c am
c Ã¼m
c Ã»
c Ä±ndan
c umhuriyet
c esaret
d y
d ler
d Ã¼n
d or
d arÄ±
d ola
d ullah
f e
f anÄ±n
g Ä±nÄ±
g esi
g raf
g rup
g Ã¢r
g Ã¼mÃ¼ÅŁ
g elip
h e
h or
h az
i ti
i te
k ine
k olordu
k Ã¶k
k aba
k lor
k emli
k Ã¶rfez
l inin
l Ä±na
m dan
m ize
m Ã¼kemmel
n es
n um
n eÅŁ
n cÄ±
n lÃ¼
o man
o dak
p en
p aÅŁa
p iyade
p ahalÄ±
r ey
r em
r ol
r ed
r eli
s ince
s ayÄ±n
t iy
t Ã¶r
t iniz
t ilmesi
t akÄ±n
t alÄ±k
t Ã¼zÃ¼k
t Ã¶ren
u Ä±n
u laÅŁtÄ±
u laÅŁÄ±
v n
v ak
v es
v iÅŁ
v ura
v alÄ±k
w ill
y ek
y du
y it
y met
y uva
y eceÄŁim
z ekÃ¢
z iyaret
Ġ w
Ġ ine
Ġ larÄ±n
Ġ Ä±na
Ġ lerin
Ġ âĢĿ
Ġ eye
Ġ Ã¶rt
Ġ aÅŁÄ±
Ġ ulus
Ä± a
Ä± yan
ÅŁ Ã¼k
ÅŁ uydu
ÅŁ apka
ÅŁ ikÃ¢r
ar tÄ±r
ar alÄ±
ar alÄ±k
er gim
an lÄ±
an larÄ±
in ti
in kÄ±l
Ġb an
Ġb Ã¶y
Ġb om
Ġb ekl
Ġb ecerik
il lere
il kin
ir as
ÄŁ un
et mekte
et lerle
et tiÄŁ
et imizin
et tiler
et kin
et tiÄŁini
et inizin
et tiÄŁim
Ã§ el
Ã§ aba
Ã§ Ä±lgÄ±n
Ã§ iyim
Ġd oy
Ġd Ã¶v
Ġd Ã¶vÃ¼ÅŁ
ma h
ma li
ma ca
Ġk esi
Ġk Ã¼Ã§
Ġk Ã¶rfez
ek leri
ek vator
Ã¶ ken
Ã¶ bet
lar i
un c
un larÄ±ndan
ak al
ak lÄ±k
el phi
la ca
la ha
la masÄ±nÄ±
la caÄŁÄ±mÄ±
Ġs Ã¼z
Ġs atÄ±
Ġs ana
Ġs uyu
Ġs Ã¶mÃ¼r
Ġy Ã¼
Ġy aban
al mÄ±ÅŁtÄ±
al makta
al eti
al dÄ±ÄŁÄ±mÄ±z
Ġo bÃ¼s
Ġve da
Ġt o
Ġt Ã¶r
Ġt aÅŁÄ±r
de diÄŁi
ler inize
ler imle
Ġi han
Ġi taat
Ġbir ÅŁey
Ġbir liÄŁini
li f
li dir
li yor
li gi
li mÃ®
ur at
Ġh or
Ġh ele
Ġh oca
me diÄŁimi
ĠB eÅŁ
ĠB oÅŁ
ĠB AK
ĠB OZ
ĠB Ä°LDÄ°R
ĠB ayÄ±ndÄ±rlÄ±k
Ã¼n ir
Ã¼n Ã¼zÃ¼
im deki
aÅŁ an
iz den
ya d
ya sak
ya sama
or man
or is
or mal
or manÄ±n
le de
le mi
ul mak
Ġa sÄ±
Ġa sal
Ġa lacaktÄ±r
Ġa tacak
Ġa sÄ±r
iy la
st on
st alÄ±ÄŁÄ±
ey de
ey ya
ey ken
Ġol manÄ±n
ra te
Ä±ÅŁ larÄ±
dan Ä±
em s
Ġm in
Ġm Ä±ÅŁ
iÅŁ man
iÅŁ Ã§iler
ĠK u
ĠK im
ĠK oc
ĠK adÄ±
ĠK UV
ĠgÃ¶ ÄŁÃ¼s
ec Ã®
den li
at tÄ±
at tÄ±ÄŁÄ±
at epe
Ã¢ ti
Ã¢ lÃ¢
Ġde diÄŁim
Ġde po
ay n
ĠM ev
ĠM it
ĠM av
ĠM ES
ĠM organ
ĠM aalesef
um ut
ĠÃ§ al
ĠÃ§ ik
ĠÃ§ Ã¶l
ĠÃ§ elik
ĠÃ§ oÄŁu
ĠÃ§ etin
ĠÃ§ Ã¼rÃ¼k
ĠÃ§ Ã¼rÃ¼t
ĠÃ§ ember
ĠÅŁ ekle
ĠÅŁ Ã¶h
ĠÅŁ irket
mak sad
Ã¼r Ã¼z
Ã¼r ci
Ã¼r dÃ¼
ini k
az iz
az ot
Ġbu larak
Ġbu labilir
ol masÄ±nÄ±
ol masÄ±na
ol gu
ol umlu
ol duÄŁum
ol duÄŁuna
ol madÄ±ÄŁÄ±ndan
Ġe fendi
ĠA h
ĠA LÄ°
ĠA ÄŁa
ĠA fyon
ab ir
ab en
ap on
ap anca
iler de
Ä±l madan
Ä±l mayacak
ta lar
ĠÄ° Z
ĠÄ° leri
ĠÄ° ster
ĠÄ° sk
ĠgÃ¶r mekten
ĠgÃ¶r mekle
ĠgÃ¶r Ã¼yorum
ĠH alide
ĠH usrev
ĠH indistan
Ġil ler
Ġil lerine
bir ik
bir inden
ara larÄ±nda
Ġn da
Ġn ur
Ġn um
Ġn eÅŁ
yor sunuz
Ä±r dÄ±
mek tu
ĠP ara
ĠP eygamber
ĠP asa
ok sit
ĠiÃ§ yÃ¼zÃ¼
ti har
Ã¶n der
Ã¶n emi
te z
te bilecek
te matik
ev et
ev hid
lan da
lan acaktÄ±r
aÅŁa cak
Ã¶z gÃ¼r
sa c
sa dece
Ã® m
Ġal dan
Ġal masÄ±na
Ġal makla
Ġal mÄ±ÅŁtÄ±m
Ġal dÄ±lar
it iÅŁ
Ġkar altÄ±
Ġet sin
Ġet miyor
ĠT EM
ĠT amam
ĠT icaret
ĠT ekirdaÄŁ
mu s
mu halif
mu hareb
mu halefet
Ġbil miyor
Ġbil iyordum
Ġbil iyoruz
ĠS ir
ĠS Ã¶yle
ĠS OR
ĠS ALTANAT
ĠS apanca
uy andÄ±r
ad elphi
ulun uzu
ĠbaÅŁ an
ĠbaÅŁ sÄ±z
ĠbaÅŁ lÄ±ÄŁÄ±
ĠbaÅŁ larÄ±na
ĠbaÅŁ Ä±ndaki
ĠbaÅŁ layÄ±p
ĠbaÅŁ makal
Ġver diÄŁini
Ġver ecektir
Ġver ilir
Ġver eceÄŁiz
ĠE R
ĠE S
ĠE ÅŁ
lik ler
bil iyor
bil mez
ye me
Ġz er
Ġz Ã¼m
Ã¼m it
Ã¼m se
Ã¼m rÃ¼k
Ġan arÅŁ
unu yordu
tÄ±r an
tÄ±r tÄ±
lÄ±k larla
ka la
ka de
Ġbulun madÄ±
Ġbulun makta
Ġbulun up
Ġbulun acaÄŁÄ±
Ġbulun mamÄ±ÅŁ
Ġyap Ä±m
Ġyap masÄ±nÄ±
Ġyap mÄ±ÅŁtÄ±r
Ġyap Ä±yordu
Ġyap maktan
Ġyap abilir
Ã¼t f
lay lar
ki ya
ĠD ef
ĠD OÄŀ
ĠD oktor
Ã¼l meye
urum u
ĠdÃ¼ÅŁ mesi
ĠdÃ¼ÅŁ tÃ¼k
ĠdÃ¼ÅŁ tÃ¼ÄŁÃ¼
ha yat
ha stalÄ±k
Ġist endiÄŁini
Ã¼zer inden
Ã¼zer indeki
Ã» tuf
ci ÄŁim
Ã¼y Ã¼ÅŁ
Ã¼y erek
Ã¼y elerinin
Ã¼y elerini
op ur
op tik
Ã¶r neÄŁin
Ġgel ebil
Ġgel diÄŁimiz
Ġgel elim
Ġgel diÄŁince
.. ...
ecek ler
iÃ§ gÃ¼
as la
as lÄ±nda
ĠC EM
bul du
bul muÅŁ
ĠY a
ĠY ol
ĠY ET
ĠY irmi
ĠY AZ
ĠY ENÄ°
ĠY OK
ĠY AYIN
Ġsonra sÄ±nda
ĠÃ¶n ayak
ĠÃ¶n Ã¼mÃ¼ze
Åŀ Ã¶yle
Åŀ imdilik
Ġf il
Ġf az
Ġf ran
Ġf ayda
Ġf evkalÃ¢de
Ġf Ä±ÅŁkÄ±r
ed ilecek
ĠG ece
ĠG Ã¶l
ĠG eli
ĠN Ã¢zÄ±m
ĠN eden
Ġmillet ine
ĠÃ¼zer imize
aÄŁ a
ilme m
ru ÄŁ
Ġay na
Ġar k
Ġar arken
Ġar amÄ±zdaki
Ã§Ä±k ara
Ã§Ä±k art
Ã§Ä±k acak
ĠiÅŁ ini
ĠiÅŁ Ã§i
ĠiÅŁ leyen
ĠiÅŁ baÅŁÄ±na
Ġyer leri
uÅŁ tan
ĠO LAR
ĠO LAN
ĠkarÅŁÄ± lÄ±ÄŁÄ±nda
ĠkarÅŁÄ± ladÄ±ÄŁÄ±nÄ±
sÄ±z ca
ih an
ĠF er
ĠF il
ĠF azÄ±l
ĠF Ä±rkasÄ±
ĠF atih
ĠR edd
ĠR ahmetli
ĠR apor
ÄŁÄ±nÄ± k
kan dÄ±r
ĠgÃ¼n Ã¼nÃ¼n
ĠgÃ¶rÃ¼ÅŁ eceÄŁiz
ĠgÃ¶rÃ¼ÅŁ Ã¼lmesi
ĠgÃ¶rÃ¼ÅŁ Ã¼ldÃ¼
ĠgÃ¶rÃ¼ÅŁ memiz
Ġin dik
Ġgerek mektedir
eb ebi
Ġr ine
is in
is yan
is abet
yÄ± ÄŁÄ±
yÄ± Seyyare
Ġuy ma
Ġuy du
Ġuy ularak
Ġuy uÅŁma
Ġkur duklarÄ±
Ġkur abilmek
Ġor k
yan Ä±nÄ±
yan larÄ±na
yan Ä±ma
yan Ä±mÄ±za
der siniz
ĠgÃ¼ d
ĠgÃ¼ ce
Ġkab a
ĠsÃ¶z den
ĠsÃ¶z Ã¼ne
Ġon ra
ĠÃ§Ä±k masÄ±
ĠÃ§Ä±k Ä±yor
ĠÃ§Ä±k aracak
ĠdÃ¼ÅŁÃ¼n meden
ĠdÃ¼ÅŁÃ¼n Ã¼len
ĠdÃ¼ÅŁÃ¼n Ã¼yordu
ĠdÃ¼ÅŁÃ¼n Ã¼ldÃ¼
ĠdÃ¼ÅŁÃ¼n Ã¼lemez
Ġtop u
Ġtop un
Ġtop layan
Ġtelgraf tan
Ġtelgraf larla
Ġel eb
Ġel deki
Ġel bet
Ġel imize
Ġel imden
Ġhal en
Ġbildir diÄŁimiz
Ġbildir dikleri
Ġbildir mekle
Ġbildir diÄŁiniz
Ġbildir ildiÄŁi
Ġbildir isinin
Ġkal dÄ±m
Ġkal dÄ±ÄŁÄ±
Ġkal masÄ±na
Ġkal mayÄ±
Ġkal mayan
ĠgeÃ§ tim
ĠgeÃ§ ildi
ĠgeÃ§ tiÄŁi
bu la
bu gÃ¼ne
bu Ã§uk
Ã§ek tir
Ã§ek imi
ĠdoÄŁ duÄŁu
ĠdoÄŁ duÄŁunu
ĠdoÄŁ muÅŁtur
Ġkendi sinde
Ġedil ebilecek
atÄ± p
atÄ± lacak
ver miÅŁti
ver diler
ver ilecek
ver mekle
Ġola ca
Ġola lÄ±m
ĠaÃ§Ä±k ladÄ±m
olay larÄ±
olay larÄ±n
ĠsÃ¼r dÃ¼k
Ġkarar lara
Ġkarar Ä±nÄ±z
Ġkarar Ä±mÄ±zÄ±
lÃ¼ ÄŁe
Ġyar Ä±m
ĠV AR
ĠV ALÄ°
Ġen ine
eceÄŁ imize
Ã¼s Ã¼nde
mer ak
mer cek
mer aklÄ±
mer ceÄŁi
len mek
len mekte
eli ÄŁe
Ġyol lar
ĠBaÅŁ arÄ±
Ġanla tÄ±
Ġanla tan
Ġanla makta
Ġu ya
Ġu Ã§ak
Ġu yacak
san dÄ±k
san atÃ§Ä±
gÃ¶r Ã¼nÃ¼
Ġzaman kinden
ken tin
gÃ¼n lÃ¼k
mesi dir
Ġbirlik lerine
Ġhak sÄ±zlÄ±k
Ġhak larÄ±mÄ±zÄ±
ĠgÃ¶ster il
ĠgÃ¶ster ileri
ĠgÃ¶ster mekte
ĠgÃ¶ster ilmesi
ĠgÃ¶ster mektedir
ĠgÃ¶ster eceÄŁim
ele me
ĠÃ§alÄ±ÅŁ tÄ±r
ĠÃ§alÄ±ÅŁ mayÄ±
ĠÃ§alÄ±ÅŁ Ä±lÄ±yordu
re di
re diyordu
ĠgÃ¶rev lerine
Ġuyg ulana
Ãľ L
Ġem ekli
Ġem anet
ims er
ĠKomutan larÄ±na
eh iÃ§
Ġbulunan lara
siz dir
siz lere
gel iyor
AR T
Ġhareket inin
ĠTÃ¼rk leri
ĠdoÄŁru ca
ĠdoÄŁru layan
AN S
AN LAR
AN KARA
Ġad larÄ±nÄ±
Ġyaz mÄ±ÅŁtÄ±m
lama sÄ±ndan
Ã§a cak
Ġtoplan Ä±r
Ġtoplan Ä±p
Ġtoplan masÄ±nÄ±n
Ġtoplan tÄ±nÄ±n
ĠbÃ¼yÃ¼k Ã§e
bilir ler
Ġkuvvet ini
Ġkuvvet inin
Ġkuvvet lerine
Ġkuvvet lerle
ĠÅŁekil d
ĠgÃ¶nder me
ĠgÃ¶nder meye
ĠgÃ¶nder meyi
ĠgÃ¶nder diÄŁimiz
ĠMillet Meclisi
Ġgetir me
Ġgetir dim
Ġgetir ip
Ġgetir miÅŁti
LE GE
ĠÃ¶ m
ĠÃ¶ de
ĠÃ¶ te
ĠÃ¶ tek
ĠÃ¶ tÃ¼rÃ¼
Ġka labilir
Ġka lacaÄŁÄ±nÄ±
Ġsay mÄ±ÅŁ
Ġsay ede
Ġsay dÄ±ÄŁÄ±mÄ±z
Ġsay Ä±lmaz
Ġsay Ä±lmaktadÄ±r
Ġsor usuna
kÃ¼ le
Ġder t
Ġder di
liÄŁ iyle
Ġiste meye
Ġiste meyi
Ġiste diklerini
yap alÄ±m
yap Ä±lmasÄ±nÄ±
Ġyet eri
ĠsÃ¶yle miÅŁtim
tÃ¼ cc
Ġma aÅŁ
Ġma sanÄ±n
kÄ± y
kÄ± lar
kÄ± lÄ±
kÄ± pÄ±rda
var ana
esin ce
ĠÅŁey lere
ama Ã§
ama cÄ±na
ĠbaÅŁka sÄ±nÄ±n
ĠyÃ¼z lÃ¼
ĠkÄ± ymet
Ġede bilmek
dÃ¼ÅŁ tÃ¼
dÃ¼ÅŁ mÃ¼ÅŁ
dÃ¼ÅŁ tÃ¼ÄŁÃ¼
Ġduy duk
Ġduy duÄŁu
Ġduy up
Ġduy duÄŁum
Ġduy ulduÄŁu
ede yim
ede yse
ĠaÃ§ Ä±p
ist ik
ist emiyor
ist iyoruz
ĠBir takÄ±m
ĠseÃ§ tiÄŁi
ĠseÃ§ ilir
ĠgÃ¼ven le
ĠgÃ¼ven ine
ĠalÄ±n dÄ±ÄŁÄ±nÄ±
ĠalÄ±n madÄ±ÄŁÄ±
Ġkonu ya
Ġkonu larÄ±
erk ek
Ġgir en
Ġgir mesi
Ġgir dikleri
Ġgir dap
Ġhey ecanla
ĠDevlet in
Ġordu larÄ±
Ġsal dÄ±n
Ġsal onun
Ġsal tanatÄ±
kat li
geÃ§ ip
geÃ§ tiÄŁi
geÃ§ tiler
Ġnokta lardan
kur ma
kur ca
kur ulu
ĠÃĩ alÄ±ÅŁ
ĠÃĩ EK
ĠÃĩ Ã¼rÃ¼k
iya tÄ±nÄ±
Ġtut u
Ġtut ulur
bulun mak
bulun dur
ĠÄ°n san
Ã¼st elik
ĠanlaÅŁ manÄ±n
ĠanlaÅŁ Ä±lmÄ±ÅŁtÄ±
Ġdur uldu
Ġdur urken
Ġkan at
Ġsav unacak
eÄŁ ine
eÄŁ inde
eÄŁ inin
eÄŁ iyle
ĠbÄ±rak Ä±ldÄ±
ĠbÄ±rak mayÄ±
ĠbÄ±rak tÄ±ÄŁÄ±
ĠbÄ±rak tÄ±ktan
Ġuygun dur
Ġha ï¬ģ
ĠbÃ¶lg eler
ĠbÃ¶lg eyi
kon du
kon uk
Ġkomutan larÄ±nÄ±n
Ġkomutan lÄ±ÄŁa
top lar
top lu
top lanmÄ±ÅŁ
top Ã§uluk
Ġc oÅŁ
Ġc oÅŁkun
lat tÄ±
ĠhiÃ§bir i
ĠÅŁah it
ĠÅŁah sÄ±nÄ±z
Ġsiz lere
ĠMu sa
ĠMu hareb
kal mak
kal sÄ±n
kal dÄ±ÄŁÄ±nÄ±
Ġilk esine
Ġdevlet leri
Ġdevlet lerinin
ĠAr ronax
Ãĩ EK
Ãĩ ocuk
Ãĩ anakkale
Ġbelir di
Ġbelir gin
Ay Ä±n
ĠdÃ¼ÅŁman la
Ġbul ma
Ġbul urum
Ġbul duk
Ġbul duÄŁu
gÃ¶ ÄŁÃ¼s
ĠBakan larÄ±
Ġasker in
Ġasker le
Ġasker den
Ġasker liÄŁin
ayan lar
Ġgelen ler
Ġolur larsa
Ġman danÄ±n
laya caktÄ±r
laya bilmek
ĠhazÄ±r lamaya
ĠhazÄ±r layan
ĠdÃ¶n emi
Ġtedbir li
Ġtedbir lerle
Ġmu hat
Ġmu haf
umuz da
Ġiyi den
ĠkonuÅŁ masÄ±nÄ±
ĠkonuÅŁ madan
ĠkonuÅŁ urken
han i
ĠÃ§ekil miÅŁti
ĠÃ§ekil miÅŁtir
ĠÃ§ekil mesine
ĠÃ§ekil mesinin
yet kili
yet indi
ĠarkadaÅŁ Ä±mÄ±z
alan da
alan Ä±na
eyi ci
Ġetme miÅŁ
Ġetme diÄŁini
ola maz
ola bilir
ola ÄŁan
ola bileceÄŁini
Ġbun larla
ĠÃ§Ä±kar dÄ±
ĠÃ§Ä±kar mÄ±ÅŁ
ĠÃ§Ä±kar Ä±ldÄ±
ĠÃ§Ä±kar Ä±ldÄ±ÄŁÄ±
ĠÃ§Ä±kar dÄ±lar
Ġkurul muÅŁtur
Ġedi ci
tÄ±l masÄ±nÄ±
Ġolmak sÄ±zÄ±n
ĠgÃ¶rÃ¼l dÃ¼ÄŁÃ¼nden
ĠZ afer
Ġmi safir
Ġsu ya
Ġsu bayÄ±
Ġceph esinin
gÃ¶z lerini
gÃ¶z lemev
yol una
yol daÅŁ
kÃ¼n den
Ġden em
Ġden ildi
Ġden emeye
Ġih bar
MA Z
Ġdayan Ä±ÅŁ
Ġdayan dÄ±ÄŁÄ±nÄ±
Ġdayan Ä±larak
Ġmilletvekil leriyle
ĠL Ã¢
teÅŁ ekkÃ¼r
ET HEM
Ġis lÃ¢mÃ®
Ġkap lÄ±
Ġkap Ä±lmak
Ġkap atÄ±lmasÄ±
iyi si
ĠkÃ¶ p
ĠkÃ¶ kÃ¼nden
Ġok umuÅŁ
Ġoldu gunu
ĠolmadÄ± k
ĠbaÅŁladÄ± ÄŁÄ±nÄ±
iki si
Ġdeniz ler
Ġdeniz den
Ġdeniz lerin
Ġemir le
Ġemir lerini
laÅŁtÄ±r maya
Ġaz Ã§ok
Ġadam lara
Ġinan Ä±yor
Ġinan Ä±yorum
Ġinan cÄ±mÄ±
Ġidar esinin
Ġhay du
Ä±lma larÄ±nÄ±
ĠbaÄŁlÄ± lÄ±ÄŁÄ±
ley h
EN LER
LER LE
meyi p
Ġmec li
Ġeden lerin
Ġinsan Ä±
Ġinsan ca
ĠÃĸ N
ĠÃĸ mer
ĠyazÄ± yÄ±
ĠyazÄ± sÄ±na
ĠyazÄ± lÄ±yor
yaz man
yaz dÄ±m
Ġtan Ä±ma
uyor sunuz
ĠyardÄ±m Ä±
ĠyardÄ±m da
ĠyardÄ±m larÄ±nÄ±
Ġolduk larÄ±ndan
ĠNÃ¢z iri
komutan lara
sal on
sal ona
uyordu m
Ġyak Ä±ÅŁÄ±k
Ġbin lerce
ĠOr dunun
gibi dir
Ã¼yor lardÄ±
lamaya caÄŁÄ±nÄ±
Ġalan lar
Ġalan Ä±nda
Ġbelirt iyor
Ġbelirt ileri
Ġbelirt meyi
Ġbelirt tiler
Ġbelirt miÅŁtim
Ġbelirt tikten
Ġik iye
ot or
Ġya sa
deniz in
ĠteÅŁkilÃ¢t la
Ġsebep lere
Ġsebep lerden
kendi m
kendi me
kendi sinden
ĠKar s
Ġkullan ma
ĠbaÅŁkan lÄ±ÄŁÄ±ndaki
Ġmesel esinde
ĠmÃ¼mkÃ¼n dÃ¼
karÅŁÄ±lÄ±k lÄ±
kÄ±r Ä±k
kÄ±r mÄ±zÄ±
ĠdÃ¼nya yÄ±
ĠdÃ¼nya sÄ±nda
ĠdÃ¼nya sÄ±nÄ±
ĠÃ§ar eler
ĠÃ§ar esiz
Ġbilgi de
aÃ§ an
ĠÄ°smet PaÅŁa
Ġer tel
ĠÅŁekl in
ĠÅŁekl ine
ĠetmiÅŁ lerdir
ĠÃ¶l Ã¼
ĠÃ¶l en
Ġsev indir
Ġdavran ma
Ġtehlik eleri
Ġtehlik eden
ĠsayÄ± yor
ĠsayÄ± sÄ±z
ĠsayÄ± sÄ±nÄ±
ĠsayÄ± labilecek
ĠbaÅŁarÄ± lar
ĠbaÅŁarÄ± sÄ±
ĠbaÅŁarÄ± yÄ±
unuz a
gÃ¶rÃ¼ÅŁ mek
gÃ¶rÃ¼ÅŁ Ã¼nÃ¼
gÃ¶rÃ¼ÅŁ Ã¼ne
gÃ¶rÃ¼ÅŁ meleri
Ġser gil
Ġser may
Ġbuyur ulmasÄ±
Ġbuyur sunlar
Ġhalk Ä±na
Ġhalk Ä±ndan
durum unda
durum una
sev in
sev inc
Ġkend inde
Ġsun ulan
Ġsun muÅŁtum
ĠOrdu muzun
ĠsÃ¶y ler
bildir en
bildir di
bildir erek
bildir ilen
ĠgeÃ§ir di
ĠgeÃ§ir diÄŁi
ĠgeÃ§ir elim
Ġmek aniz
eme diÄŁi
Ġaleyh imize
Ġhat tÄ±n
Ġhat tÄ±na
Ġolun du
Ġolun masÄ±
adra zama
ĠyaptÄ± ÄŁÄ±nÄ±
ĠsavaÅŁ lar
ĠsavaÅŁ Ã§Ä±
millet Ã§e
Ġbas arak
Ġbas kÄ±n
Ġkoy arak
labil eceÄŁini
ĠKongr eleri
Ġcan landÄ±r
Ġib ret
Ġeski si
ĠgÃ¶rÃ¼ÅŁmeler den
ĠgÃ¶rÃ¼ÅŁmeler ine
ĠgÃ¶rÃ¼ÅŁmeler ini
Ã§alÄ±ÅŁ an
Ã§alÄ±ÅŁ maya
Ã§alÄ±ÅŁ tÄ±m
getir mek
getir ilmesi
Ġkazan dÄ±r
ĠilÃ¢n Ä±nÄ±
ĠtoplantÄ± sÄ±na
ĠÃ¼st Ã¼
ĠÃ¼st elik
Ġkolay laÅŁtÄ±rmak
ĠkatÄ±l ma
ĠkatÄ±l masÄ±nÄ±
ĠkatÄ±l maktan
ĠkatÄ±l masÄ±yla
gÃ¶ster en
dak iler
dÃ¼k Ã§e
ĠvasÄ±ta sÄ±
ben imle
ĠyÄ±l da
ĠyÄ±l dan
larÄ±m da
ĠkarÅŁÄ±lÄ±k ta
par ti
mayacak larÄ±nÄ±
Ġettir il
Ġettir ildi
dÃ¶n dÃ¼
dÃ¶n mÃ¼ÅŁ
dÃ¶n elim
uydu su
Ġmadde sinin
ark hos
alt Ä±ndaki
ĠanlaÅŁÄ± lacak
Ġmektu bunda
anla mÄ±ÅŁ
Ġmaksat larÄ±nÄ±
ĠÅŁifr eyi
ĠÅŁifr esiyle
Ġtabi atÄ±yla
Er zincan
ĠbarÄ±ÅŁ Ä±
ĠyÃ¼k lenmiÅŁ
Ġkomu t
ĠkarÄ±ÅŁ mÄ±ÅŁ
Ġmey v
ĠgiriÅŁ eceÄŁi
UN DA
Ġdefa larca
Ġbit mez
devlet lerinin
Ã§Ä± larÄ±n
ĠadÄ± ma
ĠÃľ sk
ĠÃľ zerinde
Ġkork ut
Ġkork usu
Ġkork tuÄŁ
Ġses leriyle
Ġir tibat
Ġimza sÄ±z
Ġimza larÄ±yla
ĠyayÄ±n lar
LI Äŀ
LI YOR
Ġdok uzuncu
Ġmemur u
Ġmemur larÄ±nÄ±n
ĠBakanlar Kurulu
tr en
ĠsÄ±k Ä±ÅŁ
ĠÃ§alÄ±ÅŁma lara
ĠÃ§alÄ±ÅŁma larÄ±nÄ±n
Ġat mÄ±ÅŁ
Ġat arak
uluÄŁ una
ĠaÃ§Ä± larak
Ġ5 7
Ġsab aha
Ġsab Ä±rlÄ±
ĠÃ§evr eye
ĠÃ§evr esindeki
Ġedecek ti
Ġedecek leri
aÄŁÄ±r lÄ±ÄŁÄ±nÄ±n
insan Ä±
Ġbak mak
Ġbak Ä±ma
Ġyen ilmiÅŁ
ĠAk baÅŁ
ĠAk hisar
karar gÃ¢h
ĠseÃ§im de
ĠseÃ§im ler
ĠseÃ§im inde
ĠhaberleÅŁ meye
ĠhaberleÅŁ meleri
Ġhusus lara
Ġhusus larla
Ġhusus larda
mÃ¼ dÃ¼r
tey iz
ĠiÅŁaret iyle
ĠdeÄŁiÅŁtir ilmesini
gÃ¶nder ilen
ĠhatÄ±r la
kab ine
ï¬ Ģ
ĠSey it
DÄ° K
kap an
ĠÃ¼z gÃ¼n
ĠtartÄ±ÅŁ manÄ±n
ĠtartÄ±ÅŁ malÄ±
baÄŁ lantÄ±
gÃ¼Ã§ sÃ¼z
yÄ±l da
ĠkiÅŁ ilerin
ĠkardeÅŁ lik
ĠkardeÅŁ lerinin
Ġtel siz
Ġhav anÄ±n
Ġedilme miÅŁ
Ġkabine den
ĠÃ¼m idi
Ġdolay larÄ±nÄ±
Ġtas v
Ġli man
Ġli mana
Ġboz acak
ĠuÄŁr una
Ġduygu lar
ĠgeniÅŁ liÄŁinde
Ġemr in
Ġemr ini
ĠaÅŁ an
Ġtah sil
Ä°n giltere
ĠKAR ABEKÄ°R
ĠSon uÃ§
ĠbaÅŁvur dular
ĠvermiÅŁ ler
ĠvermiÅŁ tik
ge omet
Ġgrup la
ĠhÄ±z Ä±
ĠhÄ±z Ä±nÄ±
ĠdaÄŁÄ± tÄ±lmasÄ±
Ġisten miÅŁ
Ġistiyor lardÄ±
ĠhalkÄ±n ca
Ġediyor sunuz
Ġkav ram
Ġkurtar ma
luÄŁ undan
bÄ±rak mak
bÄ±rak arak
telgraf lar
telgraf ta
telgraf han
ĠendiÅŁ esi
Ġdost Ã§a
Ġdost larÄ±ma
uzak ta
uzak laÅŁ
uzak lÄ±ÄŁÄ±n
Ġtoprak lardan
Ġtoprak larÄ±mÄ±zÄ±n
18 7
Hal it
Hal if
bak Ä±lÄ±rsa
nokta da
Ġiler leme
Ġiler leyen
Ġiler lemeye
Ġiler ledi
Ġistek lerine
Ġistek lerde
belir tisi
Ġav cÄ±
Ġav uÃ§
ĠEsa sÃ®
Ġayak ta
Ġtemas lar
Ġneden iyle
Ġtamam Ä±nÄ±
ill l
olum suz
Ġkonus un
Ġtalimat ta
orta sÄ±nda
orta lama
mektey iz
Ġfark Ä±na
hÃ¼kÃ»met e
Ã¼c ut
Ġmektup lar
Ġmektup larÄ±n
ber lik
hil adelphi
ĠgÃ¼c Ã¼yle
Ġisyan Ä±
Ġilgil iydi
ĠdÃ¼ÅŁÃ¼r en
Ġtutuk lan
ĠÃ§Ã¶zÃ¼m Ã¼nde
gerÃ§ek te
uzun luÄŁu
Ġistifa ya
baÅŁkan Ä±
kurul larÄ±
kurul masÄ±na
Ġsavun masÄ±nÄ±
ĠtanÄ± ya
Yunan lÄ±
gÃ¼l leyi
gÃ¼l lenin
Ġmet n
Ġgider se
Ġgider ilmesi
ĠulaÅŁ an
Ġdakika dan
adam dÄ±
ĠSa lahattin
Ġverilme sinin
Ġzorunda yÄ±m
fÄ±r lat
Ġsordu k
aÅŁÄ±r ken
sah ibi
Or ta
Ġkad Ä±n
ĠeÅŁ kiya
ĠGÃĸ ST
atÄ±ÅŁ bilim
konuÅŁ maya
konuÅŁ masÄ±nÄ±
ĠYunanlÄ± larla
ĠyÃ¼rÃ¼t en
ĠyÃ¼rÃ¼t mek
ĠyÃ¼rÃ¼t Ã¼lmesi
Ġdiren meler
Ġnitelik teki
El ektrik
Ġdo lar
Ġyav erim
Ġgelecek te
Ġsorum suz
dÃ¼ÅŁman Ä±
dÃ¼ÅŁman lar
Ġhayat larÄ±nÄ±
ĠmÃ¼frez esinin
hay al
ĠMar mara
ĠyÃ¶netim ine
ĠyÃ¶netim ini
ĠyÃ¶netim inde
Bil diÄŁiniz
dal dÄ±
dal ga
dal galan
Ġgez iye
ĠsuÃ§ suz
ĠgerÃ§e ÄŁe
mÄ±yor lardÄ±
git mek
kil at
yÃ¶n el
yÃ¶n elt
Ġvur uÅŁ
Ġvur up
ĠyaÅŁa mak
ĠBil iyorsunuz
ĠÄ°Ã§ inde
ĠÄ°Ã§ eri
ĠÅŁahsiyet lerine
boÅŁ luÄŁu
Ġbelg elerin
Ġvicdan Ä±
Ġvicdan Ã®
Ġsok ulmasÄ±
makt ayÄ±m
ĠgerÃ§ekleÅŁtir meye
konu larda
Ġihtimal den
malÄ±dÄ±r lar
Ġvekil leri
Ġvekil liÄŁi
Ġvekil liÄŁine
ĠsÄ±r t
Ġtep e
Ġtep ki
Ġtep esine
lÄ±r ken
ĠÅŁun lar
Ġisteyen ler
Ġemin dim
dÃ¼ÅŁÃ¼nc esini
ateÅŁ kes
Ġmadd elerin
ĠÃ¶ldÃ¼r mek
ĠÃ¶ldÃ¼r Ã¼lmesi
kiÅŁ ilerin
Ġzan net
ĠDÄ±ÅŁ arÄ±
Ġbildiril ecektir
ĠsaÄŁlan masÄ±nÄ±
ĠcÃ¼mle siyle
hazÄ±r lanmÄ±ÅŁ
Ġdal gÄ±Ã§
ĠkayÄ± p
Ä±lmaz sa
ĠkalkÄ±ÅŁ an
ĠyaÅŁ an
dayan an
dayan arak
Ġbenims emiÅŁ
memleket te
MÃ¼ saade
MÃ¼ fettiÅŁ
ĠyÄ±k mak
ĠÃ§aÄŁ rÄ±
Ġbulunuyor muÅŁ
Ġirade yi
ĠkÃ¶y Ã¼nde
ĠÄ°l yas
Ġmes le
ĠÃ§alÄ±ÅŁan lar
ĠbirleÅŁ miÅŁ
ĠÅŁeh ri
Ã¶ner g
ĠyapmÄ±ÅŁ lar
Ġfer di
Ġfer yat
Ġgecik me
Ġiddia sÄ±nda
AM I
bÃ¶lg eleri
kay n
ĠÃ§et eler
lÃ¼ÄŁ Ã¼ne
Ġikti dara
giriÅŁ imi
yÄ±ldÄ±z Ä±n
yÄ±ldÄ±z lar
yÄ±ldÄ±z Ä±na
Ġmal um
ĠbÃ¶l Ã¼
ĠbÃ¶l Ã¼n
ayr Ä±lma
ĠhazÄ±rlan makta
ĠihtiyaÃ§ larÄ±
otur t
Ġbakan lar
ĠkatÄ± larak
ĠkatÄ± lacak
ĠsaÄŁlam laÅŁtÄ±r
ĠÅŁidd et
Ġtaraftar larÄ±
Ġhayvan larÄ±
Ġmecburiyet i
Ġincele dikten
ĠsÃ¶ylen tisi
GÃ¶r ev
GÃ¶r Ã¼ldÃ¼ÄŁÃ¼
GÃ¶r Ã¼lÃ¼yor
dÃ¼nya ya
Ġbulu yor
Ġbulu yordu
Ġatan masÄ±
ĠÃ§aÄŁÄ±r arak
ĠÃ§oÄŁun luÄŁu
ĠÃ§oÄŁun lukla
ĠÃ§oÄŁun luÄŁun
makam Ä±
bilg ileri
ĠkarÅŁÄ±laÅŁ tÄ±ÄŁÄ±
ĠmÃ¼cadel enin
Ä°Z MET
ĠAs ya
ĠAs lÄ±nda
Ġdair esinde
Ġdair esine
ĠÄ°ST Ä°YOR
Ġbendeniz i
ĠgÃ¶nderil meleri
ĠgerÃ§ekleÅŁ mesine
ĠsÃ¶ylÃ¼yor lar
ima ye
tÃ¼k leri
anlat tÄ±
saat te
Ġmah ke
Ġmah rum
ĠparÃ§a lara
ke mesi
ĠkuÅŁ ku
ĠkuÅŁ kusuz
ĠgeliÅŁi gÃ¼zel
baÅŁarÄ± lÄ±
gÃ¶rÃ¼n gÃ¼
Ġhakk Ä±nÄ±n
Ġheyecan landÄ±r
ĠyÃ¼ksel en
ĠyÃ¼ksel di
kol larÄ±nÄ±
eski den
oluÅŁ muÅŁ
ĠHam id
nam lunun
Ġruh u
Ġruh um
Ġbur anÄ±n
Ġah mak
tehlik e
ĠDurum un
eder siniz
dikkat i
dikkat le
karÄ±ÅŁ tÄ±r
ĠayrÄ±ntÄ± lar
geniÅŁ let
ĠeÄŁil imli
ÅŁimdi den
maden den
lit re
ĠhoÅŁ lan
ĠhoÅŁ gÃ¶r
ĠhoÅŁ nut
ĠartÄ±r dÄ±
ĠgÃ¶revlendir il
ĠbaÅŁkanÄ± dÄ±r
ĠMÄ°LLET Ä°N
Mer m
Mer mi
Ġj urn
Ġun cu
ĠbalÄ±k larÄ±
ĠbalÄ±k Ã§Ä±
ĠselÃ¢ met
Ġbirbir lerine
Ġzafer den
Ġduyg usuyla
ĠbasÄ±n Ã§
ĠyÃ¶net imi
gali ba
sab Ä±r
yara tÄ±l
ÅŁÃ¶yle ydi
Ġkuzey inde
ĠbaÅŁlamÄ±ÅŁ tÄ±k
Ġyetk iye
Ġyetk imiz
Ġsalon dan
Ġsonuc unun
Ä°YET Ä°
Ġbeklen mektedir
Ġrejim ini
Ġrejim inden
ĠbiÃ§ im
ĠyarÄ± sÄ±
ĠyarÄ± sÄ±ndan
Ġiy iye
katÄ±l dÄ±
katÄ±l mak
Ġkurulu p
Ġdevr ine
ĠÃĤ sÃ®
ĠkÄ±yÄ± dan
ĠyaklaÅŁ Ä±k
biÃ§im inde
Ġbay lar
ĠgÃ¶k bilim
aydÄ±n latÄ±l
tamam lamak
ĠYAP AN
toplantÄ± sÄ±nda
ĠhatÄ±rlat mak
boz gun
uc unda
Ġkaz a
Ġhusu stur
Ġmis yon
Ã¼rb Ã¼n
Ġnaz ar
uygu lamaya
ĠistemiÅŁ ti
ĠistemiÅŁ lerdir
ĠinkÄ±l Ã¢bÄ±
ĠÃ§Ä±karÄ± lacak
ĠdoÄŁr ulan
Ġuf uk
Ġsorun larÄ±
ĠyÃ¶nelt mek
ĠyÃ¶nelt ilmiÅŁ
baÄŁÄ±msÄ±z lÄ±ÄŁÄ±nÄ±
Ġhayal Ã®
Ġdestek len
mis iniz
sÃ¶y lÃ¼yor
ĠÅŁan s
bilgin ler
Ġtopl uluÄŁ
ĠÃ¶rnek ler
ĠÃ¼lk enin
buyur ur
Bun larÄ±n
Bun lardan
Kar ar
kalÄ± bÄ±n
ĠkoÅŁ ul
laÅŁÄ± p
laÅŁÄ± yordu
tÄ±p kÄ±
ĠMak sa
Ġistey erek
ĠyanÄ±l mÄ±yorsam
Ġhakimiyet i
ĠmutasarrÄ±f Ä±
gÃ¶zlem ci
gÃ¼c Ã¼nÃ¼
gÃ¼c Ã¼ne
gÃ¼c Ã¼nÃ¼n
Ġprensip leri
genel likle
ĠMer iÃ§
ĠMer zif
Ġant laÅŁmanÄ±n
ĠDeniz in
ĠyarÄ±n ki
ĠbunalÄ±m Ä±
ĠbunalÄ±m lÄ±
teÅŁebbÃ¼s leri
Ġincelen irse
Ġoyun cak
gÃ¼Ã§lÃ¼k ler
ĠuyanÄ±k lÄ±k
Ġcahil lik
gazet eler
tay in
Ġtat min
ĠbirleÅŁtir erek
kanÄ±t lar
ĠgÃ¶rÃ¼ÅŁÃ¼l mesini
Ġcezalan dÄ±rÄ±
ĠmÃ¼fettiÅŁ lik
isten en
ĠvatandaÅŁ lÄ±k
Ġkop ar
Ġyur ttaÅŁ
ĠoÄŁ lum
mev ki
Ġdilek lerini
ĠzÃ¢tÄ±devlet lerinin
ĠzÃ¢tÄ±devlet lerine
Ak sine
Ġkil ometrelik
Ä±ÅŁÄ±n lar
ĠKap itÃ¼lasyon
ĠilÃ¢ nÄ±nÄ±n
birbir ine
birbir lerine
ĠbaÅŁla mÄ±ÅŁtÄ±m
Ġhaya tÄ±m
ĠuzaklaÅŁtÄ±r mak
ĠiliÅŁk ilerin
Ġlist esi
ĠuyandÄ±r dÄ±
ĠdemeÃ§ ler
Ok yanus
zan n
zan net
etki siyle
ĠaldÄ±ÄŁÄ±nÄ± z
Ġistemiyor lar
ĠyÃ¼zey ine
ĠyÃ¼zey inde
Ġkaybet meden
ĠÃĸn emli
milletvekil leri
Ġyenil giye
ĠgidiÅŁ ini
Ġunut muÅŁ
Ġunut mayÄ±n
ĠBAÅŀK ANI
ĠBAÅŀK ANLIÄŀI
po ol
sap ta
ĠdÃ¼rb Ã¼nÃ¼nÃ¼n
izli yordu
ĠHep imiz
siya sÃ®
ĠalÄ±k on
Ã¼lk ede
Ġper de
Ġper iÅŁan
ilebil eceÄŁi
ĠkÃ¶ÅŁ esinde
Ä±nÄ±zda dÄ±r
Ã§arp Ä±ÅŁ
gezegen ler
Ġunsur lar
Mak ine
bal ina
saygÄ± yla
ora dan
ĠHav alisi
ĠOra dan
ĠsÃ¶zleÅŁ me
ĠmÃ¼dÃ¼r Ã¼
bulunuyordu k
Birinci si
Ġhayret le
anlaÅŁÄ± lÄ±yor
Ġvakt iyle
laÅŁtÄ±ra cak
haberleÅŁ meler
At las
hoÅŁ una
yalÄ± larÄ±n
Ã¶t esinde
aÄŁz Ä±na
aÄŁz Ä±ndan
ĠOk yanus
ĠOk yanusu
Ġokul larÄ±nÄ±n
ĠAlman ya
ĠniteliÄŁinde dir
Ġdayana ÄŁÄ±
Mar eÅŁal
Par is
gele bilecek
ĠbÄ± Ã§ak
Ġnak let
Ġverdir dim
ĠET HEM
ĠDÃľÅŀ ÃľN
ĠDÃľÅŀ MAN
ĠharekÃ¢ ta
ĠgÃ¼Ã§sÃ¼z lÃ¼k
ĠsatÄ±r larÄ±
Ġsaniye de
Ġcephan esi
parÃ§ asÄ±
Ġzann Ä±na
Ġmensup larÄ±nÄ±n
Ġotorit esini
ASÄ° YE
bÃ¶l Ã¼m
pir ito
Ġkaf asÄ±nÄ±
Ġkom it
Ġtef ek
Ġtef tiÅŁ
med ilebilir
ĠBa ÄŁÄ±msÄ±z
olo j
Ġepey ce
Ġilg isini
ĠolduÄŁunuz u
ĠkaldÄ±k Ã§a
ĠsÄ±ÄŁÄ±n arak
topra ÄŁÄ±n
Ġmuam ele
Ġsandal la
ĠsevinÃ§ le
karÅŁÄ±lan dÄ±
AÄŀ LA
BAÅŀ KOMUT
KÄ±sa casÄ±
dÃ¶ ÅŁ
kÃ¢ tip
Ġsus kun
sÄ±kÄ± ca
ĠKÄ±zÄ±l deniz
ĠgÃ¶rÃ¼lecek tir
lanÄ±yordu m
ĠyapacaÄŁÄ± ma
ender es
Ġard Ä±na
Ġard Ä±ndan
ĠgerektiÄŁ inden
Ġgeric ilik
ĠsÃ¶yley iniz
Ġtaham mÃ¼l
yÃ¼ksekli ÄŁi
ĠmalÃ»m unuz
ilgilen dir
Es pirito
Hat ta
go ji
ette bat
ette batÄ±
Ġse yahat
Ġask Ä±da
ĠÃ§atÄ±ÅŁ maya
uyar Ä±nca
Ġfa iz
Ġfa ci
ĠBaÅŁyaver i
ĠinancÄ±nda yÄ±m
ĠÃ§aÄŁr Ä±ldÄ±
Ġbarut un
BoÅŁ iman
Durum u
HaklÄ± sÄ±n
Ka labalÄ±k
kuy unun
samim iyet
ĠvekÃ¢let le
ĠbirliÄŁ inin
ĠgÃ¶Ã§ men
ĠbaÅŁlÄ± baÅŁÄ±na
kurtul uÅŁ
ĠOrta ya
ĠUy gun
Ġkamara ma
ĠÃľst elik
ĠbaÄŁdaÅŁtÄ±rÄ± lamaz
ĠNigeh ban
Bin baÅŁ
DÄ±ÅŁ iÅŁleri
Dost larÄ±m
Ger iye
Hav a
aÃ§a caktÄ±r
fab rika
ĠbasÄ± lÄ±
ĠÃ§iÄŁ n
ĠbaÅŁlÄ±k lÄ±
ĠbaÅŁlat tÄ±
ĠgÃ¶rÃ¼ÅŁtÃ¼k ten
ĠuyuÅŁ uk
Ġkurucu larÄ±
Ġort alÄ±ÄŁÄ±
ĠyansÄ± tÄ±cÄ±
ĠÃ¶v Ã¼n
ĠÅŀur asÄ±
ĠakÄ±ÅŁ Ä±na
Ãĸn emli
Ġsustur mak
Ġkaymakam Ä±
Ġcid den
MEM LEKET
Milletvekil leri
Ab dÃ¼l
Han gi
iver pool
pro gram
Ġbaz en
ĠkÄ±l Ä±n
Ġyeme ÄŁ
Ġhit ap
ĠKAN UN
ĠSek reter
ĠSÄ°Y ASÄ°
ĠYen ihan
ĠGÃľ VEN
ĠRe is
baÅŁlan gÄ±
canav arÄ±
ĠkÄ±lÄ± Ã§
DÄ°Åŀ AH
Ġmalz eme
Ġseyret mek
sabÄ±rsÄ±z lÄ±kla
Atlan ta
ĠdolaÅŁÄ± p
ĠkasÄ±t lÄ±
ĠyardakÃ§Ä± larÄ±nÄ±n
DÃ¶k me
GerÃ§ek te
alabil diÄŁine
Ġgev ÅŁek
Ġhuz ura
Ġab art
ĠÃ§erÃ§ev e
olmalÄ± ydÄ±
Ġeh li
ĠplÃ¢ nÄ±
Ġesaret i
ĠÃĩor um
Ġmanzar ayÄ±
ĠolmadÄ±ÄŁÄ±mÄ±z Ä±
ĠÃ¼stÃ¢ dÄ±m
beklen medik
Ġkomp l
CumhurbaÅŁkan Ä±
Kor kunÃ§
Mah mut
gÃ¢ ha
ĠKÃ¼r distan
ĠKuÅŁ Ã§alÄ±
Ã¼ÅŁav ir
Ġbuhar lÄ±
ĠAS K
ĠEM R
Ġuyruk lu
ĠVekÃ¢let i
ĠÃĩIK AN
ĠMuhaf Ä±z
Ġtespi ti
Ġlez zet
ĠinkÄ±lÃ¢b Ä±n
ĠÃĸnc eki
ĠHAREK ET
Ġistikla l
AÄŁust os
Pho ebe
pren sip
ĠdÃ¼r Ã¼st
Ġslo gan
Ġhur af
stalÄ± ÄŁÄ±nÄ±
ĠMÃ¼s limÃ®
ĠMesel esi
ĠÃ§abu cak
ĠTEL GRAF
Ġziya fet
Ġanah tarÄ±
yiv li
evren sel
Terakki perver
KÄ±zÄ±l der
Rock y
SatÃ¼r n
Ä±yan et
ÅŁikÃ¢r dÄ±r
ergim iÅŁ
Ġihan et
ĠKoc atepe
ĠÅŁÃ¶h ret
Ã¼rci stan
ĠCEM Ä°YETÄ°
ĠGeli bolu
ĠOLAR AK
LEGE LER
ĠÃĩÃ¼rÃ¼k sulu
Ġmahke meye
ĠMerzif on
ĠMÃ¼slimÃ® n
" ...
, âĢĿ
4 3
5 3
5 4
5 5
5 9
6 4
6 5
6 6
7 2
7 8
7 9
8 8
9 2
: "
? !
A da
A Ãĩ
B e
B ak
B al
B or
B re
B AN
B Ã¶lg
B oÄŁaz
B Ä°LÄ°
B ARB
B roÅŁÃ¼rÃ¼n
C EK
C ULU
C AÄŀ
D al
D ok
D ÃľÅŀ
D Ã¼nyanÄ±n
E k
E t
E ÅŁ
E ÄŀÄ°
F R
F ENDÄ°
G en
G Ä°
G eÃ§
G Ã¼l
G Ä°N
G EN
G elen
G eyve
G iriÅŁ
G aliba
H A
H Ä°
H as
H ele
H AL
H ani
H ÃľKÃľ
H ARB
H unter
I an
I KAR
I CAN
J u
K er
K at
K am
K LARI
K azÄ±m
K afkas
K ral
K Ä±rk
K esinlikle
L U
L ong
L OND
L iverpool
M Ã
M on
M LER
M Ä°R
M ac
M ehmet
M anastÄ±r
M inik
N I
N DE
N Ã¢zÄ±r
P en
P aÅŁ
P eter
P eygamber
R ot
R ES
R Ã¼ÅŁtÃ¼
S ek
S eÃ§
S ayÄ±
S uret
S EN
S ker
S akarya
T R
T en
T aÅŁ
T eklif
T om
T emel
T IR
T emmuz
T IRI
T artÄ±ÅŁ
U sta
U Ãĩ
V ekil
V asÄ±f
X XV
Y et
Y IN
Y emek
Y LAR
Y irmi
Y usuf
Y Ã¶netim
Y ozgat
Y ork
Z A
a dÄ±r
a sÄ±nda
a madÄ±ÄŁÄ±
a mayacaktÄ±r
b Ã¼k
b uk
b esi
b uyla
c il
c esi
c emiyet
c aba
d inde
d alÄ±
d Ã¼men
d olan
d Ã¼zel
d Ã¶vÃ¼ÅŁ
e e
e meyen
f ak
f akat
f rey
g iler
g aÅŁa
g af
g elerek
h u
h Ã¼rriyet
h enÃ¼z
h urra
h omur
i a
i e
i Ã®
i dim
k ak
k iy
k ey
k ah
k Ã¼m
k iye
k Ä±ndan
k iyle
k Ä±nÄ±n
k ura
k abil
k erim
k edi
k emir
k aha
l ileri
l eleri
l Ã¢zÄ±m
l uluk
l gÄ±n
l iliÄŁi
m iy
m str
n n
n Ã¢
n av
n esi
n ekle
n ot
p ayÄ±
p azarÄ±
p lÃ¢n
p olitik
r n
r Ã¼z
r Ä±nÄ±n
r rÄ±
r ip
r alÄ±
r ga
s o
s um
s Ã¶n
s unu
s esi
s Ã¼s
s na
s iydi
s uyun
t al
t ol
t ara
t alÄ±
t esine
t Ã¼sÃ¼
t arafa
t rate
u laÅŁtÄ±r
u stur
v at
v ad
v is
v ana
v ali
v altÄ±
y m
y Ä±r
y na
y esini
z il
z Ä±r
z Ã¼l
z ip
z ehir
z ahmet
¤ dler
Â «
Â »
Ã ¬
Ġ /
Ġ lar
Ġ ler
Ġ ur
Ġ lÄ±
Ġ ÄŁÄ±
Ġ Ä±k
Ġ cak
Ġ aÅŁa
Ġ ru
Ġ eri
Ġ cÃ¼
Ġ ........
Ġ umu
Ġ layÄ±k
Ġ Â«
Ä± i
Ä± ya
ÅŁ ir
ÅŁ ur
ÅŁ it
ÅŁ Ã¼ph
ÅŁ enmiÅŁ
ÅŁ Ã¶val
ar ar
ar la
ar dan
ar Ä±k
ar sÄ±nÄ±z
ar tacak
an sÄ±zÄ±n
in atÃ§Ä±
Ġb ini
Ġb ab
Ġb azan
Ġb abasÄ±
Ġb alÄ±ÄŁa
il et
il ler
il diÄŁinden
il masi
ir de
ir lik
ir cilerin
Ä±n u
ÄŁ li
ÄŁ inin
ÄŁ Ã¼nden
et inde
et ten
et lerini
et tik
et kili
et miÅŁtim
et kil
et memek
et tikten
et tiÄŁimiz
Ã§ ra
Ã§ oÄŁun
Ġd im
Ġd iz
Ġd Ã¼nkÃ¼
Ġd olun
Ġd omuz
ma ÄŁ
ma yla
ma lara
ma hal
ma larÄ±nÄ±n
ma maktadÄ±r
ma goji
Ġk in
Ġk em
Ġk ok
Ġk Ã¼t
Ġk Ã¶l
Ġk ef
Ġk oku
ek lere
ek lerine
Ġg Ã»
Ġg ali
Ġg azi
Ġg alip
Ã¶ f
Ã¶ teki
Ã¶ tek
Ġv et
Ġv uk
Ġv ic
Ġv inÃ§
Ġv aracak
Ġv ilÃ¢yet
Ġv Ã¼cut
lar in
lar mÄ±ÅŁ
lar arasÄ±
un t
un Ä±
un sur
ak lÄ±na
el ler
el le
el lÃ®
el emek
el indeki
el lerinde
el iydi
el Ã§i
el imizde
el Ã§isi
la men
la madÄ±ÄŁÄ±
la mÄ±ÅŁtÄ±m
la hi
la madÄ±m
Ġs ir
Ġs Ã¼n
Ġs enin
Ġs esin
Ġs esini
Ġs Ã¶k
Ġs araya
Ġs Ã¼kÃ»net
Ġs trate
Ġy fa
Ġy ordu
Ġy Ä±lan
Ġy Ã¼c
al cÄ±
al ana
al ot
Ġo gÃ¼n
Ġt im
Ġt Ã¢
Ġt ip
Ġt Ã¼c
Ġt emin
di v
di gi
di binde
ler iniz
Ġi ma
Ġbir biri
Ġbir leÅŁik
li a
li mi
li ben
ur t
Ġh Ä±
Ġh il
Ġh ir
Ġh omur
Ġh imaye
me meye
ĠB ar
ĠB in
ĠB es
ĠB ah
ĠB as
ĠB Ä±rak
ĠB aba
ĠB UL
ĠB iga
ĠB ENÄ°M
ĠB ankasÄ±
ĠB ANA
Ã¼n Ã¼ÅŁ
im ar
im ler
im si
aÅŁ alot
iz am
ya ya
ya bana
or n
or mana
le miÅŁ
le diÄŁi
le mesi
on e
on na
on lardan
ul h
ul makta
du man
Ġa ile
Ġa bar
Ġa lamaz
Ġa lacaÄŁÄ±nÄ±
Ġa jans
iy ip
iy diler
lÄ± g
lÄ± ÅŁÄ±
lÄ± han
lÄ± yÄ±m
Ä° r
Ä° LEN
st ik
ey ip
Ġol maktadÄ±r
Ġol unuz
Ġol mayacaÄŁÄ±
Ġol sam
ra ÄŁÄ±nÄ±
ra zÄ±
ra por
sÄ± f
sÄ± fat
Ä±ÅŁ Ä±nÄ±
em ret
em be
Ġm iz
Ġm uz
Ġm Ã¼ÅŁavir
iÅŁ inin
iÅŁ lerini
iÅŁ birliÄŁi
iÅŁ Ã§ilerin
ĠK ir
ĠK es
ĠK ol
ĠK end
ĠK uv
ĠK iÅŁi
ĠK UT
ĠK ES
ĠK OM
ĠK aldÄ±
ĠK Ã¶rfezi
ĠK Ä±rk
ĠK ALDIRI
ĠgÃ¶ l
ĠgÃ¶ vde
ec ana
den g
den em
den iliyordu
at mÄ±ÅŁ
at om
at tÄ±klarÄ±
at istik
Ã¢ d
Ã¢ it
Ġde diÄŁiniz
Ġde magoji
ay Ä±ÅŁ
ĠM an
ĠM Ã¼z
ĠM Ã¼mkÃ¼n
ĠM AK
ĠM EÅŀ
ĠM ira
ĠM ANDA
ĠM Ã¼nir
Ä±nÄ± yordu
um da
ĠÃ§ Ä±
ĠÃ§ el
ĠÅŁ ek
ĠÅŁ im
ĠÅŁ Ä±k
ĠÅŁ ef
mak ine
Ã¼r et
Ã¼r Ã¼n
az ar
az artesi
ol maya
ol kan
ol maktan
ol saydÄ±
Ġe p
Ġe zi
ĠA D
ĠA T
ĠA ÅŁ
ĠA tina
ab ar
ab ul
ab rika
ik al
ik ler
ik iye
am Ä±yordu
am sar
am Ä±za
am Ä±yoruz
ap larÄ±
Ġda ÄŁa
Ġda ÄŁÄ±nÄ±k
ce dir
dir ek
dir ler
dir mek
tan ya
Ä±l dÄ±m
Ä±l maktan
ca sus
ca hit
ta caÄŁÄ±
ta sÄ±yla
ĠÄ° N
ĠÄ° KÄ°
ĠÄ° vedi
Ä±k ar
ĠgÃ¶r mem
ĠgÃ¶r meyen
ĠgÃ¶r eceksiniz
ĠgÃ¶r memiÅŁtim
ĠH aber
ĠH erk
ĠH ill
ĠH ayÄ±r
ĠH int
ĠH EDE
ĠH ALÄ°FE
ĠH Ä°ZMET
ĠH Ä±yanet
Ġil inde
Ġil lerde
Ġil lerimizden
bir im
bir inci
bir leÅŁtir
bir iydi
bir liÄŁine
bir liÄŁin
ara h
ara dan
ara sÄ±ndan
Ġn eye
Ġn eyi
Ġn ormal
yor muÅŁ
yor gun
Ä±r sak
ĠP o
ĠP RO
ĠP ARTÄ°
ok ur
ok si
ok yanus
ĠiÃ§ teki
uz aya
si s
Ä±z dan
te f
te bil
te fik
ev e
ev ine
cak sÄ±z
Ã¶z et
sa lar
sa ha
sa tÄ±l
Ã® f
Ã® Ä±m
Ġal maz
Ġal maktadÄ±r
Ġal Ä±cÄ±
Ġal Ä±rken
Ġal etler
Ġkar amsar
Ġet melerini
ĠT er
ĠT an
ĠT aÅŁ
ĠT uf
ĠT emel
ĠT ANI
ĠT Ã¼zÃ¼k
ĠT erak
ĠT Ã¼zÃ¼ÄŁÃ¼
ĠT ehlik
ĠT evhid
Ġson r
mu ydu
Ġbil eÅŁ
Ġbil mektedir
Ġbil meyen
Ġbil mec
Ġbil mediÄŁi
Ġbil ime
Ġbil miyordum
ĠS h
ĠS t
ĠS an
ĠS uret
ĠS adi
ĠS IR
ĠS onu
ĠS AM
ĠS oma
ĠS ALÄ°H
ĠS ebebi
uy gul
uy gar
ad lÄ±
ad Ä±ndaki
ad eta
ad will
Ä±m daki
ulun an
ulun ca
ĠbaÅŁ lanmÄ±ÅŁ
ĠbaÅŁ layacak
ĠbaÅŁ lamadan
Ġver gi
Ġver mey
Ġver mektedir
Ġver meleri
Ġver iyorum
Ġver diÄŁiniz
Ġver emez
Ġver ilebilir
Ġver diniz
Ġver ilemez
ĠE m
ĠE s
ĠE t
ĠE FENDÄ°
ah ak
lik lere
bil meyen
bil eceÄŁiz
bil iyorsunuz
bil iyoruz
ĠBey e
ĠBey in
ĠBey oÄŁlu
ĠBey pazarÄ±
ĠiÃ§in di
ye ÄŁ
us al
bi din
Ġz i
Ġz la
Ġz emin
Ã¼m s
Ã¼m den
Ã¼m deki
Ġan larda
Ġan layan
Ġan ladÄ±ÄŁÄ±m
Ġan dÄ±ran
tÄ±r mÄ±ÅŁ
tÄ±r mayÄ±
ka ya
ka dir
ka sa
Ġbulun mu
Ġbulun manÄ±n
Ġbulun maktadÄ±r
Ġbulun acaÄŁÄ±nÄ±
Ġbulun urken
Ġyap ay
Ġyap masÄ±
Ġyap abil
Ġyap Ä±yor
Ġyap madan
Ġyap malarÄ±
Ġyap arÄ±m
Ġyap abilmek
Ġyap acaÄŁÄ±z
Ã¼t tefik
lay alÄ±m
ĠBu gÃ¼ne
iyor muÅŁ
ĠD a
ĠD ev
ĠD IÅŀ
ĠD OLA
Ã¼l me
Ã¼l Ã¢
Ã¼l mesini
Ã¼l dÃ¼kten
urum una
ĠdÃ¼ÅŁ kÃ¼n
ĠdÃ¼ÅŁ meden
ĠdÃ¼ÅŁ Ã¼p
Ġist endi
Ġist emiyordu
Ġp am
Ġp tan
Ġkon muÅŁ
imiz dir
Ã¼zer eyken
Ã» z
Ã» tÃ¼
Ã¼y Ã¼
Ã¼y elerin
maya caÄŁÄ±m
Ġgel me
Ġgel eni
Ġgel iniz
Ġgel eceÄŁi
Ġgel melerini
Ġgel diklerini
Ġgel diÄŁine
Ġgel memiÅŁti
Ġgel inceye
iÃ§ ecek
iÃ§ ten
laÅŁ Ä±k
laÅŁ masÄ±nÄ±
Ġolan lara
ĠC e
ĠC ep
ĠC res
ĠC anav
bul duk
ĠY av
ĠY ER
ĠY AK
ĠY OL
ĠY eter
ĠÃ¶n eri
ĠÃ¶n cek
ĠÃ¶n Ã¼nden
Åŀ er
Åŀ unu
Ġf Ä±
Ġf otoÄŁraf
ed iniz
ed ilmesi
ed ilir
ĠG Ã¶k
ĠG ÃľN
ĠG RU
ĠG Ã¼ven
ĠG eorge
ĠG Ã¼ver
ĠN E
ĠN ot
Ġmillet le
Ġmillet ini
ĠÃ¼zer inize
aÄŁ Ä±na
aÄŁ Ä±nÄ±n
aÄŁ zÄ±
ilme miÅŁtir
ilme siyle
ilme yecek
av uÅŁ
Ġay lÄ±k
Ġay fa
Ġay lardan
Ġar Ä±m
Ġar ih
Ã§Ä±k a
Ã§Ä±k Ä±yordu
ĠiÅŁ let
ĠiÅŁ ti
ĠiÅŁ inin
ĠiÅŁ leriyle
Ġyer lerdeki
ĠO Y
ĠO y
ĠkarÅŁÄ± sÄ±na
ĠkarÅŁÄ± laÅŁma
ĠF or
ĠF eh
ĠF ER
ĠF elÃ¢h
ĠR if
ĠR os
ĠR ize
ĠR asi
kan Ã§
ĠgÃ¼n lere
ĠgÃ¼n dÃ¼r
eki p
ĠgÃ¶rÃ¼ÅŁ ten
ĠgÃ¶rÃ¼ÅŁ lerden
ĠgÃ¶rÃ¼ÅŁ lerimiz
ĠgÃ¶rÃ¼ÅŁ meyi
ĠgÃ¶rÃ¼ÅŁ Ã¼le
ĠgÃ¶rÃ¼ÅŁ Ã¼me
ĠgÃ¶rÃ¼ÅŁ Ã¼nÃ¼z
ĠgÃ¶rÃ¼ÅŁ tÃ¼ÄŁÃ¼mÃ¼z
Ġin atÃ§Ä±
Ġin atla
ten in
ten kit
Ġgerek se
Ġgerek iyorsa
eb ini
Ġr Ä±n
Ġr du
Ġr Ã¼t
Ġr ic
Ġr Ä±za
Ġkadar Ä±
Ġkadar ki
is ar
is pat
is kel
Ġuy um
Ġuy makla
Ġuy ku
Ġkur tan
Ġkur ulun
Ġkur ye
Ġkur ban
yan Ä±l
cÄ± larÄ±n
der nek
Ġtar la
aman da
ĠsÃ¶z Ã¼n
Ġon ca
ĠÃ§Ä±k madÄ±
ĠÃ§Ä±k tÄ±klarÄ±
ĠÃ§Ä±k tÄ±ktan
ĠÃ§Ä±k acaÄŁÄ±nÄ±
ĠdÃ¼ÅŁÃ¼n elim
ĠdÃ¼ÅŁÃ¼n mÃ¼yor
ĠdÃ¼ÅŁÃ¼n dÃ¼ÄŁÃ¼m
ĠdÃ¼ÅŁÃ¼n Ã¼rken
Ġtop tan
Ġtop ladÄ±ÄŁÄ±
Ġtelgraf larÄ±n
Ġtelgraf lan
Ġtelgraf Ä±ndan
Ġtelgraf Ã§Ä±
Ġtelgraf Ä±nÄ±zÄ±
Ġel leriyle
Ġel birliÄŁi
Ġel ektri
Ġel Ã§ilik
ĠbÃ¼tÃ¼n Ã¼
ĠbÃ¼tÃ¼n Ã¼yle
Ġhal i
Ġhal let
Ġbildir diÄŁim
Ġbildir mesini
Ġbildir ilir
Ġbildir ilerek
Ġbildir miÅŁtim
yi tip
madÄ± ÄŁÄ±m
Ġvar an
Ġvar Ä±ÅŁ
Ġvar Ä±ncaya
Ġkal sÄ±n
Ġkal ka
Ġkal Ä±yor
Ġkal madan
se e
ĠgeÃ§ enin
ĠgeÃ§ meye
ĠgeÃ§ ebilir
dik ilmiÅŁ
dik lerimin
bu caksÄ±z
ne dan
Ã§ek miÅŁ
Ã§ek iyor
Ġkendi since
Ġki sa
Ġedil eceÄŁini
Ġedil meleri
Ġedil dikleri
Ġedil eme
Ġedil eceÄŁinin
baÅŁ Ä±nÄ±
baÅŁ ladÄ±k
atÄ± ÅŁÄ±
ver me
ver iyor
ver diÄŁimiz
ver dikleri
ver imli
ver ebilmek
ver eceÄŁiniz
Ġola mamÄ±ÅŁ
Ġola mÄ±yordu
Ġola caÄŁÄ±mÄ±zÄ±
Ġola mayacaÄŁÄ±ndan
ĠaÃ§Ä±k ta
ĠaÃ§Ä±k lÄ±ÄŁÄ±
ĠaÃ§Ä±k lÄ±kla
ĠaÃ§Ä±k lanmasÄ±
olay lardan
ĠsÃ¼r er
ĠsÃ¼r gÃ¼n
ĠsÃ¼r Ã¼lmÃ¼ÅŁ
ĠsÃ¼r erken
ĠsÃ¼r eyle
ĠsÃ¼r dÃ¼ÄŁÃ¼m
ĠsÃ¼r Ã¼lÃ¼yordu
ret eri
maz dan
Ġtarih imizde
tur aklÄ±
lÃ¼ yordu
Ġtaraf Ä±nÄ±
Ġtaraf lÄ±sÄ±
leÅŁ meye
leÅŁ mesi
ĠV an
ĠV AT
ĠV akit
Ġen inde
Ġen gin
eceÄŁ inizi
len me
len mesine
eli ÄŁin
Ġyol daki
Ġyol cu
ĠBaÅŁ mÃ¼dÃ¼r
Ġanla sil
Ġanla tÄ±yordu
ef le
oy d
oy n
oy sa
oy unun
Ġyan Ä±ndaki
Ġyan larÄ±ndaki
Ġyan Ä±mÄ±zda
Ġyan ardaÄŁ
kar ab
kar arÄ±
gÃ¶r dÃ¼ÄŁÃ¼
gÃ¶r medik
ken ti
Ġbirlik lerle
Ġbirlik leriyle
ran Ã¼s
ĠgÃ¶ster dim
ĠgÃ¶ster mesi
ĠgÃ¶ster eceÄŁi
ĠgÃ¶ster ilmesini
ĠgÃ¶ster diÄŁini
ĠgÃ¶ster meyi
ĠgÃ¶ster iÅŁli
ĠhÃ¼kÃ»met ler
ĠhÃ¼kÃ»met inin
ĠhÃ¼kÃ»met lerin
ĠhÃ¼kÃ»met lerinin
ĠhÃ¼kÃ»met imize
ĠÃ§alÄ±ÅŁ acak
ĠÃ§alÄ±ÅŁ acaÄŁÄ±
ĠÃ§alÄ±ÅŁ tÄ±lar
ĠÃ§alÄ±ÅŁ acaÄŁÄ±m
ĠÃ§alÄ±ÅŁ Ä±yoruz
ĠÃ§alÄ±ÅŁ Ä±lÄ±yor
re ÄŁli
ĠgÃ¶rev le
ĠgÃ¶rev imi
ĠgÃ¶rev lerinden
ĠgÃ¶rev imizi
Ãľ zerinde
Ġmak ale
ĠdeÄŁil ler
ĠdeÄŁil lerdir
na cÄ±
na mesi
Ġmem urumuz
nÄ± asÄ±
mey elim
mey eceÄŁinden
mi dir
gel diÄŁini
gel mektedir
gel ecektir
Ġara dan
Ġara malÄ±dÄ±r
Ġhareket lerde
Ä±ldÄ± ÄŁÄ±na
Ä±ldÄ± ÄŁÄ±ndan
sk eri
akÄ±m Ä±
AN IN
AN ADOLU
Ġad Ä±nÄ±n
Ġad larÄ±nÄ±n
Ġad res
Ġad landÄ±r
Ġad ina
Ġyaz man
Ġyaz mayÄ±
Ġyaz dÄ±ÄŁÄ±mÄ±z
lama ca
lama mÄ±ÅŁtÄ±
lama mÄ±ÅŁtÄ±k
sek sen
ĠÅŁu be
olu yor
hal ktan
Ã§a sÄ±na
Ġl Ã¢n
Ġuz aya
Ġuz aÄŁÄ±nda
Ġtoplan maya
Ġtoplan dÄ±ktan
ĠbÃ¼yÃ¼k tÃ¼r
Ġkuvvet imiz
Ġkuvvet lerimizi
ĠgÃ¶nder ir
ĠgÃ¶nder iniz
ĠgÃ¶nder dik
ĠMillet e
ĠMillet imiz
ĠMillet imizin
yÃ¼z e
ĠÃ¼zere dir
Ġgetir ilen
Ġgetir eceÄŁim
Ġgetir ilmesine
ĠÃ¶ dÃ¼l
ĠÃ¶ dey
ĠÃ¶ fk
Ġka da
ĠKon uyu
duk larÄ±na
Ġsay dÄ±m
Ġsay Ä±lmasÄ±
ura caÄŁÄ±
Ġsor una
Ġsor usu
ĠÅŀ unu
ĠÅŀ ekil
ĠÅŀ imdilik
Ġder ken
Ġder neÄŁi
Ġiste mesi
Ġiste ÄŁin
Ġiste mediÄŁim
ĠmÃ¼ hr
ĠmÃ¼ barek
ĠsaÄŁ a
ĠsaÄŁ la
ĠsaÄŁ ladÄ±
yap abil
yap acak
Ġim parator
ĠbaÄŁ landÄ±
ĠsÃ¶yle mesi
tÃ¼ st
Ġma li
Ġma dem
kÄ± sÄ±
Ġes asÄ±
Ġes na
Ġes efle
var i
Ġilgili dir
ĠÅŁey di
ĠHÃ¼kÃ»met le
abil ecektir
abil eceÄŁine
Ġyeni ay
ĠyÃ¼z Ã¼ne
dÄ±k Ã¶y
ĠÃ¶nem se
Ġede mey
Ġede bilirsiniz
ic ik
Ġeder ler
dÃ¼ÅŁ ecektir
Ġduy du
Ġduy muÅŁ
Ġduy madan
Ġduy uldu
uÃ§ suz
ĠaÃ§ mak
ĠaÃ§ arak
ĠaÃ§ tÄ±ÄŁÄ±
ĠaÃ§ Ä±lÄ±
ĠaÃ§ Ä±lmasÄ±na
ĠaÃ§ Ä±lmÄ±ÅŁtÄ±
ist in
ist iyorsunuz
ist asyon
ĠgÃ¼ven e
ĠgÃ¼ven erek
ĠgÃ¼ven iniz
ĠalÄ±n mak
ĠalÄ±n masÄ±nda
yar alan
ĠgerÃ§ek lerin
Ġgir mek
Ġgir meden
Ġgir mesine
Ġcevap larÄ±
ĠgÃ¶z leriyle
Ġordu larÄ±n
Ġordu daki
Ġordu larÄ±mÄ±zÄ±n
Ġsal t
Ġsal dÄ±ra
Ġhaber im
Ġmemleket ten
Ġmemleket imizi
Ġmemleket imizden
geÃ§ mesi
geÃ§ mez
geÃ§ meden
geÃ§ tikten
om o
Ġpek Ã¢lÃ¢
Ġnokta larla
dÃ¼r Ã¼
Ġra da
ĠÃĩ ar
ĠÃĩ eÅŁitli
ĠÃĩ opur
Ġgem imiz
Ġgem isiyle
Ġmilletin dir
Ġorta larÄ±nda
iya tÄ±
Ġkor uyarak
ilÃ¢f eti
Ġtut ulan
Ġtut tuk
bulun a
bulun acak
bulun duklarÄ±nÄ±
bulun duÄŁundan
bulun uyorum
bulun uyorlardÄ±
Ġ. "
karÅŁÄ± laÅŁtÄ±
Ġvatan sÄ±z
Ġvatan Ä±mÄ±z
Ã¼st Ã¼nden
ĠanlaÅŁ mak
ĠanlaÅŁ masÄ±nÄ±
ĠanlaÅŁ mayÄ±
ĠanlaÅŁ Ä±lma
ĠanlaÅŁ masÄ±nÄ±n
ĠanlaÅŁ Ä±lmaz
ĠanlaÅŁ Ä±lmaya
ĠanlaÅŁ Ä±lmaktadÄ±r
Ġdur duk
Ġdur uyor
Ġkan dÄ±r
Ġkan unda
eÄŁ in
sel am
ĠbÄ±rak tÄ±k
ĠbÄ±rak acak
ĠbÄ±rak mamak
ĠbÄ±rak tÄ±ÄŁÄ±m
ĠbÄ±rak tÄ±ÄŁÄ±mÄ±z
may alÄ±m
ekle di
ekle mek
Ġha la
Ġha ini
ĠbÃ¶lg elere
ĠbÃ¶lg esinden
ĠbÃ¶lg esel
kon i
kon unun
kon gre
Ġkomutan larÄ±nÄ±
Ġkomutan larla
Ġkomutan larÄ±ndan
Ġkomutan lÄ±ÄŁÄ±nÄ±
Ġkomutan lÄ±ÄŁÄ±na
top larÄ±
top lum
Ġc ek
ĠTemsil cinin
ĠdÃ¼ÅŁÃ¼nc emiz
ĠdÃ¼ÅŁÃ¼nc esinin
ĠdÃ¼ÅŁÃ¼nc esinden
ĠdÃ¼ÅŁÃ¼nc eyle
Ġba ÄŁÄ±
yer li
yer ini
yer inden
mez di
ĠÅŁah sÄ±nÄ±
ĠÅŁah sÄ±m
Ġsiz leri
Ġsiz lerin
ĠMu halif
kal ma
kal mÄ±ÅŁ
kal mayacak
kal Ä±nlÄ±k
ĠAr nav
ĠAr onna
ile bilmek
Ãĩ ER
Ãĩ EV
ĠgÃ¼Ã§ le
ĠgÃ¼Ã§ leri
Ġbelir miÅŁ
Ġbelir tir
Ġbelir ten
Ġbelir sizlik
ĠyÃ¶n Ã¼nÃ¼
ĠyÃ¶n eti
ĠyÃ¶n Ã¼nde
ĠyÃ¶n Ã¼ne
ĠyÃ¶n Ã¼nden
ĠdÃ¼ÅŁman larÄ±mÄ±z
Ġbul maya
Ġbul duÄŁunu
Ġbul dular
Ġbilg inin
Ġbilg isiz
ĠÃ§ek er
ĠÃ§ek iÅŁ
ĠÃ§ek iyordu
ĠÃ§ek mesi
ĠÃ§ek erim
ĠÃ§ek ilerek
ĠÃ§ek tikten
ĠÃ§ek tikleri
gÃ¶ m
gÃ¶ ÄŁe
ĠBakan lÄ±ÄŁÄ±n
Ġasker lerinin
Ġgelen lerin
Ġgelen lerinden
dÃ¼ÄŁ Ã¼ne
Ġak set
Ġak Ä±t
Ġetmek ti
Ġolur ken
Ġolur sunuz
laya bilir
laya caÄŁÄ±
laya caÄŁÄ±m
ĠhazÄ±r dÄ±r
ĠhazÄ±r dÄ±k
ĠdÄ±ÅŁ tan
ĠdÄ±ÅŁ iÅŁleri
ĠdÃ¶n en
ĠdÃ¶n dÃ¼r
ĠdÃ¶n meleri
ĠdÃ¶n dÃ¼k
ĠdÃ¶n eminin
ĠdÃ¶n dÃ¼kten
Ġmu harebesi
Ġiyi si
ĠkonuÅŁ arak
ĠkonuÅŁ masÄ±na
iÃ§in se
Ġtak viye
Ġileri deki
Ġgit meye
Ġgit miÅŁtir
Ġgit miÅŁtim
Ġolay Ä±ndan
Ġolay larÄ±ndan
ĠÃ§ekil iyor
ĠÃ§ekil diler
dÄ±n l
yet ecek
bay lÄ±ÄŁa
Ġsan iy
Ġsan caÄŁÄ±
Ġsan dÄ±ÄŁÄ±
Ġsan Ä±yorum
Ġsan ayi
ĠarkadaÅŁ larÄ±mÄ±n
ĠbÃ¶yle sine
alan mÄ±ÅŁ
Ġkesin leÅŁ
har ca
Ġetme diler
Ġetme mekle
ola sÄ±
Ãĸ te
Ġbun daki
ĠÃ§Ä±kar ma
ĠÃ§Ä±kar arak
ĠÃ§Ä±kar Ä±lmÄ±ÅŁtÄ±r
gerek Ã§esi
kaÃ§ Ä±nÄ±l
tÄ±l mak
ĠgÃ¶rÃ¼l mesi
ĠgÃ¶rÃ¼l melidir
ĠgÃ¶rÃ¼l dÃ¼kten
deÄŁ in
Ġolma larÄ±nÄ±
Ġolma saydÄ±
ba lara
ĠZ ile
ĠZ AT
ĠZ AM
ĠZ Ã¢tÄ±devlet
Ġceph eyi
Ġceph esine
Ġceph esinden
Ġceph edeki
gÃ¶z Ã¼nÃ¼
gÃ¶z Ã¼yle
yol daki
yol uyla
yol umuza
Ġden en
Ġden li
Ġden iyordu
Ġden emenin
Ġden iliyor
Ġih mal
MA T
MA LAR
Ġdayan maktadÄ±r
Ġdayan abilir
Ġdayan dÄ±ÄŁÄ±na
ĠÅŁart Ä±na
ĠÅŁart larÄ±nÄ±
ĠÅŁart larÄ±na
ĠÅŁart larÄ±nÄ±n
ĠÅŁart larla
tiÄŁ ine
tiÄŁ imde
Bir az
Ġmilletvekil ini
ĠÄ°ngiliz leri
ĠÄ°ngiliz lerden
ĠL at
ĠL Ã¼tfen
ĠL ord
ĠL ong
teÅŁ ebb
Ġis eniz
Ġkap ak
Ġkap Ä±lan
Ġkap Ä±lmÄ±ÅŁ
Ġkap aklarÄ±nÄ±
ebil ecektir
ebil eceÄŁine
kes ildi
ĠkÃ¶ mÃ¼r
Ġok yanusu
Ġok unup
Ġkay d
Ġkay det
Ġtes ir
evr enin
ĠhÃ¢ nedan
ĠolmadÄ± ÄŁÄ±na
Ar z
Ar mstr
Ġgay elerin
Ġgay elerinin
Ġter cÃ¼man
BaÅŁ bakan
Äŀ R
Ġdeniz ciler
Ġemir lerin
Ġemir lerle
sonra dan
atÄ±l gan
Ġaz Ä±
ĠdeÄŁiÅŁ mez
ĠÃ¢ deta
ĠBen ce
Ġama c
Ġama ca
Ġadam larÄ±nÄ±
ĠCumhuriyet tir
Ġinan mÄ±ÅŁ
Ġinan Ä±lmaz
doÄŁ ur
Ġgen sorunun
ĠsonuÃ§ larÄ±ndan
ĠkaÃ§ ma
ĠkaÃ§ tÄ±
ley elim
ley eyim
fik r
fik ri
ĠyÃ¼r ekten
bÃ¼tÃ¼n Ã¼yle
Ġyay Ä±lmasÄ±ndan
Ä°L ME
Ä°L DÄ°
Ġmakam lar
Ġmakam larÄ±
Ġmakam Ä±ndan
ĠAy Ä±n
ĠAy Ã¢n
ĠAy valÄ±k
Ġinsan lara
Ġinsan lÄ±ÄŁa
Ġinsan lÄ±ktan
Ġinsan cÄ±k
ĠdeÄŁer siz
ĠÃĸ l
ĠyazÄ± larÄ±n
ĠyazÄ± larÄ±nÄ±n
Ġgerekir ken
Ġpar mak
ĠnasÄ±l sa
su larÄ±
ĠÃ¼y elerden
ĠHal ep
ĠHal kÄ±n
Mu halif
Mu danya
Ġkendiler ince
ĠayrÄ± larak
komutan lar
komutan larÄ±n
komutan larÄ±na
sal onu
ĠÃ¼Ã§ te
ĠsÃ¼re dir
Ġbin bir
Ġbin erek
Ġalan daki
Ġbelirt erek
Ġbelirt ilmesi
Ġbelirt eyim
Ġbelirt tiÄŁim
Ġbelirt meliyim
Ġbelirt ildikten
ĠteÅŁebbÃ¼s Ã¼
ĠteÅŁebbÃ¼s lerini
ĠteÅŁebbÃ¼s Ã¼nde
ĠteÅŁebbÃ¼s lerinde
ĠteÅŁebbÃ¼s Ã¼mÃ¼zÃ¼
ĠsÄ±ra yla
ĠsÄ±ra sÄ±yla
sin ir
muz daki
ĠteÅŁkilÃ¢t Ä±ndan
ĠteÅŁkilÃ¢t Ä±nÄ±n
ĠteÅŁkilÃ¢t lanmaya
Ġsebep lerini
LAR INA
kendi siyle
ĠKar aman
ĠKar deÅŁ
Ġkullan mak
Ġkullan acak
Ġkullan Ä±lmasÄ±
Ġkullan maktan
Ġkullan Ä±lmasÄ±nÄ±
Ġkullan dÄ±ÄŁÄ±mÄ±z
sÃ¶z lerine
ilik lerinden
Ġtab an
Ġtab lo
Ġtab aka
ĠbaÅŁkan Ä±nÄ±n
ĠbaÅŁkan lÄ±ÄŁÄ±nÄ±
aygÄ± tÄ±n
Ġmesel elerle
Ġmesel elerden
ĠCemiyet in
ĠvardÄ± ÄŁÄ±mÄ±zda
luk larÄ±
zaman ki
maktan sa
omis eri
ost on
ĠdÃ¼nya sÄ±
ĠdÃ¼nya dan
ade m
ade ce
ĠÃ§ar eye
ĠÃ§ar eleri
ĠÃ§ar elerinin
sor una
aÃ§ Ä±ldÄ±
aÃ§ Ä±lmÄ±ÅŁ
Ġbekle mektedir
caÄŁ Ä±n
caÄŁ Ä±nda
aÅŁaÄŁÄ± da
ĠyapÄ± labilir
Ġayr Ä±lmÄ±ÅŁtÄ±r
Ġayr Ä±lmasÄ±nÄ±
Ġinc elik
os doÄŁru
Ġer leri
Ġmer can
Ġmer aklÄ±
Ġmer hum
ĠetmiÅŁ ler
BaÅŁkan lÄ±k
Ã¼p edÃ¼z
Ġsev e
Ġdavran Ä±lmasÄ±nÄ±
dÃ¼ÅŁÃ¼n mek
dÃ¼ÅŁÃ¼n meye
dÃ¼ÅŁÃ¼n meden
Ġsaat i
Ġtehlik eler
Ġtehlik enin
sÃ¼r en
sÃ¼r dÃ¼
ĠsayÄ± p
ĠsayÄ± lacak
ĠsayÄ± lamaz
ĠÃ§Ã¶z meye
ĠÃ§Ã¶z Ã¼lmesi
gÃ¶rÃ¼ÅŁ e
gÃ¶rÃ¼ÅŁ ler
gÃ¶rÃ¼ÅŁ Ã¼nde
leme di
lendir mek
Ġbuyur ulur
Ġhalk Ã§Ä±lÄ±k
Ġuzak lÄ±ÄŁÄ±n
durum dan
durum unu
durum larda
durum umuzu
Ġiz leyen
ĠsÃ¶y letmek
ĠsÃ¶y lerken
bildir mek
ĠgeÃ§ir ecek
ĠaÃ§Ä±klama lara
lem ler
Ġaleyh imde
ĠbirtakÄ±m larÄ±
Ġzor layÄ±cÄ±
Ġzor balÄ±k
Ġdin siz
Ġdin leme
Ġkim ler
Ġkim den
Ġkim bilir
ĠsavaÅŁ Ä±nda
millet imiz
Ġbas tÄ±
ilecek ti
Ġkoy maya
labil en
labil eceÄŁi
Ġtav iz
Ġtav rÄ±
Ġas lÄ±
Ġcan Ä±yla
Ġmerkez den
Ġmerkez inde
Ġtaarruz un
bur g
Ġib ar
Ġgereken leri
Ġcevab Ä±nÄ±n
Ġte ma
Ġte masÄ±
ĠbaÅŁÄ±nda dÄ±r
ĠgÃ¶rÃ¼ÅŁmeler inde
Ġengel leme
Ġengel lemeye
Ġengel leyici
Ã§alÄ±ÅŁ malarÄ±
Ġhep imizi
getir di
getir iyor
getir ecek
getir ilmiÅŁ
ĠU Y
ilir iz
Ġkazan dÄ±ÄŁÄ±
Ġkazan dÄ±ran
ĠKan unun
ĠtoplantÄ± lar
ĠtoplantÄ± yÄ±
tak larÄ±
ĠkatÄ±l malarÄ±
ĠkatÄ±l malarÄ±nÄ±
ĠdÃ¼ÅŁÃ¼nceler inin
ĠbaÄŁÄ±msÄ±z lÄ±ÄŁÄ±n
gÃ¶ster erek
gÃ¶ster iyordu
gÃ¶ster ecektir
Ben imle
dak larÄ±nda
Ġora larÄ±
Ġora ca
Ġora larda
Ġbilgiler de
Ġbilgiler le
gen soru
tiler ek
ĠyakÄ±n lÄ±k
lÄ±ÅŁ Ä±ndan
Ġoy larÄ±
Ġoy una
ĠsaygÄ± sÄ±z
ĠsaygÄ± larÄ±nÄ±
Ġkes miÅŁ
Ġkes ilmesine
Ġkes iminde
ĠyÄ±l larda
ĠkarÅŁÄ±lÄ±k lar
par amparÃ§a
ĠFransÄ±z larla
biz zat
Ġko ca
Ġko skoca
Ġgec eler
Ġgec eyi
Ġgec esini
Ġifade den
Ġifade sine
Ġifade sinden
Ġpro b
tul uÅŁ
Ġettir en
dÃ¶n en
dÃ¶n em
gÃ¶n l
Ġac Ä±klÄ±
Ġmadde sini
Ġmadde sindeki
Ä°Y LE
ĠAv rupalÄ±
ĠkaldÄ±r maya
ĠkaldÄ±r Ä±ldÄ±
ĠkaldÄ±r Ä±p
ĠkaldÄ±r Ä±lmasÄ±nÄ±
ĠanlaÅŁÄ± lacaÄŁÄ±
Ġmektu b
Ġmektu ba
anla tÄ±r
ĠAl tÄ±n
Ġmaksat larÄ±
ĠÅŁifr elerle
Biz i
ĠyÃ¼k len
ĠyÃ¼k lenerek
Ġvermek ten
ĠaydÄ±n la
ĠaydÄ±n latÄ±l
ĠgiriÅŁ tiÄŁimiz
ĠgiriÅŁ tikleri
UN A
ĠboÅŁ u
tut un
tut up
Ġbit t
devlet leri
hak larÄ±na
hak imiyet
ĠÃľ z
Ġkork ak
Ġkork ulur
lamÄ±ÅŁ lar
lim iz
ÄŁren iyorum
Ġmanda ya
Ġanlat tÄ±ÄŁÄ±m
Ġimza lamÄ±ÅŁ
ĠyayÄ±n lanmasÄ±
ĠyayÄ±n ladÄ±m
ĠyayÄ±n lanacak
sÃ¶yle v
sÃ¶yle mek
sÃ¶yle diÄŁi
sÃ¶yle yen
sÃ¶yle yebilirim
Ġsar s
Ġsar fet
Ġdok san
Ġdok unacaÄŁÄ±m
ĠtaÅŁÄ± yordu
ĠtaÅŁÄ± makta
ĠtaÅŁÄ± mayan
Ġmemur larla
ĠdÃ¼zen lemeler
tr op
Ġek si
Ġek len
ĠiliÅŁ ik
ĠÃ§alÄ±ÅŁma lar
ĠhÃ¼kÃ¼m lerini
EK Ä°
ĠI lgÄ±n
Ġat tÄ±ÄŁÄ±
ĠolmasÄ± yla
Ġfaaliyet lerin
id y
Ġsab ret
ĠÃ§evr eler
ĠÃ§evr elerden
ĠuÄŁra ya
ĠuÄŁra tmak
aÄŁÄ±r lÄ±k
bun alÄ±m
Ġbak tÄ±ÄŁÄ±mda
ĠAk ÅŁam
ĠAk ÅŁehir
ĠPAÅŀ ANIN
ĠsilÃ¢h la
ĠseÃ§im lere
Ġhusus un
Ġhusus lardan
EY ENLER
dÃ¶rt te
mÃ¼ cadel
Ġyor ul
ĠiÅŁaret i
Ġyerinde dir
merm ilerin
Ġesas en
Ġesas lara
ĠdeÄŁiÅŁtir me
ĠdeÄŁiÅŁtir mek
ĠdeÄŁiÅŁtir meye
ĠhatÄ±r larsÄ±nÄ±z
ĠÅŁahÄ±s larla
ĠdavranÄ±ÅŁ Ä±
ĠdavranÄ±ÅŁ lardan
ĠdavranÄ±ÅŁ larda
Millet ler
kab in
ĠÃ¼n cÃ»
Ġgazet elerin
lam are
ĠSey yar
ĠMÃ¼dafaa i
kap ak
ĠÃ¼z e
ĠÃ¼z Ã¼cÃ¼
ĠtartÄ±ÅŁ malarÄ±
baÄŁ lan
ĠkiÅŁ iyi
ĠkiÅŁ iliÄŁi
ĠkardeÅŁ imin
ĠeÄŁ me
ĠgÃ¶rÃ¼n ce
ĠgÃ¶rÃ¼n erek
ĠgÃ¶rÃ¼n mÃ¼yor
Ġedilme yecektir
Ġrapor u
Ġrapor lar
Ġrapor larÄ±n
Ġrapor larÄ±nÄ±
Ġrapor lara
Ġkomuta dan
Ġbek lerim
elen miÅŁ
Ġhizmet i
Ġhizmet ler
Ġveril eceÄŁi
Ġveril diÄŁini
Ġveril ecektir
ĠkonuÅŁma sÄ±nda
ĠkonuÅŁma cÄ±nÄ±n
Ġtemel ine
laÅŁtÄ± ÄŁÄ±nÄ±
Ġuyan dÄ±ÄŁÄ±mda
ĠuÄŁr aÅŁÄ±rken
Ġduygu larla
ĠgeniÅŁ liÄŁi
Ġtaki bi
Ġolacak sÄ±nÄ±z
Ġemr iyle
Ġemr indeki
Ġemr inizi
Ġsoru lacak
res inden
ĠaÅŁ ir
Ġtah ta
Ä°n Ã¶nÃ¼
ĠbaÅŁvur uldu
AT TI
kor uma
Ġle vha
Ġgrup tan
Ġgrup lardan
ĠateÅŁ le
ĠdaÄŁÄ± tÄ±
ĠdaÄŁÄ± tÄ±l
ĠdaÄŁÄ± lÄ±p
ĠdaÄŁÄ± tmak
Ġisten ilen
Ġisten meyen
ĠedeceÄŁ imiz
Ġediyor lardÄ±
Ġmecbur uz
HÃ¼kÃ»met Ã§e
Ġkurtar maya
emey erek
emey eceÄŁimi
ger Ã§eÄŁi
dÄ±ÄŁÄ±mÄ±z da
ĠBun larÄ±
emir leri
bÄ±rak Ä±lmasÄ±
meniz e
telgraf Ä±n
telgraf la
telgraf Ä±nÄ±
telgraf larÄ±
ĠendiÅŁ esine
Ġdost larÄ±m
Ä±ÅŁma lar
uzak lÄ±ÄŁÄ±
uzak laÅŁtÄ±r
uzak lÄ±ktan
Ġbulundur an
Ġfi ili
Ġtoprak larÄ±
Ġtoprak larÄ±n
Ġtoprak larÄ±nÄ±n
ĠsaldÄ±rÄ± lar
ĠsaldÄ±rÄ± larÄ±na
ĠsakÄ±nca lara
ĠimkÃ¢n Ä±nÄ±
YA P
YA YIN
bak tÄ±lar
nokta sÄ±ndan
Ġistek lerin
Ġistek lerini
deÄŁiÅŁ ik
belir li
ĠEsa sen
Ġbah ÅŁ
Ġbah se
ĠaÄŁÄ±r baÅŁlÄ±
Ġneden i
Ġneden le
Ġev i
Ġev vel
Ġkonus una
ĠBaÅŁkomutan lÄ±ÄŁÄ±n
Ġtalimat lara
DÃ¼nya yÄ±
aya ti
hep sinin
Ä°s panyol
Ġfark sÄ±z
hÃ¼kÃ»met lerin
hÃ¼kÃ»met Ã§e
ses ler
Ġsak lamaya
duy gulan
Ġada ma
amÄ±z Ä±n
amÄ±z dan
ĠfedakÃ¢r lÄ±ÄŁÄ±n
ĠOcak ta
Ġzarur i
ĠhÃ¢kimiyet ine
ber iki
abilecek leri
Ġisyan lar
Ġisyan larÄ±
ĠSalih PaÅŁa
Ä°M Ä°
Ä°M LER
Ä°M Ä°YET
Ġdest eÄŁini
ĠdÃ¼ÅŁÃ¼r ecek
ĠgeliÅŁ miÅŁ
ĠgeliÅŁ mesini
gelen e
ĠÃ¶ÄŁren miÅŁ
Ġkoru yacak
gÃ¶k yÃ¼zÃ¼nde
iÄŁ eri
Ã§evr ilen
gÃ¶rev i
ĠtanÄ± makta
gÃ¼l l
gÃ¼l leler
Ġsek reter
Ä°l yas
Ġmet nini
Ġmet reye
ĠgÃ¶tÃ¼r mÃ¼ÅŁ
Ã¶nce den
ĠulaÅŁ mÄ±ÅŁ
Ġmanev iyat
Ġserbest lik
adam lar
Ġkolordu ya
Ġkolordu lara
ĠSa dÄ±k
ĠSa id
Ġverilme mek
ĠEl phiston
Ã§Ä±kar dÄ±
ĠÃ§Ä±ktÄ± lar
ĠÃ§Ä±ktÄ± ÄŁÄ±mda
Ġyararlan mak
Ġyararlan maya
Ġyararlan dÄ±k
Ġihtiya cÄ±nda
Ġihtiya cÄ±mÄ±z
ĠfÄ±rsat tan
Her schel
fÄ±r latÄ±l
arkadaÅŁ larÄ±nÄ±
etmek sizin
Ġkomisyon u
Ġordus uyla
ĠÃ¼mit sizlik
Kon uyu
Or manÄ±
UM UZ
ĠgÃ¼zel liÄŁi
Ġval isinin
ĠeÅŁ kÄ±ya
ĠgÃ¶rÃ¼ÅŁme de
ĠkÄ±s kanÃ§
ĠyÃ¼rÃ¼t Ã¼yor
Ġdiren en
Ġdiren mesi
Ġyav eri
ĠyapÄ±l Ä±ncaya
Ġgelecek leri
dÃ¼ÅŁman a
ĠÄ±ÅŁ Ä±ÄŁ
Ġdiyor lardÄ±
demir yolu
mec buriyet
lÄ±ÄŁÄ±mÄ±z Ä±n
lÄ±ÄŁÄ±mÄ±z la
ĠalmÄ±ÅŁ tÄ±k
ĠÃ¶nc elik
Ġderin likte
ĠyÃ¶netim in
ï¬ģ n
Bil im
Bil iyorum
Bil sby
LAN MASI
kuvvet lerini
kuvvet lerinin
kuvvet lerine
labilir di
onun la
ĠzÃ¢tÄ± Ã¢l
ĠgerÃ§e ÄŁini
mÄ±yor uz
ĠyÃ¼zÃ¼nden dir
Ne dir
kil ometre
yÃ¶n Ã¼nden
yÃ¶n lendir
yÃ¶n tem
Ġkut lama
Ġvur an
Ġvur ulan
ĠyaÅŁa ya
ĠyaÅŁa dÄ±k
ĠBil diÄŁiniz
laÅŁma sÄ±ndan
ĠÅŁahsiyet iniz
ĠaydÄ±nlat manÄ±zÄ±
boÅŁ una
kullan mak
kullan acaÄŁÄ±z
ĠvazgeÃ§ mek
ĠvazgeÃ§ ilmesini
Ġvicdan Ä±nÄ±
Ġsok ar
Ġsok acak
Ġsok mamak
Ġsok aklarÄ±nda
makt ay
ĠgerÃ§ekleÅŁtir me
Ġihtimal ini
Ġihtimal inin
ĠÃ¼nvan Ä±yla
dÃ¶k Ã¼mÃ¼
ĠÃ¶yle yse
inan Ä±yorum
Ġkana dÄ±mÄ±z
Ġgru buyla
Ġvekil liÄŁini
Ġtep enin
yay Ä±ldÄ±
yay gÄ±n
Ġ18 62
soru lara
dÃ¼ÅŁÃ¼nc esinde
dÃ¼ÅŁÃ¼nc elerini
ĠkarÅŁÄ±lan mÄ±ÅŁ
bazÄ± larÄ±nÄ±n
Ġkol unu
Ġkol eks
mut lak
Ġkongr ece
Ġkongr eyi
meyecek lerini
ĠisteÄŁ inin
ĠsaldÄ±r dÄ±
Ġediyordu k
ALÄ° F
kiÅŁ ilik
kiÅŁ isel
anlaÅŁ Ä±lmÄ±ÅŁtÄ±r
anlaÅŁ Ä±lmaktadÄ±r
anlaÅŁ mazlÄ±k
Ġdiy elim
ĠoluÅŁ tu
ĠMÃ¼slÃ¼man larÄ±n
Ã¼rs Ã¼nÃ¼z
Ġgidi yor
ĠaykÄ±rÄ± dÄ±r
Ġbildiril mektedir
Ġbildiril dikten
Ġmemnun lukla
ĠsaÄŁlan Ä±ncaya
ĠcÃ¼mle sini
FransÄ±z lar
EÅŀ Ä°T
kazan mÄ±ÅŁ
emin im
ĠKÃ¼rt leri
ĠKÃ¼rt lerle
ĠKÃ¼rt lerden
ĠKÃ¼rt lÃ¼k
Ã¼lmÃ¼ÅŁ tÃ¼r
ĠkalkÄ±ÅŁ masÄ±
ÃľN YA
Ġderec esi
Ġderec esini
Ġderec esine
ĠhazÄ±rlÄ±k larÄ±nÄ±
ĠhazÄ±rlÄ±k lara
Ġokun ur
ĠÃ¢sÃ® lere
kims elerin
kims eyi
dÄ±ÅŁ Ä±na
Ã¼nÃ¼z Ã¼n
ĠÃ§ev reden
ĠHÃ¢ kimiyet
ĠalÄ±na madÄ±ÄŁÄ±ndan
gÃ¼ven li
Ġsoruml uluÄŁun
ser p
ĠyÄ±k ma
ĠyÄ±k Ä±lÄ±ÅŁ
Ġhuzur un
Ġkurmak tÄ±
Ġolabil eceÄŁine
eliÄŁ ine
Ġsiyaset le
Ġsabah leyin
andÄ±r an
ĠkÃ¶y lerde
lib resi
Ġniyet i
larÄ±nÄ±z dan
ĠolacaÄŁÄ± z
leyen lerin
Ġsafha sÄ±
Ġsafha sÄ±nda
Ġsafha sÄ±nÄ±
ĠistiklÃ¢l inin
Al lah
kend iliÄŁinden
cev abÄ±
ĠyapmÄ±ÅŁ lardÄ±r
ĠDÃ¼ÅŁ Ã¼nceler
ĠpadiÅŁah lÄ±k
ĠpadiÅŁah Ä±na
Ġfer ya
Ġfer ah
Ġvatansever ce
ĠÃ§ekin ir
ĠÃ§ekin gen
Ġgecik medi
kay b
ĠBinbaÅŁÄ± sÄ±
giriÅŁ imin
SÃ¶z Ã¼
ku w
yÃ¼r Ã¼yÃ¼ÅŁ
yÄ±ldÄ±z larÄ±n
ĠbÃ¶l Ã¼mÃ¼
ayr Ä±ldÄ±
ayr Ä±lmÄ±ÅŁ
ĠAb aza
ĠgÃ¶steren ler
ĠhazÄ±rlan Ä±p
koy muÅŁ
tum turaklÄ±
ĠkatÄ± lÄ±r
memek liÄŁim
tÄ±ra p
ĠÅŁeref i
ĠaracÄ± lÄ±ÄŁÄ±yla
ĠaracÄ± lÄ±ÄŁÄ±nÄ±z
lÄ±ÄŁÄ±m la
ĠiÃ§eri den
ĠbaÅŁar Ä±nÄ±n
ĠbaÅŁar abil
ĠOn larÄ±n
dÃ¼rb Ã¼nÃ¼n
ĠMuh lis
Ġzaruret ine
ĠsÃ¶ylen ti
ĠsÃ¶ylen iyor
ĠtasarÄ± lar
maktaydÄ± lar
GÃ¶r dÃ¼ÄŁÃ¼nÃ¼z
dÃ¼nya da
ĠÃ§aÄŁÄ±r ma
ĠkarÅŁÄ±laÅŁ tÄ±m
ĠgÃ¼ney ine
Ġhalif eler
Ġbenzer lerinin
ĠmÃ¼cadel eyi
iste dim
iste diÄŁim
ĠtebliÄŁ de
Ġleh imizde
DI M
kendiler inin
Ġsey rediyordu
Ġiti mat
ĠatÄ±l masÄ±
Ä°t tihat
ĠAs lÄ±han
Ġyapacak larÄ±nÄ±
ĠgÃ¶nderil diÄŁini
ĠÅŀimdi ki
ĠgerÃ§ekleÅŁ mesini
belirt elim
meliy dim
Ġkaynak tan
DU ÄŀU
Ġusul Ã¼nce
anlat maya
Ã§ar e
Ġsez en
Ġsez dir
tÄ±ÄŁÄ±nÄ± z
tÄ±ÄŁÄ±mÄ±z Ä±
bilin iyordu
bilin mektedir
haf if
ĠYeni den
ĠÃ§Ä±kÄ±ÅŁ Ä±
ĠaÃ§Ä±klan arak
Ġmah v
Ġmah kem
ĠgÃ¼Ã§lÃ¼ ÄŁe
ĠparÃ§a larÄ±nÄ±
Ġilgilen dir
Ġilgilen mek
yÄ±k Ä±m
ĠkuÅŁ at
daÄŁ larÄ±n
ĠMemleket i
edil ecektir
Ġhakk Ä±mÄ±z
Ġheyecan Ä±nÄ±
ĠkuruluÅŁ lar
ĠkuruluÅŁ undan
ĠhÃ¼kÃ¼met i
Ġmevki ini
Ġkanaat Ä±nÄ±
ĠkÄ±ÅŁkÄ±r t
ĠkÄ±ÅŁkÄ±r tmak
AH A
ada ma
fazla sÄ±yla
kaz Ä±k
kol lu
yarÄ± Ã§ap
Ä°T Ä°LAF
Ġetmey eceÄŁim
Ġveriyor lar
Ġveriyor lardÄ±
Ġdurumunda dÄ±r
ĠkararsÄ±zlÄ±k lar
ĠakÄ±l lÄ±ca
Ġprogram Ä±nÄ±
CE SÄ°
hesap larÄ±na
nam uslu
tuk tan
Ġruh lu
ĠAra bistan
tehlik esi
ĠiÅŁlem leri
Ġonay Ä±ndan
dikkat e
karÄ±ÅŁ tÄ±
ĠayrÄ±ntÄ± larÄ±
KAR ÅŀI
boy n
od frey
Ġca sus
Ġdel ilik
Ġdelegeler imizi
maden i
Ġgiy inip
ĠgÃ¶rdÃ¼k leri
kav ra
Ġanlaya bil
ĠgÃ¶revlendir ilecek
ĠcÃ¼ml eleri
Ġkudret i
zorunda yÄ±z
ĠMÄ°LLET VEKÄ°L
AD DE
Mer ak
isi ana
temsil cileri
Ġj andar
Ġum ursa
Ġsil indir
Ġbirbir ine
ĠÄ°ÅŁ in
Ġduyg usunun
Ġhain lik
ĠbasÄ±n ca
gÃ¶tÃ¼r mek
gÃ¶tÃ¼r mez
ĠAmerikalÄ± larÄ±n
ĠteÅŁkilÃ¢tÄ±mÄ±z a
ĠteÅŁkilÃ¢tÄ±mÄ±z dan
ĠolmuÅŁ lar
ĠolmuÅŁ tum
ĠgÃ¶ren ler
Ġistiyordu k
ĠgÃ¶rÃ¼ÅŁler inizi
Ġkendim ize
Ġdernek lerin
Ġyetk iyi
yarar lanarak
Ġsonuc unu
deÄŁiÅŁtir mek
Ġrejim ine
Ġrejim inin
Ġkabiliyet i
Ġkabiliyet ini
cÄ±m Ä±n
hÃ¼k um
hÃ¼k Ã¼met
yaÅŁ ayan
Ġber iki
Ġboy ut
Ġdan Ä±ÅŁ
asker lik
ĠiÅŁit ildi
Ġdevr inin
ĠkararlaÅŁtÄ±r Ä±lmÄ±ÅŁtÄ±r
ĠbaÄŁlantÄ± sÄ±nÄ±
ĠkÄ±yÄ± ya
ĠparÃ§ asÄ±nÄ±
ĠtanÄ±n an
ĠaÅŁaÄŁÄ±da dÄ±r
Ġpren si
ĠÃ§evir me
ĠÃ§evir elim
ĠfelÃ¢ket e
Ġbay raÄŁÄ±
akar ÅŁÄ±
ĠgÃ¶rÃ¼yor lardÄ±
Ġnam lu
Ġaldat mÄ±ÅŁ
Ġetk ile
ĠYAP MAK
ĠyazdÄ±r dÄ±ÄŁÄ±m
omobil le
ĠyÃ¼rÃ¼ mekte
ĠhatÄ±rlat arak
ĠhatÄ±rlat tÄ±m
ĠkÄ±sm Ä±nda
cevap ta
gem iye
gem iyi
hus usu
Ã§ekil en
Ã§ekil miÅŁ
Ã§aÄŁ da
ĠistemiÅŁ tir
ĠdoÄŁr uluÄŁuna
Ġsorun lar
ĠmÃ¼racaat Ä±n
ĠanlaÅŁmaz lÄ±ÄŁÄ±n
ĠyÃ¶nelt ilen
Ġuygulama da
ĠKARÅŀI SINDA
acaÄŁÄ±mÄ±z a
kem le
nit eliÄŁi
seb ebi
Ã§ap Ä±nda
Ġtemiz e
ĠaÃ§a caÄŁÄ±
ĠaÃ§a caÄŁÄ±nÄ±
ĠaÃ§a caktÄ±r
ĠgÃ¼ver te
Ġtopl uluÄŁu
sÄ±nÄ±r larÄ±
Ġemret ti
Ġtertip lere
ĠayrÄ±ldÄ± ÄŁÄ±nÄ±
Ġkov uÅŁturmaya
Ġitiraz lara
ĠÃ¼lk esinde
Dah i
Kar ÅŁÄ±
Ġdeleg eleri
Ġdeleg elerinin
Ġsadrazam Ä±
ĠhÄ±r sÄ±
Ġhesap larÄ±
ĠMak sat
Ġdahil inde
ĠEf kÃ¢r
Ġistey ecek
Ġtelgrafhan ede
Ġtelgrafhan esine
ĠdoÄŁu dan
halinde yken
ĠsÄ±fat la
ĠdÃ¶nÃ¼ÅŁ Ã¼nden
ĠdÃ¶nÃ¼ÅŁ Ã¼mde
ĠNÃ¢zÄ±r lÄ±ÄŁÄ±
ĠNÃ¢zÄ±r lÄ±ÄŁÄ±na
Ã§alÄ±ÅŁma larÄ±na
Ġdirektif le
ĠÄ±ÅŁÄ±k larÄ±
ĠÃ¶nerg eler
ĠÃ¶nerg enin
ĠtÃ¼fek lerle
Ġprensip lerin
gar ya
vatan Ä±n
ĠÄ±n cÄ±
ĠgÃ¼t tÃ¼kleri
Ġva ad
lanacak tÄ±
Ġant laÅŁmasÄ±
ĠyaptÄ±k lan
Ġpen Ã§esine
LEN DÄ°R
Ġincelen meye
Ġtayfa larÄ±n
Ġmutl uluÄŁ
Ġkader inin
Ġcahil ce
Ġmukad de
Ġsefer berlik
Sav aÅŁÄ±
giz li
tay la
tay fa
Ġtat il
ĠSel man
ihti mali
ĠaÃ§Ä±klaya caÄŁÄ±m
ĠsaÄŁlaya caÄŁÄ±
ĠsaÄŁlaya bilecek
ĠsaÄŁlaya bilmek
Ġeser dir
isten iyordu
ĠvatandaÅŁ larÄ±
Ġdurdur mak
ĠkapÄ± yÄ±
ĠkaÃ§Ä±nÄ±l masÄ±
ĠyÃ¼rÃ¼rlÃ¼k teki
Ġsert Ã§e
durumda ydÄ±
ĠsarsÄ±l masÄ±na
Ġtelkin ler
Ġnerede yse
ĠhÃ¼cum lara
ruk luy
ĠhÃ¼rriyet inin
mev z
ĠKAB UL
olma sÄ±n
ceph e
tanÄ± dÄ±ÄŁÄ±
tav siye
ĠHay van
ahr olsun
ĠOR T
ĠeleÅŁtir mek
ĠgÃ¶zÃ¼k mÃ¼yordu
ï¬Ĥ i
Ġsilah lÄ±
kul Ã¼b
Ġkil it
ĠKap t
ĠKap ta
ĠSer ez
ĠbaÅŁla masÄ±
ĠDEV R
ĠgÃ¼v endiÄŁ
edeceÄŁ ini
Ġcin s
Ġcin ay
kalÄ±n lÄ±ÄŁÄ±
Ġsebeb e
Ġlist e
Ġlist ede
Ġtutan ak
San Ä±rÄ±m
sayÄ± sÄ±z
ĠkeÅŁ f
Ġkeli mesi
Ġkeli mesini
Ġkestir meden
Ġbirden bire
ĠBoÄŁaz iÃ§i
Ġbuy ruk
ĠAR ASINDA
ĠAR KAD
ĠzatÄ± Ã¢l
ĠGerek li
Ġkalk tÄ±
Ġkalk mÄ±ÅŁ
ĠyÃ¼zey de
ĠyÃ¼zyÄ±l da
ĠyÃ¼zyÄ±l lardan
kurtar mak
Ġoldubit tiye
ĠinanÃ§ lara
Ġgenelg esi
milletvekil lerini
milletvekil lerine
Ġotor ite
Ġyenil eÅŁ
ĠaÅŁiret inin
Ordu muzun
kÃ¶ÅŁ esinde
ĠBAÅŀK ANLIÄŀ
ĠeÄŁilim lerini
ASI L
US AN
ĠÃ¼r e
ĠÃ¼r Ã¼nÃ¼
arka daÅŁÄ±
Ġbey leri
ĠboÄŁ ul
etimiz ce
Ġsol uk
ĠtakÄ±n dÄ±
ĠtakÄ±n arak
Ġap tan
Ä°ÅŁ in
Ä°ÅŁ gal
Ä°Ã§ inde
Ä°Ã§ iÅŁleri
Ä°Ã§ savaÅŁ
ĠKafkas ya
atÃ§Ä± larÄ±
Ġefendiler in
ĠgÃ¶rÃ¼ÅŁÃ¼nde yim
ĠteÅŁebb Ã¼ste
ĠmÃ¼sa ad
dÃ¼ÅŁÃ¼nÃ¼ yordu
Ġyakalan arak
ĠbinbaÅŁÄ± sÄ±
ĠayrÄ±l dÄ±m
Ġunsur larÄ±n
Ġkuwet lerine
Vatan Ä±n
yn y
Ġ.. ...
ÅŁart sÄ±z
ĠkÄ±z gÄ±n
ĠBÃ¶lg e
ora larda
Ä°S MET
maksa dÄ±n
ĠAt lan
ĠiÃ§er iye
ĠYan lÄ±ÅŁ
ĠOra ya
ĠrÃ¼tb eli
ĠÃ§Ä±kart mak
ĠdoÄŁura cak
Ã¶lÃ§ er
Ã¶lÃ§Ã¼ leri
ĠVal ilik
ĠmÃ¼dÃ¼r Ã¼nÃ¼
Ġduyul maya
Ġduyul muÅŁtur
ĠbaÄŁÄ±r Ä±ÅŁ
ĠbaÄŁÄ±r maya
anlaÅŁÄ± lÄ±yordu
Ġvakt inden
ĠeÄŁit im
ĠeÄŁit imi
ĠMÄ°LLÄ° YE
bÃ¼yÃ¼t me
Yol cular
bah ar
bekli yor
bekli yordu
yalÄ± lar
ÅŁek er
ĠbÃ¼y Ã¼
ĠbÃ¼y Ã¼t
ĠbroÅŁÃ¼r Ã¼nÃ¼n
Ġdola p
Ġkas ab
dey iÅŁle
Ġhukuk Ã®
Ġmiy im
ĠalÄ±ÅŁ kan
uygulan masÄ±
ĠzÄ±p kÄ±nÄ±
ĠDE LEGELER
Ġfar kÄ±
aÄŁz Ä±nÄ±
Ġonur lu
Ġtopra ÄŁÄ±
Ġnez dinde
madÄ±ÄŁÄ±mÄ±z Ä±
ĠVer ilen
Ġuzman lÄ±k
ĠMÃ¼st eÅŁar
teÅŁkilÃ¢t Ä±n
ĠkaÃ§Ä±r mak
Cev ab
ĠbÄ± Ã§aÄŁÄ±
Ġmik tarÄ±
ĠÅŁÃ¼k Ã¼rler
ĠAY AK
ĠAY RI
ĠÄ°m paratorluÄŁu
Ġnak li
ĠGEN Ä°Åŀ
ĠdÃ¼ÅŁÃ¼ndÃ¼k leri
Ġhakaret e
Ġuzat arak
ĠsatÄ±r lar
Ġcephan enin
savun maya
ĠlÃ»tf unda
husus lar
sebep le
HÃ¢ lÃ¢
HÃ¢ lit
gec esi
Ġbol ÅŁevik
Ġkey fÃ®
Ġkaf am
Ġvesil elerle
ĠBa sÄ±n
Ã¶nem le
ĠbaÅŁara madÄ±ÄŁÄ±
hatÄ±r lat
Ġdevir de
ĠsÃ¼rÃ¼l mesine
ĠteÅŁkil at
ĠsoruÅŁtur masÄ±
ÃĸN ET
Ġkapat mak
malarÄ±m da
aÃ§Ä± dan
bakÄ±ÅŁ larÄ±yla
ĠgideceÄŁ iz
KÃľ Ãĩ
KÃľ LT
Vali si
dÃ¶ kÃ¼le
kad Ä±n
ĠÄŁ unu
Ġdon an
ĠkasÄ± rga
Ġaf fed
ĠÃ§Ã¶k Ã¼ÅŁ
ĠÃ§Ã¶k mÃ¼ÅŁ
ĠAda sÄ±
ĠHa tÄ±r
ĠPaÅŁ am
ĠDoÄŁ ru
ĠDiv anÄ±
ĠdÃ¼ÅŁtÃ¼ÄŁ Ã¼nÃ¼
ĠGerÃ§ek te
ĠgerektiÄŁ inde
ĠÅŁahsÄ± ma
yaklaÅŁ Ä±k
ĠÅŁehr inde
ĠaÄŁÄ±z dan
ĠmÃ¼svedde yi
mÃ¼frez e
coÅŁkun lukla
kuyu ya
sol uk
yel ken
ĠbÃ¼t Ã§e
ĠyaÄŁ ma
ĠAf gan
ciddi yet
manev Ã®
Ġkurt ara
yansÄ± yan
ĠgeÃ§er siz
ĠgÃ¶steriler de
Ġdurul maya
benz eyen
gÃ¶nÃ¼l lÃ¼
ĠsabÄ±rsÄ±z lÄ±kla
ĠevlÃ¢ dÄ±
ĠborÃ§ larÄ±n
Ġdedikodu lara
Ber iki
Gel ecek
samim Ã®
ĠÄ±z tÄ±rap
aram da
Ġdiler im
Ġkomiser ler
Ġdemec ini
taarruz a
ĠHAZIR LAN
mektup la
kalab alÄ±ÄŁÄ±
cisim leri
ĠGER ÃĩEK
ĠOl dukÃ§a
ĠkarÅŁÄ±laÅŁtÄ± ÄŁÄ±m
gid erek
gid elim
Ġbildirir im
ĠdoÄŁur an
Ġener ji
ANSI Z
ĠMilletvekil leri
ĠMilletvekil lerinin
Ġduyar lÄ±k
ĠÄ°ttihat Ã§Ä±
basÄ±n Ã§
ĠZÃ¢tÄ± ÅŁah
ĠinandÄ±r maya
ĠHalif emiz
saldÄ±rÄ± ya
ĠsÃ¶ylÃ¼ yordu
Ġdalga larÄ±
ĠKONFER ANS
DoÄŁru dan
ĠÃ§izg ileri
ihtiya Ã§
ihtiya cÄ±mÄ±z
sakÄ±nca lar
Ġdiplo mat
Ġdiplo masi
Ha yat
Ham di
aÃ§a cak
fab rikasÄ±
Ġdol uydu
ĠvahÅŁ i
Ġyed ek
ĠKOMUT AN
ĠKOMUT ANI
Ġdav amÄ±zÄ±
ĠHan Ä±m
ĠHan gi
ĠHAK Ä°MÄ°YET
ĠPat rikhan
sÄ±ndak ini
ĠTek rar
ĠTEKLÄ°F Ä°
Ġistif asÄ±nÄ±
iÃ§eri de
Ġfet va
Ġort alÄ±k
konferan sa
Ġakl Ä±nca
ĠhÃ¼km Ã¼ne
olanaksÄ±z dÄ±
ĠyapÄ±labil eceÄŁini
hisset tir
ĠbakÄ±ÅŁ larÄ±mÄ±zÄ±
gereÄŁ inden
gereÄŁ ince
GÃ¶rÃ¼ÅŁ me
maksadÄ± yla
Ġmiktar da
As lÄ±nda
Mal ta
dÃ¶rd Ã¼n
ier re
ly k
ÅŁif reli
Ã§eki p
ĠdÃ¶ ÅŁenmiÅŁ
Ġkum anda
ĠkÃ¶r Ã¼k
ĠtÄ±r man
Ġtit izlikle
Ġhap ishan
ĠAdam Ä±n
ĠTarih te
ĠSÄ°Y AS
Ġfes at
Ġfes atÃ§Ä±larÄ±
Ġmilletler arasÄ±
Ġkalem le
sedi yordum
LEÅŀ TÄ°R
ĠsorduÄŁum da
isteÄŁ ine
ĠkanÄ± sÄ±nda
ĠsaÃ§ an
yolc uluÄŁu
Ġoksij enin
Ġyenilik Ã§i
fÄ±rsat ta
tabaka sÄ±nÄ±n
Ġzanne diyor
temsilciler ine
................................ ................
Ġdisipl ini
uygulama da
ĠzÃ¢tÄ±Ã¢lÃ®n iz
Ġmuamel eye
Ey Ã¼p
Ser vet
SaygÄ± larÄ±mÄ±
cÃ¼mle si
hes ab
nok tayÄ±
nok tanÄ±n
tali mat
Ġbez gin
Ġkaptan Ä±
ĠsoÄŁuk kanlÄ±
Ġyel ten
Ġef end
ĠTali mat
ĠTÃľRK Ä°YE
ĠSaÄŁ lÄ±k
ĠSaygÄ± larÄ±mÄ±
ĠEv kaf
ĠDÃĸN EM
Ġharf ine
ufuk ta
yerber isinde
Ġdeng esini
sevinÃ§ le
ĠANTLAÅŀ MASI
kamuoy unu
ĠyaratÄ±lÄ±ÅŁ ta
ĠÃ§aÄŁÄ±rÄ± p
Bar ut
UB AY
edir han
Ã§ele bi
ĠkÃ¼l tÃ¼r
ĠkÃ¼stah Ã§a
ĠsÃ¼ ratle
ĠsÃ¼var ileri
alÄ±na cak
ĠMa arif
ĠMut ki
ĠÃ§o cu
ĠÃ§Ä±lg Ä±nlÄ±k
ĠÅŁer Ã¢it
ĠÅŁaÅŁÄ± lacak
maksat larÄ±nÄ±
Ã¼zÃ¼n tÃ¼
ĠÄ°k ti
ĠTa arruz
ĠTas ar
muh temel
ĠSÃ¼r eyya
ĠSelÃ¢ hattin
ĠSAV AÅŀ
Ġmesaf e
ĠarÄ±n mÄ±ÅŁ
ĠkurtarÄ± cÄ±
ĠkaldÄ±rÄ± larak
ĠyardÄ± ma
ĠÅŁuur lu
yÃ¼zey ine
istir ham
ĠyÃ¶nt emi
Ġtaaruz u
lÃ¼lÃ¼k le
Ġbuyurul ursa
Ã§Ä±ÄŁ lÄ±klar
Ġkatli am
ĠgÃ¼cen dir
Ġverilmez se
kimsecik ler
hÃ¢kimiyet in
ĠalÄ±nÄ±r sa
ĠSenat o
Ġnutuk lar
tekerle ÄŁin
Ġmaruzat ta
Hurraa a
02 12
Asker Ã®
Din leyin
Gez egen
Lou isiana
OS MANLI
Rum eli
viÃ§ re
yali st
ĠsÃ¼kÃ»n etle
Ġisk el
ĠKut bu
Ġiltif at
tit izlikle
ĠSancak lara
ĠDÃ¼y un
ĠDikkat e
ĠDÃľZ EN
Ġpir oksil
Ġyolc uluÄŁa
ĠmÃ¼j del
Ġmas raf
ĠÃĩAR P
Ġces ur
Ġsahib inin
ĠgenelleÅŁtir ilmesinden
Ġmerham et
ĠIn giliz
Ġyaver liÄŁine
yumuÅŁ ak
ĠtaahhÃ¼ de
ĠÄ°KTÄ° DAR
ĠBulgar istan
ĠTEÅŀEBBÃľ SÃľ
Em ma
Len nard
tiy ar
yek Ã»n
ĠdÃ¶v me
Ġto ise
ĠMit hat
ĠMav ri
ĠMES ELE
sac ola
ĠES ASÄ°YE
ĠDOÄŀ RU
ĠYET KÄ°
Ġfran g
ĠFil istin
Ġeleb aÅŁÄ±
kÄ±y alÄ±k
Ġhaydu t
Ġtahsil dar
hiladelphi a
dalgalan ma
Ġjurn al
ĠbiÃ§im indeki
Ġmisyon er
BinbaÅŁ Ä±m
Be er
Bre adwill
BARB ICAN
CULU K
Has an
HÃľKÃľ MET
HARB Ä°YE
Ju lia
Kat e
LOND RA
MÃ ¤dler
Sker sna
Ġvuk uf
Ġvic dana
ĠsÃ¼n gÃ¼
ĠtÃ¼c c
ĠBes lÃ¢n
ĠBUL UN
Ġezi ci
ĠHill sborough
ĠTuf an
ĠSonu cu
Ã»tÃ¼ lamare
ĠFeh mi
ĠRif at
ĠRasi h
ĠArnav ut
ĠAronna x
ÃĩER KEZ
Ġakset tir
Armstr ong
YAYIN LARI
UMUZ UN
ĠAslÄ±han lar
rukluy Ä±ldÄ±z
ĠARKAD AÅŀ
KÃľLT ÃľR
BARBICAN E
Skersna w
' )
) :
- "
0 8
1 30
2 13
3 00
5 1
5 2
6 7
7 1
7 3
7 4
7 6
7 7
9 1
9 4
A Ã§
A mer
A na
A teÅŁ
A LARI
A leyh
B I
B U
B i
B Ä°
B uy
B oz
B ro
B arÄ±ÅŁ
B ayÄ±m
B ou
B Ã¢bÄ±
B ÃľYÃľK
B ENÄ°
B elediye
B ankasÄ±
B USAN
C l
C an
C en
C lar
C it
C ah
C har
C anik
C elalettin
C UK
D an
D Ã¶
D iy
D em
D Ã¶n
D av
D UR
D amat
D BÄ°R
D Ã¶rdÃ¼ncÃ¼
D OÄŀ
D EKÄ°
E f
E LÄ°
E CE
E dip
E MAL
F Ä±r
F ahrettin
F Ä±rkasÄ±
G al
G ul
G eri
G Ã¼zel
G ALÄ°
G alip
G rubu
G ANDA
G ÃĸR
G eorge
G odfrey
H AN
H Ä°K
H Ä°LÄ°
H ASI
H endek
I M
I r
I Ã¢
I arÄ±
J andar
K en
K le
K ul
K um
K it
K uÅŁ
K ullan
K ozan
K AP
K INDA
K IZ
K IRI
K Ã¶rfez
K ASI
K arakol
K artal
K Ã»tÃ¼lamare
L O
L a
L e
L MA
L Ã¼tfi
M e
M o
M ay
M is
M ayÄ±
M Ã¼thiÅŁ
M eydan
M esel
M ondros
M oskova
M Ä±sÄ±r
N O
N V
N er
N eye
N azÄ±m
N CE
N DER
O cak
O laÄŁanÃ¼stÃ¼
O laylar
O CUK
P E
P o
P ro
P REN
P hiladelphia
P LO
R ica
R AZ
R aif
R ahmetli
R oman
S E
S U
S il
S en
S el
S ad
S ilÃ¢h
S hak
S elen
S ON
S Ã¼vari
S AV
S EÃĩ
S ultan
S iri
S evres
S ALTANAT
S arah
T i
T ak
T el
T al
T Ã¼m
T eÅŁ
T ri
T ER
T EN
T Ã¼f
T ULU
T EÅŀKÄ°LAT
U yan
U AT
U ranÃ¼s
V ar
V an
V en
V Ä°
V ahdettin
V ilÃ¢yÃ¢t
X X
Y Ã¼r
Y LA
Y Ã¼ce
Y ukarÄ±
Y ANI
Y OL
Y KÃľ
Y eter
Z iya
Z AK
Z EL
Z onguldak
Z Ã¢tÄ±devletlerinin
a ik
a ca
a madÄ±
a ile
a lacaÄŁÄ±
a sit
a caÄŁÄ±ndan
a madÄ±m
a layÄ±
b b
b aÅŁa
b Ã®
b ad
b asÄ±
b asÄ±l
b ast
b aba
b anÄ±n
b ecerik
c r
c Ã¼n
c iz
c Ä±lan
c aret
c Ã¼nÃ¼
c alÄ±k
c iydi
c hil
c ilere
c Ã¼meni
c Ã¼lÃ¼k
d Ã¢
d Ã®
d Ä±ndan
d res
d ildiÄŁi
d etmek
d Ã¢vÃ¢
d Ã¶v
d osdoÄŁru
e meden
e diÄŁiniz
f f
f el
f is
f ayÄ±
f eti
f ter
f edakar
f izik
g ur
g Ä±m
g Ã¼m
g Ã¼tÃ¼n
g Ã¶l
g emen
g azi
h s
h ul
h ol
h Ä±r
h ok
h ayÄ±
h ip
h erk
h aba
h Ã¼c
h Ä±rsÄ±z
h erkesin
i o
i de
i ik
i ce
i mal
i can
i tah
i Ä±Ä±
i II
j en
k y
k inde
k eÅŁ
k Ã¼l
k esi
k eli
k Ä±lan
k ileri
k ulu
k om
k ince
k iyi
k ulan
k elim
k ahrolsun
l dÄ±
l inde
l us
l ut
l Ä±nÄ±n
l masÄ±nÄ±
l elerine
l Ã¼tfen
l ock
m ar
m ur
m ik
m Ã¼z
m elik
m os
m Ã¼nasebetle
n Ã¼
n em
n iÅŁ
n cÃ¼
n iÅŁan
n aÄŁa
o uv
p la
p ayan
p osta
p ahasÄ±na
p Ã¼skÃ¼r
p kÄ±rmÄ±zÄ±
r Ä±n
r op
r ih
r esinde
r ulmuÅŁ
r neÄŁin
r ederken
s ul
s mi
s olu
s oÄŁu
s Ã¶k
s uyu
s uyla
s Ã¼vari
s Ã¼kÃ»net
s see
s burg
t z
t meye
t esinde
t mayÄ±
t lak
t unuz
t tÄ±m
t emin
t Ã¼meni
t Ã¼sÃ¼nÃ¼
t alih
u h
u Ä±
u la
u sa
u dur
u Ã§a
u han
u lacaÄŁÄ±nÄ±
v iy
v ey
v ida
v asÄ±f
v Ã¼cu
v ilÃ¢yet
y y
y dan
y miÅŁ
y Ã¶r
y ut
y dik
y rÄ±
y Ã¢n
y diler
y elerden
y sam
z y
z da
z mir
z afer
z abÄ±t
z Ã¢tÄ±devletlerinin
Ġ $
Ġ âĢĻ
Ġ --
Ġ eni
Ġ eki
Ġ cÄ±
Ġ lu
Ġ Ã¼s
Ġ akan
Ġ Ã¼nÃ¼
Ġ LÄ°
Ġ lerden
Ġ lim
Ġ inip
Ġ ender
Ä± tan
Ä± lamazdÄ±
Ã¼ dar
ÅŁ i
ÅŁ iÅŁ
ÅŁ Ã®
ÅŁ eref
ÅŁ imdilik
ÅŁ embe
ar iz
ar ya
ar ab
ar tan
ar Ä±ndan
ar daki
ar sanÄ±z
er g
er di
er leri
er sek
er ge
er ÅŁembe
an Ä±ÅŁ
an dan
an mÄ±ÅŁ
an Ä±m
an Ä±na
an sÄ±z
an eti
an os
an layan
an ladÄ±m
an Ä±lmaya
in d
in Ã¼n
in le
in anÄ±n
Ġb o
Ġb asÄ±l
Ġb oÄŁu
Ġb azi
Ġb Ã»t
Ġb elediye
il is
il arak
il gi
il indeki
il etim
ir di
ir ip
ir anÄ±n
en t
en en
en leri
en giz
Ä±n dÄ±r
ÄŁ la
ÄŁ um
ÄŁ larÄ±
ÄŁ inden
ÄŁ lu
ÄŁ maz
ÄŁ eri
ÄŁ imi
et ken
et mesi
et tin
et lerinden
et meden
et mekle
et rist
et tiklerini
Ã§ al
Ã§ le
Ã§ asÄ±
Ã§ Ã¶l
Ã§ enin
Ã§ eye
Ã§ elik
Ã§ esini
Ã§ Ã¶k
Ã§ alÄ±m
Ã§ engel
Ã§ Ã¼rÃ¼t
Ã§ Ä±plak
Ġd inin
Ġd alÄ±ÅŁ
Ġd eli
Ġd iv
Ġd ili
Ġd emi
Ġd Ã»ÅŁ
ma d
ma lan
ma ye
ma maya
ma masÄ±na
ma sÄ±ndaki
ma mÄ±ÅŁtÄ±m
ma ddenin
ma tematik
Ġk un
Ġk Ã¼r
Ġk uy
Ġk Ä±m
Ġk eyi
Ġk Ã¢h
Ġk lor
Ġk irli
Ġk aÅŁalot
ek sen
ek arÅŁÄ±
Ġg un
Ġg aliba
Ã¶ dev
Ġv ara
Ġv ida
lar dir
lar inin
un taz
ak in
ak ir
ak am
ak adar
el iy
el ey
el lan
el inden
el lerini
el ektri
la z
la lÄ±
la hat
la caÄŁÄ±m
la maktadÄ±r
la ÄŁan
la tÄ±yordu
Ġs o
Ġs in
Ġs Ã¶
Ġs em
Ġs Ã¼k
Ġs inde
Ġs ad
Ġs Ä±na
Ġs Ä±nda
Ġs eni
Ġs Ã¼s
Ġs aptan
Ġs art
Ġs alÄ±
Ġs ola
Ġs oÄŁu
Ġs ina
Ġs Ã»r
Ġs tok
Ġs of
Ġs urat
Ġy u
Ġy in
Ġy am
Ġy ayÄ±
Ġy eÄŁ
Ġy elt
Ġy itir
Ġy Ã¶rÃ¼ng
Ġy ukarda
Ġy atÄ±yordu
al u
al ak
al el
al dan
al Ã®
al Ä±nÄ±n
al masÄ±nÄ±
al maktadÄ±r
al etin
al Ä±rken
al mÄ±ÅŁlardÄ±
Ġo i
Ġo p
Ġo lar
Ġo dan
Ġo cak
Ġo kur
Ġo dak
Ġo bjektif
Ġve bu
Ġve yetki
Ġt Ã¼
Ġt Ä±k
Ġt uz
Ġt elg
Ġt Ã¼rk
Ġt Ã¼zÃ¼
Ġt adÄ±na
di bi
di zi
di yorlardÄ±
di yorlar
di yoruz
de me
de dim
de diÄŁim
de cek
de diÄŁini
de diÄŁimiz
de po
de fter
ler iydi
da s
da v
da y
da hil
Ġi tiÅŁ
Ġbir I
Ġbir iydi
Ġbir icik
li si
li gat
ur u
ur an
ur un
Ġh am
Ġh ok
Ġh ad
Ġh Ã¼kÃ»
Ġh id
Ġh ikÃ¢
me meyi
me meleri
me dikleri
me diÄŁinden
dÄ± ÄŁÄ±nÄ±n
ĠB U
ĠB ulun
ĠB aÄŁ
ĠB asÄ±
ĠB akÄ±n
ĠB alÄ±k
ĠB elge
ĠB ayÄ±m
ĠB AS
ĠB eledi
ĠB ilmem
ĠB ehiÃ§
ĠB ELÄ°
ĠB lock
Ã¼n en
Ã¼n dÃ¼
im lerin
im parator
aÅŁ lÄ±
iz ce
iz lik
iz leyen
ya tÄ±r
ya madÄ±ÄŁÄ±
ya tÄ±p
ya ban
or ak
or al
or veÃ§
le dik
le cek
le dikten
le ans
le vha
on la
on ca
on larla
ul Ã»
ul mamÄ±ÅŁ
ul masÄ±nda
ul duktan
du dak
du manlar
tÄ± sÄ±
Ġa j
Ġa lama
Ġa yaÄŁÄ±
lÄ± Ä±
lÄ± yan
Ä° k
Ä° ster
Ä° Ãĩ
ey ler
ey miÅŁ
ey dim
ey tin
ey lem
ey rek
Ġol m
Ġol u
Ġol una
Ġol makta
Ġol manÄ±z
Ġol mayacaÄŁÄ±nÄ±
Ġol culuÄŁ
Ġol saydÄ±m
ra s
ra ma
ra ti
sÄ± v
sÄ± ÄŁÄ±n
Ä±ÅŁ la
Ä±ÅŁ Ä±nÄ±n
Ä±ÅŁ Ä±p
Ä±ÅŁ malÄ±
es e
es an
es en
es un
es kop
es pe
em re
em set
em beri
Ġm Ã¼z
Ġm uÅŁ
Ġm Ã¼lt
Ġm olekÃ¼l
Ġm iras
Ġm imar
iÅŁ im
iÅŁ ik
iÅŁ let
iÅŁ ti
iÅŁ iyle
iÅŁ lerine
iÅŁ iklik
ĠK Ã¶
ĠK av
ĠK ana
ĠK af
ĠK esin
ĠK Ãĸ
ĠK OR
ĠK Ã¢h
ĠK AT
ĠK aya
ĠK AL
ĠK IÅŀ
ĠK ork
ĠK omiser
ĠK OY
ĠK EMAL
ĠgÃ¶ v
ec ilik
den k
den en
den ey
den dir
den ilen
den etleme
at al
at tÄ±r
at masÄ±
at maya
at iyle
at acak
Ã¢ ta
Ã¢ hane
Ã¢ deta
ÄŁÄ± da
Ġde ve
ay Ä±nda
ay dÄ±m
ay Ä±nÄ±n
ay bin
ay lak
ĠM em
ĠM ad
ĠM as
ĠM uÅŁ
ĠM AN
ĠM UT
ĠM AH
ĠM anya
ĠM illl
ĠM enderes
ĠM Ã¼lÃ¢
ĠM adem
Ä±nÄ± yor
um dan
um eti
Ã¼k sel
ĠÃ§ in
ĠÃ§ ay
ĠÃ§ Ã¼r
ĠÃ§ Ä±r
ĠÃ§ eÅŁ
ĠÃ§ eper
ĠÃ§ Ä±lgÄ±n
ĠÃ§ ehr
ĠÃ§ Ä±plak
ĠÃ§ Ã¶ken
ĠÅŁ o
ĠÅŁ Ä±
ĠÅŁ ak
ĠÅŁ ti
ĠÅŁ ura
ĠÅŁ urada
ĠÅŁ Ã»rÃ¢
ĠÅŁ uymuÅŁ
mak lÄ±
Ã¼r de
Ã¼r ki
az en
az im
az Ä±ndan
Ġbu I
Ġbu lacaÄŁÄ±nÄ±
Ġbu lamadan
ol ak
ol uk
ol madan
ol manÄ±n
ol makla
ol say
ol saydÄ±m
ol landa
Ġe me
Ġe gemen
ĠA K
ĠA m
ĠA Ã§
ĠA laÅŁ
ĠA ÄŁÄ±r
ĠA dem
ĠA deta
ĠA skeri
ab aÄŁ
ab ulunan
ik ur
ik at
ik ti
ik leri
am lÄ±
am dan
am bar
iler inde
iler leyen
Ġda h
Ġda ya
ce il
dir di
Ä±l sa
Ä±l madÄ±ÄŁÄ±
let in
let leri
larÄ± rÄ±
larÄ± ydÄ±
ta savvur
ĠÄ° b
ĠÄ° stan
ĠÄ° ran
ĠÄ° kin
ĠÄ° mam
ĠÄ° TÄ°R
Ä±k lÄ±k
ĠgÃ¶r memiÅŁ
ĠgÃ¶r memek
ĠgÃ¶r mediÄŁi
ĠgÃ¶r Ã¼yordu
ĠgÃ¶r Ã¼lebilir
ĠgÃ¶r mÃ¼yorum
ĠgÃ¶r Ã¼rsÃ¼nÃ¼z
ĠH ur
ĠH Ã¼kÃ»
ĠH Ãľ
ĠH af
ĠH adi
ĠH aklÄ±
ĠH ilafet
ĠH orn
ĠH ilÃ¢feti
eler im
Ġil lerini
Ġil Ã§e
Ġil lerinden
Ġil indeki
Ġil Ã§esi
Ġil lerindeki
bir leÅŁtirmek
Ġn un
Ġn iz
Ġn den
Ġn ev
Ġn is
Ġn cÃ¼
Ġn elerden
Ġn iÅŁan
Ġn Ã¢zÄ±rÄ±
Ġn Ã¶bet
Ä±r casÄ±na
ĠP an
ĠP en
ĠP art
ĠP ierre
ĠP erÅŁembe
ok e
ok ul
ok tur
ok umuÅŁ
ok rat
ok yanusun
ĠiÃ§ ini
ĠiÃ§ te
ĠiÃ§ imize
uz a
uz ayÄ±p
uz atarak
ti a
ti bi
ti balara
ti caret
Ã¶n en
Ã¶n lemek
te bilmek
ev er
ev inden
ev ladÄ±
ev rak
ev ÅŁehir
mÄ±ÅŁ lar
lan Ä±
lan yla
lan amaz
lan masÄ±nda
lan mÄ±zÄ±n
Ã¶z Ã¼
Ã¶z gÃ¼rlÃ¼
duÄŁ unun
Ġal Ä±
Ġal Ã§
Ġal ev
Ġal Ä±nÄ±n
Ġal masÄ±nÄ±
Ġal manÄ±n
Ġal mayan
Ġal mayacak
Ġal mamÄ±ÅŁ
Ġal Ä±yorum
Ġal madÄ±m
Ġal etlerin
Ġal tÃ¼st
it ler
Ġet i
Ġet mi
Ġet tin
Ġet melidir
Ġet miyordu
Ġet miyordum
Ġet sinler
Ġet miyorlar
ĠT em
ĠT ah
ĠT eb
ĠT ef
ĠT ER
ĠT AV
ĠT Ã¼rki
Ġson la
Ġson larÄ±nda
mu dur
mu tasarrÄ±f
mu yorlardÄ±
Ġbil miÅŁ
Ġbil ip
Ġbil mez
Ġbil meli
Ġbil menizi
Ġbil mediÄŁim
Ġbil miyoruz
Ġbil emiyorum
erek e
erek et
ĠS E
ĠS Ä±
ĠS Ä±k
ĠS ayÄ±
ĠS aygÄ±deÄŁer
ĠS EV
ĠS AY
ĠS AH
ĠS Ä±ra
ĠS Ä±nÄ±r
ĠS imav
ĠS iir
ĠS AÄŀLA
ĠS UBAY
uy um
uy arÄ±
uy ku
uy kusuz
ad larÄ±
Ä±m ca
Ä±m san
Ä±m sÄ±kÄ±
ĠbaÅŁ Ä±nÄ±
ĠbaÅŁ lÄ±yor
ĠbaÅŁ Ä±nÄ±za
ĠbaÅŁ kent
ĠbaÅŁ vura
ĠbaÅŁ kenti
ĠbaÅŁ baÅŁa
Ġver g
Ġver mez
Ġver mesini
Ġver ebilir
Ġver memiÅŁ
Ġver menin
Ġver ecekti
Ġver ebilecek
Ġver diÄŁimi
Ġver emeyeceÄŁi
met in
met Ã§i
ĠE L
ĠE DÄ°
ĠE DEN
ĠE mini
ĠE DÄ°YOR
ĠE reÄŁli
lik se
lik lerin
bil en
bil miÅŁ
bil iyordu
bil eceÄŁi
bil sin
bil ime
bil eceÄŁimiz
bil miyoruz
ĠBey ÅŁehir
ĠiÃ§in dekiler
ye ÅŁ
us ya
us larÄ±
us undan
us aybin
Ġz e
Ġz in
Ġz eki
Ġz ekÃ¢
Ã¼m enin
Ã¼m cek
Ã¼m rÃ¼
Ġan lÄ±
Ġan dan
Ġan ladÄ±
Ġan Ä±lan
Ġan lÄ±yor
Ġan aya
Ġan garya
unu tul
tÄ±r dÄ±
tÄ±r Ä±p
lÄ±k lÄ±
lÄ±k larÄ±ndan
lÄ±k larÄ±yla
Ã¶y k
ka sÄ±nÄ±
ka Ã§a
ka vur
eÅŁ arÄ±
Ġbulun sa
Ġbulun maya
Ġbulun ulan
Ġbulun abilir
Ġbulun makla
Ġbulun ulmasÄ±
Ġbulun acaÄŁÄ±m
Ġbulun uÅŁu
Ġyap maz
Ġyap Ä±lÄ±
Ġyap alÄ±m
Ġyap madÄ±k
Ġyap acaÄŁÄ±nÄ±
Ġyap anlar
Ġyap Ä±lÄ±p
Ġyap Ä±lÄ±yordu
Ġyap abiliriz
ĠBu har
Ġed ince
ĠD ur
ĠD Ã¶n
ĠD av
ĠD eli
ĠD ic
ĠD eÄŁ
ĠD ayan
ĠD eleg
ĠD Ã¼nyanÄ±n
ĠD AV
ĠD Ä°YOR
ĠD Ã¶rdÃ¼ncÃ¼
ĠD eÄŁer
ĠD UY
ĠD Ã¼rbÃ¼n
ĠD iÄŁeri
ĠD AHA
Ã¼l Ã¼p
Ã¼l mesinde
Ä±na cak
oÄŁ ullarÄ±
end iniz
ĠdÃ¼ÅŁ Ã¼
ĠdÃ¼ÅŁ mez
ĠdÃ¼ÅŁ eceÄŁi
ĠdÃ¼ÅŁ meyen
ha vari
Ġist es
Ġist eye
Ġist endiÄŁ
Ġist emenin
Ġist atistik
Ġme dres
Ġp il
Ġp ut
Ġp iya
Ġp eygamber
Ġkon masÄ±
Ġkon uk
Ġkon sol
Ã» ra
Ã¼y o
Ã¼y eler
maya caÄŁÄ±mÄ±
Ã¶r neÄŁi
Ã¶r gÃ¼t
Ã¶r Ã¼mcek
Ġgel in
Ġgel eceÄŁ
Ġgel ecektir
Ġgel meden
Ġgel mesine
Ġgel menin
Ġgel miyor
Ġgel mediÄŁini
Ġgel eceÄŁinin
Ġgel diÄŁimde
iyet in
iyet ini
iyet te
ecek lerine
ecek lerdir
iÃ§ ki
laÅŁ an
laÅŁ arak
laÅŁ mÄ±ÅŁtÄ±r
laÅŁ tÄ±n
stan tin
omu ta
man Ä±za
Ġolan aksÄ±z
ĠC el
ĠC har
ĠC ema
uk adde
bul uyor
bul dular
ĠY ak
ĠY ay
ĠY ah
ĠY uk
ĠY akÄ±n
ĠY ANI
ĠY erkÃ¼r
ĠY IK
ĠY Ã¼rÃ¼t
ĠY ÃĸNET
ĠÃ¶n leme
ĠÃ¶n lemeye
Åŀ EY
Åŀ Ã¼krÃ¼
Åŀ evket
Ġf ey
Ġf ecÃ®
Ġf abrika
ed ile
ed ilmesini
ed elim
ĠG a
ĠG ru
ĠG arip
ĠG AY
ĠG EL
ĠG Ã¼mÃ¼ÅŁ
ĠG Ã¼rcistan
ĠG Ã¶nen
ĠG Ã¼mrÃ¼
ĠN o
ĠN ak
ĠN eptÃ¼n
ĠN ASIL
ĠN usaybin
Ġmillet te
Ġmillet tir
aÄŁ an
ilme yen
ilme siydi
Ġay dÄ±r
Ġay ni
Ġar Ä±
Ġar ak
Ġar ayÄ±
Ġar amÄ±ÅŁ
Ã§Ä±k mÄ±ÅŁtÄ±
Ã§Ä±k Ä±p
Ã§Ä±k Ä±yor
Ã§Ä±k madan
Ã§Ä±k tÄ±m
Ã§Ä±k mamak
adar et
eket e
ĠiÅŁ tir
ĠiÅŁ imiz
ĠiÅŁ ken
ĠiÅŁ lerimiz
ĠiÅŁ imize
ĠiÅŁ tah
ĠiÅŁ lerimize
ĠiÅŁ lendiÄŁi
Ġyer lerini
Ġyer lerle
Ġyer imizi
Ġyer leÅŁmiÅŁ
Ġyer lilerin
ĠO t
ĠO raca
ĠO laÄŁanÃ¼stÃ¼
ĠkarÅŁÄ± sÄ±n
ĠkarÅŁÄ± lamak
ĠkarÅŁÄ± lamaya
ĠkarÅŁÄ± layan
ĠkarÅŁÄ± lamÄ±ÅŁ
ĠkarÅŁÄ± laÅŁÄ±
sÄ±z dÄ±
sÄ±z dÄ±r
ĠF evkalÃ¢de
ĠF UAT
ĠR ica
ĠR ES
ĠR OL
ĠR Ã¼tb
ĠR oma
ĠR odman
kan at
ĠgÃ¼n lÃ¼
ĠgÃ¼n Ã¼mÃ¼z
ĠgÃ¶rÃ¼ÅŁ le
ĠgÃ¶rÃ¼ÅŁ leriyle
ĠgÃ¶rÃ¼ÅŁ Ã¼mÃ¼
ĠgÃ¶rÃ¼ÅŁ lÃ¼lÃ¼
ĠgÃ¶rÃ¼ÅŁ Ã¼rÃ¼z
Ġin di
Ġin sa
Ġin tik
Ġin kÄ±
Ġin ÅŁallah
Ġin tibalara
Ġgerek ecek
Ġr Ä±
Ġr ar
Ġr um
Ġr inde
Ġr is
Ġr Ä±h
ĠAn ad
diÄŁ in
diÄŁ eri
Ġuy maya
Ġuy uma
Ġuy sal
Ġuy ulmasÄ±
Ġkur du
Ġkur am
Ġkur ut
Ġkur masÄ±nÄ±
Ġkur maktan
Ġkur makla
Ġkur muÅŁtu
Ġor da
asÄ± tasÄ±yla
yan Ä±
yan lar
cÄ± lÄ±k
cÄ± ÄŁÄ±m
cÄ± yla
Ġdurum larÄ±nÄ±
Ġdurum undan
Ġdurum lardan
Ġdurum larla
der ler
der atÄ±
larÄ±nÄ± za
ĠgÃ¼ lerek
gi diyor
Ġkab uÄŁ
ĠsÃ¶z cÃ¼
ĠsÃ¶z konusu
Ġon da
Ġon ayÄ±
Ġon larca
Ġon ceil
if i
ĠÃ§Ä±k a
ĠÃ§Ä±k masÄ±nÄ±
ĠÃ§Ä±k maktan
ĠÃ§Ä±k abilir
ĠÃ§Ä±k abilecek
ĠÃ§Ä±k masÄ±ndan
ĠÃ§Ä±k acaÄŁÄ±mÄ±z
ĠdÃ¼ÅŁÃ¼n Ã¼r
ĠdÃ¼ÅŁÃ¼n meye
ĠdÃ¼ÅŁÃ¼n Ã¼lmesi
ĠdÃ¼ÅŁÃ¼n Ã¼yorum
ĠdÃ¼ÅŁÃ¼n Ã¼lerek
ĠdÃ¼ÅŁÃ¼n dÃ¼ÄŁÃ¼mÃ¼z
ĠdÃ¼ÅŁÃ¼n dÃ¼ÄŁÃ¼nÃ¼z
Ġtop unun
Ġtop lama
Ġtop lamÄ±ÅŁ
Ġtop layÄ±p
Ġtop yekÃ»n
Ġtelgraf lara
Ġtelgraf Ä±nÄ±n
Ġtelgraf larÄ±nÄ±n
Ġtelgraf larda
Ġtelgraf larÄ±nda
Ġtelgraf Ä±ndaki
Ġtelgraf larÄ±ndaki
Ġtelgraf taki
Ġtelgraf Ä±mda
Ġel ip
Ġel lerinden
Ġel imizde
Ġel ime
Ġel imizdeki
Ġce ÄŁi
Ġce binde
Ġhal inden
Ġhal indeki
Ġhal lede
Ġbildir ilmiÅŁ
Ġbildir miÅŁti
Ġbildir ecektir
Ġbildir ilecek
Ġbildir meniz
Ġbildir mel
Ġbildir ilmiÅŁti
Ġbildir irse
yi ci
Ġvar Ä±r
Ġvar dÄ±m
Ġvar dÄ±ÄŁÄ±
Ġvar lÄ±ÄŁÄ±n
Ġkal sa
Ġkal maya
Ġkal kar
Ġkal malarÄ±
Ġkal dÄ±ÄŁÄ±nÄ±
Ġkal mayacak
Ġkal dÄ±ÄŁÄ±mÄ±z
Ġkal mÄ±yor
Ġkal binde
Ġkal mÄ±yordu
Ġkal kÄ±p
se f
se hir
ĠgeÃ§ iyordu
ĠgeÃ§ mem
ĠgeÃ§ tikten
ĠgeÃ§ ebilmek
ĠgeÃ§ iÅŁtir
ĠgeÃ§ ecekleri
dik lerine
dik lerinden
dik lerinizden
ez ak
ez zÃ¼l
Ġben zet
Ġben cil
bu dak
bu lamaz
ne gÃ¶nder
ne ÄŁe
ne hir
Ã§ek tiÄŁi
Ã§ek ilerek
Ã§ek iminden
ĠdoÄŁ al
ĠdoÄŁ masÄ±na
ĠdoÄŁ uyordu
ĠdoÄŁ abilir
ĠdoÄŁ usuna
Ã¶l Ã¼
Ã¶l Ã¼m
Ġ19 18
lu yorlar
Ġedil e
Ġedil diler
Ġedil emey
Ġedil melidir
Ġedil ecekti
Ġedil mekteydi
Ġedil diÄŁinden
Ġedil irse
Ġedil diÄŁinin
Ġedil ebileceÄŁini
baÅŁ layan
baÅŁ ladÄ±m
atÄ± lan
ver in
ver ilmiÅŁ
ver diÄŁim
ver ecektir
ver meyen
ver medi
ver ilmiÅŁtir
ver ecekti
ver diklerini
ver miÅŁlerdir
ver meksizin
Ġdev a
Ġdev ret
Ġdev ri
Ġdev rede
Ġola ya
Ġola sÄ±
Ġola caÄŁÄ±m
Ġola mayacaktÄ±r
Ġola caÄŁÄ±nÄ±n
Ġola mayÄ±z
ĠaÃ§Ä±k lar
ĠaÃ§Ä±k ca
ĠaÃ§Ä±k layÄ±p
ĠaÃ§Ä±k ladÄ±lar
mal z
ĠsÃ¼r mek
ĠsÃ¼r dÃ¼m
ĠsÃ¼r Ã¼yordu
ĠsÃ¼r Ã¼sÃ¼
ĠsÃ¼r mÃ¼ÅŁtÃ¼
ret le
Ġtarih ini
Ġtarih iyle
Ġtarih indeki
Ġtarih imizin
Ġtarih teki
Ġkarar gÃ¢ha
Ã¼rk Ã¼t
muÅŁ lar
Ġtaraf larÄ±nda
Ġtaraf Ä±ndaki
Ġtaraf sÄ±zlÄ±k
Ġtaraf tarÄ±
Ġyar Ä±nÄ±n
Ġyar baylÄ±ÄŁa
leÅŁ me
leÅŁ ti
ĠV ene
ĠV asÄ±tasÄ±yla
Ġen gele
Ġen lemi
Ã¼s Ã¼ne
Ã¼s Ã¼nden
Ã¼s nÃ¼
mer ceÄŁ
len c
len eceÄŁi
len ebilir
len mesinde
Bu gÃ¼ne
dim Ã¼
Ġyol larÄ±n
Ġyol lara
Ġyol umuza
ĠBaÅŁ kÃ¢tip
Ġanla ta
Ġanla tÄ±r
Ġanla masÄ±
Ġanla mamak
ef i
oy unu
Ġyan larÄ±nda
Ġyan Ä±lma
Ġyan Ä±tladÄ±
Ġyan Ä±lÄ±yor
Ġyan inda
Ġyan lÄ±sÄ±
kar ara
kar esi
kar maÅŁ
kar gaÅŁa
Ġu cu
Ġu laÅŁmasÄ±
Ġu laÅŁtÄ±ra
Ġu stalÄ±ÄŁÄ±nÄ±
san d
san dal
san Ä±yorum
san ayi
gÃ¶r ece
gÃ¶r dÃ¼
gÃ¶r Ã¼p
gÃ¶r eme
gÃ¶r memiÅŁ
gÃ¶r Ã¼ldÃ¼
gÃ¶r memiÅŁti
gÃ¶r mÃ¼ÅŁtÃ¼
gÃ¶r eceksiniz
gÃ¶r Ã¼yorum
gÃ¶r dÃ¼ÄŁÃ¼mÃ¼z
gÃ¶r Ã¼leceÄŁi
gÃ¶r kemli
Ġzaman Ä±nÄ±n
gÃ¼n eye
gÃ¼n lerinde
ayÄ± cÄ±
dÄ±m cÄ±
Ġbirlik lerini
Ġbirlik lerinden
Ġhak im
ĠÃ§ok tu
ĠÃ§ok luÄŁu
ĠgÃ¶ster ilme
ĠgÃ¶ster ip
ĠgÃ¶ster ilmiÅŁ
ĠgÃ¶ster diler
ĠgÃ¶ster mesine
ĠgÃ¶ster ebilmek
ĠgÃ¶ster irse
ĠhÃ¼kÃ»met te
ĠhÃ¼kÃ»met lerinden
Ä±nÄ±n daki
ĠÃ§alÄ±ÅŁ Ä±r
ĠÃ§alÄ±ÅŁ masÄ±nÄ±
ĠÃ§alÄ±ÅŁ Ä±ldÄ±
ĠÃ§alÄ±ÅŁ mÄ±ÅŁtÄ±r
ĠÃ§alÄ±ÅŁ Ä±lacaktÄ±r
re et
tu Ã§
ĠgÃ¶rev ler
ĠgÃ¶rev im
ĠgÃ¶rev inde
ĠgÃ¶rev iyle
dur ak
dur sun
dur amÄ±yor
can Ä±nÄ±
Ãľ zer
Ãľ nlÃ¼
Ãľ yelerden
ordu su
ordu sunun
ĠÃ¶z Ã¼
ĠÃ¶z erk
ims enin
meler iyle
Ġmak al
Ġmak inist
ĠdeÄŁil miÅŁ
ĠdeÄŁil dik
ĠdeÄŁil dim
na maz
Ġmem uriyet
ĠKomutan Ä±n
ĠKomutan lar
ĠKomutan larÄ±
ĠKomutan Ä±nÄ±n
ĠKomutan lÄ±klarÄ±na
eri um
eh imizde
siz ce
siz liÄŁi
lacak larÄ±n
Ġcev aba
mi de
mi safir
gel mesi
gel mekte
gel mez
gel diÄŁince
gel diÄŁimizde
mÄ±z dan
Ġara dÄ±ÄŁÄ±mÄ±z
Ġara sÄ±ra
Ġara larÄ±ndaki
Ġhareket li
Ġhareket im
Ġhareket tir
Ġhareket inden
Ġhareket ten
Ġhareket lerinde
Ä±ldÄ± ÄŁÄ±nda
ĠTÃ¼rk Ã§e
ĠTÃ¼rk Ã§esi
ĠdoÄŁru lamÄ±ÅŁtÄ±r
alÄ± larÄ±n
alÄ± cÄ±
AN CI
sun du
Ġad larÄ±nda
Ġyaz Ä±nÄ±n
Ġyaz dÄ±ÄŁÄ±nÄ±
lama lÄ±
lama sÄ±na
aret li
olu yorum
Ã§a dÄ±r
Ã§a ÄŁÄ±rdÄ±
Ġl Ã¼k
Ġl ok
Ġl Ã¼l
Ġl Ã¼tf
Ġl Ã»tuf
Ġtoplan masÄ±nda
Ġtoplan Ä±ncaya
Ġtoplan Ä±rlar
mÄ± sÄ±nÄ±z
mÄ± yÄ±z
eniz deki
son unc
ĠbÃ¼yÃ¼k lÃ¼ÄŁÃ¼
Ġkuvvet ine
Ġkuvvet lerden
ĠÅŁekil lerde
ĠgÃ¶nder mekte
ĠgÃ¶nder ile
ĠgÃ¶nder diÄŁim
ĠgÃ¶nder ilerek
ĠgÃ¶nder ilmiÅŁtir
ĠMillet i
ĠBaÅŁkan Ä±mÄ±z
ĠBaÅŁkan lÄ±ÄŁa
Ġgetir il
Ġgetir mez
Ġgetir ile
Ġgetir diÄŁim
Ġgetir ebil
Ġgetir meyi
Ġgetir ilecek
Ġgetir mekten
Ġgetir ebilmek
Ġgetir ileceÄŁi
Ġgetir ilecektir
Ġgetir ilmesinde
Ġiki sini
Ġiki sine
LE ME
kim ya
kim isi
kim yacÄ±
ĠÃ¶ le
ĠÃ¶ teye
ĠÃ¶ per
Ġka lacaÄŁÄ±
Ġka Ã§acak
ĠKon stantin
Ġsay gili
Ġsay makta
Ġsay dÄ±ÄŁÄ±
Ġsay Ä±lmÄ±ÅŁ
Ġsay dÄ±ktan
Ġsay Ä±ldÄ±ÄŁÄ±
Ġsor muÅŁ
Ġsor up
Ġsor uyor
Ġsor uyordu
Ġsor ulmasÄ±
Ġsor ulmuÅŁ
Ġsor uyorlar
Ġsor usuyla
ĠÅŀ Ã¶yle
ĠÅŀ ER
ĠÅŀ ems
ĠÅŀ ART
ĠÅŀ ekip
Ġder s
Ġder lerse
liÄŁ imi
liÄŁ imizi
Ġiste meyen
Ġiste ÄŁe
Ġiste meyiz
ĠmÃ¼ hÃ¼r
ĠmÃ¼ cahit
ĠsaÄŁ layarak
ĠsaÄŁ landÄ±
ĠsaÄŁ lanmÄ±ÅŁ
ĠsaÄŁ ladÄ±m
ĠsaÄŁ layÄ±cÄ±
ĠsaÄŁ layÄ±nÄ±z
yap ma
yap arak
yap tÄ±k
yap mÄ±ÅŁtÄ±
yap Ä±lma
yap Ä±lmÄ±ÅŁtÄ±r
yap tÄ±klarÄ±
yap Ä±ldÄ±ÄŁÄ±
yap Ä±mÄ±
yap Ä±lÄ±r
yap Ä±lmasÄ±na
yap Ä±larak
yap acaÄŁÄ±mÄ±z
yap tÄ±klarÄ±nÄ±
Ġyet miÅŁ
Ġyet kim
Ġyet tiÄŁi
ĠbaÄŁ lamaya
ĠsÃ¶yle me
ĠsÃ¶yle meyi
ĠsÃ¶yle diler
ĠsÃ¶yle yip
tÃ¼ ler
Ġma d
Ġma hal
Ġma ddi
kÄ± t
kÄ± ta
kÄ± lavuz
var mak
var mÄ±ÅŁtÄ±
var dÄ±ÄŁÄ±
var lÄ±ÄŁÄ±n
var lÄ±ÄŁÄ±na
uf ak
ĠÅŁey le
ĠÅŁey dir
ĠÅŁey lerin
ĠHÃ¼kÃ»met leri
ĠÃ¶zel lik
abil miÅŁ
abil miÅŁtir
abil eceÄŁimiz
ama mÄ±ÅŁ
ama cÄ±n
Ġyeni sini
ĠbaÅŁka dÄ±r
ĠbaÅŁka sÄ±na
ĠyÃ¼z e
ĠyÃ¼z Ã¼nÃ¼
ĠyÃ¼z Ã¼ndeki
ĠkÄ± Ã§
ĠkÄ± racak
ĠkÄ± lavuz
ĠkÄ± pkÄ±rmÄ±zÄ±
ĠsÄ± Ã§ra
Ã§e ÄŁin
Ġede meden
Ġede medim
Ġede meyeceÄŁini
Ġede bilirim
Ġede miyordum
Ġede meyeceÄŁi
Ġede miyorlar
Ġeder siniz
Ġeder cesine
dÃ¼ÅŁ Ã¼yor
Ä°N DEN
Ä°N CE
Ġduy uyor
Ġduy mayan
Ġduy arÄ±m
Ġduy duÄŁumu
ĠaÃ§ lÄ±k
ĠaÃ§ maya
ĠaÃ§ Ä±lmÄ±ÅŁ
ĠaÃ§ madan
ĠaÃ§ abilir
ĠaÃ§ Ä±lmasÄ±nÄ±
ĠaÃ§ tÄ±klarÄ±
ĠaÃ§ Ä±ldÄ±ÄŁÄ±
ĠaÃ§ Ä±lmasÄ±ndan
ist eme
ist iklÃ¢
ist emez
ist iyorlardÄ±
ist emiyordu
ist ekler
ĠBir leÅŁmiÅŁ
ĠBir birine
ĠseÃ§ eceÄŁi
ĠseÃ§ ilerek
ĠseÃ§ ilmiÅŁtir
ĠseÃ§ ilmesine
ĠseÃ§ erken
ĠseÃ§ ilmek
ĠgÃ¼ven c
ĠgÃ¼ven de
ĠgÃ¼ven liÄŁini
ĠgÃ¼ven oyu
ĠalÄ±n ma
ĠalÄ±n ca
ĠalÄ±n mÄ±ÅŁtÄ±
ĠalÄ±n madan
ĠalÄ±n mamÄ±ÅŁ
ĠalÄ±n malÄ±dÄ±r
ĠalÄ±n masÄ±nÄ±n
lÃ¢ t
yar Ä±n
yar gÄ±
yar aÅŁan
ĠgerÃ§ek ler
Ġteklif lerimiz
Ġgir er
Ġgir erek
Ġgir meye
Ġgir mez
Ġgir meyi
Ġgir diÄŁimiz
Ġgir mesini
Ġhey bet
Ġhey etin
ĠgÃ¶z lerini
ĠgÃ¶z lerinden
ĠgÃ¶z lemev
ĠgÃ¶z lerinizden
Ġordu lar
Ġordu larÄ±nÄ±
Ġordu lara
Ġordu larÄ±mÄ±z
Ġhaber e
Ġhaber in
Ġhaber de
Ġhaber inin
Ġhaber lerin
Ġmemleket teki
kat lan
geÃ§ mek
geÃ§ ildi
geÃ§ elim
geÃ§ memiÅŁti
Ġnokta sÄ±nÄ±
men lerin
kur duÄŁu
kur ulmasÄ±
kur ucu
kur ulacak
kur ÅŁun
Ġra ï¬Ĥ
ĠÃĩ abuk
ĠÃĩ EKÄ°L
ĠÃĩ ukur
ĠÃĩ atal
... Â»
tar tÄ±ÅŁÄ±
Ä±p kÄ±
Ġgem imde
Ġgem ilerden
Ġkor uy
Ġkor id
Ġtut maya
Ġtut maz
Ġtut up
Ġtut sak
Ġtut ulmuÅŁ
bulun du
bulun masÄ±
bulun malarÄ±
bulun maktadÄ±r
bulun mayan
bulun acaktÄ±r
bulun acaÄŁÄ±nÄ±
bulun mamasÄ±
Ä±yor sunuz
Ä±mÄ±z daki
ĠÄ°n c
karÅŁÄ± sÄ±na
karÅŁÄ± sÄ±ndaki
Ġvatan la
Ġvatan Ä±mÄ±zÄ±
Ã¼st en
ĠanlaÅŁ mÄ±ÅŁ
ĠanlaÅŁ arak
Ġdur an
Ġdur maya
Ġdur duÄŁu
Ġdur uyordu
Ġdur gun
Ġdur duÄŁumuz
Ġkan Ä±nÄ±
Ġkan alÄ±
Ġkan Ä±t
Ġkan adÄ±nda
Ġsav unan
ĠbÄ±rak Ä±lan
ĠbÄ±rak mÄ±ÅŁtÄ±
ĠbÄ±rak Ä±yor
ĠbÄ±rak tÄ±m
ĠbÄ±rak alÄ±m
ĠbÄ±rak tÄ±klarÄ±
ĠbÄ±rak mÄ±ÅŁtÄ±m
ĠbÄ±rak Ä±lacak
ĠbÄ±rak tÄ±lar
ĠbÄ±rak acaÄŁÄ±m
ĠbÄ±rak Ä±larak
may Ä±nca
Ġuygun suz
ĠbÃ¶lg em
ĠbÃ¶lg eleriniz
kon masÄ±
kon muÅŁ
kon trol
Ġkomutan Ä±nÄ±n
Ġkomutan lÄ±ktan
top a
top Ã§
top larÄ±n
top unu
top lama
top ladÄ±ÄŁÄ±
Ġc en
ĠTemsil ciler
Ġba g
Ġba sa
Ġba sÄ±nÄ±n
ĠhiÃ§bir ini
yer lerin
yer yÃ¼zÃ¼nde
yer yÃ¼zÃ¼ndeki
ĠÅŁah sÄ±na
ĠMu har
ĠMu ÄŁla
kal sa
kal ka
kal dÄ±ÄŁÄ±
kal mÄ±ÅŁtÄ±r
kal eme
kal mamÄ±ÅŁtÄ±r
Ġdevlet e
Ġdevlet ine
Ġdevlet inin
Ġdevlet lere
ĠAr aÅŁtÄ±r
ĠÄ°z nik
ile me
Ã§ok tan
Ãĩ ar
Ãĩ alÄ±ÅŁ
Ãĩ OCUK
Ãĩ olak
ĠgÃ¼Ã§ tÃ¼
ĠgÃ¼Ã§ leÅŁtir
ĠgÃ¼Ã§ lÃ¼ÄŁ
Ġbelir ti
Ġbelir diÄŁi
Ay lÄ±
An laÅŁ
An laÅŁmasÄ±
ĠyÃ¶n den
ĠyÃ¶n leri
ĠyÃ¶n etir
ĠyÃ¶n elerek
Ã¢n enin
ĠdÃ¼ÅŁman lÄ±ÄŁÄ±
ĠdÃ¼ÅŁman larca
Ġbul masÄ±
Ġbul duklarÄ±
Ġbul uÅŁma
Ġbul muÅŁtum
Ġbul dunuz
Ġbilg im
Ġbilg isine
ĠÃ§ek ecek
ĠÃ§ek miÅŁti
ĠÃ§ek emeyen
Ġtek k
Ġtek ni
Ġtek rarÄ±
Ġtek zip
gÃ¶ vde
Ġgelen lerinin
Ġgelen lere
dÃ¼ÄŁ Ã¼mÃ¼
Ġak Ä±
Ġak ar
Ġak var
Ġak ÅŁama
Ġetmek liÄŁim
Ġetmek teydi
Ġolur sanÄ±z
Ġsa ya
laya madan
laya yÄ±m
ĠhazÄ±r landÄ±
LÄ° Åŀ
LÄ° YOR
LÄ° YE
sat aÅŁ
ĠdÄ±ÅŁ ta
ĠdÄ±ÅŁ taki
eti ci
ĠdÃ¶n mesini
ĠdÃ¶n meniz
ĠdÃ¶n dÃ¼m
ĠdÃ¶n melerini
ĠdÃ¶n memiz
ĠdÃ¶n dÃ¼ler
Ġtedbir e
Ġtedbir lerinin
ĠÄ°s yan
ĠÄ°s lam
ĠÄ°s panyol
ÅŁah sÄ±na
ĠkonuÅŁ an
ĠkonuÅŁ tular
Ġgit mekte
Ġgit miÅŁti
Ġgit meyi
Ġgit mekten
Ġgit tiÄŁim
Ġgit tikleri
Ġolay Ä±nÄ±
Ġolay larÄ±nÄ±n
oz u
ĠÃ§ekil ip
ĠÃ§ekil mem
ĠÃ§ekil eceklerini
mir al
rak ama
bay lar
ro lik
ro om
ro su
Ġsan dÄ±
Ġsan at
Ġsan mak
Ġsan Ä±yor
Ġsan mam
ĠarkadaÅŁ Ä±n
ĠarkadaÅŁ Ä±m
ĠarkadaÅŁ lÄ±k
ĠarkadaÅŁ Ä±nÄ±z
ĠarkadaÅŁ larÄ±mÄ±zÄ±n
ĠarkadaÅŁ larÄ±mÄ±zdan
alan Ä±ndaki
Ġetme m
Ġetme me
Ġetme meye
Ġetme diÄŁim
Ġetme miz
ola s
ola caÄŁÄ±
ola caÄŁÄ±na
ola mazdÄ±
Ãĸ YLE
Ãĸ ÄŁreniyorum
Ãĸ YKÃľ
Ġbun lann
Ġrica da
ĠÃ§Ä±kar an
ĠÃ§Ä±kar lar
ĠÃ§Ä±kar Ä±r
ĠÃ§Ä±kar sa
ĠÃ§Ä±kar maya
ĠÃ§Ä±kar ken
ĠÃ§Ä±kar larÄ±mÄ±za
Ġkurul da
Ġkurul ur
Ġkurul masÄ±nÄ±n
Ġkurul duÄŁundan
ĠKur tuluÅŁ
gerek iyor
gerek ecekti
Ġedi ÅŁ
kaÃ§ Ä±n
kaÃ§ ak
kaÃ§ Ä±ÅŁ
tÄ±l maz
Ġbizim ki
bÃ¼s bÃ¼tÃ¼n
ĠgÃ¶rÃ¼l mÃ¼ÅŁtÃ¼
Ġolma m
Ġolma mÄ±ÅŁ
Ġolma mÄ±
Ġolma mÄ±za
ba ÄŁÄ±
ĠZ ih
ĠZ Ä±p
ĠZ AFER
up onlar
Ġceph eleri
Ġceph elerin
gÃ¶z daÄŁÄ±
yol la
yol dan
yol larÄ±
yol larla
yol undaki
yol landÄ±
yol culuÄŁ
kÃ¼n Ã¼n
Ġden etim
Ġden ildiÄŁi
Ġden emez
Ġyarar lar
Ġyarar lanan
MA M
MA MA
MA LI
Ġdayan mak
Ġdayan Ä±r
Ġdayan maya
Ġdayan mayÄ±
Ġdayan Ä±yordu
Ġdayan Ä±lmaz
Ġdayan dÄ±klarÄ±
Ġdayan Ä±klÄ±
ĠÅŁart la
ĠÅŁart lan
Bir i
Bir likte
ĠhÃ¼k medilebilir
mem in
mem nun
mem izin
mem elidir
bin er
ĠL Ã¼tfi
teÅŁ kilÃ¢
dev imsi
Ġis im
Ġis em
Ġis eler
Ġkap tÄ±r
Ġkap Ä±nÄ±n
Ġkap Ä±lÄ±p
Ġkap lum
Ġkap atÄ±p
ebil se
ebil diÄŁi
kes im
kes ine
ri ÄŁi
elÃ¢ ket
Ġkay alÄ±k
Ġtes limi
Ġtakdir e
Ġtakdir ini
Ġdi ÄŁi
Ġdi ÄŁini
Ġdi ÄŁim
Ġsiya sÄ±
ĠhÃ¢ linde
Ġzar f
Ar da
mas raf
mas aydÄ±m
ekl ilik
Ġgay r
Ġgay eler
Ġgay esine
Ġter b
mektedir ler
Ġbura larÄ±
Ġbura ca
BaÅŁ yaver
fer saha
Äŀ Ä°LDÄ°R
Ġemir de
atÄ±l mayacak
ĠbakÄ±m lardan
Ġsah ra
Ġsah te
Ġtam ir
Ġaz Ä±ndan
ĠÃ¢ di
ĠÃ¢ dil
ĠÃ¢ ÅŁikÃ¢rdÄ±r
Ġama cÄ±n
ĠCumhuriyet in
Ġinan an
Ġinan arak
Ġinan dÄ±ÄŁÄ±m
Ġinan mam
Ġinan Ä±lÄ±r
Ġinan cÄ±m
Ġinan cÄ±mÄ±z
Ġidar eler
Ġidar eye
Ġidar esinde
Ġidar eyi
Ġidar esinden
Ġidar esiz
Ġhay ali
Ġhay kÄ±rdÄ±
Ä±lma yan
doÄŁ u
doÄŁ al
doÄŁ usunda
doÄŁ uÅŁtan
ĠsonuÃ§ larÄ±n
ĠsonuÃ§ larÄ±nÄ±n
ĠsonuÃ§ larla
ĠsonuÃ§ lanan
ĠkaÃ§ ak
ĠkaÃ§ mamÄ±z
ĠkaÃ§ malarÄ±na
ĠkaÃ§ aklarÄ±n
ley iniz
Ä±nÄ±z daki
EN Ä°YOR
ĠyÃ¼r ek
ĠyÃ¼r Ã¼mÃ¼ÅŁ
bÃ¼tÃ¼n lÃ¼ÄŁÃ¼nÃ¼
Ġyay Ä±lan
Ġyay Ä±ldÄ±
Ġyay Ä±lmÄ±ÅŁ
Ġyay gara
ĠtÃ¼rlÃ¼ sÃ¼
Ġmakam larÄ±nda
Ġinsan larla
ĠdeÄŁer de
ĠdeÄŁer leri
ĠÃĸ te
ĠÃĸ ZEL
ĠyazÄ± ya
ĠyazÄ± yor
ĠyazÄ± lacak
ĠyazÄ± lardan
ĠyazÄ± sÄ±nÄ±n
Ġgerekir miÅŁ
yaz Ä±lan
yaz gÄ±
yaz dÄ±ÄŁÄ±
yaz Ä±ÅŁmalÄ±
Ġpar ayÄ±
Ġpar amparÃ§a
Ġpar lamen
Ġgiz lemek
Ġtan Ä±k
Ġtan Ä±m
su lar
su larÄ±yla
Mu hareb
Mu haf
Mu harebesi
Ġkendiler inden
meden iyet
ĠayrÄ± lÄ±ÄŁÄ±nÄ±
ĠayrÄ± lÄ±p
komutan Ä±nÄ±n
sal t
sal onda
Ġyak Ä±nÄ±ndaki
ĠsÃ¼re den
diÄŁimiz den
ĠÅŁÃ¼ph emiz
ĠÅŁÃ¼ph elen
lamaya caktÄ±r
Ġalan larda
Ġbelirt ilerek
ĠteÅŁebbÃ¼s lerinden
ĠteÅŁebbÃ¼s Ã¼nÃ¼n
ĠsÄ±ra d
ĠsÄ±ra sÄ±na
ĠsÄ±ra sÄ±ndaki
sin c
malarÄ± mÄ±
deniz i
deniz de
Ġzat la
Ġzat tÄ±r
ĠteÅŁkilÃ¢t Ä±na
Ġsebep lerin
LAR A
LAR INI
kendi mi
ĠKar ÅŁ
ĠdÃ¼z eyde
Ġkullan Ä±
Ġkullan masÄ±
Ġkullan Ä±lmÄ±ÅŁ
Ġkullan mayÄ±
Ġkullan Ä±lma
Ġkullan Ä±yorum
Ġkullan Ä±yorlar
Ġkullan acaÄŁÄ±z
ĠGenel likle
sÃ¶z lerinin
sÃ¶z lerle
ĠbaÅŁkan larÄ±nÄ±n
ĠbaÅŁkan lÄ±ÄŁa
ĠbaÅŁkan lÄ±ÄŁÄ±m
ĠbaÅŁkan lÄ±ÄŁÄ±mÄ±
Ġkanun i
Ġkanun lara
Ġmesel esinden
ĠettiÄŁ ine
Ġbiri dir
zaman Ä±n
zaman larda
kÄ±r Ä±lmasÄ±
ĠdÃ¼nya daki
ĠdÃ¼nya sal
ade den
ĠÃ§ar eyi
ĠÃ§ar emiz
ĠEylÃ¼l Ã¼n
ĠCeph enin
ĠCeph esinden
sar f
sar ay
sor uÅŁturma
sor guya
ter sine
ter dar
ĠiÅŁgal ini
aÃ§ ma
aÃ§ mak
aÃ§ madan
aÃ§ Ä±lÄ±
aÃ§ Ä±ldÄ±ÄŁÄ±
est e
Ġbekle meden
Ġbekle diÄŁimi
Ġbekle diklerini
Ġbekle yip
ĠyapÄ± larak
Ġayr Ä±lmaz
Ġinc eler
os unun
Ġer e
Ġer in
Ġer dir
Ġer it
Ġer lerinden
ĠvasÄ± tayla
ĠetmiÅŁ tik
ĠÃ¶l Ã¼me
ĠÃ¶l Ã¼mle
Ġdavran mak
ceÄŁ im
dÃ¼ÅŁÃ¼n mÃ¼ÅŁ
dÃ¼ÅŁÃ¼n dÃ¼ÄŁÃ¼
dÃ¼ÅŁÃ¼n Ã¼ldÃ¼ÄŁÃ¼
dÃ¼ÅŁÃ¼n mÃ¼ÅŁtÃ¼
dÃ¼ÅŁÃ¼n Ã¼lmeye
Ġsaat ini
Ġtehlik eyi
sÃ¼r Ã¼p
sÃ¼r Ã¼len
sÃ¼r dÃ¼ler
va at
va gon
Ġci ÄŁer
ĠsayÄ± daki
ĠsayÄ± sÄ±nÄ±n
ĠsayÄ± lÄ±r
ĠÃ§Ã¶z Ã¼lmÃ¼ÅŁ
ĠÃ§Ã¶z Ã¼lecek
ĠbaÅŁarÄ± sÄ±z
ĠbaÅŁarÄ± sÄ±zlÄ±ÄŁa
unuz un
gÃ¶rÃ¼ÅŁ leri
gÃ¶rÃ¼ÅŁ Ã¼ldÃ¼
lendir miÅŁ
edi yordum
edi yorlardÄ±
edi yorlar
Ġser in
Ġser ser
Ġser vis
Ġser maye
Ġbuyur un
Ġbuyur muÅŁ
Ġbuyur unuz
Ġbuyur dular
Ġbuyur manÄ±zÄ±
Ġbuyur ulduÄŁu
Ġuzak tan
Ġuzak lÄ±k
Ġuzak lÄ±ÄŁÄ±
Ġuzak lÄ±kta
durum lar
Ġkend inizi
Ġkend iliklerinden
Ġsun du
Ġsun muÅŁ
Ġsun mayÄ±
Ġsun ulmuÅŁ
Ġbilin Ã§li
Ġiz ni
Ġiz lemeye
Ã¼mÃ¼z le
ĠOrdu muz
bel asÄ±z
bildir iniz
bildir mekle
bildir isinin
bildir isini
bildir iliyordu
ĠyapÄ±lan larÄ±n
ĠOsmanlÄ± lar
ĠgeÃ§ir en
ĠgeÃ§ir erek
ĠgeÃ§ir mekte
ĠgeÃ§ir dikten
ĠaÃ§Ä±klama dan
ĠaÃ§Ä±klama yÄ±
ĠaÃ§Ä±klama larÄ±ma
ĠaÃ§Ä±klama larÄ±nÄ±zÄ±
ĠaÃ§Ä±klama lÄ±yÄ±m
Ġmek anik
bÃ¼yÃ¼k Ã§e
ÅŁey di
ÅŁey leri
Ġhat larÄ±nÄ±
Ġhat tÄ±nÄ±
Ġzor lama
ydÄ± lar
Ġdin li
Ġdin let
Ġdin lendi
Ġkim dir
Ġkim lerin
Ġkim likleri
ĠBiz den
ĠBiz ce
ĠBiz ans
ĠyaptÄ± lar
ĠsavaÅŁ Ä±n
millet le
millet ten
millet imizin
Ġbas ka
Ġbas tÄ±ÄŁÄ±
ilecek se
Ġkoy u
Ġkoy du
Ġkoy dur
Ġkoy up
Ġkoy uyordu
Ġkoy uldu
Ġkoy arsa
Ġas lÄ±nÄ±
ĠPadiÅŁah Ä±
Ġcan a
Ġmerkez in
Ġmerkez ine
Ġmerkez leri
Ġmerkez lerde
Ġmerkez lerinden
Ġsubay lara
Ġtaarruz la
Ġtaarruz dan
ME LER
ME LERÄ°
bur nu
Ġcevab Ä±nda
Ġte I
Ġte dir
ĠgÃ¶rÃ¼ÅŁmeler inin
Ġengel dir
Ã§alÄ±ÅŁ tÄ±
Ã§alÄ±ÅŁ mak
Ã§alÄ±ÅŁ arak
Ã§alÄ±ÅŁ Ä±yor
Ã§alÄ±ÅŁ Ä±yordu
Ã§alÄ±ÅŁ malarÄ±nÄ±
deÅŁ ik
Ġhep imizin
Ġhep sinden
getir me
getir iyordu
getir miÅŁti
getir ilmesini
getir diler
ĠU lu
ĠU ÄŀR
ĠU ZAK
Ġkazan ma
Ġkazan Ä±lan
Ġkazan Ä±lmasÄ±
Ġkazan dÄ±rmak
uyu larak
ĠtoplantÄ± dan
ĠtoplantÄ± larÄ±
tak ma
Ġkolay dÄ±
ĠkatÄ±l mamÄ±ÅŁ
ĠdÃ¼ÅŁÃ¼nceler den
ĠbaÄŁÄ±msÄ±z lÄ±ÄŁÄ±na
ĠbaÄŁÄ±msÄ±z lÄ±ÄŁÄ±nÄ±n
gÃ¶ster mek
gÃ¶ster mektedir
gÃ¶ster diler
dak ini
dak ilere
dÃ¼k lerini
Ġora sÄ±
ĠTÃ¼men ler
Ġbilgiler inizle
gen elg
gen elge
Ġdir endik
ĠyakÄ±n larÄ±
ĠyakÄ±n larÄ±ndan
ĠyakÄ±n larÄ±ndaki
ĠuÄŁ unu
abilir se
abilir sek
abilir siniz
Ġoy larÄ±n
Ġoy birliÄŁi
dum duy
ĠDoÄŁu da
ĠsaygÄ± yla
ĠsaygÄ± sÄ±nÄ±
ben de
gir miÅŁ
gir diÄŁi
gir dim
Ġkes imini
Ġkes imine
ĠyÄ±l Ä±n
ĠyÄ±l Ä±nda
ĠyÄ±l lardan
Ã¢tÄ± Ã¢lÃ®
ĠkarÅŁÄ±lÄ±k sÄ±z
par k
mayacak larÄ±
ĠFransÄ±z lara
DA HÄ°LÄ°
biz imle
Ġkam araya
Ġkam arasÄ±na
Ġifade ye
Ġifade siyle
Ġifade yle
kadar Ä±
emiÅŁ tir
emiÅŁ tim
Ġettir me
Ġettir dim
Ġettir mesi
Ġettir ilmesine
Ġettir ilmek
ĠEthem ve
LA L
dÃ¶n Ã¼k
dÃ¶n erek
dÃ¶n Ã¼p
kin liÄŁe
Ġac emi
ĠRum lar
Ġmadde sine
ĠaÅŁaÄŁÄ± lÄ±k
alt ma
Ä°Y Ä°
ĠkaldÄ±r an
ĠkaldÄ±r dÄ±ÄŁÄ±
ĠkaldÄ±r Ä±lmÄ±ÅŁ
ĠkaldÄ±r Ä±lmÄ±ÅŁtÄ±r
ĠkaldÄ±r Ä±lmasÄ±nÄ±n
ĠanlaÅŁÄ± labil
ĠanlaÅŁÄ± lamamÄ±ÅŁtÄ±r
Ġuygu lar
Ġuygu layan
Ġuygu layacak
ĠsÄ±nÄ±r Ä±nÄ±
ĠsÄ±nÄ±r larÄ±n
ĠsÄ±nÄ±r Ä±na
ĠsÄ±nÄ±r sÄ±z
ĠsÄ±nÄ±r Ä±nÄ±n
aÃ§Ä±k lÄ±k
aÃ§Ä±k ladÄ±
anla tan
anla mÄ±
anla madÄ±ÄŁÄ±mÄ±z
Ġtay inde
Ġtay fanÄ±n
sav aÅŁa
ĠÅŁifr eye
Biz de
Biz imle
ĠyÃ¼k let
ĠyÃ¼k lendi
kiler den
inc inin
ĠkarÄ±ÅŁ ma
ĠkarÄ±ÅŁ mak
Ġvermek ti
ĠaydÄ±n lanmasÄ±na
ĠaydÄ±n latacak
ĠgiriÅŁ inde
ĠgiriÅŁ mek
ĠgiriÅŁ ti
ĠgiriÅŁ miÅŁ
ĠgiriÅŁ ten
ĠgiriÅŁ tiler
ĠgiriÅŁ ilmemesi
ĠboÅŁ altÄ±
Ġdefa sÄ±nda
tut u
tut tur
tut uÅŁtur
tut tuÄŁ
Ġbit er
Ġbit ki
Ġbit tiÄŁi
Ġbit kilerin
ĠfÄ±r ladÄ±
devlet ler
devlet lerin
hak larÄ±
hak kÄ±nÄ±
hak kÄ±ndan
Ġot elde
mes iy
mes lek
ĠÃľ mit
ĠÃľ zer
ĠÃľ NV
Ġkork maya
Ġkork ulacak
Ġses len
Ġsuret le
Ġsuret inin
'' ,
eden Ã®
ĠÅŁÃ¶yle ce
ĠHer hangi
Ġmev kiler
Ġmev sim
ĠyayÄ±n lamak
ĠyayÄ±n layarak
ĠyayÄ±n lamÄ±ÅŁ
ĠyayÄ±n ladÄ±ÄŁÄ±
ĠyayÄ±n lanarak
ĠyayÄ±n lanmasÄ±nÄ±
sÃ¶yle miÅŁ
Ġsar sÄ±
Ġsar sa
ĠtaÅŁÄ± ya
ĠtaÅŁÄ± yarak
saÄŁ lanmasÄ±
bilecek leri
Ġmemur un
Ġmemur lara
Ġmemur lardan
ĠdÃ¼zen siz
ĠdÃ¼zen leyen
ham madde
ĠÃ§alÄ±ÅŁma larÄ±n
ĠhÃ¼kÃ¼m lerin
ĠhÃ¼kÃ¼m lerinden
ĠhÃ¼kÃ¼m sÃ¼z
his s
ĠI r
Ġat tÄ±m
ĠSav aÅŁa
ĠaÃ§Ä± dan
Ġfaaliyet ler
Ġfaaliyet te
Ġfaaliyet lerine
id in
Ġ5 0
mamÄ±ÅŁ sa
Ġtali ma
ĠÃ§evr esi
ĠÃ§evr ilmiÅŁ
ĠÃ§evr ildi
ĠÃ§evr esine
ĠÃ§evr elerde
ĠuÄŁra yan
ĠuÄŁra dÄ±k
ĠuÄŁra yÄ±p
insan lardan
Ġbak Ä±lÄ±rsa
Ġyen ilip
Ġyen ilmez
karar larÄ±nÄ±
ĠsilÃ¢h lan
ĠseÃ§im ini
ĠseÃ§im leri
ĠseÃ§im lerde
ĠhaberleÅŁ meyi
ĠhaberleÅŁ melerinin
ĠhaberleÅŁ melerin
ĠcÃ¼m lenin
Ġhusus undaki
dÃ¶rt lÃ¼k
mÃ¼ saade
mÃ¼ dahal
ĠgeÃ§en lerin
merm ileriyle
Ġesas larÄ±n
Ġesas larÄ±na
ĠdeÄŁiÅŁtir ilmiÅŁ
ĠdeÄŁiÅŁtir ileceÄŁi
gÃ¶nder il
gÃ¶nder erek
gÃ¶nder diÄŁi
gÃ¶nder ilmesine
gÃ¶nder ilebilir
gÃ¶nder ilmek
baÅŁka sÄ±
Ġyetki de
ĠhatÄ±r Ä±nda
ĠÅŁahÄ±s larÄ±nÄ±
ĠÅŁahÄ±s lara
ĠdavranÄ±ÅŁ la
ĠdavranÄ±ÅŁ Ä±nÄ±
ĠdavranÄ±ÅŁ larla
ici dir
Ġgazet eleri
Ġgazet elerde
Ġvak te
Ġtemsilc inin
kap lar
tam Ä±na
taraf Ä±nda
zat Ä±n
ĠÃ¼z Ã¼lmÃ¼ÅŁ
ĠtartÄ±ÅŁ mayÄ±
baÄŁ a
baÄŁ daÅŁ
baÄŁ layarak
gÃ¼Ã§ leÅŁtir
gÃ¼Ã§ lendir
lor inle
yÄ±l Ä±n
yÄ±l lar
ĠkiÅŁ iler
ayak ta
ĠkardeÅŁ ler
ĠkardeÅŁ lerine
ĠkardeÅŁ Ã§e
Ġanlam Ä±n
Ġanlam da
Ġanlam Ä±nÄ±
altÄ± lacak
Ġhav asÄ±nÄ±
ĠeÄŁ meye
ĠgÃ¶rÃ¼n tÃ¼sÃ¼
Ġedilme z
Ġedilme di
Ġedilme diÄŁini
Ġedilme sinden
Ġherhangi bir
Ġkabin ece
Ġrapor unun
AK YA
ĠÄ± Ä±
elen en
elen me
Ġtas dik
Ġhizmet inde
Ġhizmet leri
Ġhizmet lerini
Ġveril eceÄŁini
Ġveril melidir
Ġveril diÄŁinden
Ġveril mistir
Ġli b
Ġboz maya
Ġboz uk
Ġtemel leri
Ġuyan an
ĠuÄŁr aÅŁÄ±
ĠuÄŁr aÅŁacak
Ġuygulan abilecek
ĠgeniÅŁ letmek
ĠkarÅŁ Ä±mÄ±za
Ġetki siz
Ġsoru larla
ĠaÅŁ kÄ±n
Ġtah ri
Ġtah rip
Ä°n ci
ĠKAR IÅŀ
ĠbaÅŁvur ma
ĠbaÅŁvur maya
ĠbaÅŁvur maktan
ĠbaÅŁvur ulacak
ĠvermiÅŁ lerdir
kor uyu
ĠkÄ±r Ä±lan
ĠkÄ±r Ä±lmÄ±ÅŁ
ĠkÄ±r maktan
Ġgrup lar
Ġgrup ta
Ġgrup larÄ±n
ĠateÅŁ te
Ġisten miÅŁtir
Ġisten mektedir
Ġistiyor muÅŁ
Ġpr opagan
ĠedeceÄŁ imi
rÃ¼ be
Ġdil emek
Ġkat mak
Ġkat arak
Ġkat lanmak
biri biri
Ġkurtar dÄ±
Ġkurtar mÄ±ÅŁ
luÄŁ uyla
luÄŁ umu
Ġsaltanat Ä±nÄ±
Ġsaltanat tan
hareket i
hareket ini
hareket leri
hareket inden
hareket lerinin
hareket lerinde
dÃ¼z ine
emey eceklerini
ger ilerine
ĠtÃ¼men inin
ĠtÃ¼men imiz
ĠtÃ¼men lerine
ĠtÃ¼men lerimizin
ĠBun ca
emir lere
landÄ± ra
Fran klin
bÄ±rak tÄ±ÄŁÄ±
kÃ¼r sÃ¼
meniz in
ĠendiÅŁ em
ĠendiÅŁ eyi
ĠendiÅŁ esini
ĠendiÅŁ elen
ĠendiÅŁ esiyle
Ġdost larÄ±mÄ±
Ġku la
ĠasÄ±l larÄ±
uzak laÅŁtÄ±ra
Ġbulundur maya
Ġbulundur makla
Ġbulundur ulmasÄ±nÄ±
Ġtoprak larÄ±ndan
ĠhaklÄ± ydÄ±
ĠsaldÄ±rÄ± sÄ±
ĠsaldÄ±rÄ± larÄ±
ĠsaldÄ±rÄ± lara
ĠsakÄ±nca larÄ±n
ĠimkÃ¢n larÄ±
DE V
DE MÄ°R
Hal kÄ±n
YA H
bak arsÄ±nÄ±z
nokta dan
nokta larÄ±
nokta larÄ±n
nokta larÄ±na
Ġiler iye
Ġiler leyerek
Ġiler ledim
Ġiler liyor
Ġotur muÅŁ
Ġotur duÄŁu
Ġotur tul
Ġotur duklarÄ±
ĠTemmuz da
Ġistek lerinin
Ġistek lerimiz
ĠgÃ¶revi dir
Ġbelli baÅŁlÄ±
deÄŁiÅŁ im
belir di
belir siz
iran ÅŁehir
Ġav cÄ±sÄ±
Ġayak lanmaya
Ġayak landÄ±rmak
ĠyanlÄ±ÅŁ tÄ±r
ĠyanlÄ±ÅŁ lÄ±ÄŁa
do lardan
do laÅŁtÄ±
ĠaÄŁÄ±r lÄ±ÄŁÄ±nÄ±
Ġtamam lamak
Ġtamam lamÄ±ÅŁ
Ġtamam lanmasÄ±nÄ±
miyor lardÄ±
seniz e
Ġev ine
Ġev lat
tep esi
tep esinde
tep meyi
Ġkonus unu
Ġtalimat Ä±na
aya ÄŁÄ±
hep sini
hep sine
Ġ4 0
Ġ4 1
orta sÄ±na
Ä°s viÃ§re
mektey diler
Ġfark la
Ġyeri me
Ġkurtul muÅŁ
hÃ¼kÃ»met i
hÃ¼kÃ»met ten
ses iyle
ses lendi
ĠÃ¶r gÃ¼tÃ¼n
Ã¼c ret
Ã¼c Ã¼lÃ¼k
Ġsak lÄ±
Ġsak Ä±nÄ±l
duy ulur
Ġada da
Ġpara ya
Ġpara sÄ±z
Ġayn n
ĠsaÄŁlamak tÄ±r
Ġispat lamÄ±ÅŁ
Ġzarur idir
ĠhÃ¢kimiyet imizi
Ġmektup lardan
Ġtakip te
ĠJ Ã¼piter
ĠJ apon
ĠNa ilÃ®
din Ã®
din leme
yak Ä±nda
yak Ä±p
yak alan
yak laÅŁtÄ±
ÅŁam ba
Ġhedef lere
Ġdest eklendi
ĠdÃ¼ÅŁÃ¼r Ã¼lmÃ¼ÅŁ
ĠgeliÅŁ en
ĠgeliÅŁ inden
ĠgeliÅŁ mesi
ĠgeliÅŁ meler
ĠgeliÅŁ mekte
ĠÃ¶ÄŁren ci
ĠÃ¶ÄŁren meye
ĠÃ¶ÄŁren eceksiniz
Ġkoru makla
Ġtutuk lat
Ġtutuk larÄ±m
Ġtutuk lanma
Ġtutuk lanÄ±p
melidir ler
bit miÅŁti
gerÃ§ek ler
iÄŁ imiz
Ã§evr esi
Ã§evr eleyen
uzun luÄŁunda
baÅŁkan lÄ±ÄŁÄ±
baÅŁkan lÄ±ÄŁÄ±nda
gÃ¶rev den
ÃľK S
kurul duÄŁu
kurul duktan
Ġsavun ulmasÄ±
Ġsavun ulmasÄ±na
ĠtanÄ± dÄ±ÄŁÄ±
ĠtanÄ± dÄ±ÄŁÄ±nÄ±
ĠtanÄ± madÄ±ÄŁÄ±nÄ±
AZ LAR
GÃ¼n lerden
Komutan larÄ±n
gÃ¼l Ã¼nÃ§
gÃ¼l Ã¼mseyerek
Ġitir azÄ±
Ġmet al
ĠgÃ¶tÃ¼r erek
ĠgÃ¶tÃ¼r meye
ĠgÃ¶tÃ¼r mez
ĠgÃ¶tÃ¼r eceÄŁim
Ġgider ler
Ġgider mek
Ġgider ecek
Ġgider ilmiÅŁ
ĠGÃ¶r Ã¼yorsunuz
ĠGÃ¶r Ã¼nÃ¼ÅŁ
ĠulaÅŁ mamÄ±ÅŁ
ĠulaÅŁ mÄ±ÅŁtÄ±k
adam la
Ġkolordu larÄ±n
sÄ±ra sÄ±
sÄ±ra yla
ĠSa ip
Ã§Ä±kar an
ĠÃ§Ä±ktÄ± ÄŁÄ±na
Ġihtiya cÄ±
sever lik
Ġzorunda dÄ±r
ĠfÄ±rsat Ä±n
fÄ±r tÄ±n
fÄ±r latÄ±
oca eli
arkadaÅŁ larÄ±n
Ġkomisyon larÄ±ndan
ĠÃ¼mit li
ĠÃ¼mit le
ĠÃ¼mit siz
ĠÃ¼mit lerinin
Kon uÅŁ
Or taklarÄ±
bra vo
Ġkad ran
Ġval iliÄŁine
Ġval iliÄŁini
ĠeÅŁ kiy
ĠeÅŁ kÄ±yalÄ±k
ĠGÃĸ Z
ĠGÃĸ NDER
konuÅŁ tu
layacak tÄ±
layacak sÄ±nÄ±z
Ġtemsilci siyle
ĠyÃ¼rÃ¼t meye
Ġdiren erek
Ġdo gru
ĠyapÄ±l maya
ĠyapÄ±l mÄ±ÅŁtÄ±
dÃ¼ÅŁman ca
dÃ¼ÅŁman larÄ±n
Ġhayat ta
ĠmÃ¼frez elerin
ĠmÃ¼frez elere
Cumhuriyet i
hay di
kÃ¶ pek
Ġ7 0
Ġ8 4
ekÃ¢ lif
demir yol
mec lis
ĠMar din
Ġverme diÄŁi
Ġverme dim
Ġverme mi
Ġverme miÅŁtir
Ġarka ya
Ġarka sÄ±na
mermi si
Ġduyur ulduÄŁu
Ġkimse de
Ġkimse dir
Bil ecik
Bil iyorsunuz
dal gÄ±Ã§
kuvvet in
kuvvet lerin
Ġgez dir
Ġgez ip
Ġgez isi
ĠsuÃ§ l
mÄ±yor lar
ĠÃ§arp an
Ġpolitik asÄ±nÄ±
Ġpolitik aya
Ne e
yÃ¶n e
Ġvur du
ĠyaÅŁa masÄ±nÄ±
ĠyaÅŁa makta
ĠyaÅŁa dÄ±ÄŁÄ±
ĠyaÅŁa yabil
Ġiddi anÄ±n
ĠBil indiÄŁi
ĠÄ°Ã§ in
arasÄ±nda ydÄ±
Ġnok taydÄ±
Ġortak lÄ±k
ĠÅŀu be
ĠÅŁahsiyet lerin
ĠdÄ±ÅŁarÄ± daki
Ġtayin ini
ĠaydÄ±nlat tÄ±
ĠaydÄ±nlat mayÄ±
ĠÄ±srar Ä±na
kullan mayÄ±
kullan Ä±lacak
Ġbelg esi
Ġbelg elerden
ĠvazgeÃ§ ir
ĠvazgeÃ§ erek
ĠvazgeÃ§ emeyiz
Ġsok mak
Ġsok maktadÄ±r
ĠoluÅŁtur acak
ĠMayÄ± sta
ĠGerÃ§ekten de
Ġkalan lar
Ġesir leri
Ġesir ge
ĠgerÃ§ekleÅŁtir ecek
ĠgerÃ§ekleÅŁtir ebilecek
ĠgerÃ§ekleÅŁtir ilebilir
Ġihtimal le
Ġihtimal ine
dÃ¶k Ã¼ldÃ¼
kesin leÅŁmiÅŁ
Ġkana atÄ±
Ġkana ati
Ġgru bunun
Ġvekil lerinin
ĠsÄ±r r
Ġtep ede
Ġtep kiler
Ġtep eden
yay lar
yay Ä±lma
ĠAÄŁust osta
tarih e
ĠgÃ¼Ã§lÃ¼k le
ĠgÃ¼Ã§lÃ¼k lere
soru larÄ±
dÃ¼ÅŁÃ¼nc elere
dÃ¼ÅŁÃ¼nc elerle
dÃ¼ÅŁÃ¼nc elerine
dÃ¼ÅŁÃ¼nc eleriniz
ĠkarÅŁÄ±lan maya
ĠkarÅŁÄ±lan dÄ±ÄŁÄ±
ĠkarÅŁÄ±lan acak
AL LARI
indir di
Ġkol larÄ±nÄ±
ĠyukarÄ± daki
alÄ±n mÄ±ÅŁ
Ġkongr elerin
Ġkongr elerde
meyecek siniz
Ġmadd elik
Ġmadd elerinin
ĠsaldÄ±r an
ĠsaldÄ±r masÄ±
ĠsaldÄ±r arak
Ġmeydan daydÄ±
15 5
kiÅŁ iyi
anlaÅŁ Ä±lan
anlaÅŁ Ä±lmÄ±ÅŁ
Ġdiy enlerin
Ġyara maz
ĠhilÃ¢fet e
ĠBÄ°R Ä°
ĠBÄ°R LÄ°K
ĠMÃ¼slÃ¼man lar
ĠMÃ¼slÃ¼man larÄ±
ĠMÃ¼slÃ¼man lara
ĠMÃ¼slÃ¼man lyk
Ġbildiril mek
Ġyolunda ydÄ±
ĠsaÄŁlan Ä±p
ĠsaÄŁlan abilmesi
Ġincel eye
savaÅŁ Ä±n
savaÅŁ tan
FransÄ±z ca
FransÄ±z larÄ±n
Son raki
hazÄ±r dÄ±
kazan dÄ±ÄŁÄ±nÄ±
Ġdal g
Ġdal dÄ±
ĠKÃ¼rt le
Ä±lmaz dÄ±
ĠsÃ¶zler im
ĠsÃ¶zler imi
ÃľN E
ÃľN DE
ÃľN ÃľÅŀ
ĠhazÄ±rlÄ±k larÄ±n
ĠhazÄ±rlÄ±k larÄ±nÄ±n
Ġokun muÅŁ
Ġokun duktan
kims elerle
niyet li
ĠyaÅŁ lÄ±
ĠyaÅŁ am
dayan mayan
ĠÃ§ev ik
ĠÃ§ev re
ĠalÄ±na caÄŁÄ±na
Ġetraf Ä±
Ġetraf lÄ±ca
Ġbenims er
Ġbenims emek
Ġbenims eyen
Ġbenims enip
Ġbenims etmeye
ĠÃ¶ÄŁ leye
ĠMutasarrÄ±f lÄ±ÄŁÄ±
LARI MIZ
gÃ¼ven ce
gÃ¼ven iyorum
Ġsoruml uluÄŁunun
ĠyÄ±k Ä±m
Ġhuzur una
yacak sÄ±nÄ±z
Ġsiyaset in
Ġsiyaset ine
Ġsiyaset ini
Ġprog rama
Ġirade si
EM LÄ°
dost u
dost una
haber ler
ĠkÃ¶y de
ĠkÃ¶y lere
ĠkÃ¶y lerinde
olur sunuz
Ġniyet lerini
ĠErmen ileri
ĠErmen ilik
ĠistiklÃ¢l ine
ĠGÃĸR E
ĠGÃĸR Ãľ
ĠGÃĸR DÃľ
Al Ä±n
Al tÄ±
[...]
