{
 "<s>": 0,
 "<pad>": 1,
 "</s>": 2,
 "<unk>": 3,
 "<mask>": 4,
 "!": 5,
 "\"": 6,
 "#": 7,
 "$": 8,
 "%": 9,
 "&": 10,
 "'": 11,
 "(": 12,
 ")": 13,
 "*": 14,
 "+": 15,
 ",": 16,
 "-": 17,
 ".": 18,
 "/": 19,
 "0": 20,
 "1": 21,
 "2": 22,
 "3": 23,
 "4": 24,
 "5": 25,
 "6": 26,
 "7": 27,
 "8": 28,
 "9": 29,
 ":": 30,
 ";": 31,
 "<": 32,
 "=": 33,
 ">": 34,
 "?": 35,
 "@": 36,
 "A": 37,
 "B": 38,
 "C": 39,
 "D": 40,
 "E": 41,
 "F": 42,
 "G": 43,
 "H": 44,
 "I": 45,
 "J": 46,
 "K": 47,
 "L": 48,
 "M": 49,
 "N": 50,
 "O": 51,
 "P": 52,
 "Q": 53,
 "R": 54,
 "S": 55,
 "T": 56,
 "U": 57,
 "V": 58,
 "W": 59,
 "X": 60,
 "Y": 61,
 "Z": 62,
 "[": 63,
 "\\": 64,
 "]": 65,
 "^": 66,
 "_": 67,
 "`": 68,
 "a": 69,
 "b": 70,
 "c": 71,
 "d": 72,
 "e": 73,
 "f": 74,
 "g": 75,
 "h": 76,
 "i": 77,
 "j": 78,
 "k": 79,
 "l": 80,
 "m": 81,
 "n": 82,
 "o": 83,
 "p": 84,
 "q": 85,
 "r": 86,
 "s": 87,
 "t": 88,
 "u": 89,
 "v": 90,
 "w": 91,
 "x": 92,
 "y": 93,
 "z": 94,
 "{": 95,
 "|": 96,
 "}": 97,
 "~": 98,
 "¡": 99,
 "¢": 100,
 "£": 101,
 "¤": 102,
 "¥": 103,
 "¦": 104,
 "§": 105,
 "¨": 106,
 "©": 107,
 "ª": 108,
 "«": 109,
 "¬": 110,
 "®": 111,
 "¯": 112,
 "°": 113,
 "±": 114,
 "²": 115,
 "³": 116,
 "´": 117,
 "µ": 118,
 "¶": 119,
 "·": 120,
 "¸": 121,
 "¹": 122,
 "º": 123,
 "»": 124,
 "¼": 125,
 "½": 126,
 "¾": 127,
 "¿": 128,
 "À": 129,
 "Á": 130,
 "Â": 131,
 "Ã": 132,
 "Ä": 133,
 "Å": 134,
 "Æ": 135,
 "Ç": 136,
 "È": 137,
 "É": 138,
 "Ê": 139,
 "Ë": 140,
 "Ì": 141,
 "Í": 142,
 "Î": 143,
 "Ï": 144,
 "Ð": 145,
 "Ñ": 146,
 "Ò": 147,
 "Ó": 148,
 "Ô": 149,
 "Õ": 150,
 "Ö": 151,
 "×": 152,
 "Ø": 153,
 "Ù": 154,
 "Ú": 155,
 "Û": 156,
 "Ü": 157,
 "Ý": 158,
 "Þ": 159,
 "ß": 160,
 "à": 161,
 "á": 162,
 "â": 163,
 "ã": 164,
 "ä": 165,
 "å": 166,
 "æ": 167,
 "ç": 168,
 "è": 169,
 "é": 170,
 "ê": 171,
 "ë": 172,
 "ì": 173,
 "í": 174,
 "î": 175,
 "ï": 176,
 "ð": 177,
 "ñ": 178,
 "ò": 179,
 "ó": 180,
 "ô": 181,
 "õ": 182,
 "ö": 183,
 "÷": 184,
 "ø": 185,
 "ù": 186,
 "ú": 187,
 "û": 188,
 "ü": 189,
 "ý": 190,
 "þ": 191,
 "ÿ": 192,
 "Ā": 193,
 "ā": 194,
 "Ă": 195,
 "ă": 196,
 "Ą": 197,
 "ą": 198,
 "Ć": 199,
 "ć": 200,
 "Ĉ": 201,
 "ĉ": 202,
 "Ċ": 203,
 "ċ": 204,
 "Č": 205,
 "č": 206,
 "Ď": 207,
 "ď": 208,
 "Đ": 209,
 "đ": 210,
 "Ē": 211,
 "ē": 212,
 "Ĕ": 213,
 "ĕ": 214,
 "Ė": 215,
 "ė": 216,
 "Ę": 217,
 "ę": 218,
 "Ě": 219,
 "ě": 220,
 "Ĝ": 221,
 "ĝ": 222,
 "Ğ": 223,
 "ğ": 224,
 "Ġ": 225,
 "ġ": 226,
 "Ģ": 227,
 "ģ": 228,
 "Ĥ": 229,
 "ĥ": 230,
 "Ħ": 231,
 "ħ": 232,
 "Ĩ": 233,
 "ĩ": 234,
 "Ī": 235,
 "ī": 236,
 "Ĭ": 237,
 "ĭ": 238,
 "Į": 239,
 "į": 240,
 "İ": 241,
 "ı": 242,
 "Ĳ": 243,
 "ĳ": 244,
 "Ĵ": 245,
 "ĵ": 246,
 "Ķ": 247,
 "ķ": 248,
 "ĸ": 249,
 "Ĺ": 250,
 "ĺ": 251,
 "Ļ": 252,
 "ļ": 253,
 "Ľ": 254,
 "ľ": 255,
 "Ŀ": 256,
 "ŀ": 257,
 "Ł": 258,
 "ł": 259,
 "Ń": 260,
 "Ä±": 261,
 "Ã¼": 262,
 "ÅŁ": 263,
 "ar": 264,
 "er": 265,
 "an": 266,
 "in": 267,
 "Ġb": 268,
 "il": 269,
 "ir": 270,
 "en": 271,
 "Ä±n": 272,
 "ÄŁ": 273,
 "et": 274,
 "Ã§": 275,
 "Ġd": 276,
 "ma": 277,
 "Ġk": 278,
 "ek": 279,
 "Ġg": 280,
 "Ã¶": 281,
 "Ġv": 282,
 "lar": 283,
 "un": 284,
 "ak": 285,
 "el": 286,
 "la": 287,
 "Ġs": 288,
 "Ġy": 289,
 "al": 290,
 "Ġo": 291,
 "Ġve": 292,
 "Ġt": 293,
 "di": 294,
 "de": 295,
 "ler": 296,
 "da": 297,
 "Ġi": 298,
 "Ġbir": 299,
 "li": 300,
 "ur": 301,
 "Ġh": 302,
 "me": 303,
 "dÄ±": 304,
 "ĠB": 305,
 "Ã¼n": 306,
 "im": 307,
 "aÅŁ": 308,
 "iz": 309,
 "ya": 310,
 "or": 311,
 "le": 312,
 "on": 313,
 "ul": 314,
 "du": 315,
 "tÄ±": 316,
 "Ġa": 317,
 "iy": 318,
 "lÄ±": 319,
 "Ä°": 320,
 "st": 321,
 "ey": 322,
 "Ġol": 323,
 "ra": 324,
 "sÄ±": 325,
 "Ä±ÅŁ": 326,
 "dan": 327,
 "es": 328,
 "em": 329,
 "Ġm": 330,
 "iÅŁ": 331,
 "ĠK": 332,
 "ĠgÃ¶": 333,
 "ec": 334,
 "den": 335,
 "at": 336,
 "âĢ": 337,
 "Ã¢": 338,
 "ÄŁÄ±": 339,
 "Ġde": 340,
 "ay": 341,
 "ĠM": 342,
 "Ä±nÄ±": 343,
 "um": 344,
 "Ã¼k": 345,
 "ĠÃ§": 346,
 "ine": 347,
 "ĠÅŁ": 348,
 "Ã¼ÅŁ": 349,
 "mak": 350,
 "Ã¼r": 351,
 "ini": 352,
 "az": 353,
 "Ġbu": 354,
 "ol": 355,
 "Ġe": 356,
 "ĠA": 357,
 "ab": 358,
 "ik": 359,
 "am": 360,
 "ap": 361,
 "Ã¼z": 362,
 "iler": 363,
 "Ġda": 364,
 "ce": 365,
 "dir": 366,
 "tan": 367,
 "Ä±l": 368,
 "let": 369,
 "larÄ±": 370,
 "ca": 371,
 "ta": 372,
 "ĠÄ°": 373,
 "Ä±k": 374,
 "ĠgÃ¶r": 375,
 "larÄ±n": 376,
 "inde": 377,
 "ĠH": 378,
 "eler": 379,
 "Ġil": 380,
 "bir": 381,
 "ara": 382,
 "Ġn": 383,
 "yor": 384,
 "Ä±r": 385,
 "mek": 386,
 "ĠP": 387,
 "ok": 388,
 "ĠiÃ§": 389,
 "uz": 390,
 "si": 391,
 "ti": 392,
 "Ä±z": 393,
 "Ã¶n": 394,
 "te": 395,
 "ev": 396,
 "mÄ±ÅŁ": 397,
 "sÄ±n": 398,
 "lan": 399,
 "cak": 400,
 "aÅŁa": 401,
 "Ã¶z": 402,
 "duÄŁ": 403,
 "sa": 404,
 "Ã®": 405,
 "leri": 406,
 "Ġal": 407,
 "miÅŁ": 408,
 "it": 409,
 "Ġkar": 410,
 "Ġet": 411,
 "ĠT": 412,
 "Ġson": 413,
 "inin": 414,
 "mu": 415,
 "Ġbil": 416,
 "'d": 417,
 "erek": 418,
 "ĠS": 419,
 "âĢĻ": 420,
 "uy": 421,
 "ÄŁi": 422,
 "ad": 423,
 "Ä±m": 424,
 "ulun": 425,
 "ĠbaÅŁ": 426,
 "Ġver": 427,
 "met": 428,
 "ĠE": 429,
 "ah": 430,
 "lik": 431,
 "dÄ±r": 432,
 "illet": 433,
 "bil": 434,
 "ĠPaÅŁa": 435,
 "ĠBey": 436,
 "ĠiÃ§in": 437,
 "endi": 438,
 "ye": 439,
 "us": 440,
 "bi": 441,
 "Ġz": 442,
 "Ã¼m": 443,
 "iye": 444,
 "ÅŁÄ±": 445,
 "Ġan": 446,
 "unu": 447,
 "eÃ§": 448,
 "tÄ±r": 449,
 "tir": 450,
 "lÄ±k": 451,
 "Ã¶y": 452,
 "ka": 453,
 "eÅŁ": 454,
 "Ġbulun": 455,
 "Ġyap": 456,
 "Ã¼t": 457,
 "lay": 458,
 "ĠBu": 459,
 "iyor": 460,
 "ki": 461,
 "19": 462,
 "Ġed": 463,
 "Ġ:": 464,
 "ĠD": 465,
 "Ã¼l": 466,
 "urum": 467,
 "larak": 468,
 "Ä±na": 469,
 "oÄŁ": 470,
 "end": 471,
 "ĠdÃ¼ÅŁ": 472,
 "ha": 473,
 "Ġist": 474,
 "Ġme": 475,
 "Ġp": 476,
 "Ġkon": 477,
 "imiz": 478,
 "Ã¼zer": 479,
 "Ã»": 480,
 "masÄ±": 481,
 "ci": 482,
 "Ġile": 483,
 "Ä±nda": 484,
 "Ã¼y": 485,
 "ekil": 486,
 "op": 487,
 "maya": 488,
 "Ã¶r": 489,
 "Ġgel": 490,
 "Ã¶yle": 491,
 "ĠolduÄŁ": 492,
 "iyet": 493,
 "..": 494,
 "ece": 495,
 "ecek": 496,
 "iÃ§": 497,
 "aki": 498,
 "as": 499,
 "laÅŁ": 500,
 "stan": 501,
 "omu": 502,
 "man": 503,
 "Ġgi": 504,
 "ecli": 505,
 "Ġolan": 506,
 "ĠC": 507,
 "elg": 508,
 "uk": 509,
 "bul": 510,
 "ĠY": 511,
 "Ġsonra": 512,
 "--": 513,
 "ĠÃ¶n": 514,
 "Åŀ": 515,
 "endiler": 516,
 "Ġf": 517,
 "ed": 518,
 "ĠG": 519,
 "ĠN": 520,
 "Ġmillet": 521,
 "Ã¼kÃ»": 522,
 "ĠÃ¼zer": 523,
 "inden": 524,
 "aÄŁ": 525,
 "ilme": 526,
 "ru": 527,
 "av": 528,
 "ÄŁÄ±m": 529,
 "Ġay": 530,
 "Ã¼tÃ¼n": 531,
 "esi": 532,
 "Ã¼kÃ»met": 533,
 "omutan": 534,
 "Ġar": 535,
 "ut": 536,
 "Ã§Ä±k": 537,
 "adar": 538,
 "yla": 539,
 "eket": 540,
 "stanbul": 541,
 "ĠiÅŁ": 542,
 "Ġolarak": 543,
 "Ġyer": 544,
 "raf": 545,
 "uÅŁ": 546,
 "ĠMecli": 547,
 "ĠO": 548,
 "ĠkarÅŁÄ±": 549,
 "sÄ±z": 550,
 "ih": 551,
 "ĠF": 552,
 "ĠR": 553,
 "ÄŁÄ±nÄ±": 554,
 "kan": 555,
 "unun": 556,
 "eni": 557,
 "yordu": 558,
 "ĠgÃ¼n": 559,
 "eki": 560,
 "ĠgÃ¶rÃ¼ÅŁ": 561,
 "ve": 562,
 "Ġin": 563,
 "ten": 564,
 "Ġgerek": 565,
 "eb": 566,
 "Ġr": 567,
 "nin": 568,
 "fa": 569,
 "elgraf": 570,
 "Ġkadar": 571,
 "ĠdeÄŁ": 572,
 "ĠAn": 573,
 "Ä±ndan": 574,
 "diÄŁ": 575,
 "arÄ±": 576,
 "ilÃ¢": 577,
 "is": 578,
 "Ġgibi": 579,
 "gil": 580,
 "lÃ®": 581,
 "yÄ±": 582,
 "Ġuy": 583,
 "iniz": 584,
 "Ã¼yÃ¼k": 585,
 "Ġkur": 586,
 "Ġor": 587,
 "Ġger": 588,
 "fendiler": 589,
 "asÄ±": 590,
 "yan": 591,
 "cÄ±": 592,
 "Ġdurum": 593,
 "der": 594,
 "nÄ±n": 595,
 "uv": 596,
 "larÄ±nÄ±": 597,
 "unda": 598,
 "Ġdaha": 599,
 "arak": 600,
 "ĠÄ°stanbul": 601,
 "ĠgÃ¼": 602,
 "sÄ±nda": 603,
 "Ġtar": 604,
 "gi": 605,
 "Ġbiz": 606,
 "aman": 607,
 "vet": 608,
 "Ġher": 609,
 "Ġkab": 610,
 "ĠsÃ¶z": 611,
 "Ġon": 612,
 "illÃ®": 613,
 "if": 614,
 "ĠÃ§Ä±k": 615,
 "ĠdÃ¼ÅŁÃ¼n": 616,
 "Ġtop": 617,
 "Ġtelgraf": 618,
 "Ġel": 619,
 "Ġce": 620,
 "ĠbÃ¼tÃ¼n": 621,
 "Ġhal": 622,
 "daki": 623,
 "Ġne": 624,
 "ep": 625,
 "sÄ±nÄ±": 626,
 "Ġbildir": 627,
 "yi": 628,
 "madÄ±": 629,
 "Ġvar": 630,
 "Ġkal": 631,
 "una": 632,
 "se": 633,
 "araf": 634,
 "ĠgeÃ§": 635,
 "dik": 636,
 "lerin": 637,
 "ster": 638,
 "ez": 639,
 "âĢľ": 640,
 "ĠMeclis": 641,
 "âĢĿ": 642,
 "Ġ\"": 643,
 "lara": 644,
 "sil": 645,
 "Ġben": 646,
 "bu": 647,
 "lÄ±ÄŁÄ±": 648,
 "ne": 649,
 "azÄ±": 650,
 "Ã§ek": 651,
 "ĠdoÄŁ": 652,
 "iyle": 653,
 "Ã¶l": 654,
 "diÄŁi": 655,
 "Ġkendi": 656,
 "alÄ±ÅŁ": 657,
 "Ġki": 658,
 "Ġ19": 659,
 "ladÄ±": 660,
 "lu": 661,
 "âĢĶ": 662,
 "Ġedil": 663,
 "baÅŁ": 664,
 "atÄ±": 665,
 "ver": 666,
 "sÄ±na": 667,
 "ekli": 668,
 "Ġdev": 669,
 "ĠÃ": 670,
 "Ġola": 671,
 "ĠaÃ§Ä±k": 672,
 "mal": 673,
 "Efendiler": 674,
 "olay": 675,
 "ĠsÃ¼r": 676,
 "ret": 677,
 "maz": 678,
 "Ġtarih": 679,
 "tur": 680,
 "Ġkarar": 681,
 "lÃ¼": 682,
 "Ã¼rk": 683,
 "muÅŁ": 684,
 "Ġtaraf": 685,
 "Ġyar": 686,
 "leÅŁ": 687,
 "ĠV": 688,
 "Ġen": 689,
 "eceÄŁ": 690,
 "Ã¼s": 691,
 "mer": 692,
 "len": 693,
 "Bu": 694,
 "eli": 695,
 "dim": 696,
 "Ġhar": 697,
 "Ġ2": 698,
 "emsil": 699,
 "sini": 700,
 "Ġyol": 701,
 "ĠBaÅŁ": 702,
 "Ġanla": 703,
 "ef": 704,
 "enin": 705,
 "oy": 706,
 "Ġyan": 707,
 "lerini": 708,
 "kar": 709,
 "Ġu": 710,
 "san": 711,
 "gÃ¶r": 712,
 "Ġzaman": 713,
 "ken": 714,
 "iyordu": 715,
 "aptan": 716,
 "tÄ±k": 717,
 "ĠolduÄŁu": 718,
 "gÃ¼n": 719,
 "meye": 720,
 "ayÄ±": 721,
 "mesi": 722,
 "----": 723,
 "dÄ±m": 724,
 "Ġbirlik": 725,
 "Ġhak": 726,
 "ĠÃ§ok": 727,
 "ran": 728,
 "Ġkabul": 729,
 "Ã¼Ã§": 730,
 "etir": 731,
 "kara": 732,
 "ĠgÃ¶ster": 733,
 "ele": 734,
 "ĠteÅŁ": 735,
 "eye": 736,
 "Ġ-": 737,
 "ĠhÃ¼kÃ»met": 738,
 "Ä±nÄ±n": 739,
 "ĠÃ§alÄ±ÅŁ": 740,
 "rÄ±": 741,
 "re": 742,
 "tu": 743,
 "ĠgÃ¶rev": 744,
 "dur": 745,
 "can": 746,
 "Ġuyg": 747,
 "ph": 748,
 "Ãľ": 749,
 "ordu": 750,
 "ĠÃ¶z": 751,
 "Ġem": 752,
 "ims": 753,
 "meler": 754,
 "undan": 755,
 "Ġmak": 756,
 "ĠdeÄŁil": 757,
 "dÃ¼": 758,
 "ip": 759,
 "sine": 760,
 "Ġ1": 761,
 "na": 762,
 "Ä±lan": 763,
 "Ġmem": 764,
 "uvvet": 765,
 "art": 766,
 "deki": 767,
 "'t": 768,
 "ĠKomutan": 769,
 "nÄ±": 770,
 "ĠhiÃ§": 771,
 "eri": 772,
 "emal": 773,
 "eh": 774,
 "mey": 775,
 "Ġbulunan": 776,
 "siz": 777,
 "lacak": 778,
 "ileri": 779,
 "ulu": 780,
 "Ġcev": 781,
 "mi": 782,
 "Ã¢z": 783,
 "ana": 784,
 "gel": 785,
 "mÄ±z": 786,
 "AR": 787,
 "Ġara": 788,
 "Ġhareket": 789,
 "masÄ±nÄ±": 790,
 "Ä±ldÄ±": 791,
 "sk": 792,
 "lÄ±ÄŁ": 793,
 "Ġyok": 794,
 "akÄ±m": 795,
 "ĠTÃ¼rk": 796,
 "ĠdoÄŁru": 797,
 "alÄ±": 798,
 "AN": 799,
 "ĠmillÃ®": 800,
 "gili": 801,
 "lerinin": 802,
 "leket": 803,
 "sun": 804,
 "tik": 805,
 "Ġad": 806,
 "Ġbel": 807,
 "Ġyaz": 808,
 "lama": 809,
 "sek": 810,
 "aret": 811,
 "ĠgÃ¶n": 812,
 "ĠÅŁu": 813,
 "olu": 814,
 "af": 815,
 "usu": 816,
 "hal": 817,
 "Ã§a": 818,
 "Ġl": 819,
 "larÄ±na": 820,
 "mekte": 821,
 "Ġuz": 822,
 "atan": 823,
 "Ġtoplan": 824,
 "mÄ±": 825,
 "ven": 826,
 "eniz": 827,
 "diye": 828,
 "gÄ±": 829,
 "son": 830,
 "ĠbÃ¼yÃ¼k": 831,
 "mÄ±ÅŁtÄ±": 832,
 "bilir": 833,
 "akan": 834,
 "caÄŁÄ±": 835,
 "Ġkuvvet": 836,
 "ĠÅŁekil": 837,
 "inci": 838,
 "enel": 839,
 "daÅŁ": 840,
 "ilmesi": 841,
 "ĠgÃ¶nder": 842,
 "ĠMillet": 843,
 "ÄŁer": 844,
 "evlet": 845,
 "ĠBaÅŁkan": 846,
 "iv": 847,
 "yÃ¼z": 848,
 "Ġ192": 849,
 "aber": 850,
 "ĠÃ¼zere": 851,
 "okta": 852,
 "tin": 853,
 "lardan": 854,
 "ĠÃ¶nce": 855,
 "dar": 856,
 "Ġgetir": 857,
 "Ġiki": 858,
 "ali": 859,
 "LE": 860,
 "kim": 861,
 "Ġ'": 862,
 "Ġetti": 863,
 "lere": 864,
 "ĠÃ¶": 865,
 "Ġka": 866,
 "makta": 867,
 "ĠKon": 868,
 "ĠolduÄŁunu": 869,
 "duk": 870,
 "Ġsay": 871,
 "ura": 872,
 "ĠHaz": 873,
 "Ġsor": 874,
 "larÄ±nÄ±n": 875,
 "kÃ¼": 876,
 "tim": 877,
 "ĠÅŀ": 878,
 "Ġder": 879,
 "liÄŁ": 880,
 "Ã¼nÃ¼": 881,
 "Ġiste": 882,
 "ilen": 883,
 "Ä±rak": 884,
 "ĠmÃ¼": 885,
 "ĠsaÄŁ": 886,
 "yap": 887,
 "nÄ±z": 888,
 "Ġyet": 889,
 "Ġim": 890,
 "ĠbaÄŁ": 891,
 "ĠsÃ¶yle": 892,
 "lerine": 893,
 ".âĢĿ": 894,
 "eklif": 895,
 "tÃ¼": 896,
 "ÄŁÄ±mÄ±z": 897,
 "Ġma": 898,
 "dÄ±ÄŁÄ±": 899,
 "duÄŁu": 900,
 "kÄ±": 901,
 "kilÃ¢": 902,
 "Ġes": 903,
 "emen": 904,
 "var": 905,
 "uf": 906,
 "akat": 907,
 "Ġilgili": 908,
 "larla": 909,
 "esin": 910,
 "ĠÅŁey": 911,
 "Ã¶lg": 912,
 "ĠHÃ¼kÃ»met": 913,
 "ĠEr": 914,
 "Ġbirlikte": 915,
 "ĠÃ¶zel": 916,
 "abil": 917,
 "likle": 918,
 "ama": 919,
 "Ġyeni": 920,
 "alnÄ±z": 921,
 "ĠbaÅŁka": 922,
 "Ġ(": 923,
 "oÅŁ": 924,
 "ĠbazÄ±": 925,
 "ĠyÃ¼z": 926,
 "sta": 927,
 "ĠKaptan": 928,
 "acak": 929,
 "ĠkÄ±": 930,
 "ĠiÃ§inde": 931,
 "merik": 932,
 "ĠAnkara": 933,
 "ĠsÄ±": 934,
 "dÄ±k": 935,
 "ĠÃ¶nem": 936,
 "akÄ±n": 937,
 "imi": 938,
 "sÄ±yla": 939,
 "vekil": 940,
 "olordu": 941,
 "Ã§e": 942,
 "Ġede": 943,
 "ic": 944,
 "azÄ±r": 945,
 "Ä±lmÄ±ÅŁ": 946,
 "Ġeder": 947,
 "dÃ¼ÅŁ": 948,
 "Ä°N": 949,
 "auf": 950,
 "Ġduy": 951,
 "ede": 952,
 "uÃ§": 953,
 "ĠaÃ§": 954,
 "ĠHey": 955,
 "ist": 956,
 "ĠBir": 957,
 "cÃ¼": 958,
 "eleri": 959,
 "ĠseÃ§": 960,
 "ĠgÃ¼ven": 961,
 "ĠalÄ±n": 962,
 "ĠÅŁekilde": 963,
 "lÃ¢": 964,
 "yar": 965,
 "esinde": 966,
 "ĠgerÃ§ek": 967,
 "ĠMÃ¼": 968,
 "Ġkonu": 969,
 "ilmiÅŁ": 970,
 "erk": 971,
 "illi": 972,
 "masÄ±na": 973,
 "Ġteklif": 974,
 "olayÄ±": 975,
 "Ġgir": 976,
 "ĠgÃ¶re": 977,
 "Ġcevap": 978,
 "Ġhey": 979,
 "ĠDevlet": 980,
 "uriyet": 981,
 "ĠgÃ¶z": 982,
 "Ġordu": 983,
 "Ġsal": 984,
 "Ġhaber": 985,
 "Ã¼ksek": 986,
 "Ġmemleket": 987,
 "kat": 988,
 "geÃ§": 989,
 "om": 990,
 "lerde": 991,
 "Ġpek": 992,
 "Ã¼nya": 993,
 "Ġnokta": 994,
 "kadaÅŁ": 995,
 "retleri": 996,
 "men": 997,
 "Ġkims": 998,
 "umh": 999,
 "dÃ¼r": 1000,
 "kur": 1001,
 "Ġra": 1002,
 "ĠÃĩ": 1003,
 "ĠtarafÄ±ndan": 1004,
 "...": 1005,
 "ivas": 1006,
 "tar": 1007,
 "Ä±p": 1008,
 "Ġgem": 1009,
 "Ġmilletin": 1010,
 "Ġalt": 1011,
 "Ġorta": 1012,
 "iya": 1013,
 "Ġkor": 1014,
 "lardÄ±": 1015,
 "ilÃ¢f": 1016,
 "Ġtut": 1017,
 "ĠÃ¼zerine": 1018,
 "alÄ±k": 1019,
 "ĠKemal": 1020,
 "bulun": 1021,
 "uret": 1022,
 "Ä±yor": 1023,
 "Ä±mÄ±z": 1024,
 "Ġ.": 1025,
 "ĠÄ°n": 1026,
 "karÅŁÄ±": 1027,
 "Ġvatan": 1028,
 "Ã¼st": 1029,
 "larda": 1030,
 "ĠanlaÅŁ": 1031,
 "Ġdur": 1032,
 "Ġkan": 1033,
 "Ġsav": 1034,
 "eÄŁ": 1035,
 "fendi": 1036,
 "sel": 1037,
 "ĠbÄ±rak": 1038,
 "may": 1039,
 "unan": 1040,
 "Ġbile": 1041,
 "Ġuygun": 1042,
 "ekle": 1043,
 "sker": 1044,
 "dam": 1045,
 "Ġha": 1046,
 "larÄ±nda": 1047,
 "yon": 1048,
 "ĠKomutanÄ±": 1049,
 "ĠbÃ¶lg": 1050,
 "kon": 1051,
 "nun": 1052,
 "Ġkomutan": 1053,
 "Ġarz": 1054,
 "top": 1055,
 "Ġc": 1056,
 "ÄŁÄ±r": 1057,
 "ĠTemsil": 1058,
 "lat": 1059,
 "ĠdÃ¼ÅŁÃ¼nc": 1060,
 "Ġba": 1061,
 "ĠhiÃ§bir": 1062,
 "yer": 1063,
 "mez": 1064,
 "ĠHazretleri": 1065,
 "ĠÅŁah": 1066,
 "arb": 1067,
 "Ġsiz": 1068,
 "ĠMu": 1069,
 "kal": 1070,
 "arbi": 1071,
 "Ġilk": 1072,
 "Ġdevlet": 1073,
 "cane": 1074,
 "arbicane": 1075,
 "mÃ¼ÅŁ": 1076,
 "ĠAr": 1077,
 "ĠÄ°z": 1078,
 "ile": 1079,
 "Ã§ok": 1080,
 "Ãĩ": 1081,
 "ĠMeclisi": 1082,
 "ĠgÃ¼Ã§": 1083,
 "Ġdevam": 1084,
 "Ġbelir": 1085,
 "Ay": 1086,
 "adi": 1087,
 "ildi": 1088,
 "An": 1089,
 "ĠyÃ¶n": 1090,
 "liÄŁi": 1091,
 "bet": 1092,
 "Ã¢n": 1093,
 "ĠdÃ¼ÅŁman": 1094,
 "umhuriyet": 1095,
 "Ġbul": 1096,
 "Ġbilg": 1097,
 "ÄŁr": 1098,
 "mayÄ±": 1099,
 "ĠÃ§ek": 1100,
 "Ġtek": 1101,
 "Ġbenim": 1102,
 "gÃ¶": 1103,
 "rada": 1104,
 "ĠBakan": 1105,
 "Ġasker": 1106,
 "ayan": 1107,
 "elerin": 1108,
 "Ġgelen": 1109,
 "giliz": 1110,
 "--------": 1111,
 "dÃ¼ÄŁ": 1112,
 "Ġak": 1113,
 "lamak": 1114,
 "Ä±rÄ±": 1115,
 "Ġetmek": 1116,
 "ĠSivas": 1117,
 "Ġolur": 1118,
 "ĠÃ¼zerinde": 1119,
 "kilÃ¢t": 1120,
 "Ġsa": 1121,
 "Ġman": 1122,
 "caÄŁÄ±nÄ±": 1123,
 "cu": 1124,
 "ica": 1125,
 "sÃ®": 1126,
 "ĠMillÃ®": 1127,
 "eceÄŁi": 1128,
 "edbir": 1129,
 "stafa": 1130,
 "laya": 1131,
 "ĠhazÄ±r": 1132,
 "imdi": 1133,
 "ĠKolordu": 1134,
 "ĠÃ¶nemli": 1135,
 "larÄ±mÄ±z": 1136,
 "ĠÄ°t": 1137,
 "miÅŁti": 1138,
 "LÄ°": 1139,
 "sat": 1140,
 "ili": 1141,
 "ĠdÄ±ÅŁ": 1142,
 "eti": 1143,
 "ĠdÃ¶n": 1144,
 "Ġtedbir": 1145,
 "ĠÄ°s": 1146,
 "ÅŁah": 1147,
 "Ġdik": 1148,
 "Ġmu": 1149,
 "umuz": 1150,
 "asÄ±l": 1151,
 "uva": 1152,
 "ince": 1153,
 "Ġiyi": 1154,
 "ĠBÃ¼yÃ¼k": 1155,
 "ĠkonuÅŁ": 1156,
 "iÃ§in": 1157,
 "Ġtak": 1158,
 "adolu": 1159,
 "ĠTemsiliye": 1160,
 "zurum": 1161,
 "Ġileri": 1162,
 "Ġgit": 1163,
 "Ġolay": 1164,
 "sÄ±ndan": 1165,
 "han": 1166,
 "oz": 1167,
 "lerle": 1168,
 "ĠÃ§ekil": 1169,
 "IN": 1170,
 "dÄ±n": 1171,
 "kÄ±n": 1172,
 "mir": 1173,
 "rak": 1174,
 "yet": 1175,
 "erÃ§ek": 1176,
 "bay": 1177,
 "ro": 1178,
 "Ġsan": 1179,
 "Ã¼men": 1180,
 "ĠarkadaÅŁ": 1181,
 "sinin": 1182,
 "ĠbÃ¶yle": 1183,
 "ĠdolayÄ±": 1184,
 "elik": 1185,
 "alan": 1186,
 "Ã¼nde": 1187,
 "mÄ±ÅŁtÄ±r": 1188,
 "ĠRauf": 1189,
 "tÃ¼r": 1190,
 "eyi": 1191,
 "Ġkesin": 1192,
 "har": 1193,
 "Ġhemen": 1194,
 "tÄ±ÄŁÄ±": 1195,
 "Ġetme": 1196,
 "ola": 1197,
 "Ãĸ": 1198,
 "Ġbun": 1199,
 "Ġrica": 1200,
 "ĠÃ§Ä±kar": 1201,
 "dd": 1202,
 "Ã¼ne": 1203,
 "gr": 1204,
 "Ä±lmasÄ±": 1205,
 "ĠaynÄ±": 1206,
 "ĠFakat": 1207,
 "miÅŁtir": 1208,
 "Ġkurul": 1209,
 "ast": 1210,
 "ĠKur": 1211,
 "Ã¶rt": 1212,
 "gerek": 1213,
 "Ġedi": 1214,
 "kaÃ§": 1215,
 "tÄ±l": 1216,
 "....": 1217,
 "diÄŁim": 1218,
 "Ġbizim": 1219,
 "ĠTÃ¼rkiye": 1220,
 "bÃ¼s": 1221,
 "ekir": 1222,
 "ullan": 1223,
 "Ġolmak": 1224,
 "Ġyerine": 1225,
 "Barbicane": 1226,
 "Ã¼ph": 1227,
 "ĠgÃ¶rÃ¼l": 1228,
 "cek": 1229,
 "deÄŁ": 1230,
 "Ġolma": 1231,
 "duÄŁunu": 1232,
 "Ġtarihli": 1233,
 "Ã¢zÄ±m": 1234,
 "larÄ±ndan": 1235,
 "yorum": 1236,
 "Ġdikkat": 1237,
 "Ã¼nkÃ¼": 1238,
 "ĠAmerik": 1239,
 "ba": 1240,
 "ĠZ": 1241,
 "lerinden": 1242,
 "Ã¼ncÃ¼": 1243,
 "Ġmi": 1244,
 "eÅŁit": 1245,
 "up": 1246,
 "za": 1247,
 "Ġsu": 1248,
 "Ã¼rlÃ¼": 1249,
 "Ġceph": 1250,
 "gÃ¶z": 1251,
 "yol": 1252,
 "Ġtemsil": 1253,
 "ilmesini": 1254,
 "20": 1255,
 "kÃ¼n": 1256,
 "ancÄ±": 1257,
 "Ġden": 1258,
 "lerden": 1259,
 "lerimiz": 1260,
 "Ġih": 1261,
 "Ġyarar": 1262,
 "efet": 1263,
 "MA": 1264,
 "hat": 1265,
 "Ġdayan": 1266,
 "Ġseb": 1267,
 "ĠÅŁart": 1268,
 "tiÄŁ": 1269,
 "adiÅŁah": 1270,
 "Bir": 1271,
 "ĠhÃ¼k": 1272,
 "emiyet": 1273,
 "Ġmilletvekil": 1274,
 "Ġ1919": 1275,
 "ĠyÃ¼ksek": 1276,
 "mem": 1277,
 "rup": 1278,
 "ĠÄ°ngiliz": 1279,
 "bin": 1280,
 "ĠL": 1281,
 "esini": 1282,
 "teÅŁ": 1283,
 "ET": 1284,
 "dev": 1285,
 "Ġis": 1286,
 "ĠadÄ±na": 1287,
 "usunda": 1288,
 "ĠgÃ¼nÃ¼": 1289,
 "leÅŁtir": 1290,
 "erkez": 1291,
 "Ġkap": 1292,
 "ebil": 1293,
 "ĠYunan": 1294,
 "diÄŁini": 1295,
 "lÃ¼k": 1296,
 "madan": 1297,
 "Ġta": 1298,
 "iyi": 1299,
 "ich": 1300,
 "kes": 1301,
 "ri": 1302,
 "ĠkÃ¶": 1303,
 "elÃ¢": 1304,
 "Ġok": 1305,
 "ĠAncak": 1306,
 "ER": 1307,
 "Ġkay": 1308,
 "tÄ±ÅŁ": 1309,
 "Ġoldu": 1310,
 "ĠdeÄŁildir": 1311,
 "ĠErzurum": 1312,
 "sman": 1313,
 "Ġtes": 1314,
 "emek": 1315,
 "ĠKuva": 1316,
 "evr": 1317,
 "Ġdurumu": 1318,
 "Ġtakdir": 1319,
 "Ġdi": 1320,
 "Ġsiya": 1321,
 "aÅŁÄ±": 1322,
 "sÄ±nÄ±n": 1323,
 "ebbÃ¼s": 1324,
 "hem": 1325,
 "Ä±s": 1326,
 "ĠhÃ¢": 1327,
 "ulan": 1328,
 "ĠolmadÄ±": 1329,
 "ĠbaÅŁladÄ±": 1330,
 "Ġzar": 1331,
 "ĠBaÅŁkanÄ±": 1332,
 "Ar": 1333,
 "mas": 1334,
 "iki": 1335,
 "Ġortaya": 1336,
 "lÃ¼l": 1337,
 "ekl": 1338,
 "Ġgay": 1339,
 "Ġter": 1340,
 "mektedir": 1341,
 "ĠMilli": 1342,
 "ĠAnadolu": 1343,
 ".\"": 1344,
 "Ġbura": 1345,
 "iÅŁi": 1346,
 "ĠarasÄ±nda": 1347,
 "AÅŀ": 1348,
 "BaÅŁ": 1349,
 "fer": 1350,
 "Äŀ": 1351,
 "Ġdeniz": 1352,
 "Ä°stanbul": 1353,
 "eyh": 1354,
 "Ġemir": 1355,
 "sonra": 1356,
 "laÅŁtÄ±r": 1357,
 "atÄ±l": 1358,
 "uma": 1359,
 "ĠbakÄ±m": 1360,
 "Ġsah": 1361,
 "Ġveya": 1362,
 "Ġtam": 1363,
 "Ġaz": 1364,
 "ĠÅŁif": 1365,
 "ĠdeÄŁiÅŁ": 1366,
 "ĠÃ¢": 1367,
 "Ä±lÄ±": 1368,
 "ĠBen": 1369,
 "Ġama": 1370,
 "Ġadam": 1371,
 "caktÄ±r": 1372,
 "Ã¼mkÃ¼n": 1373,
 "ĠCumhuriyet": 1374,
 "Ġinan": 1375,
 "gal": 1376,
 "Ġbana": 1377,
 "Ġidar": 1378,
 "Ġhay": 1379,
 "Ä±lma": 1380,
 "doÄŁ": 1381,
 "Ġgen": 1382,
 "ĠsonuÃ§": 1383,
 "Ġbize": 1384,
 "ĠkaÃ§": 1385,
 "ĠbaÄŁlÄ±": 1386,
 "ĠDevletleri": 1387,
 "ĠaltÄ±nda": 1388,
 "ley": 1389,
 "Ä±nÄ±z": 1390,
 "EN": 1391,
 "fik": 1392,
 "vran": 1393,
 "ĠyÃ¼r": 1394,
 "ĠBunun": 1395,
 "azan": 1396,
 "Ġkonusu": 1397,
 "LER": 1398,
 "bette": 1399,
 "bÃ¼tÃ¼n": 1400,
 "suz": 1401,
 "Ġdiye": 1402,
 "Ġyay": 1403,
 "ĠtÃ¼rlÃ¼": 1404,
 "daha": 1405,
 "meyi": 1406,
 "Ä°L": 1407,
 "olan": 1408,
 "Ġmec": 1409,
 "eceÄŁini": 1410,
 "Ġmakam": 1411,
 "diler": 1412,
 "indeki": 1413,
 "ÄŁu": 1414,
 "lÄ±ÄŁÄ±nÄ±": 1415,
 "esine": 1416,
 "Ġeden": 1417,
 "ĠAy": 1418,
 "Ġinsan": 1419,
 "ĠdeÄŁer": 1420,
 "ĠÃĸ": 1421,
 "rar": 1422,
 "ĠyazÄ±": 1423,
 "ĠAli": 1424,
 "tiÄŁi": 1425,
 "lak": 1426,
 "van": 1427,
 "Ġgenel": 1428,
 "ĠEfendiler": 1429,
 "ecektir": 1430,
 "Ġgerekir": 1431,
 "arbiye": 1432,
 "yaz": 1433,
 "Ġpar": 1434,
 "gu": 1435,
 "Ġgiz": 1436,
 "Ġtan": 1437,
 "ĠnasÄ±l": 1438,
 "eph": 1439,
 "Ġyoktur": 1440,
 "su": 1441,
 "uyor": 1442,
 "ĠÃ¼y": 1443,
 "Ġteh": 1444,
 "ĠHal": 1445,
 "ĠyardÄ±m": 1446,
 "Mu": 1447,
 "Ġ3": 1448,
 "Ġkendiler": 1449,
 "meden": 1450,
 "Ġolduk": 1451,
 "ĠNÃ¢z": 1452,
 "ĠayrÄ±": 1453,
 "ĠFran": 1454,
 "komutan": 1455,
 "sal": 1456,
 "takÄ±m": 1457,
 "uyordu": 1458,
 "ĠÃ¼Ã§": 1459,
 "Ġyak": 1460,
 "ilerin": 1461,
 "ĠsÃ¼re": 1462,
 "ylÃ¼l": 1463,
 "ĠyalnÄ±z": 1464,
 "diÄŁimiz": 1465,
 "Ġgeri": 1466,
 "Ġ1920": 1467,
 "smanlÄ±": 1468,
 "Ġbin": 1469,
 "ĠÅŁÃ¼ph": 1470,
 "ika": 1471,
 "ĠOr": 1472,
 "Ġihti": 1473,
 "Ã¼nden": 1474,
 "abancÄ±": 1475,
 "gibi": 1476,
 "Ã¼yor": 1477,
 "lamaya": 1478,
 "Ġalan": 1479,
 "Ġbelirt": 1480,
 "ni": 1481,
 "yur": 1482,
 "Ġik": 1483,
 "ĠteÅŁebbÃ¼s": 1484,
 "ĠsÄ±ra": 1485,
 "Kaptan": 1486,
 "ot": 1487,
 "sin": 1488,
 "arÄ±ÅŁ": 1489,
 "malarÄ±": 1490,
 "elim": 1491,
 "Ġya": 1492,
 "kÄ±nda": 1493,
 "muz": 1494,
 "Ä±yordu": 1495,
 "deniz": 1496,
 "Ġzat": 1497,
 "ĠHÃ¼kÃ»meti": 1498,
 "vur": 1499,
 "Ġ,": 1500,
 "ÄŁa": 1501,
 "ĠteÅŁkilÃ¢t": 1502,
 "Ġsebep": 1503,
 "?âĢĿ": 1504,
 "LAR": 1505,
 "kendi": 1506,
 "arr": 1507,
 "ĠKar": 1508,
 "ĠdÃ¼z": 1509,
 "Ġkullan": 1510,
 "ĠbugÃ¼n": 1511,
 "ĠGenel": 1512,
 "her": 1513,
 "sÃ¶z": 1514,
 "ilik": 1515,
 "Ġtab": 1516,
 "ĠbaÅŁkan": 1517,
 "oÄŁu": 1518,
 "ĠNed": 1519,
 "ĠkarÅŁÄ±sÄ±nda": 1520,
 "Ġhalde": 1521,
 "baÅŁÄ±": 1522,
 "Ġkanun": 1523,
 "aston": 1524,
 "Ġbeni": 1525,
 "lerinde": 1526,
 "aygÄ±": 1527,
 "ĠEkim": 1528,
 "Ġmesel": 1529,
 "ĠCemiyet": 1530,
 "ÄŁÄ±msÄ±z": 1531,
 "ĠvardÄ±": 1532,
 "ĠettiÄŁ": 1533,
 "Ġkimseler": 1534,
 "fendim": 1535,
 "fet": 1536,
 "leriyle": 1537,
 "Ġbiri": 1538,
 "ĠmÃ¼mkÃ¼n": 1539,
 "uÅŁtur": 1540,
 "Ġuzun": 1541,
 "luk": 1542,
 "zaman": 1543,
 "erim": 1544,
 "mesini": 1545,
 "maktan": 1546,
 "caÄŁÄ±m": 1547,
 "sunuz": 1548,
 "Ġederim": 1549,
 "omis": 1550,
 "karÅŁÄ±lÄ±k": 1551,
 "ĠÄ°tilÃ¢f": 1552,
 "kÄ±r": 1553,
 "ost": 1554,
 "ĠdÃ¼nya": 1555,
 "larÄ±yla": 1556,
 "Ġancak": 1557,
 "ade": 1558,
 "ĠbeÅŁ": 1559,
 "Ġidi": 1560,
 "ĠmÄ±": 1561,
 "ĠÃ§ar": 1562,
 "ĠEylÃ¼l": 1563,
 "manÄ±n": 1564,
 "ĠCeph": 1565,
 "sar": 1566,
 "sor": 1567,
 "ter": 1568,
 "umlu": 1569,
 "cad": 1570,
 "evfik": 1571,
 "Ġbilgi": 1572,
 "ĠiÅŁgal": 1573,
 "maktadÄ±r": 1574,
 "aÃ§": 1575,
 "est": 1576,
 "min": 1577,
 "Ġbekle": 1578,
 "caÄŁ": 1579,
 "aÅŁaÄŁÄ±": 1580,
 "ĠyapÄ±": 1581,
 "imizin": 1582,
 "Ġayr": 1583,
 "ĠMilliye": 1584,
 "Ġinc": 1585,
 "Ġgerekli": 1586,
 "ĠÄ°smet": 1587,
 "os": 1588,
 "Ä°R": 1589,
 "ĠSam": 1590,
 "ehir": 1591,
 "erÃ§ekten": 1592,
 "arruz": 1593,
 "Mecli": 1594,
 "Ġer": 1595,
 "ĠvasÄ±": 1596,
 "Ġmer": 1597,
 "ĠÅŁekl": 1598,
 "ĠetmiÅŁ": 1599,
 "meleri": 1600,
 "ĠÃ¶zellikle": 1601,
 "BaÅŁkan": 1602,
 "ĠÃ¶l": 1603,
 "Ã¼p": 1604,
 "Ã¶k": 1605,
 "Ġsev": 1606,
 "Ġdavran": 1607,
 "ceÄŁ": 1608,
 "dikleri": 1609,
 "ndan": 1610,
 "teki": 1611,
 "dÄ±ÄŁÄ±m": 1612,
 "inize": 1613,
 "Ġonun": 1614,
 "lÄ±ÄŁa": 1615,
 "dÃ¼ÅŁÃ¼n": 1616,
 "Ġsaat": 1617,
 "Ġtehlik": 1618,
 "gÃ¼": 1619,
 "sÃ¼r": 1620,
 "va": 1621,
 "zet": 1622,
 "Ġci": 1623,
 "erit": 1624,
 "ĠsayÄ±": 1625,
 "ĠyabancÄ±": 1626,
 "ĠÃ§Ã¶z": 1627,
 "ĠbaÅŁarÄ±": 1628,
 "imizi": 1629,
 "dde": 1630,
 "set": 1631,
 "them": 1632,
 "unuz": 1633,
 "Ã¢r": 1634,
 "gÃ¶rÃ¼ÅŁ": 1635,
 "zam": 1636,
 "Ġbunu": 1637,
 "leme": 1638,
 "ĠgereÄŁ": 1639,
 "ĠdÃ¼ÅŁÃ¼nce": 1640,
 "lendir": 1641,
 "Ġkonuda": 1642,
 "feran": 1643,
 "edi": 1644,
 "Ġser": 1645,
 "dÄ±ÄŁÄ±nÄ±": 1646,
 "emiz": 1647,
 "Ġbuyur": 1648,
 "Ġhalk": 1649,
 "Ġtarihinde": 1650,
 "Ã¼Ã§Ã¼k": 1651,
 "Ġuzak": 1652,
 "PaÅŁa": 1653,
 "durum": 1654,
 "ĠKÃ¢zÄ±m": 1655,
 "Ġres": 1656,
 "Mustafa": 1657,
 "sev": 1658,
 "Ġbunun": 1659,
 "Ġkend": 1660,
 "Ġsun": 1661,
 "aba": 1662,
 "Ġbilin": 1663,
 "ife": 1664,
 "dikten": 1665,
 "ĠKurulu": 1666,
 "Ġiz": 1667,
 "Ã¼mÃ¼z": 1668,
 "ukuk": 1669,
 "ĠRefet": 1670,
 "ĠvardÄ±r": 1671,
 "Ġgizli": 1672,
 "ĠNÃ¢zÄ±rÄ±": 1673,
 "ĠOrdu": 1674,
 "bel": 1675,
 "ĠsÃ¶y": 1676,
 "bildir": 1677,
 "ĠyapÄ±lan": 1678,
 "ĠOsmanlÄ±": 1679,
 "ĠgeÃ§ir": 1680,
 "ĠaÃ§Ä±klama": 1681,
 "Amerik": 1682,
 "ddi": 1683,
 "gre": 1684,
 "lem": 1685,
 "iydi": 1686,
 "Ġmek": 1687,
 "dÄ±rÄ±": 1688,
 "omisyon": 1689,
 "SÄ°": 1690,
 "bÃ¼yÃ¼k": 1691,
 "eme": 1692,
 "Ã¼f": 1693,
 "Ġaleyh": 1694,
 "ĠVE": 1695,
 "ĠkÄ±sa": 1696,
 "gan": 1697,
 "ÅŁey": 1698,
 "ĠsÄ±nÄ±": 1699,
 "deÄŁer": 1700,
 "ĠbirtakÄ±m": 1701,
 "Ġhat": 1702,
 "Ġzor": 1703,
 "ydÄ±": 1704,
 "Ġdin": 1705,
 "Ġkim": 1706,
 "ĠBiz": 1707,
 "Ġolun": 1708,
 "azla": 1709,
 "adra": 1710,
 "ĠyaptÄ±": 1711,
 "ĠBaÅŁkanlÄ±ÄŁÄ±": 1712,
 "ĠsavaÅŁ": 1713,
 "millet": 1714,
 "Ġbas": 1715,
 "ilecek": 1716,
 "Ġkoy": 1717,
 "labil": 1718,
 "Ġtav": 1719,
 "Ġas": 1720,
 "ĠPadiÅŁah": 1721,
 "ĠKongr": 1722,
 "urettin": 1723,
 "ĠdolayÄ±sÄ±yla": 1724,
 "Ġtakdirde": 1725,
 "Bey": 1726,
 "Ġcan": 1727,
 "Ä±t": 1728,
 "emel": 1729,
 "Ġmerkez": 1730,
 "lub": 1731,
 "Ġsubay": 1732,
 "Ġtaarruz": 1733,
 "Club": 1734,
 "ME": 1735,
 "bur": 1736,
 "Ġbundan": 1737,
 "Ġib": 1738,
 "ĠCemal": 1739,
 "Ġgereken": 1740,
 "asÄ±m": 1741,
 "verdi": 1742,
 "ĠhÃ¼kÃ»metin": 1743,
 "Ġcevab": 1744,
 "Ġeski": 1745,
 "Ġyeniden": 1746,
 "ĠCemiyeti": 1747,
 "Ġte": 1748,
 "Ġsonu": 1749,
 "ĠbaÅŁÄ±nda": 1750,
 "ĠgÃ¶rÃ¼ÅŁmeler": 1751,
 "fade": 1752,
 "Ġengel": 1753,
 "ĠhÃ¢kim": 1754,
 "Maston": 1755,
 "Ã§alÄ±ÅŁ": 1756,
 "deÅŁ": 1757,
 "Ġhus": 1758,
 "Ġhep": 1759,
 "emi": 1760,
 "ĠDah": 1761,
 "ichel": 1762,
 "getir": 1763,
 "ĠU": 1764,
 "ilir": 1765,
 "Ġkazan": 1766,
 "esinin": 1767,
 "ĠKan": 1768,
 "ĠilÃ¢n": 1769,
 "ĠSal": 1770,
 "uyu": 1771,
 "ĠtoplantÄ±": 1772,
 "tak": 1773,
 "uat": 1774,
 "ĠÃ¼st": 1775,
 "irmi": 1776,
 "Ã§i": 1777,
 "Ġtama": 1778,
 "azet": 1779,
 "tanat": 1780,
 "Ġederek": 1781,
 "Ġkonusunda": 1782,
 "ĠhakkÄ±nda": 1783,
 "lÄ±ÄŁÄ±n": 1784,
 "----------------": 1785,
 "adrazam": 1786,
 "olarak": 1787,
 "Ġbuna": 1788,
 "Ġkolay": 1789,
 "ĠkatÄ±l": 1790,
 "sÄ±l": 1791,
 "Ġinci": 1792,
 "ĠaskerÃ®": 1793,
 "Ġettik": 1794,
 "ĠdÃ¼ÅŁÃ¼nceler": 1795,
 "ĠbaÄŁÄ±msÄ±z": 1796,
 "gÃ¶ster": 1797,
 "00": 1798,
 "Ben": 1799,
 "dak": 1800,
 "dÃ¼k": 1801,
 "hiÃ§": 1802,
 "ysa": 1803,
 "Ġora": 1804,
 "Ġdedi": 1805,
 "ĠÅŁimdi": 1806,
 "Ä±za": 1807,
 "ĠTÃ¼men": 1808,
 "Ġelbette": 1809,
 "ilÃ¢fet": 1810,
 "Ġbilgiler": 1811,
 "hangi": 1812,
 "ĠvasÄ±ta": 1813,
 "gen": 1814,
 "tiler": 1815,
 "Ġdir": 1816,
 "ĠyakÄ±n": 1817,
 "lÄ±ÅŁ": 1818,
 "Ġdavet": 1819,
 "ĠEfendi": 1820,
 "ĠFerit": 1821,
 "Ġbizi": 1822,
 "ĠuÄŁ": 1823,
 "abilir": 1824,
 "ĠsiyasÃ®": 1825,
 "siye": 1826,
 "unma": 1827,
 "Ġoy": 1828,
 "Ġteb": 1829,
 "mesine": 1830,
 "dum": 1831,
 "1919": 1832,
 "ĠDoÄŁu": 1833,
 "ĠmeÅŁ": 1834,
 "eleg": 1835,
 "ĠsaygÄ±": 1836,
 "ĠÃĩÃ¼nkÃ¼": 1837,
 "ben": 1838,
 "gir": 1839,
 "Ġkes": 1840,
 "undaki": 1841,
 "Ġyine": 1842,
 "ĠyÄ±l": 1843,
 "Ã¢tÄ±": 1844,
 "larÄ±m": 1845,
 "elge": 1846,
 "ĠkarÅŁÄ±lÄ±k": 1847,
 "OR": 1848,
 "par": 1849,
 "ÅŁte": 1850,
 "mayan": 1851,
 "dafa": 1852,
 "ĠTevfik": 1853,
 "iyorum": 1854,
 "mayacak": 1855,
 "Ġgemi": 1856,
 "ĠFransÄ±z": 1857,
 "DA": 1858,
 "UR": 1859,
 "bar": 1860,
 "biz": 1861,
 "pat": 1862,
 "malÄ±": 1863,
 "Ġko": 1864,
 "Ġkam": 1865,
 "Ġgec": 1866,
 "Ġorada": 1867,
 "Ġifade": 1868,
 "ĠKab": 1869,
 "Ġpro": 1870,
 "Ġelde": 1871,
 "efendi": 1872,
 "ĠÄ°zmir": 1873,
 "Ġibaret": 1874,
 ").": 1875,
 "aal": 1876,
 "kadar": 1877,
 "mÃ®": 1878,
 "tul": 1879,
 "tÄ±m": 1880,
 "emiÅŁ": 1881,
 "ĠKasÄ±m": 1882,
 "Ġnit": 1883,
 "Ġettir": 1884,
 "ĠEthem": 1885,
 "layan": 1886,
 "layarak": 1887,
 "1920": 1888,
 "ĠFuat": 1889,
 "ilÃ¢h": 1890,
 "Ġkendisine": 1891,
 "ĠKomutanlÄ±ÄŁÄ±": 1892,
 "ĠMustafa": 1893,
 "eÅŁitli": 1894,
 "Ardan": 1895,
 "dafaa": 1896,
 "LA": 1897,
 "TÃ¼rk": 1898,
 "dÃ¶n": 1899,
 "gÃ¶n": 1900,
 "kin": 1901,
 "siniz": 1902,
 "etle": 1903,
 "alÄ±m": 1904,
 "Ġac": 1905,
 "uydu": 1906,
 "ĠbaÅŁÄ±na": 1907,
 "ĠRum": 1908,
 "Ġmadde": 1909,
 "Ankara": 1910,
 "Meclis": 1911,
 "ĠaÅŁaÄŁÄ±": 1912,
 "ark": 1913,
 "Ġberi": 1914,
 "alt": 1915,
 "Ġise": 1916,
 "ĠbirÃ§ok": 1917,
 "Ä°Y": 1918,
 "ĠAv": 1919,
 "sÄ±nÄ±z": 1920,
 "madÄ±ÄŁÄ±": 1921,
 "ĠkaldÄ±r": 1922,
 "ĠanlaÅŁÄ±": 1923,
 "Ġuygu": 1924,
 "Ġmektu": 1925,
 "ĠsÄ±nÄ±r": 1926,
 "aÃ§Ä±k": 1927,
 "dunun": 1928,
 "gun": 1929,
 "pek": 1930,
 "tek": 1931,
 "anla": 1932,
 "ÄŁÃ¼": 1933,
 "mat": 1934,
 "Ġtay": 1935,
 "Ã¼nÃ¼n": 1936,
 "ĠAl": 1937,
 "sav": 1938,
 "Ġsonunda": 1939,
 "usan": 1940,
 "ĠtelgrafÄ±": 1941,
 "eceÄŁim": 1942,
 "Ġyani": 1943,
 "Ġmaksat": 1944,
 "deÄŁil": 1945,
 "ĠÅŁifr": 1946,
 "Ġtabi": 1947,
 "ĠKongresi": 1948,
 "Biz": 1949,
 "Er": 1950,
 "siyet": 1951,
 "Ã¼ce": 1952,
 "ĠbarÄ±ÅŁ": 1953,
 "Ä±nca": 1954,
 "ĠyÃ¼k": 1955,
 "ĠBundan": 1956,
 "izmet": 1957,
 "Ġmut": 1958,
 "abekir": 1959,
 "ĠbakÄ±mdan": 1960,
 "Ġidare": 1961,
 "kiler": 1962,
 "inc": 1963,
 "Ġkomu": 1964,
 "lardÄ±r": 1965,
 "yat": 1966,
 "ĠHarbiye": 1967,
 "ĠHukuk": 1968,
 "ĠkarÄ±ÅŁ": 1969,
 "Ġverdi": 1970,
 "Ġvermek": 1971,
 "lÄ±kla": 1972,
 "Ġmey": 1973,
 "ukarÄ±": 1974,
 "ĠaydÄ±n": 1975,
 "ĠgiriÅŁ": 1976,
 "Rauf": 1977,
 "UN": 1978,
 "ĠboÅŁ": 1979,
 "etim": 1980,
 "Ġdefa": 1981,
 "makla": 1982,
 "imize": 1983,
 "ĠartÄ±k": 1984,
 "Ġonu": 1985,
 "Ġedilen": 1986,
 "muÅŁtur": 1987,
 "kÄ±ÅŁ": 1988,
 "tut": 1989,
 "Ġbit": 1990,
 "ĠsakÄ±n": 1991,
 "tah": 1992,
 "ĠfÄ±r": 1993,
 "inizi": 1994,
 "meyen": 1995,
 "devlet": 1996,
 "hak": 1997,
 "ÄŁÄ±n": 1998,
 "Ã§Ä±": 1999,
 "ĠdÃ¶rt": 2000,
 "Ġot": 2001,
 "mes": 2002,
 "once": 2003,
 "ĠadÄ±": 2004,
 "iklÃ¢": 2005,
 "likte": 2006,
 "Ġona": 2007,
 "ĠÃľ": 2008,
 "Ġkork": 2009,
 "ĠAmerika": 2010,
 "hmet": 2011,
 "nek": 2012,
 "ĉĊ": 2013,
 "lamÄ±ÅŁ": 2014,
 "Ġses": 2015,
 "Ġsuret": 2016,
 "lim": 2017,
 "Ġolsun": 2018,
 "dana": 2019,
 "olduÄŁu": 2020,
 "ĠVali": 2021,
 "oyun": 2022,
 "Ġimk": 2023,
 "Ġduruma": 2024,
 "ĠÄ°zzet": 2025,
 "ÄŁren": 2026,
 "Ġmanda": 2027,
 "cadele": 2028,
 "''": 2029,
 "eden": 2030,
 "meni": 2031,
 "Ġir": 2032,
 "ĠÅŁÃ¶yle": 2033,
 "ĠHer": 2034,
 "elerinin": 2035,
 "ĠbulunduÄŁu": 2036,
 "Ġmev": 2037,
 "Ġanlat": 2038,
 "Ġimza": 2039,
 "Ġmemleketin": 2040,
 "Ġolursa": 2041,
 "Ġburada": 2042,
 "ĠyayÄ±n": 2043,
 "ĠKarabekir": 2044,
 "ST": 2045,
 "gin": 2046,
 "mil": 2047,
 "sÃ¶yle": 2048,
 "etin": 2049,
 "Ġsar": 2050,
 "Ġbiraz": 2051,
 "imin": 2052,
 "uluk": 2053,
 "aydÄ±": 2054,
 "Ġefendim": 2055,
 "tasar": 2056,
 "Ġettim": 2057,
 "uyla": 2058,
 "ahya": 2059,
 "ĠNurettin": 2060,
 "Ġmaksa": 2061,
 "ĠKonya": 2062,
 "ĠCephesi": 2063,
 "onceil": 2064,
 "10": 2065,
 "LI": 2066,
 "SI": 2067,
 "pit": 2068,
 "uoy": 2069,
 "yok": 2070,
 "Ã¼le": 2071,
 "Ġdok": 2072,
 "ĠtaÅŁÄ±": 2073,
 "izin": 2074,
 "iÅŁleri": 2075,
 "Ã¼zel": 2076,
 "saÄŁ": 2077,
 "bilecek": 2078,
 "Ġmemur": 2079,
 "lacaktÄ±r": 2080,
 "ĠBakanlar": 2081,
 "dÃ¼ÄŁÃ¼": 2082,
 "ĠdÃ¼zen": 2083,
 "Hey": 2084,
 "ham": 2085,
 "tr": 2086,
 "zÄ±": 2087,
 "Ġek": 2088,
 "ĠÃ¼ncÃ¼": 2089,
 "Ä±ndaki": 2090,
 "ĠsÄ±k": 2091,
 "ursa": 2092,
 "ĠiliÅŁ": 2093,
 "ĠiÃ§ine": 2094,
 "Ġfaal": 2095,
 "ĠÃ§alÄ±ÅŁma": 2096,
 "ĠhÃ¼kÃ¼m": 2097,
 "EK": 2098,
 "his": 2099,
 "mit": 2100,
 "ĠI": 2101,
 "ĠbirkaÃ§": 2102,
 "ĠBatÄ±": 2103,
 "Ġat": 2104,
 "ĠolmasÄ±": 2105,
 "Ã¢h": 2106,
 "ĠMeb": 2107,
 "sÄ±ndaki": 2108,
 "duÄŁumuz": 2109,
 "ĠSav": 2110,
 "edak": 2111,
 "madÄ±ÄŁÄ±nÄ±": 2112,
 "uluÄŁ": 2113,
 "Ä±lmÄ±ÅŁtÄ±r": 2114,
 "ĠaÃ§Ä±": 2115,
 "kurmay": 2116,
 "fett": 2117,
 "ĠSami": 2118,
 "Ġfaaliyet": 2119,
 "acaÄŁÄ±": 2120,
 "eÄŁi": 2121,
 "id": 2122,
 "zi": 2123,
 "Ġ5": 2124,
 "mamÄ±ÅŁ": 2125,
 "Ġsab": 2126,
 "Ġtali": 2127,
 "Ġhem": 2128,
 "eyen": 2129,
 "ĠÃ§evr": 2130,
 "Ġedecek": 2131,
 "ĠuÄŁra": 2132,
 "aÄŁÄ±r": 2133,
 "bun": 2134,
 "por": 2135,
 "insan": 2136,
 "Ġbak": 2137,
 "ÄŁmen": 2138,
 "Ġgece": 2139,
 "Ġyen": 2140,
 "dedi": 2141,
 "lerdir": 2142,
 "ĠBÃ¶yle": 2143,
 "lÄ±yor": 2144,
 "ĠAk": 2145,
 "ĠPAÅŀ": 2146,
 "ĠYalnÄ±z": 2147,
 "Ġdurumun": 2148,
 "karar": 2149,
 "ĠdoÄŁrudan": 2150,
 "ddÃ®": 2151,
 "Evet": 2152,
 "Michel": 2153,
 "oli": 2154,
 "Ã¼met": 2155,
 "inbaÅŁÄ±": 2156,
 "ĠsilÃ¢h": 2157,
 "rab": 2158,
 "ilerek": 2159,
 "Ä±lmasÄ±nÄ±": 2160,
 "Ġ''": 2161,
 "Ġderhal": 2162,
 "Ġimz": 2163,
 "ĠseÃ§im": 2164,
 "ĠhaberleÅŁ": 2165,
 "ĠcÃ¼m": 2166,
 "ĠdiÄŁer": 2167,
 "Ġhusus": 2168,
 "EY": 2169,
 "IR": 2170,
 "[â": 2171,
 "beÅŁ": 2172,
 "dÃ¶rt": 2173,
 "mÃ¼": 2174,
 "tey": 2175,
 "ĨĲ": 2176,
 "Ġyor": 2177,
 "alet": 2178,
 "onu": 2179,
 "lanmasÄ±": 2180,
 "bile": 2181,
 "ĠiÅŁaret": 2182,
 "Ġyerinde": 2183,
 "sÄ±zlÄ±k": 2184,
 "ĠgeÃ§en": 2185,
 "merm": 2186,
 "ĠteÅŁkilÃ¢": 2187,
 "Ġesas": 2188,
 "Ġsahip": 2189,
 "ĠdeÄŁiÅŁtir": 2190,
 "gÃ¶nder": 2191,
 "[âĨĲ": 2192,
 "[âĨĲ]": 2193,
 "Gun": 2194,
 "kinci": 2195,
 "meli": 2196,
 "and": 2197,
 "mekten": 2198,
 "ezaret": 2199,
 "baÅŁka": 2200,
 "tÄ±klarÄ±": 2201,
 "Ġyetki": 2202,
 "ĠhatÄ±r": 2203,
 "ĠÅŁahÄ±s": 2204,
 "masya": 2205,
 "doÄŁru": 2206,
 "ĠÅŁÃ¼phe": 2207,
 "ĠdavranÄ±ÅŁ": 2208,
 "Millet": 2209,
 "ebilir": 2210,
 "ici": 2211,
 "kab": 2212,
 "zon": 2213,
 "ï¬": 2214,
 "ĠÃ¼n": 2215,
 "Ä±cÄ±": 2216,
 "Ġgazet": 2217,
 "Ġvak": 2218,
 "lam": 2219,
 "memiÅŁ": 2220,
 "Ġalmak": 2221,
 "ĠSey": 2222,
 "Ġfazla": 2223,
 "Ġyerde": 2224,
 "ĠdoÄŁruya": 2225,
 "ĠMÃ¼dafaa": 2226,
 "Ġtemsilc": 2227,
 "ĠolmadÄ±ÄŁÄ±nÄ±": 2228,
 "tasarrÄ±": 2229,
 "ĠPAÅŀA": 2230,
 "DÄ°": 2231,
 "dek": 2232,
 "kap": 2233,
 "tam": 2234,
 "taraf": 2235,
 "zat": 2236,
 "ĠÃ¼z": 2237,
 "duÄŁum": 2238,
 "ĠRÄ±za": 2239,
 "ĠtartÄ±ÅŁ": 2240,
 "rupa": 2241,
 "Ġtespit": 2242,
 "ĠKabin": 2243,
 "tasarrÄ±f": 2244,
 "baÄŁ": 2245,
 "gÃ¼Ã§": 2246,
 "kili": 2247,
 "lor": 2248,
 "yÄ±l": 2249,
 "iliye": 2250,
 "ĠkiÅŁ": 2251,
 "lacaÄŁÄ±": 2252,
 "ayak": 2253,
 "olduÄŁunu": 2254,
 "ĠkardeÅŁ": 2255,
 "ĠverdiÄŁi": 2256,
 "Ġgeldi": 2257,
 "muÅŁtu": 2258,
 "Ġanlam": 2259,
 "ĠkÃ¶tÃ¼": 2260,
 "UL": 2261,
 "bÃ¶yle": 2262,
 "altÄ±": 2263,
 "Ġtel": 2264,
 "Ġhav": 2265,
 "iÅŁehir": 2266,
 "ĠeÄŁ": 2267,
 "ĠgÃ¶rÃ¼n": 2268,
 "Ġnci": 2269,
 "endiÅŁ": 2270,
 "Ġedilme": 2271,
 "oÄŁun": 2272,
 "Ġmillete": 2273,
 "Ġdurumda": 2274,
 "Ġherhangi": 2275,
 "Ġkabin": 2276,
 "Ġkabine": 2277,
 "ladÄ±k": 2278,
 "ĠettiÄŁi": 2279,
 "Ġrapor": 2280,
 "Ġkomuta": 2281,
 "edakÃ¢r": 2282,
 "rabzon": 2283,
 "AK": 2284,
 "nce": 2285,
 "ĠÄ±": 2286,
 "ĠÃ¼m": 2287,
 "Ġbek": 2288,
 "Ġdolay": 2289,
 "elen": 2290,
 "Ġtas": 2291,
 "Ġhizmet": 2292,
 "Ġolup": 2293,
 "mekle": 2294,
 "ĠPar": 2295,
 "Ġveril": 2296,
 "ĠsÄ±rada": 2297,
 "ĠArif": 2298,
 "ĠkonuÅŁma": 2299,
 "ĠtabiÃ®": 2300,
 "Bunun": 2301,
 "ydi": 2302,
 "Ġli": 2303,
 "Ġboz": 2304,
 "Ġsaf": 2305,
 "Ġtemel": 2306,
 "elere": 2307,
 "ekili": 2308,
 "laÅŁtÄ±": 2309,
 "laÅŁmasÄ±": 2310,
 "ĠYahya": 2311,
 "Ġuyan": 2312,
 "Ġhalinde": 2313,
 "ĠuÄŁr": 2314,
 "Ġuygulan": 2315,
 "skiÅŁehir": 2316,
 "Ġ1922": 2317,
 "Ġyeter": 2318,
 "dÄ±ktan": 2319,
 "Ġduygu": 2320,
 "ĠraÄŁmen": 2321,
 "rakya": 2322,
 "tiÄŁini": 2323,
 "ĠgeniÅŁ": 2324,
 "aygÄ±deÄŁer": 2325,
 "Ġkamuoy": 2326,
 "nde": 2327,
 "arÄ±m": 2328,
 "anÄ±n": 2329,
 "Ġtaki": 2330,
 "ĠkarÅŁ": 2331,
 "Ġetki": 2332,
 "Ġolacak": 2333,
 "Ġemr": 2334,
 "lÄ±ÄŁÄ±na": 2335,
 "Ġsoru": 2336,
 "vekili": 2337,
 "edef": 2338,
 "........": 2339,
 "11": 2340,
 "ifa": 2341,
 "res": 2342,
 "rez": 2343,
 "ĠaÅŁ": 2344,
 "Ä±ma": 2345,
 "Ġtah": 2346,
 "Ä°n": 2347,
 "ĠKAR": 2348,
 "ĠSon": 2349,
 "ĠbaÅŁvur": 2350,
 "ĠvermiÅŁ": 2351,
 "Ã¼man": 2352,
 "Ġolabilir": 2353,
 "yare": 2354,
 "Ġgeminin": 2355,
 "ĠKanunu": 2356,
 "AT": 2357,
 "ge": 2358,
 "ida": 2359,
 "kor": 2360,
 "nden": 2361,
 "Ġle": 2362,
 "ÄŁe": 2363,
 "ĠkÄ±r": 2364,
 "Ġgrup": 2365,
 "Ġhan": 2366,
 "ĠhÄ±z": 2367,
 "ĠateÅŁ": 2368,
 "emmuz": 2369,
 "azgeÃ§": 2370,
 "amim": 2371,
 "ĠdaÄŁÄ±": 2372,
 "Ġisten": 2373,
 "Ġistiyor": 2374,
 "Ġpr": 2375,
 "ĠhalkÄ±n": 2376,
 "Ä±ldÄ±ÄŁÄ±": 2377,
 "ĠedeceÄŁ": 2378,
 "lÃ¢m": 2379,
 "ĠgerÃ§ekten": 2380,
 "ĠDevleti": 2381,
 "ĠdÄ±ÅŁÄ±nda": 2382,
 "Ġediyor": 2383,
 "Ġmecbur": 2384,
 "TÃ¼rkiye": 2385,
 "HÃ¼kÃ»met": 2386,
 "ON": 2387,
 "menin": 2388,
 "nu": 2389,
 "rÃ¼": 2390,
 "Ä±v": 2391,
 "Ġdil": 2392,
 "Ġkat": 2393,
 "Ġkav": 2394,
 "lerdi": 2395,
 "medi": 2396,
 "ĠBekir": 2397,
 "ĠÃ§eÅŁitli": 2398,
 "biri": 2399,
 "landÄ±r": 2400,
 "ĠSÃ¶z": 2401,
 "Ġkurtar": 2402,
 "luÄŁ": 2403,
 "Ġ1921": 2404,
 "ilmiÅŁtir": 2405,
 "Ġsaltanat": 2406,
 "Ġsizin": 2407,
 "ĠBakanÄ±": 2408,
 "Ġtedbirler": 2409,
 "hareket": 2410,
 "ĠÅŁeklinde": 2411,
 "dÃ¼z": 2412,
 "emey": 2413,
 "ger": 2414,
 "hÄ±z": 2415,
 "mam": 2416,
 "ĠtÃ¼men": 2417,
 "Ġbirer": 2418,
 "dÄ±ÄŁÄ±mÄ±z": 2419,
 "ĠBun": 2420,
 "emir": 2421,
 "ĠnÄ±n": 2422,
 "landÄ±": 2423,
 "lantÄ±": 2424,
 "ĠgelmiÅŁ": 2425,
 "ĠNezaret": 2426,
 "Ġ20": 2427,
 "afer": 2428,
 "ĠErmeni": 2429,
 "ĠMÃ¼cadele": 2430,
 "Ġasla": 2431,
 "elegeler": 2432,
 "Fran": 2433,
 "bÄ±rak": 2434,
 "kÃ¼r": 2435,
 "meniz": 2436,
 "nda": 2437,
 "telgraf": 2438,
 "zer": 2439,
 "ĠendiÅŁ": 2440,
 "Ġdost": 2441,
 "mamak": 2442,
 "Ġku": 2443,
 "elt": 2444,
 "ulmasÄ±": 2445,
 "ĠasÄ±l": 2446,
 "eyin": 2447,
 "Ä±ÅŁma": 2448,
 "ĠKendi": 2449,
 "uzak": 2450,
 "Ġbulundur": 2451,
 "192": 2452,
 "Ġfi": 2453,
 "Ġtoprak": 2454,
 "madÄ±k": 2455,
 "ĠhaklÄ±": 2456,
 "mÄ±ÅŁtÄ±m": 2457,
 "olayÄ±sÄ±yla": 2458,
 "ĠsaldÄ±rÄ±": 2459,
 "Ġtekrar": 2460,
 "ĠAmerikan": 2461,
 "ĠÅŁifre": 2462,
 "ĠHalife": 2463,
 "ĠsakÄ±nca": 2464,
 "ĠimkÃ¢n": 2465,
 "18": 2466,
 "DE": 2467,
 "Devlet": 2468,
 "Hal": 2469,
 "YA": 2470,
 "bak": 2471,
 "fes": 2472,
 "nokta": 2473,
 "siyle": 2474,
 "Ġiler": 2475,
 "eral": 2476,
 "Ġotur": 2477,
 "ayÄ±m": 2478,
 "caÄŁÄ±mÄ±z": 2479,
 "elerle": 2480,
 "lanan": 2481,
 "ĠTemmuz": 2482,
 "Ġistek": 2483,
 "ĠistiklÃ¢": 2484,
 "asÄ±nÄ±": 2485,
 "Ã¼sl": 2486,
 "ĠgÃ¶revi": 2487,
 "Ġ15": 2488,
 "Ġbelli": 2489,
 "deÄŁiÅŁ": 2490,
 "ĠresmÃ®": 2491,
 "belir": 2492,
 "alat": 2493,
 "best": 2494,
 "dÃ¼m": 2495,
 "hemen": 2496,
 "mel": 2497,
 "tÃ¢": 2498,
 "iran": 2499,
 "ÄŁÄ±na": 2500,
 "Ġav": 2501,
 "Ġdedim": 2502,
 "oll": 2503,
 "birlikte": 2504,
 "evzi": 2505,
 "Ġverdim": 2506,
 "Ġverilen": 2507,
 "ĠEsa": 2508,
 "Ġayak": 2509,
 "Ġele": 2510,
 "ĠyanlÄ±ÅŁ": 2511,
 "urada": 2512,
 "ĠyararlÄ±": 2513,
 "Ġolunur": 2514,
 "Ġtemas": 2515,
 "ĠvasÄ±tasÄ±yla": 2516,
 "do": 2517,
 "yim": 2518,
 "ĠÄ±s": 2519,
 "Ã¼var": 2520,
 "Ġbah": 2521,
 "Ä±ntÄ±": 2522,
 "ÄŁan": 2523,
 "Ġdemek": 2524,
 "ĠBunu": 2525,
 "ona": 2526,
 "ĠaÄŁÄ±r": 2527,
 "lÄ±yordu": 2528,
 "ĠKara": 2529,
 "eÅŁkilÃ¢t": 2530,
 "Ã¼zere": 2531,
 "Ġneden": 2532,
 "leÅŁik": 2533,
 "Ġzamanda": 2534,
 "Ġtamam": 2535,
 "ĠAvrupa": 2536,
 "Ä±vas": 2537,
 "Ã¼slÃ¼man": 2538,
 "dok": 2539,
 "miyor": 2540,
 "sak": 2541,
 "seniz": 2542,
 "yeni": 2543,
 "ill": 2544,
 "Ã§ev": 2545,
 "esinden": 2546,
 "ayÄ±r": 2547,
 "olum": 2548,
 "Ġev": 2549,
 "tep": 2550,
 "Ġkonus": 2551,
 "ĠolduÄŁundan": 2552,
 "diÄŁiniz": 2553,
 "ĠBaÅŁkomutan": 2554,
 "Ġbelki": 2555,
 "Ġortadan": 2556,
 "ĠLand": 2557,
 "ĠbakÄ±mÄ±ndan": 2558,
 "ĠmeÅŁru": 2559,
 "Ġtalimat": 2560,
 "12": 2561,
 "DÃ¼nya": 2562,
 "aya": 2563,
 "hep": 2564,
 "sinden": 2565,
 "Ġ4": 2566,
 "ilaf": 2567,
 "Ã§ak": 2568,
 "ĠBÃ¼tÃ¼n": 2569,
 "orta": 2570,
 "Ä°s": 2571,
 "Ġmilli": 2572,
 "mektey": 2573,
 "ĠSadrazam": 2574,
 "ĠEskiÅŁehir": 2575,
 "Ġfark": 2576,
 "Ġmilleti": 2577,
 "Ġyeri": 2578,
 "Ġkurtul": 2579,
 "Ġ23": 2580,
 "Ġmilletvekili": 2581,
 "Ġikinci": 2582,
 "ĠettiÄŁim": 2583,
 "ĠKabinesi": 2584,
 "SaygÄ±deÄŁer": 2585,
 "hÃ¼kÃ»met": 2586,
 "ses": 2587,
 "yen": 2588,
 "ĠÃ¶r": 2589,
 "Ã¼c": 2590,
 "ildiÄŁi": 2591,
 "mamÄ±z": 2592,
 "Ġvali": 2593,
 "Ġsak": 2594,
 "imdiye": 2595,
 "duy": 2596,
 "Ġada": 2597,
 "Ġait": 2598,
 "Ä°z": 2599,
 "amÄ±z": 2600,
 "elerini": 2601,
 "ĠEÄŁer": 2602,
 "Ġbulunuyordu": 2603,
 "Ġistir": 2604,
 "Ġpara": 2605,
 "cih": 2606,
 "ĠfedakÃ¢r": 2607,
 "Ġayn": 2608,
 "ĠOcak": 2609,
 "yordum": 2610,
 "Ġtelgrafta": 2611,
 "Ġedildi": 2612,
 "sanÄ±z": 2613,
 "ĠsaÄŁlamak": 2614,
 "Ġispat": 2615,
 "Ġkayn": 2616,
 "Ġzarur": 2617,
 "laka": 2618,
 "ĠsÄ±rasÄ±nda": 2619,
 "ĠhÃ¢kimiyet": 2620,
 "Ġmektup": 2621,
 "Ġtakip": 2622,
 "alatya": 2623,
 "Harbiye": 2624,
 "ber": 2625,
 "gat": 2626,
 "hil": 2627,
 "kÄ±rÄ±": 2628,
 "oc": 2629,
 "sinde": 2630,
 "ĠJ": 2631,
 "Ã¼tah": 2632,
 "arlÄ±": 2633,
 "Ġdak": 2634,
 "ellikle": 2635,
 "ram": 2636,
 "lettin": 2637,
 "Ġner": 2638,
 "sip": 2639,
 "lanmÄ±ÅŁ": 2640,
 "ĠBeyefendi": 2641,
 "Ġister": 2642,
 "ĠNa": 2643,
 "ĠgÃ¼c": 2644,
 "ĠedilmiÅŁ": 2645,
 "ĠdeÄŁildi": 2646,
 "Ġ13": 2647,
 "sizlik": 2648,
 "Ä±ldÄ±z": 2649,
 "sekiz": 2650,
 "LET": 2651,
 "abilecek": 2652,
 "Ancak": 2653,
 "iliÄŁ": 2654,
 "ĠÄ°slÃ¢m": 2655,
 "Ġisyan": 2656,
 "ĠSalih": 2657,
 "ĠSeyyare": 2658,
 "Ã¼tahya": 2659,
 "EV": 2660,
 "din": 2661,
 "tesi": 2662,
 "yak": 2663,
 "yÄ±m": 2664,
 "ÅŁam": 2665,
 "andar": 2666,
 "Ä±nlÄ±k": 2667,
 "ĠkÃ¼Ã§Ã¼k": 2668,
 "ĠyÃ¼ce": 2669,
 "Ġhedef": 2670,
 "ize": 2671,
 "Ä°M": 2672,
 "Ġdest": 2673,
 "elerde": 2674,
 "Ġilgil": 2675,
 "saade": 2676,
 "ĠverdiÄŁim": 2677,
 "ĠbulunduÄŁunu": 2678,
 "ĠdÃ¼ÅŁÃ¼r": 2679,
 "Ġpoli": 2680,
 "ĠgeliÅŁ": 2681,
 "ĠReÅŁit": 2682,
 "ĠhalkÄ±": 2683,
 "ĠaÃ§Ä±kÃ§a": 2684,
 "eceÄŁiz": 2685,
 "gÃ¶re": 2686,
 "gelen": 2687,
 "ĠÃ¶ÄŁren": 2688,
 "Ġkoru": 2689,
 "Ġtutuk": 2690,
 "ĠvatanÄ±n": 2691,
 "gÃ¶k": 2692,
 "ozan": 2693,
 "ĠÃ§Ã¶zÃ¼m": 2694,
 "ĠDahiliye": 2695,
 "fettiÅŁ": 2696,
 "melidir": 2697,
 "lorida": 2698,
 "bit": 2699,
 "gerÃ§ek": 2700,
 "iÄŁ": 2701,
 "ota": 2702,
 "ilk": 2703,
 "ÄŁÄ±ndan": 2704,
 "etti": 2705,
 "Ã§evr": 2706,
 "emleket": 2707,
 "umu": 2708,
 "Ä±rÄ±m": 2709,
 "uzun": 2710,
 "ĠaldÄ±ÄŁÄ±": 2711,
 "ĠTrabzon": 2712,
 "Ġistifa": 2713,
 "baÅŁkan": 2714,
 "gÃ¶rev": 2715,
 "ÃľK": 2716,
 "ĠKonferan": 2717,
 "Ġkimselerin": 2718,
 "kurul": 2719,
 "Ġsavun": 2720,
 "Ġdikkate": 2721,
 "icholl": 2722,
 "ĠtanÄ±": 2723,
 "AZ": 2724,
 "Belge": 2725,
 "GÃ¼n": 2726,
 "Komutan": 2727,
 "Yunan": 2728,
 "gÃ¼l": 2729,
 "Ġsek": 2730,
 "Ġsamim": 2731,
 "Ġitir": 2732,
 "Ä°l": 2733,
 "Ġmet": 2734,
 "ĠgÃ¶tÃ¼r": 2735,
 "ecan": 2736,
 "ecik": 2737,
 "ayet": 2738,
 "ĠMart": 2739,
 "ĠÄ°ÅŁte": 2740,
 "Ã¶nce": 2741,
 "aha": 2742,
 "Ġkongre": 2743,
 "ĠolduÄŁuna": 2744,
 "Ġgider": 2745,
 "ĠGÃ¶r": 2746,
 "Ġkendisi": 2747,
 "ĠulaÅŁ": 2748,
 "duklarÄ±": 2749,
 "Ġmanev": 2750,
 "devam": 2751,
 "Ġkendilerine": 2752,
 "ĠGenelkurmay": 2753,
 "Ġserbest": 2754,
 "ĠRumeli": 2755,
 "fesÃ¶r": 2756,
 "Ġdakika": 2757,
 "Bundan": 2758,
 "aÄŁÄ±": 2759,
 "adam": 2760,
 "hey": 2761,
 "ket": 2762,
 "sen": 2763,
 "ton": 2764,
 "Ġkolordu": 2765,
 "imde": 2766,
 "sÄ±ra": 2767,
 "esiz": 2768,
 "ĠAmasya": 2769,
 "amp": 2770,
 "Ã¼zÃ¼": 2771,
 "ĠSa": 2772,
 "Ġverilme": 2773,
 "ĠEl": 2774,
 "Ã§Ä±kar": 2775,
 "Ġyere": 2776,
 "Ġre": 2777,
 "ĠÃ§Ä±ktÄ±": 2778,
 "ladÄ±m": 2779,
 "ĠolacaktÄ±r": 2780,
 "ĠmÃ¼f": 2781,
 "ÄŁÄ±rdÄ±": 2782,
 "Ġyararlan": 2783,
 "Ġtercih": 2784,
 "Ġihtiya": 2785,
 "sever": 2786,
 "Ġzorunda": 2787,
 "ĠfÄ±rsat": 2788,
 "ĠteÅŁkilÃ¢tÄ±": 2789,
 "Ã¼vari": 2790,
 "Her": 2791,
 "fÄ±r": 2792,
 "oca": 2793,
 "Ġ6": 2794,
 "arkadaÅŁ": 2795,
 "etmek": 2796,
 "Ġkomisyon": 2797,
 "Ġsordu": 2798,
 "ĠBuna": 2799,
 "aÅŁÄ±r": 2800,
 "izi": 2801,
 "esap": 2802,
 "Ã¼rt": 2803,
 "ilere": 2804,
 "ĠÄ°kinci": 2805,
 "ĠHÃ¼k": 2806,
 "elerden": 2807,
 "sah": 2808,
 "ĠTrakya": 2809,
 "biad": 2810,
 "Ã¼zerine": 2811,
 "Ã¼yle": 2812,
 "Ġfakat": 2813,
 "ĠFevzi": 2814,
 "Ġbizzat": 2815,
 "Ġolamaz": 2816,
 "halde": 2817,
 "ĠHaziran": 2818,
 "Ġderece": 2819,
 "liÄŁe": 2820,
 "icdan": 2821,
 "Ġordus": 2822,
 "ĠÃ¼mit": 2823,
 "olumbiad": 2824,
 "GerÃ§ekten": 2825,
 "Kon": 2826,
 "Or": 2827,
 "Peki": 2828,
 "UM": 2829,
 "bra": 2830,
 "tab": 2831,
 "vÃ¢": 2832,
 "ĠÃ¼l": 2833,
 "Ä±yla": 2834,
 "Ġkad": 2835,
 "ĠgÃ¼zel": 2836,
 "Ġval": 2837,
 "lamÄ±ÅŁtÄ±": 2838,
 "uldu": 2839,
 "Ġolsa": 2840,
 "Ġolmaz": 2841,
 "ĠeÅŁ": 2842,
 "ĠSÄ±vas": 2843,
 "ĠGÃĸ": 2844,
 "ĠgÃ¶rÃ¼ÅŁme": 2845,
 "atÄ±ÅŁ": 2846,
 "ĠsÃ¶yledi": 2847,
 "vardÄ±": 2848,
 "ĠkÄ±s": 2849,
 "Ġederiz": 2850,
 "Ä°NE": 2851,
 "Ã¼stÃ¼": 2852,
 "konuÅŁ": 2853,
 "Ġsize": 2854,
 "ĠAralÄ±k": 2855,
 "layacak": 2856,
 "Ġtemsilci": 2857,
 "ĠYunanlÄ±": 2858,
 "ĠyÃ¼rÃ¼t": 2859,
 "ÄŁust": 2860,
 "ĠyapÄ±lacak": 2861,
 "Ġdiren": 2862,
 "Ġnitelik": 2863,
 "ĠzarurÃ®": 2864,
 "El": 2865,
 "ibi": 2866,
 "ÄŁin": 2867,
 "Ġdo": 2868,
 "Ġyav": 2869,
 "Ġyola": 2870,
 "ĠBursa": 2871,
 "uzur": 2872,
 "miÅŁtim": 2873,
 "Ġana": 2874,
 "ĠyapÄ±l": 2875,
 "hava": 2876,
 "imizde": 2877,
 "Ġgelecek": 2878,
 "Ġgide": 2879,
 "ĠConceil": 2880,
 "ĠgereÄŁi": 2881,
 "Ġsorum": 2882,
 "dÃ¼ÅŁman": 2883,
 "bulunan": 2884,
 "Ġhayat": 2885,
 "ĠbunlarÄ±n": 2886,
 "ĠKurmay": 2887,
 "ĠayrÄ±ca": 2888,
 "ĠSavunma": 2889,
 "ĠmÃ¼frez": 2890,
 "Cumhuriyet": 2891,
 "adÄ±": 2892,
 "hay": 2893,
 "idd": 2894,
 "kÃ¶": 2895,
 "yalnÄ±z": 2896,
 "Ġ7": 2897,
 "Ġ8": 2898,
 "ĠÄ±ÅŁ": 2899,
 "Ġboyun": 2900,
 "Ġdiyor": 2901,
 "ekÃ¢": 2902,
 "Ġtaz": 2903,
 "demir": 2904,
 "dap": 2905,
 "mec": 2906,
 "lÄ±ÄŁÄ±mÄ±z": 2907,
 "ĠMar": 2908,
 "iklik": 2909,
 "ĠaltÄ±": 2910,
 "ĠalmÄ±ÅŁ": 2911,
 "Ġverme": 2912,
 "bilmek": 2913,
 "ĠÃ¶nc": 2914,
 "Ġarka": 2915,
 "yani": 2916,
 "Ġkendisini": 2917,
 "mermi": 2918,
 "rÄ±ca": 2919,
 "Ġderin": 2920,
 "Ġduyur": 2921,
 "ĠyÃ¶netim": 2922,
 "caÄŁÄ±na": 2923,
 "ĠciddÃ®": 2924,
 "Ġkimse": 2925,
 "ĠcevabÄ±": 2926,
 "hisar": 2927,
 "kabul": 2928,
 "ï¬ģ": 2929,
 "ĠNezareti": 2930,
 "Bil": 2931,
 "LAN": 2932,
 "dal": 2933,
 "kuvvet": 2934,
 "yÃ¼k": 2935,
 "ancak": 2936,
 "Ġgez": 2937,
 "labilir": 2938,
 "ĠsuÃ§": 2939,
 "ĠBarbicane": 2940,
 "imle": 2941,
 "onun": 2942,
 "sit": 2943,
 "ĠzÃ¢tÄ±": 2944,
 "Ã¼len": 2945,
 "Ġordunun": 2946,
 "ĠgerÃ§e": 2947,
 "ÃľÅŀ": 2948,
 "mÄ±yor": 2949,
 "ĠyÃ¼zÃ¼nden": 2950,
 "Ä±mÄ±za": 2951,
 "Ġdevletin": 2952,
 "ĠÃ§arp": 2953,
 "Ġizin": 2954,
 "hiÃ§bir": 2955,
 "ĠEsasiye": 2956,
 "Ġistirham": 2957,
 "Ġpolitik": 2958,
 "MET": 2959,
 "Ne": 2960,
 "git": 2961,
 "kil": 2962,
 "tayÄ±": 2963,
 "yÃ¶n": 2964,
 "yse": 2965,
 "yirmi": 2966,
 "eref": 2967,
 "Ġkut": 2968,
 "Ġvur": 2969,
 "lamaz": 2970,
 "ĠyaÅŁa": 2971,
 "Ġiddi": 2972,
 "ĠBil": 2973,
 "tÄ±cÄ±": 2974,
 "esiyle": 2975,
 "Ã¢vÃ¢": 2976,
 "ĠÅŁekli": 2977,
 "azarÄ±": 2978,
 "ĠÄ°Ã§": 2979,
 "arasÄ±nda": 2980,
 "Ġnok": 2981,
 "ĠaldÄ±m": 2982,
 "Ä±mÄ±": 2983,
 "laÅŁma": 2984,
 "manÄ±z": 2985,
 "ĠiÅŁi": 2986,
 "ĠgerektiÄŁi": 2987,
 "Ġortak": 2988,
 "asÄ±f": 2989,
 "Ġherkes": 2990,
 "Ġbildiri": 2991,
 "iyordum": 2992,
 "Ġyoktu": 2993,
 "ĠÅŀu": 2994,
 "ĠÅŁahsiyet": 2995,
 "ĠdÄ±ÅŁarÄ±": 2996,
 "LERÄ°": 2997,
 "Ġacele": 2998,
 "Ġtayin": 2999,
 "ĠaydÄ±nlat": 3000,
 "ĠValisi": 3001,
 "ĠÄ±srar": 3002,
 "30": 3003,
 "Bakan": 3004,
 "Ned": 3005,
 "bunun": 3006,
 "boÅŁ": 3007,
 "dil": 3008,
 "ga": 3009,
 "kun": 3010,
 "kullan": 3011,
 "yum": 3012,
 "anrÄ±": 3013,
 "Ġbelg": 3014,
 "ĠvazgeÃ§": 3015,
 "Ġvicdan": 3016,
 "lab": 3017,
 "Ġsok": 3018,
 "Ã¼nyan": 3019,
 "ĠoluÅŁtur": 3020,
 "emli": 3021,
 "ĠMayÄ±": 3022,
 "makt": 3023,
 "ĠAhmet": 3024,
 "Ã¼zerinde": 3025,
 "ĠGerÃ§ekten": 3026,
 "ĠgÃ¼nlerde": 3027,
 "Ġkalan": 3028,
 "Ġkendisinin": 3029,
 "Ã¼seyin": 3030,
 "lenen": 3031,
 "Ġ24": 3032,
 "Ġesir": 3033,
 "ĠgerÃ§ekleÅŁtir": 3034,
 "konu": 3035,
 "Ġbilginize": 3036,
 "larÄ±mÄ±zÄ±n": 3037,
 "Ġihtimal": 3038,
 "caÄŁÄ±ndan": 3039,
 "malÄ±dÄ±r": 3040,
 "ĠÃ¼nvan": 3041,
 "'m": 3042,
 "BÃ¶yle": 3043,
 "Florida": 3044,
 "det": 3045,
 "dÃ¶k": 3046,
 "kesin": 3047,
 "yerek": 3048,
 "zor": 3049,
 "Ġ9": 3050,
 "ĠÃ¶yle": 3051,
 "erÃ§ev": 3052,
 "inan": 3053,
 "masÄ±nÄ±n": 3054,
 "Ġkana": 3055,
 "Ġgru": 3056,
 "Ġvekil": 3057,
 "larca": 3058,
 "ĠsÄ±r": 3059,
 "Ġtep": 3060,
 "dat": 3061,
 "lis": 3062,
 "yay": 3063,
 "Ġalarak": 3064,
 "lÄ±r": 3065,
 "ĠKomisyon": 3066,
 "ĠÅŁun": 3067,
 "ĠAÄŁust": 3068,
 "uzey": 3069,
 "ĠyaptÄ±ÄŁÄ±": 3070,
 "Ġisteyen": 3071,
 "opa": 3072,
 "ecekti": 3073,
 "ilmesine": 3074,
 "ĠolacaÄŁÄ±nÄ±": 3075,
 "Ġyarat": 3076,
 "Ġ22": 3077,
 "Ġyandan": 3078,
 "Ġemin": 3079,
 "Ġ18": 3080,
 "halif": 3081,
 "ĠMilletvekili": 3082,
 "acaktÄ±r": 3083,
 "tarih": 3084,
 "ĠaltÄ±na": 3085,
 "ĠgÃ¼Ã§lÃ¼k": 3086,
 "hareb": 3087,
 "lerimizi": 3088,
 "ĠÅŁartlar": 3089,
 "soru": 3090,
 "dÃ¼ÅŁÃ¼nc": 3091,
 "ĠgereÄŁini": 3092,
 "Ġcanav": 3093,
 "Ġsonucu": 3094,
 "ĠaÃ§Ä±ÄŁa": 3095,
 "ĠkarÅŁÄ±lan": 3096,
 "Ġaynen": 3097,
 "andarma": 3098,
 "AL": 3099,
 "Refet": 3100,
 "bat": 3101,
 "bazÄ±": 3102,
 "gÄ±n": 3103,
 "lendi": 3104,
 "indir": 3105,
 "Ġkol": 3106,
 "elli": 3107,
 "ĠyukarÄ±": 3108,
 "alÄ±n": 3109,
 "Ġiken": 3110,
 "medik": 3111,
 "dÄ±lar": 3112,
 "ĠBEY": 3113,
 "ond": 3114,
 "Ġmiydi": 3115,
 "ateÅŁ": 3116,
 "ĠMÄ°L": 3117,
 "elerine": 3118,
 "mut": 3119,
 "Ã¼lÃ¼": 3120,
 "Ġkongr": 3121,
 "Ġkonferan": 3122,
 "iÃ§inde": 3123,
 "ĠOnun": 3124,
 "derece": 3125,
 "ĠÃ§Ä±kan": 3126,
 "eceÄŁine": 3127,
 "meyecek": 3128,
 "ĠisteÄŁ": 3129,
 "Ġmadd": 3130,
 "ĠalÄ±nan": 3131,
 "ĠsaldÄ±r": 3132,
 "ĠbÃ¶lgesinde": 3133,
 "ĠÄ°zmit": 3134,
 "larÄ±mÄ±zÄ±": 3135,
 "Ġediyordu": 3136,
 "elÃ¢lettin": 3137,
 "ĠBununla": 3138,
 "ĠÃ¶ldÃ¼r": 3139,
 "ĠDaha": 3140,
 "--------------------------------": 3141,
 "Ġmeydan": 3142,
 "ĠuÄŁraÅŁ": 3143,
 "Ä°smet": 3144,
 "Ġtazmin": 3145,
 "Ã¼nyanÄ±n": 3146,
 "opagan": 3147,
 "!âĢĿ": 3148,
 "15": 3149,
 "28": 3150,
 "ALÄ°": 3151,
 "kiÅŁ": 3152,
 "lin": 3153,
 "yÄ±z": 3154,
 "Ä±lacak": 3155,
 "Ã¼me": 3156,
 "anlaÅŁ": 3157,
 "Ã§Ã¼": 3158,
 "Ġdiy": 3159,
 "ĠdÃ¢vÃ¢": 3160,
 "Ġyara": 3161,
 "Ġyirmi": 3162,
 "ĠhilÃ¢fet": 3163,
 "ĠBÄ°R": 3164,
 "ĠoluÅŁ": 3165,
 "Ġolumlu": 3166,
 "iÅŁli": 3167,
 "ĠKÃ¼tahya": 3168,
 "ĠMerkez": 3169,
 "ĠMÃ¼slÃ¼man": 3170,
 "Ã¼rs": 3171,
 "elerinde": 3172,
 "Ġzan": 3173,
 "ĠDÄ±ÅŁ": 3174,
 "mayacaÄŁÄ±": 3175,
 "Ġgidi": 3176,
 "ĠNe": 3177,
 "ĠaykÄ±rÄ±": 3178,
 "Ġbildiril": 3179,
 "lÃ¼yor": 3180,
 "Ġyolunda": 3181,
 "ĠhÃ¼kÃ»meti": 3182,
 "Ġmemnun": 3183,
 "Ġ1923": 3184,
 "ĠKongre": 3185,
 "ĠsaÄŁlan": 3186,
 "ĠBakanlÄ±ÄŁÄ±": 3187,
 "Ġteslim": 3188,
 "ĠbugÃ¼nkÃ¼": 3189,
 "Ġincel": 3190,
 "Amerika": 3191,
 "Ġtebli": 3192,
 "savaÅŁ": 3193,
 "Ġsuretiyle": 3194,
 "ĠcÃ¼mle": 3195,
 "FransÄ±z": 3196,
 "mekteydi": 3197,
 "AF": 3198,
 "Ama": 3199,
 "EÅŀ": 3200,
 "Son": 3201,
 "Sivas": 3202,
 "hi": 3203,
 "hazÄ±r": 3204,
 "ker": 3205,
 "kazan": 3206,
 "ilus": 3207,
 "Ġdal": 3208,
 "malar": 3209,
 "ĠkayÄ±": 3210,
 "lerce": 3211,
 "ĠbirliÄŁi": 3212,
 "mesinin": 3213,
 "ulmuÅŁ": 3214,
 "tÄ±yla": 3215,
 "emin": 3216,
 "ĠKÃ¼rt": 3217,
 "ayÄ±n": 3218,
 "ĠMalatya": 3219,
 "ĠÅŁuydu": 3220,
 "ikÃ¢": 3221,
 "Ä±lmaz": 3222,
 "ĠTeÅŁkilÃ¢t": 3223,
 "Ġedilmesi": 3224,
 "Ã¼lmÃ¼ÅŁ": 3225,
 "ĠCev": 3226,
 "ĠÃ¶ner": 3227,
 "ĠsÃ¶zler": 3228,
 "ifre": 3229,
 "ĠkalkÄ±ÅŁ": 3230,
 "ĠVekili": 3231,
 "ÃľN": 3232,
 "ĠÃ¶teki": 3233,
 "Ġderec": 3234,
 "Ġkorun": 3235,
 "Anadolu": 3236,
 "ĠhazÄ±rlÄ±k": 3237,
 "Ġokun": 3238,
 "Ġsahibi": 3239,
 "ĠÃ¢sÃ®": 3240,
 "Ġzaten": 3241,
 "Ġtehlikeli": 3242,
 "ĠÅŁifreli": 3243,
 "ÄŁanÃ¼stÃ¼": 3244,
 "ĠKonferansÄ±": 3245,
 "dapazarÄ±": 3246,
 "YOR": 3247,
 "be": 3248,
 "kez": 3249,
 "kims": 3250,
 "niyet": 3251,
 "olacak": 3252,
 "seÃ§": 3253,
 "tÄ±n": 3254,
 "ucu": 3255,
 "erken": 3256,
 "etli": 3257,
 "ekkÃ¼r": 3258,
 "ĠyaÅŁ": 3259,
 "dayan": 3260,
 "dÄ±ÅŁ": 3261,
 "Ã¼nÃ¼z": 3262,
 "iyan": 3263,
 "lÄ±ca": 3264,
 "eyim": 3265,
 "sÄ±m": 3266,
 "aynÄ±": 3267,
 "ĠÃ§ev": 3268,
 "ĠAma": 3269,
 "ĠHar": 3270,
 "ĠHÃ¢": 3271,
 "Ä±rken": 3272,
 "tip": 3273,
 "tisi": 3274,
 "ĠalÄ±na": 3275,
 "Ġetraf": 3276,
 "Ã¼mÃ¼": 3277,
 "utilus": 3278,
 "ĠiÅŁin": 3279,
 "Ġbenims": 3280,
 "ĠÃ¶ÄŁ": 3281,
 "liÄŁine": 3282,
 "ĠyÃ¼zden": 3283,
 "dÄ±klarÄ±": 3284,
 "ilmiÅŁti": 3285,
 "yerine": 3286,
 "ĠMutasarrÄ±f": 3287,
 "memleket": 3288,
 "ÄŀI": 3289,
 "ĠÃ¼yeleri": 3290,
 "ĠyardÄ±mcÄ±": 3291,
 "LARI": 3292,
 "gÃ¼ven": 3293,
 "Ġhangi": 3294,
 "Ġrej": 3295,
 "Ġsoruml": 3296,
 "opaganda": 3297,
 "),": 3298,
 "MÃ¼": 3299,
 "Nicholl": 3300,
 "gul": 3301,
 "gÃ¢h": 3302,
 "him": 3303,
 "ser": 3304,
 "anda": 3305,
 "ĠyÄ±k": 3306,
 "Ġhuzur": 3307,
 "aÅŁtÄ±r": 3308,
 "yacak": 3309,
 "lemek": 3310,
 "tÄ±lar": 3311,
 "ĠÃ§aÄŁ": 3312,
 "Ã¼rr": 3313,
 "Ġverildi": 3314,
 "usul": 3315,
 "Ã¼meni": 3316,
 "Ġbulunuyor": 3317,
 "ĠolduÄŁumuz": 3318,
 "Ġkurmak": 3319,
 "Ġolabil": 3320,
 "ĠVasÄ±f": 3321,
 "eliÄŁ": 3322,
 "melerini": 3323,
 "Ġharekete": 3324,
 "ĠgÃ¼venilir": 3325,
 "Ä±yorum": 3326,
 "Ġkesinlikle": 3327,
 "hattin": 3328,
 "Ġsiyaset": 3329,
 "Ä±lÄ±r": 3330,
 "Ġciddi": 3331,
 "ĠtavÄ±r": 3332,
 "Ġprog": 3333,
 "Ġmutlaka": 3334,
 "Ġirade": 3335,
 "Ġsabah": 3336,
 "Ġhava": 3337,
 "Ġkabinenin": 3338,
 "ĠAÄŁustos": 3339,
 "BÃ¼tÃ¼n": 3340,
 "EM": 3341,
 "culuk": 3342,
 "dost": 3343,
 "fyon": 3344,
 "haber": 3345,
 "ktan": 3346,
 "lÄ±nda": 3347,
 "rist": 3348,
 "Ä±Ä±": 3349,
 "andÄ±r": 3350,
 "irken": 3351,
 "masÄ±ndan": 3352,
 "ĠkÃ¶y": 3353,
 "lib": 3354,
 "Ä°ÅŁte": 3355,
 "olur": 3356,
 "Ä±lmasÄ±na": 3357,
 "ĠÄ°l": 3358,
 "larÄ±ndaki": 3359,
 "Ġniyet": 3360,
 "tif": 3361,
 "Ġverilmesi": 3362,
 "Ġanda": 3363,
 "ĠyapÄ±lmÄ±ÅŁ": 3364,
 "ĠDÃ¼nya": 3365,
 "Ġmes": 3366,
 "Åŀimdi": 3367,
 "ĠGÃ¼n": 3368,
 "ĠOysa": 3369,
 "ihayet": 3370,
 "larÄ±nÄ±z": 3371,
 "Ġbildirdim": 3372,
 "madÄ±m": 3373,
 "ĠolacaÄŁÄ±": 3374,
 "Ġ28": 3375,
 "gÃ¼nkÃ¼": 3376,
 "ĠÃ§alÄ±ÅŁan": 3377,
 "liÄŁin": 3378,
 "ĠErmen": 3379,
 "ĠBirinci": 3380,
 "Ġteklifi": 3381,
 "baÄŁÄ±rdÄ±": 3382,
 "leyen": 3383,
 "ĠoldukÃ§a": 3384,
 "ĠSamsun": 3385,
 "Ġkendini": 3386,
 "ĠAlbay": 3387,
 "Ġvakit": 3388,
 "tarafÄ±ndan": 3389,
 "Ġsafha": 3390,
 "ĠistiklÃ¢l": 3391,
 "ampa": 3392,
 "ĠGÃĸR": 3393,
 "ĠMayÄ±s": 3394,
 "Ã¼rriyet": 3395,
 "AP": 3396,
 "Al": 3397,
 "ac": 3398,
 "buriyet": 3399,
 "emez": 3400,
 "kend": 3401,
 "wn": 3402,
 "yle": 3403,
 "Ã¼ye": 3404,
 "eneral": 3405,
 "ĠkiÅŁi": 3406,
 "ĠbirleÅŁ": 3407,
 "Ġhis": 3408,
 "dular": 3409,
 "Ġmil": 3410,
 "ĠÅŁar": 3411,
 "ĠÅŁeh": 3412,
 "azi": 3413,
 "abuk": 3414,
 "cev": 3415,
 "tacak": 3416,
 "birkaÃ§": 3417,
 "Ã¶ner": 3418,
 "Ġyapmak": 3419,
 "ĠyapmÄ±ÅŁ": 3420,
 "ĠDÃ¼ÅŁ": 3421,
 "Ġmeden": 3422,
 "ĠpadiÅŁah": 3423,
 "Ã»t": 3424,
 "mayacaÄŁÄ±nÄ±": 3425,
 "Ġfer": 3426,
 "ruh": 3427,
 "inizin": 3428,
 "baÅŁladÄ±": 3429,
 "ĠyazdÄ±m": 3430,
 "abilmek": 3431,
 "Ġcevapta": 3432,
 "Ġtutum": 3433,
 "Ġvatansever": 3434,
 "ĠÃ§ekin": 3435,
 "cadel": 3436,
 "Ġaleyhinde": 3437,
 "Ġgecik": 3438,
 "brahim": 3439,
 "Ġiddia": 3440,
 "AM": 3441,
 "BinbaÅŁÄ±": 3442,
 "Columbiad": 3443,
 "Kur": 3444,
 "UT": 3445,
 "bÃ¶lg": 3446,
 "kay": 3447,
 "kuÅŁ": 3448,
 "ren": 3449,
 "rusu": 3450,
 "taÅŁ": 3451,
 "ulacak": 3452,
 "arip": 3453,
 "aklÄ±": 3454,
 "ĠBinbaÅŁÄ±": 3455,
 "ati": 3456,
 "ĠÃ§et": 3457,
 "birliÄŁi": 3458,
 "ted": 3459,
 "ĠaldÄ±ÄŁÄ±m": 3460,
 "layÄ±p": 3461,
 "ÅŀI": 3462,
 "ĠAnt": 3463,
 "uvar": 3464,
 "ĠtelgrafÄ±n": 3465,
 "lÃ¼ÄŁ": 3466,
 "Ġ12": 3467,
 "liÄŁini": 3468,
 "geÃ§ir": 3469,
 "Ġmuh": 3470,
 "rofesÃ¶r": 3471,
 "MASI": 3472,
 "Ġdayanarak": 3473,
 "teÅŁkes": 3474,
 "ebilecek": 3475,
 "Ġikti": 3476,
 "Ġmerm": 3477,
 "giriÅŁ": 3478,
 "ĠiliÅŁki": 3479,
 "Ġtemsilciler": 3480,
 "dokuz": 3481,
 "erÃ§evesinde": 3482,
 "AB": 3483,
 "AY": 3484,
 "HayÄ±r": 3485,
 "SÃ¶z": 3486,
 "ister": 3487,
 "ku": 3488,
 "say": 3489,
 "sam": 3490,
 "taki": 3491,
 "yÃ¼r": 3492,
 "yÃ¼ksek": 3493,
 "yÄ±ldÄ±z": 3494,
 "Ġunu": 3495,
 "Ġmal": 3496,
 "ÅŁu": 3497,
 "ina": 3498,
 "ĠbÃ¶l": 3499,
 "ĠkÄ±ÅŁ": 3500,
 "ĠkÃ¼rs": 3501,
 "lah": 3502,
 "alip": 3503,
 "daÄŁÄ±": 3504,
 "eyle": 3505,
 "raca": 3506,
 "emiyor": 3507,
 "denin": 3508,
 "ayr": 3509,
 "oldu": 3510,
 "ĠAb": 3511,
 "ĠgÃ¶rdÃ¼ÄŁ": 3512,
 "ĠbaÅŁlan": 3513,
 "lÄ±ktan": 3514,
 "layÄ±cÄ±": 3515,
 "Ġpart": 3516,
 "Ġondan": 3517,
 "Ġtelgrafla": 3518,
 "Ġ26": 3519,
 "tÄ±ktan": 3520,
 "ĠgÃ¶steren": 3521,
 "ĠgÃ¶stermek": 3522,
 "Ġmakine": 3523,
 "ĠÅŁudur": 3524,
 "Ä±mÄ±zÄ±n": 3525,
 "ĠkomutanÄ±": 3526,
 "Ãĩok": 3527,
 "ĠhazÄ±rlan": 3528,
 "Ġmilletvekillerinin": 3529,
 "tere": 3530,
 "Ġbuyurur": 3531,
 "barut": 3532,
 "ĠimzasÄ±": 3533,
 "Ġsekiz": 3534,
 "ĠihtiyaÃ§": 3535,
 "Genel": 3536,
 "amaz": 3537,
 "koy": 3538,
 "otur": 3539,
 "tum": 3540,
 "tÃ¼m": 3541,
 "Ġbekli": 3542,
 "Ġbakan": 3543,
 "ĠkatÄ±": 3544,
 "eks": 3545,
 "memek": 3546,
 "mediÄŁi": 3547,
 "tÄ±ra": 3548,
 "lÄ±dÄ±r": 3549,
 "esir": 3550,
 "Ã¢b": 3551,
 "ĠÅŁeref": 3552,
 "yedi": 3553,
 "masÄ±yla": 3554,
 "ĠYÃ¼ksek": 3555,
 "Ġgerektir": 3556,
 "Ġelver": 3557,
 "lÃ¼ÄŁÃ¼": 3558,
 "ĠVatan": 3559,
 "Ġyolda": 3560,
 "ÃľR": 3561,
 "ARI": 3562,
 "ĠaracÄ±": 3563,
 "sonuÃ§": 3564,
 "Ġkuvvetleri": 3565,
 "ĠsayÄ±n": 3566,
 "ĠmÃ¼saade": 3567,
 "ĠsaÄŁlam": 3568,
 "ĠMÃ¼dÃ¼r": 3569,
 "umhur": 3570,
 "Ä±yorlardÄ±": 3571,
 "Ä±mÄ±zdan": 3572,
 "Ġbizimle": 3573,
 "Ġolmayan": 3574,
 "ĠolmadÄ±ÄŁÄ±": 3575,
 "ĠolduklarÄ±": 3576,
 "ĠÃ¼stÃ¼n": 3577,
 "Ġmeydana": 3578,
 "ĠÃ¼zÃ¼n": 3579,
 "Ġpropaganda": 3580,
 "Ġkonusundaki": 3581,
 "ĠkurtuluÅŁ": 3582,
 "ĠgerÃ§eÄŁi": 3583,
 "ĠKomisyonu": 3584,
 "16": 3585,
 "AS": 3586,
 "DAN": 3587,
 "arÄ±n": 3588,
 "Ġsiv": 3589,
 "tÄ±ÄŁÄ±m": 3590,
 "lÄ±ÄŁÄ±m": 3591,
 "ĠÅŁidd": 3592,
 "Ä±lmak": 3593,
 "Ä±lmÄ±ÅŁtÄ±": 3594,
 "ĠHilÃ¢fet": 3595,
 "ĠiÃ§ten": 3596,
 "ĠiÃ§eri": 3597,
 "ĠTanrÄ±": 3598,
 "ĠbaÅŁar": 3599,
 "Ġvererek": 3600,
 "biÃ§": 3601,
 "ĠyapÄ±ldÄ±": 3602,
 "Ã¼lmesi": 3603,
 "ĠgeldiÄŁi": 3604,
 "Ġgelince": 3605,
 "ĠÃ¶nÃ¼ne": 3606,
 "ĠOn": 3607,
 "giltere": 3608,
 "Ġbildirilmesini": 3609,
 "Ġtaraftar": 3610,
 "ĠanlamÄ±": 3611,
 "sizin": 3612,
 "Ġkuvvetli": 3613,
 "Ġnoktalar": 3614,
 "dÃ¼rb": 3615,
 "ĠMuh": 3616,
 "mÃ¼ÅŁtÃ¼r": 3617,
 "ĠÄ°tilaf": 3618,
 "Ġolaylar": 3619,
 "Ġzaruret": 3620,
 "Ġhayvan": 3621,
 "Ġmecburiyet": 3622,
 "Ġparti": 3623,
 "Ġbiribir": 3624,
 "Ġincele": 3625,
 "Ġbilinen": 3626,
 "ĠsÃ¶ylen": 3627,
 "Amerikan": 3628,
 "Erzurum": 3629,
 "ĠtasarÄ±": 3630,
 "maktaydÄ±": 3631,
 "ĠDÄ±ÅŁiÅŁleri": 3632,
 "14": 3633,
 "22": 3634,
 "Ali": 3635,
 "BÃ¼yÃ¼k": 3636,
 "GÃ¶r": 3637,
 "bekle": 3638,
 "dÃ¼nya": 3639,
 "fen": 3640,
 "gÃ¼r": 3641,
 "ib": 3642,
 "kolay": 3643,
 "kÃ¼Ã§Ã¼k": 3644,
 "yukarÄ±": 3645,
 "zalan": 3646,
 "Ä±ÄŁ": 3647,
 "erÃ§i": 3648,
 "Ġbulu": 3649,
 "Ã§Ã¶z": 3650,
 "ĠdemiÅŁ": 3651,
 "Ġdemir": 3652,
 "demek": 3653,
 "Ġatan": 3654,
 "iyarb": 3655,
 "esaret": 3656,
 "eminin": 3657,
 "Ã¢lÃ®": 3658,
 "Ã¢nÄ±": 3659,
 "ĠÃ§aÄŁÄ±r": 3660,
 "ĠÃ§oÄŁun": 3661,
 "ĠÅŁimdiye": 3662,
 "makam": 3663,
 "yorlardÄ±": 3664,
 "bilg": 3665,
 "oÄŁaz": 3666,
 "ecep": 3667,
 "ĠiÅŁe": 3668,
 "ĠkarÅŁÄ±laÅŁ": 3669,
 "sÄ±zÄ±n": 3670,
 "ĠgÃ¼ney": 3671,
 "Ġhalif": 3672,
 "Ġbenzer": 3673,
 "ĠsÃ¼rekli": 3674,
 "Ġ25": 3675,
 "Ġ27": 3676,
 "ĠyanÄ±na": 3677,
 "ĠhÃ¼kÃ»mete": 3678,
 "Ġ14": 3679,
 "tikten": 3680,
 "ĠmÃ¼cadel": 3681,
 "iste": 3682,
 "ĠalÄ±nmasÄ±": 3683,
 "ĠÄ°ngilizler": 3684,
 "Ġ30": 3685,
 "ĠzatÄ±n": 3686,
 "Ġsebeple": 3687,
 "BaÅŁkanÄ±": 3688,
 "ĠbaskÄ±": 3689,
 "Ġtavsiye": 3690,
 "ĠkolaylÄ±kla": 3691,
 "ĠtebliÄŁ": 3692,
 "ĠmaksadÄ±": 3693,
 "Ġleh": 3694,
 "Ġtebligat": 3695,
 "fyonkara": 3696,
 "umhurbaÅŁkan": 3697,
 "DI": 3698,
 "Mart": 3699,
 "acaÄŁÄ±nÄ±": 3700,
 "buy": 3701,
 "bunu": 3702,
 "dret": 3703,
 "hiÅŁ": 3704,
 "kÄ±l": 3705,
 "kendiler": 3706,
 "lo": 3707,
 "rik": 3708,
 "sy": 3709,
 "Ã¼yordu": 3710,
 "ilÃ®": 3711,
 "Ã§Ã¼nkÃ¼": 3712,
 "mamÄ±ÅŁtÄ±": 3713,
 "Ġkara": 3714,
 "Ã¶v": 3715,
 "larsa": 3716,
 "Ġsey": 3717,
 "ĠsÃ¼vari": 3718,
 "Ġtu": 3719,
 "Ġiti": 3720,
 "ulur": 3721,
 "Ġalay": 3722,
 "ĠacÄ±": 3723,
 "ĠatÄ±l": 3724,
 "Ä°Z": 3725,
 "Ä°t": 3726,
 "Ġmen": 3727,
 "ĠMal": 3728,
 "ĠAs": 3729,
 "ikmet": 3730,
 "Ġdair": 3731,
 "ĠÄ°ST": 3732,
 "saf": 3733,
 "Ġetkili": 3734,
 "bilim": 3735,
 "Ġyapacak": 3736,
 "Ã¼thiÅŁ": 3737,
 "iyorsunuz": 3738,
 "Ġisterim": 3739,
 "diÄŁinden": 3740,
 "diÄŁimi": 3741,
 "ĠsÃ¶zleri": 3742,
 "Ġbendeniz": 3743,
 "luÄŁu": 3744,
 "Ġtarihte": 3745,
 "Ġkararlar": 3746,
 "Ġanlamak": 3747,
 "gÃ¼nÃ¼": 3748,
 "ĠadÄ±nda": 3749,
 "ĠgÃ¶nderil": 3750,
 "duklarÄ±nÄ±": 3751,
 "ĠÅŀimdi": 3752,
 "ĠistediÄŁi": 3753,
 "ĠsÃ¶yledim": 3754,
 "vardÄ±r": 3755,
 "yardÄ±m": 3756,
 "ĠgerÃ§ekleÅŁ": 3757,
 "ĠÅŁahsÃ®": 3758,
 "Ġiyice": 3759,
 "Ġcephe": 3760,
 "BirleÅŁik": 3761,
 "ĠÃĸz": 3762,
 "ĠsÃ¶ylÃ¼yor": 3763,
 "ĠtaÅŁÄ±yan": 3764,
 "Ġyeterli": 3765,
 "Ä°ngiliz": 3766,
 "Ġkavra": 3767,
 "ĠErmenistan": 3768,
 "belirt": 3769,
 "meliy": 3770,
 "Ġsakin": 3771,
 "Ġkaynak": 3772,
 "ĠNautilus": 3773,
 "Ġsordum": 3774,
 "ĠyavaÅŁ": 3775,
 "ristiyan": 3776,
 "24": 3777,
 "DU": 3778,
 "Haz": 3779,
 "Kuva": 3780,
 "Sal": 3781,
 "acÄ±": 3782,
 "acaÄŁÄ±m": 3783,
 "hlik": 3784,
 "ima": 3785,
 "nci": 3786,
 "sey": 3787,
 "tÃ¼k": 3788,
 "Ã©": 3789,
 "Ġusul": 3790,
 "anlat": 3791,
 "Ã§u": 3792,
 "Ã§ar": 3793,
 "malarÄ±nÄ±": 3794,
 "ektif": 3795,
 "akÄ±r": 3796,
 "Ġsez": 3797,
 "Ġbirinin": 3798,
 "tÄ±ÄŁÄ±nÄ±": 3799,
 "tÄ±ÄŁÄ±mÄ±z": 3800,
 "ĠaÄŁ": 3801,
 "Ä°K": 3802,
 "aten": 3803,
 "Ã¢ne": 3804,
 "umsuz": 3805,
 "ĠÄ°st": 3806,
 "ĠÄ°brahim": 3807,
 "elerinden": 3808,
 "saat": 3809,
 "ĠEn": 3810,
 "bilin": 3811,
 "endiÄŁ": 3812,
 "Ġzih": 3813,
 "Ã¼ldÃ¼": 3814,
 "haf": 3815,
 "mayacaktÄ±r": 3816,
 "ĠYeni": 3817,
 "ĠfelÃ¢": 3818,
 "ĠgÃ¶rÃ¼ÅŁmek": 3819,
 "ĠgÃ¶rÃ¼ÅŁÃ¼nÃ¼": 3820,
 "ĠÃ§Ä±kÄ±ÅŁ": 3821,
 "ĠgeÃ§miÅŁ": 3822,
 "ĠaÃ§Ä±klan": 3823,
 "Ġ21": 3824,
 "ĠteÅŁekkÃ¼r": 3825,
 "ĠgÃ¶revden": 3826,
 "ANI": 3827,
 "ĠyazÄ±lan": 3828,
 "ĠtoplanmasÄ±": 3829,
 "ĠgÃ¶nderdiÄŁi": 3830,
 "Ġmah": 3831,
 "Ġteklifinde": 3832,
 "ĠgÃ¼Ã§lÃ¼": 3833,
 "Ġedip": 3834,
 "ĠparÃ§a": 3835,
 "ĠolduklarÄ±nÄ±": 3836,
 "ĠyaptÄ±ÄŁÄ±m": 3837,
 "ortaya": 3838,
 "Ġilgilen": 3839,
 "ĠkayÄ±t": 3840,
 "tedbir": 3841,
 "Ġsivil": 3842,
 "23": 3843,
 "25": 3844,
 "27": 3845,
 "?\"": 3846,
 "Cemal": 3847,
 "Conceil": 3848,
 "DEN": 3849,
 "Temsil": 3850,
 "YE": 3851,
 "cÄ±k": 3852,
 "ke": 3853,
 "ou": 3854,
 "uÄŁr": 3855,
 "yÄ±k": 3856,
 "Ä±larak": 3857,
 "ere": 3858,
 "ani": 3859,
 "anlar": 3860,
 "Ġdu": 3861,
 "ĠkuÅŁ": 3862,
 "lacaÄŁÄ±nÄ±": 3863,
 "lerim": 3864,
 "daÄŁ": 3865,
 "dahal": 3866,
 "ĠBay": 3867,
 "imli": 3868,
 "Ġolumsuz": 3869,
 "rahat": 3870,
 "ĠMemleket": 3871,
 "azÄ±m": 3872,
 "elerek": 3873,
 "Ġnota": 3874,
 "uygun": 3875,
 "ĠverdiÄŁimiz": 3876,
 "ĠyapÄ±lmasÄ±": 3877,
 "ĠyaptÄ±klarÄ±": 3878,
 "ĠgeliÅŁi": 3879,
 "ĠolduÄŁum": 3880,
 "ĠÃ¶nÃ¼nde": 3881,
 "Ġfik": 3882,
 "edil": 3883,
 "rubu": 3884,
 "ise": 3885,
 "isinin": 3886,
 "Ġhaline": 3887,
 "ladÄ±ÄŁÄ±": 3888,
 "baÅŁarÄ±": 3889,
 "Ã¼sÃ¼": 3890,
 "gÃ¶rÃ¼n": 3891,
 "Ġhakk": 3892,
 "ĠgÃ¶revini": 3893,
 "ĠÃ¶zet": 3894,
 "Ġemri": 3895,
 "Ġheyecan": 3896,
 "Ġrahat": 3897,
 "Ġmuhalif": 3898,
 "ĠkuruluÅŁ": 3899,
 "astam": 3900,
 "ĠhÃ¼kÃ¼met": 3901,
 "Ġoku": 3902,
 "Ġzarar": 3903,
 "estir": 3904,
 "ĠsayÄ±lÄ±": 3905,
 "Ġresmen": 3906,
 "Ġtamamen": 3907,
 "ĠyÃ¼ksel": 3908,
 "Ġmevki": 3909,
 "GÃ¼neÅŁ": 3910,
 "Ä°lgi": 3911,
 "ĠHÃ¼kÃ¼met": 3912,
 "Ġnitelikte": 3913,
 "Ġkutsal": 3914,
 "Ġkanaat": 3915,
 "ĠkÄ±ÅŁkÄ±r": 3916,
 "iyarbakÄ±r": 3917,
 "fyonkarahisar": 3918,
 "26": 3919,
 "29": 3920,
 "AH": 3921,
 "BUL": 3922,
 "Daha": 3923,
 "ES": 3924,
 "Fakat": 3925,
 "ada": 3926,
 "bana": 3927,
 "ex": 3928,
 "fat": 3929,
 "fazla": 3930,
 "ime": 3931,
 "kaz": 3932,
 "kol": 3933,
 "omet": 3934,
 "raki": 3935,
 "ski": 3936,
 "sordu": 3937,
 "to": 3938,
 "yarÄ±": 3939,
 "ÅŁekil": 3940,
 "ing": 3941,
 "enÃ¼z": 3942,
 "masÄ±nda": 3943,
 "ekim": 3944,
 "unus": 3945,
 "Ġtec": 3946,
 "Ġhaf": 3947,
 "Ã¼nc": 3948,
 "leyi": 3949,
 "Ä°T": 3950,
 "ĠolmuÅŁtur": 3951,
 "eski": 3952,
 "ĠKON": 3953,
 "Ã¢tÄ±ÅŁ": 3954,
 "Ã¼krÃ¼": 3955,
 "oluÅŁ": 3956,
 "ĠAd": 3957,
 "ilerden": 3958,
 "Ä±lmaya": 3959,
 "ĠHam": 3960,
 "ĠnÃ¼f": 3961,
 "yorlar": 3962,
 "ĠkararÄ±": 3963,
 "Ġetmey": 3964,
 "Ä±mda": 3965,
 "Ġveriyor": 3966,
 "ĠEfendim": 3967,
 "ahra": 3968,
 "ĠbulunduÄŁumuz": 3969,
 "ĠGalip": 3970,
 "ĠNis": 3971,
 "ĠiÅŁleri": 3972,
 "ĠOndan": 3973,
 "isini": 3974,
 "Ġuyar": 3975,
 "Ġdurumunda": 3976,
 "ĠonlarÄ±n": 3977,
 "ĠgeÃ§ti": 3978,
 "ĠgeÃ§ici": 3979,
 "diklerini": 3980,
 "ĠkararsÄ±zlÄ±k": 3981,
 "eceÄŁimiz": 3982,
 "lenmesi": 3983,
 "karÅŁ": 3984,
 "ayÄ±f": 3985,
 "lÄ±ÄŁÄ±nda": 3986,
 "ĠadÄ±nÄ±": 3987,
 "gÄ±Ã§": 3988,
 "liÄŁinden": 3989,
 "ĠisteÄŁi": 3990,
 "ĠbaÄŁlan": 3991,
 "ĠÅŁeyi": 3992,
 "ĠgÃ¼venlik": 3993,
 "ĠalÄ±ndÄ±": 3994,
 "ĠMÃ¼fettiÅŁ": 3995,
 "erkes": 3996,
 "Ġkimsenin": 3997,
 "alÄ±kesir": 3998,
 "ĠArtÄ±k": 3999,
 "ilebilir": 4000,
 "mayÄ±p": 4001,
 "Ġbenimle": 4002,
 "ĠakÄ±l": 4003,
 "INDA": 4004,
 "ĠsanÄ±rÄ±m": 4005,
 "gerekir": 4006,
 "ebilmek": 4007,
 "ĠhÃ¢lÃ¢": 4008,
 "ĠazÄ±nlÄ±k": 4009,
 "ĠAydÄ±n": 4010,
 "ĠdeÄŁerli": 4011,
 "Ġmeselesi": 4012,
 "ĠgereÄŁince": 4013,
 "AmerikalÄ±": 4014,
 "Ġgecesi": 4015,
 "Ã¼lecek": 4016,
 "merminin": 4017,
 "ÃľKÃľ": 4018,
 "ondra": 4019,
 "Ġprogram": 4020,
 "racaat": 4021,
 "ĠelveriÅŁli": 4022,
 "astamonu": 4023,
 "17": 4024,
 "CE": 4025,
 "MillÃ®": 4026,
 "TI": 4027,
 "To": 4028,
 "Tevfik": 4029,
 "gay": 4030,
 "hesap": 4031,
 "kit": 4032,
 "nam": 4033,
 "sÃ¼z": 4034,
 "tuk": 4035,
 "yu": 4036,
 "zar": 4037,
 "Ġruh": 4038,
 "ane": 4039,
 "inÃ§": 4040,
 "Ġbur": 4041,
 "ira": 4042,
 "ÄŁit": 4043,
 "elki": 4044,
 "ĠyÄ±": 4045,
 "ĠtÃ¼f": 4046,
 "Ġbirinci": 4047,
 "ĠBAÅŀ": 4048,
 "imd": 4049,
 "Ġah": 4050,
 "ĠatÄ±": 4051,
 "ĠÃ§erÃ§evesinde": 4052,
 "ĠAra": 4053,
 "ĠAlay": 4054,
 "tanÄ±n": 4055,
 "larÄ±mÄ±": 4056,
 "tehlik": 4057,
 "Ġetmeye": 4058,
 "Ġettiler": 4059,
 "ĠTelgraf": 4060,
 "Ġsonuna": 4061,
 "Ġanlay": 4062,
 "Ġyapmaya": 4063,
 "iyoruz": 4064,
 "ĠDurum": 4065,
 "eder": 4066,
 "ĠmilletÃ§e": 4067,
 "Ġmilletimizin": 4068,
 "ĠiÅŁlem": 4069,
 "ĠgÃ¼nde": 4070,
 "diÄŁine": 4071,
 "Ġonay": 4072,
 "Ġbildirildi": 4073,
 "ĠvarlÄ±ÄŁÄ±nÄ±": 4074,
 "dikkat": 4075,
 "Ġyolu": 4076,
 "karÄ±ÅŁ": 4077,
 "ĠhakkÄ±": 4078,
 "ĠgÃ¶sterdiÄŁi": 4079,
 "Ġ11": 4080,
 "ĠalÄ±nmÄ±ÅŁ": 4081,
 "Ġmemleketi": 4082,
 "ĠÄ°ngiltere": 4083,
 "ĠanlaÅŁma": 4084,
 "ĠakÅŁam": 4085,
 "ĠÄ°tal": 4086,
 "ĠkonuÅŁmaya": 4087,
 "ĠbunlarÄ±": 4088,
 "Ġolmakla": 4089,
 "ĠettiÄŁimiz": 4090,
 "kÄ±rk": 4091,
 "ĠayrÄ±ntÄ±": 4092,
 "geniÅŁ": 4093,
 "Ġmaksatla": 4094,
 "ĠkarÄ±ÅŁÄ±k": 4095,
 "milyon": 4096,
 "ĠsilÃ¢hlÄ±": 4097,
 "ĠeÄŁil": 4098,
 "dÃ¼zen": 4099,
 "menizi": 4100,
 "iliÄŁinden": 4101,
 "ĠmanevÃ®": 4102,
 "ĠbuyurursanÄ±z": 4103,
 "Ġfikir": 4104,
 "exas": 4105,
 "ahraman": 4106,
 "13": 4107,
 "KAR": 4108,
 "KÃ¢zÄ±m": 4109,
 "Tampa": 4110,
 "YalnÄ±z": 4111,
 "bÃ¼r": 4112,
 "bas": 4113,
 "boy": 4114,
 "bakÄ±m": 4115,
 "bakan": 4116,
 "koÅŁ": 4117,
 "nasÄ±l": 4118,
 "od": 4119,
 "obil": 4120,
 "teye": 4121,
 "Ġca": 4122,
 "ÅŁimdi": 4123,
 "engel": 4124,
 "Ġdel": 4125,
 "ĠdÃ¶k": 4126,
 "Ġdelegeler": 4127,
 "maden": 4128,
 "Ġgiy": 4129,
 "Ġgaf": 4130,
 "Ġoda": 4131,
 "davran": 4132,
 "lit": 4133,
 "uriye": 4134,
 "ĠhoÅŁ": 4135,
 "ecati": 4136,
 "oldur": 4137,
 "ĠeÄŁer": 4138,
 "ĠAdapazarÄ±": 4139,
 "ĠgÃ¶rdÃ¼k": 4140,
 "ĠHat": 4141,
 "ĠHikmet": 4142,
 "Ġilgi": 4143,
 "yoruz": 4144,
 "Ã¶nemli": 4145,
 "duÄŁundan": 4146,
 "Ġveren": 4147,
 "lÄ±klarÄ±": 4148,
 "kav": 4149,
 "ĠDer": 4150,
 "Ġolanlar": 4151,
 "ĠGun": 4152,
 "ĠNadi": 4153,
 "ĠartÄ±r": 4154,
 "Ġyerden": 4155,
 "ĠgÃ¼ne": 4156,
 "Ġred": 4157,
 "isine": 4158,
 "Ġtarz": 4159,
 "ĠsÃ¶zÃ¼": 4160,
 "ĠsÃ¶zÃ¼nÃ¼": 4161,
 "Ġelli": 4162,
 "Ġvarsa": 4163,
 "Ġanlaya": 4164,
 "ĠgÃ¶revlendir": 4165,
 "lÄ±ÄŁÄ±nÄ±n": 4166,
 "usuf": 4167,
 "ĠgÃ¶nderilen": 4168,
 "Ġhaberdar": 4169,
 "Ġnoktada": 4170,
 "Ä±mÄ±zÄ±": 4171,
 "ĠbÃ¶lge": 4172,
 "ĠArdan": 4173,
 "Ġaskerlik": 4174,
 "dÃ¼ÄŁÃ¼nÃ¼": 4175,
 "Ġmidir": 4176,
 "Ġburaya": 4177,
 "ĠbaÅŁkanÄ±": 4178,
 "ĠCephe": 4179,
 "lemev": 4180,
 "Ġoraya": 4181,
 "ĠaÅŁaÄŁÄ±daki": 4182,
 "Ä±ncaya": 4183,
 "trik": 4184,
 "ĠcÃ¼ml": 4185,
 "Ġyorum": 4186,
 "ĠdolaylarÄ±nda": 4187,
 "ĠendiÅŁe": 4188,
 "Ġkudret": 4189,
 "ĠfiilÃ®": 4190,
 "Ġkorumak": 4191,
 "ĠÃ¶nceki": 4192,
 "ĠnoktayÄ±": 4193,
 "zorunda": 4194,
 "ĠMÄ°LLET": 4195,
 "ĠCevat": 4196,
 "Town": 4197,
 "imdilik": 4198,
 "AD": 4199,
 "En": 4200,
 "KÄ°": 4201,
 "Mer": 4202,
 "OsmanlÄ±": 4203,
 "TÄ°": 4204,
 "ciler": 4205,
 "dolayÄ±sÄ±yla": 4206,
 "ebi": 4207,
 "egen": 4208,
 "gez": 4209,
 "isi": 4210,
 "kiÅŁi": 4211,
 "per": 4212,
 "sim": 4213,
 "temsil": 4214,
 "vres": 4215,
 "Ġj": 4216,
 "Ġun": 4217,
 "Ġum": 4218,
 "Ä±sa": 4219,
 "ĠbalÄ±k": 4220,
 "iliyordu": 4221,
 "Ġdile": 4222,
 "mamÄ±ÅŁtÄ±r": 4223,
 "Ġken": 4224,
 "ektrik": 4225,
 "ĠgÃ¼l": 4226,
 "Ã¶sy": 4227,
 "Ġsil": 4228,
 "ĠselÃ¢": 4229,
 "Ġbirbir": 4230,
 "imiyet": 4231,
 "yav": 4232,
 "Ġalacak": 4233,
 "iyesi": 4234,
 "Ġmuk": 4235,
 "atle": 4236,
 "ĠMah": 4237,
 "umuÅŁ": 4238,
 "ĠAN": 4239,
 "ĠAteÅŁkes": 4240,
 "ceÄŁi": 4241,
 "dirne": 4242,
 "ĠÄ°ÅŁ": 4243,
 "ĠgÃ¶rmek": 4244,
 "ĠHÃ¼seyin": 4245,
 "Ä±rh": 4246,
 "duÄŁunuz": 4247,
 "ĠbaÅŁlamÄ±ÅŁtÄ±": 4248,
 "Ġverici": 4249,
 "Ġzafer": 4250,
 "Ã»m": 4251,
 "Ġgid": 4252,
 "ĠGrubu": 4253,
 "vedi": 4254,
 "yanus": 4255,
 "Ġkabil": 4256,
 "ĠonlarÄ±": 4257,
 "Ġedilecek": 4258,
 "ĠzamanÄ±": 4259,
 "Ġemel": 4260,
 "Ġ10": 4261,
 "uluÄŁu": 4262,
 "ANBUL": 4263,
 "ĠyazdÄ±ÄŁÄ±": 4264,
 "ĠyazÄ±ÅŁma": 4265,
 "ĠmÃ¼dahal": 4266,
 "Ġduyg": 4267,
 "Ġkonudaki": 4268,
 "tartÄ±ÅŁ": 4269,
 "ĠanlaÅŁÄ±ldÄ±": 4270,
 "Ġhain": 4271,
 "topu": 4272,
 "ĠbasÄ±n": 4273,
 "ĠyÃ¶net": 4274,
 "ĠyÃ¶nel": 4275,
 "gÃ¶tÃ¼r": 4276,
 "larÄ±mÄ±za": 4277,
 "ĠarkadaÅŁlarÄ±": 4278,
 "Ġbunlar": 4279,
 "ĠAmerikalÄ±": 4280,
 "ĠZÃ¢tÄ±ÅŁ": 4281,
 "tiÄŁim": 4282,
 "Ġgayret": 4283,
 "yazÄ±": 4284,
 "ĠFransa": 4285,
 "ĠdÃ¼zelt": 4286,
 "Ġmerak": 4287,
 "ĠhattÃ¢": 4288,
 "bizim": 4289,
 "deÄŁildir": 4290,
 "Ġdokun": 4291,
 "trol": 4292,
 "Ġfiilen": 4293,
 "Devletler": 4294,
 "amÄ±zda": 4295,
 "ĠteÅŁkilÃ¢tÄ±mÄ±z": 4296,
 "Ġordusunun": 4297,
 "ikÃ¢yet": 4298,
 "Ã©vres": 4299,
 "ĠNisan": 4300,
 "Ã¶syÃ¶": 4301,
 "CLÄ°": 4302,
 "EL": 4303,
 "HiÃ§": 4304,
 "NIN": 4305,
 "OL": 4306,
 "gali": 4307,
 "gemi": 4308,
 "miyordu": 4309,
 "pÄ±n": 4310,
 "sab": 4311,
 "tma": 4312,
 "yara": 4313,
 "ÅŁÃ¶yle": 4314,
 "arken": 4315,
 "ilip": 4316,
 "etleri": 4317,
 "Ġkul": 4318,
 "Ġkuzey": 4319,
 "ĠtaÅŁ": 4320,
 "urken": 4321,
 "Ġhes": 4322,
 "ĠhÃ¼c": 4323,
 "dÄ±ra": 4324,
 "ulmasÄ±nÄ±": 4325,
 "ĠolmuÅŁ": 4326,
 "Ã¢hattin": 4327,
 "ĠMaston": 4328,
 "Ä±nÄ±l": 4329,
 "ĠgÃ¶ren": 4330,
 "ĠHristiyan": 4331,
 "ĠProfesÃ¶r": 4332,
 "Ã¶netim": 4333,
 "Ã¶zellikle": 4334,
 "sama": 4335,
 "itekim": 4336,
 "Ġsonraki": 4337,
 "ĠbaÅŁlayarak": 4338,
 "ĠbaÅŁlamÄ±ÅŁ": 4339,
 "eÅŁal": 4340,
 "Ġistiyordu": 4341,
 "Ġkonuyu": 4342,
 "Ġgelip": 4343,
 "ĠCumhurbaÅŁkan": 4344,
 "Åŀifre": 4345,
 "ĠGerÃ§i": 4346,
 "ĠNecati": 4347,
 "ĠyerleÅŁtir": 4348,
 "ĠkarÅŁÄ±ya": 4349,
 "sÄ±zlÄ±ÄŁa": 4350,
 "ĠgÃ¶rÃ¼ÅŁler": 4351,
 "ĠgÃ¶rÃ¼ÅŁlerini": 4352,
 "ĠÃ§Ä±kmÄ±ÅŁ": 4353,
 "ĠtelgrafÄ±nda": 4354,
 "Ġbenden": 4355,
 "Ġkendim": 4356,
 "ĠsÃ¼rÃ¼k": 4357,
 "Ġ29": 4358,
 "saniye": 4359,
 "tup": 4360,
 "imsel": 4361,
 "Ġyoksa": 4362,
 "ĠlÃ»t": 4363,
 "sonunda": 4364,
 "ĠÃ¶den": 4365,
 "ĠÅŀÃ¼krÃ¼": 4366,
 "Ġdernek": 4367,
 "yapÄ±lmÄ±ÅŁ": 4368,
 "Ġyetk": 4369,
 "tÃ¼ÄŁ": 4370,
 "kÄ±sa": 4371,
 "yarar": 4372,
 "Ġsalon": 4373,
 "Ġmemlekette": 4374,
 "Ä±yoruz": 4375,
 "konusunda": 4376,
 "Ġetmeyi": 4377,
 "ĠÄ°ngilizlerin": 4378,
 "ĠBenim": 4379,
 "Ä±nÄ±zÄ±": 4380,
 "Ġkendilerini": 4381,
 "ĠyakÄ±ndan": 4382,
 "otuz": 4383,
 "ĠteÅŁkilÃ¢tÄ±n": 4384,
 "sÃ¼re": 4385,
 "Ġsonuc": 4386,
 "000": 4387,
 "Ġoradan": 4388,
 "ĠÅŁimdiden": 4389,
 "ĠniteliÄŁ": 4390,
 "altÄ±nda": 4391,
 "Ä°YET": 4392,
 "Ġoturum": 4393,
 "Ã¢hÃ¢ne": 4394,
 "Ġbeklen": 4395,
 "ĠkÄ±rk": 4396,
 "deÄŁiÅŁtir": 4397,
 "ĠsamimÃ®": 4398,
 "Ġsamimiyet": 4399,
 "sÄ±rasÄ±nda": 4400,
 "Ġboyunca": 4401,
 "Ġtazminat": 4402,
 "Ġrejim": 4403,
 "Ġmesele": 4404,
 "ĠÃ¼zÃ¼ntÃ¼": 4405,
 "yavaÅŁ": 4406,
 "Ġkabiliyet": 4407,
 "AV": 4408,
 "IZ": 4409,
 "Kan": 4410,
 "boyun": 4411,
 "cÄ±m": 4412,
 "dÃ¼l": 4413,
 "hÃ¼k": 4414,
 "istan": 4415,
 "sem": 4416,
 "saydÄ±": 4417,
 "tel": 4418,
 "yaÅŁ": 4419,
 "yakÄ±n": 4420,
 "Ġber": 4421,
 "ĠbiÃ§": 4422,
 "Ġboy": 4423,
 "Ġdan": 4424,
 "aka": 4425,
 "ĠyarÄ±": 4426,
 "Ġterk": 4427,
 "Ġiy": 4428,
 "ĠBarÄ±ÅŁ": 4429,
 "Ã¼ndeki": 4430,
 "leye": 4431,
 "sÄ±r": 4432,
 "ĠKastamonu": 4433,
 "ĠMichel": 4434,
 "ĠÃ§Ã¼nkÃ¼": 4435,
 "ĠÅŁunu": 4436,
 "diren": 4437,
 "ĠHiÃ§": 4438,
 "ĠHÃľKÃľ": 4439,
 "teden": 4440,
 "Ã¶zel": 4441,
 "ĠalÄ±p": 4442,
 "ĠalÃ§ak": 4443,
 "Ġetmesi": 4444,
 "Ġverilecek": 4445,
 "katÄ±l": 4446,
 "ĠbulunmasÄ±": 4447,
 "asker": 4448,
 "ĠiÅŁit": 4449,
 "ĠgÃ¶rÃ¼ÅŁleri": 4450,
 "inizden": 4451,
 "Ġkurulu": 4452,
 "Ġbildirdi": 4453,
 "ĠgeÃ§mek": 4454,
 "Ġdevr": 4455,
 "ĠÃĤ": 4456,
 "ĠolaÄŁanÃ¼stÃ¼": 4457,
 "ĠaÃ§Ä±ktan": 4458,
 "ĠkararlaÅŁtÄ±r": 4459,
 "Ġtaraftan": 4460,
 "Ġyolunu": 4461,
 "gÃ¼ne": 4462,
 "ehmet": 4463,
 "Ġarada": 4464,
 "ĠarasÄ±ndaki": 4465,
 "alÄ±ÄŁÄ±": 4466,
 "Ġtoplanan": 4467,
 "Ġgetirilmesi": 4468,
 "ĠbaÄŁlantÄ±": 4469,
 "ĠsÃ¶yleyerek": 4470,
 "ĠkÄ±yÄ±": 4471,
 "ĠgÃ¶zden": 4472,
 "Ġordusu": 4473,
 "Ġrast": 4474,
 "Ġcesaret": 4475,
 "Ġbilgileri": 4476,
 "MAK": 4477,
 "Ġkayb": 4478,
 "ÄŀÄ°": 4479,
 "Ġdenizin": 4480,
 "Ġhaysiyet": 4481,
 "ĠparÃ§": 4482,
 "ĠtanÄ±n": 4483,
 "ĠyaklaÅŁ": 4484,
 "Meclisi": 4485,
 "ĠÃ§Ã¶zÃ¼me": 4486,
 "durumu": 4487,
 "belli": 4488,
 "ĠaslÄ±nda": 4489,
 "Ġtaarruza": 4490,
 "ĠaÅŁaÄŁÄ±da": 4491,
 "ĠanlaÅŁÄ±lÄ±yordu": 4492,
 "Ġdokuz": 4493,
 "ladÄ±ktan": 4494,
 "................": 4495,
 "Ġpren": 4496,
 "ĠedeceÄŁim": 4497,
 "ocuk": 4498,
 "Ġitiraf": 4499,
 "Ġolmazsa": 4500,
 "ĠdolaÅŁ": 4501,
 "ĠÃ§evir": 4502,
 "biÃ§im": 4503,
 "ĠfelÃ¢ket": 4504,
 "ĠMÃ¼fettiÅŁliÄŁi": 4505,
 "Av": 4506,
 "DolayÄ±sÄ±yla": 4507,
 "Hill": 4508,
 "Lozan": 4509,
 "Milli": 4510,
 "OM": 4511,
 "Sa": 4512,
 "culuÄŁ": 4513,
 "hut": 4514,
 "mÃ¼r": 4515,
 "temel": 4516,
 "ĠW": 4517,
 "ĠâĢľ": 4518,
 "ard": 4519,
 "Ġbay": 4520,
 "mamasÄ±": 4521,
 "akar": 4522,
 "elde": 4523,
 "las": 4524,
 "dip": 4525,
 "dece": 4526,
 "ĠhenÃ¼z": 4527,
 "medim": 4528,
 "lemeye": 4529,
 "Ä±ÅŁÄ±": 4530,
 "ĠKerim": 4531,
 "ĠgÃ¶k": 4532,
 "Ġdedik": 4533,
 "aydÄ±n": 4534,
 "Ã¼rlÃ¼k": 4535,
 "tamam": 4536,
 "ĠgÃ¶rÃ¼yor": 4537,
 "Ġnam": 4538,
 "lanarak": 4539,
 "Ġalma": 4540,
 "Ġaldat": 4541,
 "Ġetk": 4542,
 "Ġbilim": 4543,
 "Ġverir": 4544,
 "ĠiÃ§indeki": 4545,
 "usunu": 4546,
 "lÄ±klar": 4547,
 "eÅŁtir": 4548,
 "iyorlardÄ±": 4549,
 "ĠDelegeler": 4550,
 "Ã¼lÃ¼k": 4551,
 "Ã¶rd": 4552,
 "manÄ±": 4553,
 "ĠYÃ¼z": 4554,
 "ĠYAP": 4555,
 "ĠYusuf": 4556,
 "Ġmilletinin": 4557,
 "ĠÃ¼zerinden": 4558,
 "ĠiÅŁbirliÄŁi": 4559,
 "ĠuyarÄ±": 4560,
 "Ġnedir": 4561,
 "Ġbildirilmesi": 4562,
 "ĠvarmÄ±ÅŁ": 4563,
 "unacaÄŁÄ±m": 4564,
 "ĠtarihÃ®": 4565,
 "eceÄŁinden": 4566,
 "merkez": 4567,
 "ĠyanÄ±nda": 4568,
 "ĠyanÄ±ma": 4569,
 "Ã¢zÄ±ÄŁ": 4570,
 "ANLI": 4571,
 "ĠyazdÄ±r": 4572,
 "duktan": 4573,
 "yapÄ±lan": 4574,
 "Ġyetkili": 4575,
 "esindeki": 4576,
 "ĠkÄ±ya": 4577,
 "omobil": 4578,
 "Ä±yorlar": 4579,
 "toplantÄ±": 4580,
 "ĠmantÄ±k": 4581,
 "ĠkurulmasÄ±": 4582,
 "ĠkurulmuÅŁ": 4583,
 "tiÄŁimiz": 4584,
 "Ġdisip": 4585,
 "ĠdeÄŁiÅŁik": 4586,
 "ĠyÃ¼rÃ¼": 4587,
 "uÅŁturma": 4588,
 "umlupÄ±n": 4589,
 "Ġkendine": 4590,
 "Ġibarettir": 4591,
 "ĠhatÄ±rlat": 4592,
 "Bununla": 4593,
 "Ġdemektir": 4594,
 "ĠkÄ±sm": 4595,
 "labalÄ±k": 4596,
 "ĠÅŁartÄ±yla": 4597,
 "cevap": 4598,
 "ĠimzasÄ±yla": 4599,
 "ÅŁekilde": 4600,
 "umlupÄ±nar": 4601,
 "BatÄ±": 4602,
 "EÃĩ": 4603,
 "Ethem": 4604,
 "Nurettin": 4605,
 "boz": 4606,
 "bancÄ±": 4607,
 "cer": 4608,
 "gem": 4609,
 "hus": 4610,
 "ko": 4611,
 "kÃ¢r": 4612,
 "oh": 4613,
 "uc": 4614,
 "Ġmaz": 4615,
 "Ġekle": 4616,
 "aran": 4617,
 "indi": 4618,
 "Ġbi": 4619,
 "Ġbor": 4620,
 "Ġbes": 4621,
 "ilgili": 4622,
 "ÄŁÄ±nda": 4623,
 "Ã§ekil": 4624,
 "Ã§aÄŁ": 4625,
 "madde": 4626,
 "Ġkaz": 4627,
 "latÄ±l": 4628,
 "Ġsef": 4629,
 "Ġyat": 4630,
 "Ġten": 4631,
 "Ġhusu": 4632,
 "aÅŁkÄ±n": 4633,
 "Ġmis": 4634,
 "iÅŁte": 4635,
 "eci": 4636,
 "Ã¼rb": 4637,
 "abet": 4638,
 "ĠgÃ¶rdÃ¼m": 4639,
 "Ġnin": 4640,
 "Ġnaz": 4641,
 "oksa": 4642,
 "Ä±zÄ±l": 4643,
 "Ã¶nÃ¼nde": 4644,
 "sad": 4645,
 "ĠaldÄ±": 4646,
 "ĠTop": 4647,
 "ĠSeÃ§": 4648,
 "uygu": 4649,
 "ĠzayÄ±f": 4650,
 "Ġbulundu": 4651,
 "Ġbulunmak": 4652,
 "ĠistemiÅŁ": 4653,
 "Ã¶rf": 4654,
 "ĠCelÃ¢lettin": 4655,
 "ederim": 4656,
 "ĠNazÄ±r": 4657,
 "ĠÃ¼zerindeki": 4658,
 "Ġart": 4659,
 "ĠaraÅŁtÄ±r": 4660,
 "ĠiÅŁler": 4661,
 "ĠiÅŁte": 4662,
 "ĠinkÄ±l": 4663,
 "ĠgerektiÄŁini": 4664,
 "ĠAnlaÅŁmasÄ±": 4665,
 "Ġkurma": 4666,
 "ĠgÃ¼cÃ¼": 4667,
 "Ġbizden": 4668,
 "ĠÃ§Ä±karÄ±": 4669,
 "ĠdÃ¼ÅŁÃ¼nÃ¼l": 4670,
 "Ġelinde": 4671,
 "Ġhalife": 4672,
 "Ġbildiren": 4673,
 "ĠvarlÄ±ÄŁÄ±": 4674,
 "ĠdoÄŁr": 4675,
 "ladÄ±ÄŁÄ±m": 4676,
 "baÅŁÄ±na": 4677,
 "ĠkararlÄ±": 4678,
 "Ġtarafta": 4679,
 "ĠVER": 4680,
 "eliÄŁi": 4681,
 "Ġyolundaki": 4682,
 "Ġyana": 4683,
 "Ġuf": 4684,
 "ĠhaklarÄ±nÄ±": 4685,
 "geliÅŁ": 4686,
 "ĠlÃ¢zÄ±m": 4687,
 "Ġgetirmek": 4688,
 "Ġsorun": 4689,
 "ĠmÃ¼racaat": 4690,
 "ĠsaÄŁlanmasÄ±": 4691,
 "Ġyetkiler": 4692,
 "tÃ¼ÄŁÃ¼": 4693,
 "Ġedeyim": 4694,
 "lÃ¢n": 4695,
 "ĠnoktalarÄ±": 4696,
 "ĠrazÄ±": 4697,
 "ĠanlaÅŁmaz": 4698,
 "ĠdÃ¼ÅŁÃ¼ncesi": 4699,
 "ĠyÃ¶nelt": 4700,
 "baÄŁÄ±msÄ±z": 4701,
 "ĠLozan": 4702,
 "ĠkÃ¶t": 4703,
 "ĠdeÄŁiÅŁiklik": 4704,
 "Ġhayal": 4705,
 "LERÄ°N": 4706,
 "Ġmeclis": 4707,
 "ĠmakamÄ±nÄ±n": 4708,
 "Ġkendilerinin": 4709,
 "Ġihtima": 4710,
 "ediz": 4711,
 "ĠhalkÄ±nÄ±n": 4712,
 "ĠkÄ±saca": 4713,
 "Ġsonuca": 4714,
 "Ġbilgilere": 4715,
 "Ä°YOR": 4716,
 "ĠkaldÄ±rÄ±lmasÄ±": 4717,
 "ĠanlaÅŁÄ±lÄ±yor": 4718,
 "Ġuygulama": 4719,
 "ĠboÅŁal": 4720,
 "ĠKARÅŀI": 4721,
 "1921": 4722,
 "Ä°zmir": 4723,
 "Ġdestek": 4724,
 "KomutanÄ±": 4725,
 "ĠGÃ¶rÃ¼ÅŁ": 4726,
 "Ġtemsilcisi": 4727,
 "harebesi": 4728,
 "libre": 4729,
 "ĠDÃ¼ÅŁman": 4730,
 "Kurulu": 4731,
 "ĠmaksadÄ±yla": 4732,
 "Temsiliye": 4733,
 "GÃ¶z": 4734,
 "II": 4735,
 "Oysa": 4736,
 "acaÄŁÄ±mÄ±z": 4737,
 "binde": 4738,
 "cÄ±nda": 4739,
 "fran": 4740,
 "gece": 4741,
 "gerÃ§ekten": 4742,
 "kem": 4743,
 "mis": 4744,
 "nit": 4745,
 "roÅŁ": 4746,
 "sur": 4747,
 "sÃ¶y": 4748,
 "seb": 4749,
 "Ġ)": 4750,
 "erli": 4751,
 "ĠbÃ¼s": 4752,
 "iret": 4753,
 "Ã§iz": 4754,
 "Ã§ap": 4755,
 "Ġkit": 4756,
 "unÃ§": 4757,
 "allÄ±": 4758,
 "Ġtemiz": 4759,
 "mediÄŁini": 4760,
 "ĠBalÄ±kesir": 4761,
 "ultan": 4762,
 "ĠaÃ§a": 4763,
 "iyecek": 4764,
 "Ä°Åŀ": 4765,
 "emo": 4766,
 "ĠÃ§abuk": 4767,
 "ĠÅŁan": 4768,
 "olun": 4769,
 "olla": 4770,
 "ĠAdana": 4771,
 "ilerle": 4772,
 "ĠgÃ¶rmÃ¼ÅŁ": 4773,
 "Ä±rsÄ±z": 4774,
 "adaki": 4775,
 "ĠEski": 4776,
 "ĠEdirne": 4777,
 "dÄ±rmak": 4778,
 "bilgin": 4779,
 "Ã¼ldÃ¼ÄŁÃ¼": 4780,
 "imizden": 4781,
 "ĠYÃ¶netim": 4782,
 "Ġsonradan": 4783,
 "edeki": 4784,
 "ĠOrada": 4785,
 "ĠFet": 4786,
 "isinde": 4787,
 "ĠgÃ¼ver": 4788,
 "Ġtopl": 4789,
 "Ġeline": 4790,
 "epey": 4791,
 "sÄ±nÄ±r": 4792,
 "ĠbildirmiÅŁ": 4793,
 "buki": 4794,
 "ĠedildiÄŁi": 4795,
 "ĠkararlarÄ±": 4796,
 "ĠkarargÃ¢h": 4797,
 "eceÄŁimi": 4798,
 "lenmiÅŁ": 4799,
 "Ġemret": 4800,
 "lÄ±ÄŁÄ±ndan": 4801,
 "ĠyazdÄ±ÄŁÄ±m": 4802,
 "caÄŁÄ±z": 4803,
 "ĠÃ¶ÄŁr": 4804,
 "Ġkafa": 4805,
 "ĠÅŀer": 4806,
 "ĠÅŀeyh": 4807,
 "amat": 4808,
 "ĠkÄ±sÄ±m": 4809,
 "Ġgirdi": 4810,
 "geÃ§en": 4811,
 "Ġgemiye": 4812,
 "iyade": 4813,
 "Ġkanunun": 4814,
 "Ġbasit": 4815,
 "Ġediyorum": 4816,
 "Ġdikkatini": 4817,
 "gÃ¶zÃ¼": 4818,
 "ĠÅŁartlarÄ±": 4819,
 "ĠhÃ¼kum": 4820,
 "Ġtertip": 4821,
 "Ġburadan": 4822,
 "Ġinsanlar": 4823,
 "ĠÃ¼yelerinin": 4824,
 "ĠÃ§are": 4825,
 "Ġbeklemek": 4826,
 "ĠayrÄ±ldÄ±": 4827,
 "ĠetmiÅŁtim": 4828,
 "ĠÃ¶lÃ§Ã¼": 4829,
 "Ã¼mÃ¼zÃ¼": 4830,
 "Ġaleyhine": 4831,
 "ĠBizim": 4832,
 "Ä±tladÄ±": 4833,
 "Ġkov": 4834,
 "ĠÃľÃ§": 4835,
 "Ġmaksad": 4836,
 "ĠBÃ¶ylece": 4837,
 "IRI": 4838,
 "ĠkiÅŁinin": 4839,
 "ĠParis": 4840,
 "Ġkamuoyunu": 4841,
 "Ġtahmin": 4842,
 "ĠSonra": 4843,
 "Ġkuw": 4844,
 "ĠÃ¶rnek": 4845,
 "Ġitiraz": 4846,
 "tone": 4847,
 "ĠSait": 4848,
 "ĠÃ¼lk": 4849,
 "BÃ¶ylece": 4850,
 "Ġdereceye": 4851,
 "buyur": 4852,
 "Hazretleri": 4853,
 "ĠZÃ¢tÄ±ÅŁÃ¢hÃ¢ne": 4854,
 "Ã¶rfez": 4855,
 "roÅŁÃ¼r": 4856,
 "ĠbÃ¼sbÃ¼tÃ¼n": 4857,
 "40": 4858,
 "Bun": 4859,
 "Dah": 4860,
 "DoÄŁ": 4861,
 "IÅŀ": 4862,
 "Kar": 4863,
 "MÄ°L": 4864,
 "RA": 4865,
 "Telgraf": 4866,
 "Ve": 4867,
 "Yar": 4868,
 "bor": 4869,
 "cut": 4870,
 "fi": 4871,
 "geri": 4872,
 "gÃ¼zel": 4873,
 "kalÄ±": 4874,
 "net": 4875,
 "tes": 4876,
 "tiyet": 4877,
 "tarÄ±": 4878,
 "yecek": 4879,
 "artÄ±k": 4880,
 "anka": 4881,
 "inir": 4882,
 "ĠbatÄ±": 4883,
 "ĠdÃ¼": 4884,
 "Ġdolu": 4885,
 "Ġdeleg": 4886,
 "ĠdÃ¼nyanÄ±n": 4887,
 "ĠkoÅŁ": 4888,
 "Ġgarip": 4889,
 "Ġgelerek": 4890,
 "Ã¶ÄŁren": 4891,
 "laÅŁÄ±": 4892,
 "Ġsadrazam": 4893,
 "Ġye": 4894,
 "Ġyah": 4895,
 "lerek": 4896,
 "ĠhÄ±r": 4897,
 "Ġhesap": 4898,
 "tÄ±p": 4899,
 "lÄ±yorum": 4900,
 "stur": 4901,
 "Ġolmaya": 4902,
 "ĠolmasÄ±nÄ±": 4903,
 "danÄ±n": 4904,
 "ĠMak": 4905,
 "ĠMÃ¶syÃ¶": 4906,
 "ĠMehmet": 4907,
 "ĠÃ§iz": 4908,
 "Ã¼zÃ¼k": 4909,
 "ilerine": 4910,
 "Ġdahil": 4911,
 "ĠHoca": 4912,
 "birlik": 4913,
 "mÄ±ÅŁlardÄ±": 4914,
 "Ġalmaya": 4915,
 "ĠbaÅŁlayan": 4916,
 "ĠbaÅŁlÄ±ca": 4917,
 "ĠEf": 4918,
 "kas": 4919,
 "ĠbulunmuÅŁ": 4920,
 "Ġyapan": 4921,
 "ĠyaptÄ±r": 4922,
 "ĠyapÄ±lma": 4923,
 "ĠdÃ¼ÅŁen": 4924,
 "Ġistey": 4925,
 "ĠpeÅŁ": 4926,
 "ĠYoksa": 4927,
 "ederek": 4928,
 "ĠGeneral": 4929,
 "ĠRecep": 4930,
 "ĠgÃ¼nden": 4931,
 "Ġgerekiyordu": 4932,
 "Ġbizce": 4933,
 "Ġtelgrafa": 4934,
 "Ġtelgrafhan": 4935,
 "lÄ±ÄŁÄ±yla": 4936,
 "ĠdoÄŁu": 4937,
 "ĠtarafÄ±mÄ±zdan": 4938,
 "ĠyanÄ±l": 4939,
 "Ġhakimiyet": 4940,
 "ĠÃ§alÄ±ÅŁmak": 4941,
 "Ġ16": 4942,
 "Ġ17": 4943,
 "size": 4944,
 "Ã¢zÄ±r": 4945,
 "tikleri": 4946,
 "tikÃ§e": 4947,
 "halinde": 4948,
 "mÄ±yordu": 4949,
 "Ġkuvvetler": 4950,
 "Ġsorumlu": 4951,
 "Ġistedi": 4952,
 "ĠsÃ¶ylemek": 4953,
 "ĠsÄ±fat": 4954,
 "Ġsavunma": 4955,
 "Ġbuldum": 4956,
 "ĠdÃ¶nÃ¼ÅŁ": 4957,
 "Ġtedbirleri": 4958,
 "ĠmutasarrÄ±f": 4959,
 "ĠÃ§ekilen": 4960,
 "ĠarkadaÅŁlar": 4961,
 "Ãĸz": 4962,
 "Ġdikkati": 4963,
 "gÃ¶zlem": 4964,
 "lerimizin": 4965,
 "memiz": 4966,
 "ĠzararlÄ±": 4967,
 "ĠyazÄ±lÄ±": 4968,
 "ĠNÃ¢zÄ±r": 4969,
 "muzun": 4970,
 "kendisine": 4971,
 "ĠkanunÃ®": 4972,
 "ĠEkimde": 4973,
 "gÃ¼c": 4974,
 "ĠkendiliÄŁinden": 4975,
 "Ã§alÄ±ÅŁma": 4976,
 "ĠkazanmÄ±ÅŁ": 4977,
 "dÃ¼kten": 4978,
 "Ġoradaki": 4979,
 "Ġdirektif": 4980,
 "benim": 4981,
 "Ã¢tÄ±devlet": 4982,
 "Ġacaba": 4983,
 "mesinde": 4984,
 "mesinden": 4985,
 "Ġmandater": 4986,
 "acaÄŁÄ±z": 4987,
 "ĠtartÄ±ÅŁma": 4988,
 "ĠPartisi": 4989,
 "ĠSonunda": 4990,
 "ĠBaÅŁkomutanlÄ±k": 4991,
 "Ã§evresinde": 4992,
 "ĠÄ±ÅŁÄ±k": 4993,
 "tarihinde": 4994,
 "ĠÃ¶nerg": 4995,
 "ĠGÃĸRÃľÅŀ": 4996,
 "Genelkurmay": 4997,
 "Ġitibar": 4998,
 "Ġzihniyet": 4999,
 "ĠHÃ¼kÃ¼meti": 5000,
 "ĠtÃ¼fek": 5001,
 "ĠHÃľKÃľMET": 5002,
 "Ġprensip": 5003,
 "Amasya": 5004,
 "Buna": 5005,
 "DÃ¼ÅŁ": 5006,
 "Kendi": 5007,
 "Memleket": 5008,
 "Onun": 5009,
 "RU": 5010,
 "bÃ¼y": 5011,
 "gar": 5012,
 "genel": 5013,
 "kam": 5014,
 "millÃ®": 5015,
 "tÄ±na": 5016,
 "ularak": 5017,
 "vatan": 5018,
 "yaÅŁa": 5019,
 "yolu": 5020,
 "ĠÄ±n": 5021,
 "ĠakÄ±m": 5022,
 "ÅŁehir": 5023,
 "anlÄ±k": 5024,
 "irse": 5025,
 "Ġkez": 5026,
 "ĠgÃ¼t": 5027,
 "Ġva": 5028,
 "akÄ±l": 5029,
 "lamakta": 5030,
 "ĠyÄ±lÄ±": 5031,
 "diyordu": 5032,
 "lerse": 5033,
 "ĠimiÅŁ": 5034,
 "lisin": 5035,
 "ĠBurada": 5036,
 "organ": 5037,
 "ĠadÄ±m": 5038,
 "Ä°LÄ°": 5039,
 "Ä°kinci": 5040,
 "ĠolmuÅŁtu": 5041,
 "rast": 5042,
 "esef": 5043,
 "iÅŁtir": 5044,
 "ator": 5045,
 "ayyar": 5046,
 "ĠMer": 5047,
 "ĠMolla": 5048,
 "ĠAsker": 5049,
 "ĠAfyonkarahisar": 5050,
 "abilmesi": 5051,
 "amb": 5052,
 "amÄ±ÅŁ": 5053,
 "Ã¼zce": 5054,
 "ĠÄ°Ãĩ": 5055,
 "araya": 5056,
 "lanacak": 5057,
 "ĠalÄ±yordu": 5058,
 "Ġverilmesini": 5059,
 "Ġzul": 5060,
 "Ġant": 5061,
 "katÄ±": 5062,
 "ĠyaptÄ±k": 5063,
 "iyorlar": 5064,
 "Ġedilerek": 5065,
 "ĠDeniz": 5066,
 "oÄŁuk": 5067,
 "Ġpen": 5068,
 "Ġkontrol": 5069,
 "iÃ§er": 5070,
 "aseb": 5071,
 "ĠGemi": 5072,
 "avallÄ±": 5073,
 "ĠiÅŁgali": 5074,
 "Ġyerlerde": 5075,
 "uÅŁma": 5076,
 "Ġdurumuna": 5077,
 "ĠvarlÄ±k": 5078,
 "dikÃ§e": 5079,
 "neÄŁin": 5080,
 "rettin": 5081,
 "ĠtarafsÄ±z": 5082,
 "ĠyarÄ±n": 5083,
 "gelince": 5084,
 "ĠgÃ¶nderilmesini": 5085,
 "LEN": 5086,
 "Ġistedim": 5087,
 "Ġimti": 5088,
 "abileceÄŁi": 5089,
 "ĠBirleÅŁik": 5090,
 "ĠDevletler": 5091,
 "Ġnoktaya": 5092,
 "Ġhaince": 5093,
 "konusu": 5094,
 "Ġcemiyet": 5095,
 "yerde": 5096,
 "Ġilke": 5097,
 "Ġdevletlerin": 5098,
 "ĠdÃ¼ÅŁmanÄ±n": 5099,
 "iliÄŁi": 5100,
 "ĠolayÄ±": 5101,
 "ĠolaylarÄ±n": 5102,
 "INA": 5103,
 "ĠbunalÄ±m": 5104,
 "Ġmilletvekilleri": 5105,
 "teÅŁebbÃ¼s": 5106,
 "rid": 5107,
 "ĠadamÄ±n": 5108,
 "ĠyÃ¼rÃ¼y": 5109,
 "suzluk": 5110,
 "ĠHalk": 5111,
 "Ġkimselerden": 5112,
 "ĠmÄ±dÄ±r": 5113,
 "Ġincelen": 5114,
 "Ġsevgi": 5115,
 "ĠyaptÄ±ÄŁÄ±mÄ±z": 5116,
 "ĠbastÄ±r": 5117,
 "Ġettikleri": 5118,
 "ĠdÃ¼ÅŁÃ¼ncelerini": 5119,
 "dakika": 5120,
 "Ġoyun": 5121,
 "bize": 5122,
 "Ġtayfa": 5123,
 "Ġmutl": 5124,
 "ĠkorkunÃ§": 5125,
 "fettiÅŁi": 5126,
 "ĠhaberleÅŁme": 5127,
 "gÃ¼Ã§lÃ¼k": 5128,
 "Ġbekler": 5129,
 "ĠuyanÄ±k": 5130,
 "ĠateÅŁkes": 5131,
 "ĠfedakÃ¢rlÄ±k": 5132,
 "Ã¼zÃ¼ÄŁ": 5133,
 "Ġkader": 5134,
 "ĠYunanlÄ±lar": 5135,
 "Elbette": 5136,
 "manÄ±zÄ±": 5137,
 "kunÃ§": 5138,
 "ĠsÄ±rf": 5139,
 "Ġhisset": 5140,
 "ĠAntlaÅŁmasÄ±": 5141,
 "Ġcahil": 5142,
 "Ġmukad": 5143,
 "Ġsefer": 5144,
 "ĠFethi": 5145,
 "asebetle": 5146,
 "Bekir": 5147,
 "CelÃ¢lettin": 5148,
 "Ekim": 5149,
 "Hemen": 5150,
 "LAÅŀ": 5151,
 "PadiÅŁah": 5152,
 "Sav": 5153,
 "TA": 5154,
 "Ver": 5155,
 "YAN": 5156,
 "calÄ±": 5157,
 "giz": 5158,
 "gazet": 5159,
 "hÃ¢": 5160,
 "hendi": 5161,
 "mÃ¼yor": 5162,
 "pr": 5163,
 "pam": 5164,
 "siy": 5165,
 "tay": 5166,
 "ulaÅŁ": 5167,
 "yine": 5168,
 "ze": 5169,
 "Ã¼cÃ¼": 5170,
 "anik": 5171,
 "Ġbal": 5172,
 "ÄŁÄ±nÄ±n": 5173,
 "etmiÅŁ": 5174,
 "Ġdiyordu": 5175,
 "Ġkahraman": 5176,
 "Ġoya": 5177,
 "Ġtat": 5178,
 "Ġif": 5179,
 "ĠbirleÅŁtir": 5180,
 "Ġhaz": 5181,
 "mesel": 5182,
 "memiÅŁti": 5183,
 "ĠBur": 5184,
 "Ã¼nasebetle": 5185,
 "ore": 5186,
 "ordunun": 5187,
 "ulduÄŁu": 5188,
 "lÄ±lar": 5189,
 "Ä°ST": 5190,
 "Ġoluyor": 5191,
 "ĠKUR": 5192,
 "Ġdeme": 5193,
 "ĠME": 5194,
 "Ä±nÄ±za": 5195,
 "ĠÃ§ap": 5196,
 "ĠÅŁikÃ¢yet": 5197,
 "olmak": 5198,
 "Ä±lmaktadÄ±r": 5199,
 "ĠHak": 5200,
 "birtakÄ±m": 5201,
 "Ġnot": 5202,
 "test": 5203,
 "ĠTayyar": 5204,
 "ĠSel": 5205,
 "ĠSuriye": 5206,
 "Ġverecek": 5207,
 "meti": 5208,
 "tÄ±rÄ±": 5209,
 "ĠyapÄ±lmasÄ±nÄ±": 5210,
 "Ã¼tb": 5211,
 "ĠDamat": 5212,
 "ĠgeldiÄŁini": 5213,
 "Ġgiden": 5214,
 "ĠolanlarÄ±": 5215,
 "ĠCafer": 5216,
 "ĠYap": 5217,
 "ĠYÃ¼ce": 5218,
 "ihti": 5219,
 "kanÄ±t": 5220,
 "ĠgÃ¶rÃ¼ÅŁÃ¼l": 5221,
 "ebb": 5222,
 "Ġcezalan": 5223,
 "yiÄŁit": 5224,
 "ĠkalÄ±n": 5225,
 "Ġkalmak": 5226,
 "neden": 5227,
 "ĠedilmiÅŁtir": 5228,
 "ĠaÃ§Ä±klaya": 5229,
 "kent": 5230,
 "gÃ¼nÃ¼n": 5231,
 "Ġhareketi": 5232,
 "Ġyazar": 5233,
 "afkas": 5234,
 "Ġkuvvetlerini": 5235,
 "Ġsayesinde": 5236,
 "ĠmÃ¼fettiÅŁ": 5237,
 "ĠsaÄŁlaya": 5238,
 "Ġyetin": 5239,
 "Ġeser": 5240,
 "Ġeseri": 5241,
 "dÃ¼ÅŁÃ¼r": 5242,
 "isten": 5243,
 "yarat": 5244,
 "ĠvatandaÅŁ": 5245,
 "Ġdurdur": 5246,
 "toplan": 5247,
 "ĠdÃ¼ÅŁÃ¼nceleri": 5248,
 "Ġilkeler": 5249,
 "dÃ¼ÄŁÃ¼m": 5250,
 "Ġakla": 5251,
 "Ġsadece": 5252,
 "Ġgitmek": 5253,
 "ĠgitmiÅŁ": 5254,
 "Ġgittim": 5255,
 "lerimize": 5256,
 "MAS": 5257,
 "ĠkapÄ±": 5258,
 "fersah": 5259,
 "ĠkaÃ§Ä±nÄ±l": 5260,
 "ĠyÃ¼rÃ¼rlÃ¼k": 5261,
 "ĠmakamÄ±": 5262,
 "ĠAynÄ±": 5263,
 "Ġtehdi": 5264,
 "ĠÅŁÃ¼phesiz": 5265,
 "ĠbaÅŁkanlÄ±k": 5266,
 "Ġertesi": 5267,
 "ĠbaÅŁarÄ±ya": 5268,
 "Ġsert": 5269,
 "durumda": 5270,
 "Ġbilinmektedir": 5271,
 "milletin": 5272,
 "Ġmerkezi": 5273,
 "ĠmeÅŁgul": 5274,
 "URUM": 5275,
 "Ä°YE": 5276,
 "ĠAvni": 5277,
 "Ertesi": 5278,
 "Ġbitir": 5279,
 "ĠsarsÄ±l": 5280,
 "yoktu": 5281,
 "Ġedecektir": 5282,
 "ĠteÅŁkilÃ¢ta": 5283,
 "ĠÅŁahÄ±slarÄ±n": 5284,
 "Ġtemsilcileri": 5285,
 "Ġtelkin": 5286,
 "Ġkurtarmak": 5287,
 "Halife": 5288,
 "Ġbahset": 5289,
 "sesle": 5290,
 "Ġnerede": 5291,
 "ĠMareÅŁal": 5292,
 "ĠarkasÄ±ndan": 5293,
 "yÃ¼ksel": 5294,
 "ĠÄ°Ã§iÅŁleri": 5295,
 "ĠalÄ±nacak": 5296,
 "ĠGÃ¼ney": 5297,
 "Ã¢bÄ±": 5298,
 "ĠMÃ¼dÃ¼rÃ¼": 5299,
 "ĠhÃ¼cum": 5300,
 "ĠkÄ±yafet": 5301,
 "ĠboÅŁaltÄ±l": 5302,
 "Ġyahut": 5303,
 "ambrid": 5304,
 "ambridge": 5305,
 "!\"": 5306,
 "21": 5307,
 "BÄ°R": 5308,
 "Kab": 5309,
 "Kolordu": 5310,
 "On": 5311,
 "Sadrazam": 5312,
 "Texas": 5313,
 "UF": 5314,
 "Zaten": 5315,
 "ema": 5316,
 "gulan": 5317,
 "iÄŁer": 5318,
 "osta": 5319,
 "ova": 5320,
 "pÄ±r": 5321,
 "ruk": 5322,
 "tus": 5323,
 "uÄŁ": 5324,
 "ule": 5325,
 "vasÄ±": 5326,
 "vazgeÃ§": 5327,
 "yola": 5328,
 "anya": 5329,
 "ilmek": 5330,
 "enlerin": 5331,
 "Ã§iler": 5332,
 "Ã§esi": 5333,
 "Ġdar": 5334,
 "Ġkop": 5335,
 "ĠsunacaÄŁÄ±m": 5336,
 "Ġyur": 5337,
 "Ġyedi": 5338,
 "ĠyoÄŁun": 5339,
 "altim": 5340,
 "ĠoÄŁ": 5341,
 "daÅŁÄ±": 5342,
 "ĠhÃ¼rriyet": 5343,
 "mev": 5344,
 "yaver": 5345,
 "Ġam": 5346,
 "Ġalabil": 5347,
 "eyse": 5348,
 "Ġmus": 5349,
 "ĠKAB": 5350,
 "Ã¢t": 5351,
 "olma": 5352,
 "olsa": 5353,
 "aberi": 5354,
 "ceph": 5355,
 "tanÄ±": 5356,
 "tav": 5357,
 "ĠHay": 5358,
 "duÄŁuna": 5359,
 "ĠalÄ±nÄ±": 5360,
 "Ġsona": 5361,
 "ĠSiz": 5362,
 "uyun": 5363,
 "Ä±mdan": 5364,
 "Ġvermeye": 5365,
 "ĠverilmiÅŁ": 5366,
 "ahr": 5367,
 "bileceÄŁini": 5368,
 "Ġyaparak": 5369,
 "ĠDumlupÄ±nar": 5370,
 "Ġkonunun": 5371,
 "iÃ§ine": 5372,
 "ĠCE": 5373,
 "edd": 5374,
 "ĠGediz": 5375,
 "ilmez": 5376,
 "ilmesinin": 5377,
 "ĠaramÄ±zda": 5378,
 "ĠiÅŁle": 5379,
 "ĠOR": 5380,
 "ĠgÃ¶rÃ¼ÅŁÃ¼": 5381,
 "Ġrol": 5382,
 "diÄŁinde": 5383,
 "Ġkuru": 5384,
 "yanÄ±tladÄ±": 5385,
 "derin": 5386,
 "ĠeleÅŁtir": 5387,
 "ĠsÃ¼rdÃ¼": 5388,
 "ĠsÃ¼rdÃ¼r": 5389,
 "Ġtarihlerde": 5390,
 "ĠyargÄ±": 5391,
 "ĠhakkÄ±n": 5392,
 "Ġaraya": 5393,
 "Ġyoksun": 5394,
 "lamadan": 5395,
 "Ġkuvvetlerinin": 5396,
 "yÃ¼zÃ¼nÃ¼": 5397,
 "yapÄ±": 5398,
 "ĠbaÄŁdaÅŁ": 5399,
 "ĠHÃ¼kÃ»metin": 5400,
 "Ġkonularda": 5401,
 "ĠgÃ¶ze": 5402,
 "ĠgÃ¶zÃ¼k": 5403,
 "karÅŁÄ±sÄ±nda": 5404,
 "Ã¼stÃ¼n": 5405,
 "ĠanlaÅŁmasÄ±": 5406,
 "yerleÅŁtir": 5407,
 "AynÄ±": 5408,
 "gerekiyordu": 5409,
 "ĠgÃ¶rÃ¼ldÃ¼": 5410,
 "ĠLondra": 5411,
 "ĠkÃ¶k": 5412,
 "AralÄ±k": 5413,
 "Ġveyahut": 5414,
 "Ä±lÄ±p": 5415,
 "ĠsonuÃ§lar": 5416,
 "leyerek": 5417,
 "ĠAyrÄ±ca": 5418,
 "Ġgerekirdi": 5419,
 "lukla": 5420,
 "ĠÃ¶lÃ§": 5421,
 "gÃ¶rÃ¼ÅŁmeler": 5422,
 "MESÄ°": 5423,
 "ĠSaltanat": 5424,
 "Ġettikten": 5425,
 "Bizim": 5426,
 "ĠimkÃ¢nÄ±": 5427,
 "ï¬Ĥ": 5428,
 "ĠanlamsÄ±z": 5429,
 "Ġdilek": 5430,
 "ĠsaldÄ±rÄ±ya": 5431,
 "ĠJandarma": 5432,
 "ĠgÃ¼cÃ¼nÃ¼": 5433,
 "heyecan": 5434,
 "ĠElÃ¢zÄ±ÄŁ": 5435,
 "ekÃ¢let": 5436,
 "ĠzÃ¢tÄ±devlet": 5437,
 "ĠÅŀubat": 5438,
 "Bakanlar": 5439,
 "yayÄ±n": 5440,
 "Ġcanavar": 5441,
 "Ġdiyerek": 5442,
 "EÅŀK": 5443,
 "andÄ±rma": 5444,
 "ÃľRK": 5445,
 "ĠMaliye": 5446,
 "meliyim": 5447,
 "ĠkayÄ±tsÄ±z": 5448,
 "Ġsilah": 5449,
 "ĠNazÄ±rÄ±": 5450,
 "frank": 5451,
 "altimore": 5452,
 "39": 5453,
 "Ak": 5454,
 "Burada": 5455,
 "EÄŁer": 5456,
 "Har": 5457,
 "HÃ¼seyin": 5458,
 "Top": 5459,
 "YÃ¼ksek": 5460,
 "aif": 5461,
 "buna": 5462,
 "bundan": 5463,
 "ji": 5464,
 "kul": 5465,
 "lek": 5466,
 "mÃ¼mkÃ¼n": 5467,
 "relik": 5468,
 "sarÄ±": 5469,
 "sakÄ±n": 5470,
 "tap": 5471,
 "teklif": 5472,
 "taÅŁÄ±": 5473,
 "ĠÃ¼": 5474,
 "Ã¼ven": 5475,
 "anan": 5476,
 "enler": 5477,
 "ete": 5478,
 "Ã§uk": 5479,
 "matÄ±": 5480,
 "Ġkil": 5481,
 "ĠgÃ¼r": 5482,
 "Ã¶bÃ¼r": 5483,
 "Ġvekili": 5484,
 "ĠtÃ¼meni": 5485,
 "diyor": 5486,
 "lerimi": 5487,
 "meÅŁ": 5488,
 "ĠBunda": 5489,
 "ĠBelki": 5490,
 "yabancÄ±": 5491,
 "Ġala": 5492,
 "Ġata": 5493,
 "Ä±ÅŁÄ±n": 5494,
 "emenin": 5495,
 "ĠKap": 5496,
 "olsun": 5497,
 "ĠilÃ¢": 5498,
 "birbir": 5499,
 "arasÄ±": 5500,
 "arafa": 5501,
 "ĠnÃ¢zÄ±r": 5502,
 "Ã¶nÃ¼": 5503,
 "tedir": 5504,
 "lann": 5505,
 "Ġalda": 5506,
 "miÅŁlerdir": 5507,
 "Ġetmekte": 5508,
 "Ġbilir": 5509,
 "ĠSar": 5510,
 "ĠSer": 5511,
 "ĠbaÅŁla": 5512,
 "ahrettin": 5513,
 "usuz": 5514,
 "Ã¼mÃ¼ÅŁ": 5515,
 "Ġedin": 5516,
 "Ġedelim": 5517,
 "ĠDEV": 5518,
 "Ã¼lt": 5519,
 "Ã¼ltÃ¼": 5520,
 "Ġpat": 5521,
 "Ġgelir": 5522,
 "ecekleri": 5523,
 "ĠYarb": 5524,
 "aÄŁaÃ§": 5525,
 "ĠayÄ±r": 5526,
 "Ġgereksiz": 5527,
 "ebolu": 5528,
 "ĠgÃ¼v": 5529,
 "Ġelden": 5530,
 "Ġhalka": 5531,
 "ĠkalÄ±r": 5532,
 "ladÄ±ÄŁÄ±nÄ±": 5533,
 "Ġedilir": 5534,
 "baÅŁÄ±nda": 5535,
 "ĠsÃ¼rÃ¼len": 5536,
 "mazdÄ±": 5537,
 "ĠkararÄ±n": 5538,
 "ĠulaÅŁtÄ±r": 5539,
 "melerinin": 5540,
 "Ġmakin": 5541,
 "meyerek": 5542,
 "alÄ±ÄŁÄ±n": 5543,
 "ĠlÃ¢": 5544,
 "ĠlÃ¼z": 5545,
 "Ġkuvvetin": 5546,
 "ĠMilletin": 5547,
 "Ġgetirmeye": 5548,
 "ĠmÃ¼st": 5549,
 "ĠsaÄŁlayacak": 5550,
 "ĠmaddÃ®": 5551,
 "ĠÅŁeyden": 5552,
 "edeceÄŁ": 5553,
 "ĠBirkaÃ§": 5554,
 "Ġkimseye": 5555,
 "ĠbÄ±rakmak": 5556,
 "Ġhaya": 5557,
 "ĠkomutanlarÄ±n": 5558,
 "Ġcin": 5559,
 "ĠTemsiliyesi": 5560,
 "ĠÅŁahsen": 5561,
 "Ġsizi": 5562,
 "kalÄ±n": 5563,
 "ĠdÃ¼ÅŁmana": 5564,
 "INI": 5565,
 "Ġsancak": 5566,
 "Ġkurulan": 5567,
 "ĠgÃ¶rÃ¼lmÃ¼ÅŁtÃ¼r": 5568,
 "deÄŁildi": 5569,
 "ĠZiya": 5570,
 "yolcu": 5571,
 "Ġdayanan": 5572,
 "Ġsebeb": 5573,
 "Ġsebebi": 5574,
 "Ġgayeye": 5575,
 "Ä±lmasÄ±ndan": 5576,
 "Ġgenelge": 5577,
 "ĠdeÄŁerlendir": 5578,
 "ĠdÃ¼nyaya": 5579,
 "ĠEylÃ¼lde": 5580,
 "ĠuzaklaÅŁtÄ±r": 5581,
 "ĠaÃ§Ä±klamalar": 5582,
 "Ġeskiden": 5583,
 "ĠgÃ¶rÃ¼ÅŁmelerin": 5584,
 "takdir": 5585,
 "ĠyakÄ±nlarÄ±nda": 5586,
 "ĠsaygÄ±deÄŁer": 5587,
 "altmÄ±ÅŁ": 5588,
 "hakkÄ±nda": 5589,
 "Ġotomobil": 5590,
 "Ġeks": 5591,
 "ĠiliÅŁk": 5592,
 "kararlaÅŁtÄ±r": 5593,
 "ĠParti": 5594,
 "ĠtabiÃ®dir": 5595,
 "Ġlist": 5596,
 "Ġbozgun": 5597,
 "ĠuyandÄ±r": 5598,
 "Ġkamuoyunda": 5599,
 "Ġetkisi": 5600,
 "HÃ¼kÃ»meti": 5601,
 "rÃ¼b": 5602,
 "ĠBunlar": 5603,
 "iÄŁit": 5604,
 "Ġgidecek": 5605,
 "Ġgrubun": 5606,
 "Ġkongrenin": 5607,
 "ĠHarp": 5608,
 "ĠÃ§aÄŁdaÅŁ": 5609,
 "ĠmedenÃ®": 5610,
 "Ġmedeniyet": 5611,
 "Ġiktidar": 5612,
 "dÃ¼rbÃ¼n": 5613,
 "Ġmecburiyetinde": 5614,
 "Ġtutan": 5615,
 "Ä°tilÃ¢f": 5616,
 "uÄŁraÅŁ": 5617,
 "ĠÄ°talyan": 5618,
 "lemevi": 5619,
 "ĠdemeÃ§": 5620,
 "testo": 5621,
 ")'": 5622,
 "Ahmet": 5623,
 "Cemiyet": 5624,
 "DÄ°R": 5625,
 "GR": 5626,
 "HUR": 5627,
 "Ok": 5628,
 "San": 5629,
 "TÄ°N": 5630,
 "ch": 5631,
 "diniz": 5632,
 "idar": 5633,
 "olacaktÄ±r": 5634,
 "pey": 5635,
 "sayÄ±": 5636,
 "tor": 5637,
 "zan": 5638,
 "Ġ!": 5639,
 "Ġey": 5640,
 "Ġï¬ģ": 5641,
 "ĠÃ¼ye": 5642,
 "iliyor": 5643,
 "etki": 5644,
 "etleme": 5645,
 "ĠdÃ¼n": 5646,
 "Ġday": 5647,
 "Ġdarb": 5648,
 "ĠkeÅŁ": 5649,
 "Ġkeli": 5650,
 "Ġkestir": 5651,
 "akÅŁam": 5652,
 "ĠyumuÅŁ": 5653,
 "ĠtÃ¼r": 5654,
 "Ġtren": 5655,
 "lerdeki": 5656,
 "Ġbirden": 5657,
 "Ġhas": 5658,
 "Ġhaberi": 5659,
 "mediÄŁim": 5660,
 "ĠBazÄ±": 5661,
 "ĠBolu": 5662,
 "ĠBoÄŁaz": 5663,
 "ledi": 5664,
 "ulmaz": 5665,
 "iyaret": 5666,
 "lÄ±p": 5667,
 "Ä°yi": 5668,
 "Ä±ÅŁtÄ±r": 5669,
 "emmel": 5670,
 "ĠmÃ¼nasebetle": 5671,
 "ĠKÃ¼Ã§Ã¼k": 5672,
 "Ã¼kemmel": 5673,
 "ĠÅŁaÅŁÄ±r": 5674,
 "ĠÅŁimdilik": 5675,
 "Ġbuy": 5676,
 "Ġbudur": 5677,
 "ĠAR": 5678,
 "ilerinin": 5679,
 "ĠÄ°LE": 5680,
 "ĠHemen": 5681,
 "arasÄ±ndaki": 5682,
 "Ġna": 5683,
 "ĠPon": 5684,
 "mÄ±ÅŁtÄ±k": 5685,
 "lanma": 5686,
 "ĠaldÄ±ÄŁÄ±nÄ±": 5687,
 "ĠetmiÅŁtir": 5688,
 "adalÄ±": 5689,
 "ahdet": 5690,
 "bilimsel": 5691,
 "endik": 5692,
 "endiÄŁi": 5693,
 "ĠzatÄ±": 5694,
 "Ġbulunacak": 5695,
 "ĠbulunduÄŁum": 5696,
 "ĠDiyarbakÄ±r": 5697,
 "Ġistemiyor": 5698,
 "ĠgelmiÅŁti": 5699,
 "asyon": 5700,
 "ĠolanlarÄ±n": 5701,
 "ĠGerek": 5702,
 "ĠNihayet": 5703,
 "ĠNemo": 5704,
 "ilmemesi": 5705,
 "Ã§Ä±kan": 5706,
 "Ã§Ä±ktÄ±": 5707,
 "ĠiÅŁlerine": 5708,
 "Ġyerini": 5709,
 "ĠRus": 5710,
 "ĠgÃ¼nÃ¼n": 5711,
 "Ġkurmay": 5712,
 "yana": 5713,
 "Ġdurumdan": 5714,
 "Ġtoplamak": 5715,
 "Ġtelgraflar": 5716,
 "ĠtelgrafÄ±nÄ±": 5717,
 "ĠtelgrafÄ±na": 5718,
 "madÄ±ÄŁÄ±ndan": 5719,
 "Ġkalk": 5720,
 "bugÃ¼nkÃ¼": 5721,
 "ĠBaÅŁbakan": 5722,
 "efik": 5723,
 "kardeÅŁ": 5724,
 "tuÄŁu": 5725,
 "ÃľY": 5726,
 "ÃľÃ§": 5727,
 "melerine": 5728,
 "skoca": 5729,
 "mÄ±yorum": 5730,
 "yÃ¼zden": 5731,
 "dukÃ§a": 5732,
 "ĠistediÄŁini": 5733,
 "Ġyeten": 5734,
 "ĠyÃ¼zey": 5735,
 "ĠyÃ¼zyÄ±l": 5736,
 "Ġederken": 5737,
 "edecek": 5738,
 "ĠMÃ¼fettiÅŁi": 5739,
 "kurtar": 5740,
 "bulunduÄŁunu": 5741,
 "ĠanlaÅŁÄ±lmÄ±ÅŁtÄ±r": 5742,
 "eÄŁen": 5743,
 "ĠbÃ¶lgede": 5744,
 "ĠMuharebesi": 5745,
 "mÃ¼ÅŁtÃ¼": 5746,
 "ĠgÃ¼Ã§lendir": 5747,
 "Ġbelirli": 5748,
 "ĠÃ§ekildi": 5749,
 "ĠÃ§ekilmek": 5750,
 "gerekli": 5751,
 "Ġcepheye": 5752,
 "ĠÅŁarttÄ±r": 5753,
 "Ġkaybet": 5754,
 "Ġoldubit": 5755,
 "Ġemirler": 5756,
 "Ä±lÄ±ÅŁ": 5757,
 "ĠinanÃ§": 5758,
 "ĠhayÄ±r": 5759,
 "Ġgenelg": 5760,
 "Ä±nÄ±zdan": 5761,
 "ĠÃĸn": 5762,
 "Ġkendileri": 5763,
 "Ġyasama": 5764,
 "Ġkimselere": 5765,
 "ĠvasÄ±f": 5766,
 "Ġmermi": 5767,
 "ĠdinÃ®": 5768,
 "milletvekil": 5769,
 "ĠgÃ¶rÃ¼ÅŁmelere": 5770,
 "Ġhepsi": 5771,
 "ĠSalÃ¢hattin": 5772,
 "ĠtoplantÄ±da": 5773,
 "dÃ¶nÃ¼ÅŁ": 5774,
 "Ġuygulamaya": 5775,
 "ĠsÄ±nÄ±rlarÄ±": 5776,
 "inceye": 5777,
 "Ġotor": 5778,
 "mesiyle": 5779,
 "iklÃ¢l": 5780,
 "Ġanlatmak": 5781,
 "ĠdÃ¼zenli": 5782,
 "ĠsÄ±kÄ±": 5783,
 "Ġyenil": 5784,
 "bÃ¶ylece": 5785,
 "Ġlider": 5786,
 "ĠuygulanmasÄ±": 5787,
 "ĠaÅŁiret": 5788,
 "ĠhÄ±zla": 5789,
 "hÄ±zla": 5790,
 "ĠBunlarÄ±n": 5791,
 "ĠadamÄ±": 5792,
 "Ġmektupta": 5793,
 "Ġdestekle": 5794,
 "Ġmetre": 5795,
 "ĠHÃ¼kum": 5796,
 "Ordu": 5797,
 "UMHUR": 5798,
 "kÃ¶ÅŁ": 5799,
 "lÄ±ÄŁÄ±mÄ±zÄ±": 5800,
 "ĠzÃ¢tÄ±Ã¢lÃ®": 5801,
 "Ġpolitika": 5802,
 "konuda": 5803,
 "ĠtazminatÄ±": 5804,
 "ĠgidiÅŁ": 5805,
 "ĠMutasarrÄ±fÄ±": 5806,
 "Ġciddiyet": 5807,
 "Ġmilyon": 5808,
 "Ġunut": 5809,
 "ĠbaÅŁlangÄ±Ã§": 5810,
 "ĠÃĸzellikle": 5811,
 "ĠHamdi": 5812,
 "ĠBAÅŀK": 5813,
 "ĠeÄŁilim": 5814,
 "ĠHattÃ¢": 5815,
 "Ġjandarma": 5816,
 "Ġhesab": 5817,
 "OMUT": 5818,
 "Ġnazik": 5819,
 "ĠSeÃ§im": 5820,
 "ĠMECLÄ°": 5821,
 "ĠhakkÄ±ndaki": 5822,
 "ĠYarbay": 5823,
 "ahdettin": 5824,
 "35": 5825,
 "37": 5826,
 "38": 5827,
 "ASI": 5828,
 "Ceph": 5829,
 "Deniz": 5830,
 "General": 5831,
 "Ie": 5832,
 "Kara": 5833,
 "PH": 5834,
 "SayÄ±n": 5835,
 "SÃ©vres": 5836,
 "TAN": 5837,
 "Trakya": 5838,
 "US": 5839,
 "Yan": 5840,
 "burada": 5841,
 "cÄ±nÄ±n": 5842,
 "dolu": 5843,
 "ddenin": 5844,
 "kut": 5845,
 "mÃ¼thiÅŁ": 5846,
 "nik": 5847,
 "oda": 5848,
 "po": 5849,
 "rika": 5850,
 "sap": 5851,
 "sup": 5852,
 "tem": 5853,
 "tmak": 5854,
 "tilÃ¢": 5855,
 "ĠÃ¼r": 5856,
 "ÅŁak": 5857,
 "arka": 5858,
 "arih": 5859,
 "anÄ±": 5860,
 "Ġbar": 5861,
 "Ġbey": 5862,
 "ĠboÄŁ": 5863,
 "ene": 5864,
 "ÄŁini": 5865,
 "ettir": 5866,
 "etimiz": 5867,
 "ĠdÃ¼rb": 5868,
 "mama": 5869,
 "Ġge": 5870,
 "Ġsol": 5871,
 "Ġsakat": 5872,
 "Ġsinir": 5873,
 "Ġyalan": 5874,
 "ĠyatÄ±ÅŁ": 5875,
 "aldÄ±": 5876,
 "ĠtÃ¼m": 5877,
 "ĠtakÄ±n": 5878,
 "imden": 5879,
 "izli": 5880,
 "yabil": 5881,
 "Ġap": 5882,
 "Ġail": 5883,
 "iyse": 5884,
 "Ä°ÅŁ": 5885,
 "Ä°Ã§": 5886,
 "Ä°st": 5887,
 "eydan": 5888,
 "emiyordu": 5889,
 "ĠKafkas": 5890,
 "atÃ§Ä±": 5891,
 "ayla": 5892,
 "olmayan": 5893,
 "olmadÄ±ÄŁÄ±nÄ±": 5894,
 "Ġefendiler": 5895,
 "ĠAz": 5896,
 "ikri": 5897,
 "ĠHep": 5898,
 "siya": 5899,
 "sÄ±ntÄ±": 5900,
 "lanmasÄ±nÄ±": 5901,
 "ĠalÄ±k": 5902,
 "ĠaldÄ±r": 5903,
 "ĠaldÄ±k": 5904,
 "itir": 5905,
 "Ġkarak": 5906,
 "ĠetmiÅŁti": 5907,
 "adde": 5908,
 "adÃ¼f": 5909,
 "ahh": 5910,
 "ahÅŁ": 5911,
 "ahmet": 5912,
 "Ġyapma": 5913,
 "ĠBugÃ¼n": 5914,
 "Ã¼lk": 5915,
 "Ġper": 5916,
 "Ã»r": 5917,
 "ĠolduÄŁumu": 5918,
 "eceksiniz": 5919,
 "Åŀu": 5920,
 "ĠGÃ¶z": 5921,
 "ĠGrup": 5922,
 "ÄŁÄ±mÄ±": 5923,
 "enip": 5924,
 "ĠgÃ¶rÃ¼ÅŁÃ¼nde": 5925,
 "ilÃ¢n": 5926,
 "yanusu": 5927,
 "Ġdurumunu": 5928,
 "derat": 5929,
 "ĠsÃ¶ze": 5930,
 "Ġonlar": 5931,
 "Ġonlara": 5932,
 "ĠÃ§Ä±kacak": 5933,
 "ĠdÃ¼ÅŁÃ¼nerek": 5934,
 "ĠkalmÄ±ÅŁ": 5935,
 "lerindeki": 5936,
 "Ġbenz": 5937,
 "neÄŁi": 5938,
 "Ġedilebilir": 5939,
 "Ã¼rken": 5940,
 "leÅŁmiÅŁ": 5941,
 "ĠVekil": 5942,
 "eceÄŁimizi": 5943,
 "ĠzamanÄ±nda": 5944,
 "ĠteÅŁebb": 5945,
 "ĠgÃ¶revlerini": 5946,
 "dÃ¼ler": 5947,
 "meyeceÄŁini": 5948,
 "Ä±ldÄ±ÄŁÄ±nÄ±": 5949,
 "Ġadalet": 5950,
 "ĠyazÄ±lmÄ±ÅŁ": 5951,
 "halk": 5952,
 "bilirim": 5953,
 "Ġkuvveti": 5954,
 "kimi": 5955,
 "Ġkalacak": 5956,
 "Ġsayfa": 5957,
 "liÄŁinde": 5958,
 "ĠmÃ¼sa": 5959,
 "kÄ±yÄ±": 5960,
 "ĠÅŁeyler": 5961,
 "dÃ¼ÅŁÃ¼nÃ¼": 5962,
 "ĠseÃ§il": 5963,
 "ĠgÃ¼vence": 5964,
 "yararlÄ±": 5965,
 "ĠÃĩok": 5966,
 "bulunduÄŁu": 5967,
 "Ä±mÄ±zda": 5968,
 "ĠÄ°nebolu": 5969,
 "eÄŁini": 5970,
 "ĠbÄ±rakarak": 5971,
 "kale": 5972,
 "ilebil": 5973,
 "AyrÄ±ca": 5974,
 "Ġteker": 5975,
 "ĠdÃ¶nmek": 5976,
 "Ġtedbirlerin": 5977,
 "ozgat": 5978,
 "ĠbÃ¶ylece": 5979,
 "tÃ¼rlÃ¼": 5980,
 "Ġbunlara": 5981,
 "basit": 5982,
 "gÃ¶zÃ¼k": 5983,
 "ĠdayandÄ±ÄŁÄ±": 5984,
 "ĠÅŁartsÄ±z": 5985,
 "ĠkÃ¶ÅŁ": 5986,
 "elÃ¢l": 5987,
 "ĠbaÅŁladÄ±m": 5988,
 "Ä±lÄ±yordu": 5989,
 "ĠadamlarÄ±": 5990,
 "Ġgensoru": 5991,
 "ĠbaÄŁlÄ±dÄ±r": 5992,
 "Ä±nÄ±zda": 5993,
 "Ġyakalan": 5994,
 "ĠbinbaÅŁÄ±": 5995,
 "ĠteÅŁebbÃ¼slerde": 5996,
 "ĠsÄ±rasÄ±": 5997,
 "Ġsebepler": 5998,
 "Ġtabur": 5999,
 "zamanda": 6000,
 "ĠayrÄ±l": 6001,
 "ĠÅŁeklinin": 6002,
 "Ġtehlikeye": 6003,
 "emizi": 6004,
 "Ġbununla": 6005,
 "Ġhatta": 6006,
 "Ġzorla": 6007,
 "Ġsubaylar": 6008,
 "ĠUz": 6009,
 "ĠtoplantÄ±ya": 6010,
 "ĠbaÄŁÄ±msÄ±zlÄ±ÄŁÄ±nÄ±": 6011,
 "Benim": 6012,
 "larÄ±mla": 6013,
 "savvur": 6014,
 "LIK": 6015,
 "EKLÄ°": 6016,
 "ĠIrak": 6017,
 "ĠÃ§evresinde": 6018,
 "ĠAksine": 6019,
 "Ġyetkisi": 6020,
 "ĠgÃ¶rÃ¼nÃ¼ÅŁ": 6021,
 "Ġemrine": 6022,
 "ĠKARARI": 6023,
 "Ġdille": 6024,
 "1923": 6025,
 "madÄ±kÃ§a": 6026,
 "Devletleri": 6027,
 "dolar": 6028,
 "yeniden": 6029,
 "ĠElbette": 6030,
 "ĠzarurÃ®dir": 6031,
 "hayvan": 6032,
 "ĠMaraÅŁ": 6033,
 "ĠÃ§arpÄ±ÅŁ": 6034,
 "ĠkorunmasÄ±": 6035,
 "dÄ±ÅŁarÄ±": 6036,
 "lÃ¼ÄŁÃ¼nÃ¼": 6037,
 "ĠAslan": 6038,
 "Ã§arp": 6039,
 "Ġgaflet": 6040,
 "gezegen": 6041,
 "Ġunsur": 6042,
 "tartÄ±ÅŁma": 6043,
 "ĠCumhurbaÅŁkanÄ±": 6044,
 "Ġoturumda": 6045,
 "boyunca": 6046,
 "Ġnamus": 6047,
 "ĠYÃ¼zbaÅŁÄ±": 6048,
 "Ġdisiplin": 6049,
 "Ġhususta": 6050,
 "Ġkuwet": 6051,
 "Yarkurul": 6052,
 "ĠzulÃ¼m": 6053,
 "hendis": 6054,
 "pamuk": 6055,
 "Ġtehdit": 6056,
 "ĠlÃ¼zum": 6057,
 "takdirde": 6058,
 "UMHURÄ°YET": 6059,
 "'s": 6060,
 ".''": 6061,
 "CÄ°": 6062,
 "Efendim": 6063,
 "ESÄ°": 6064,
 "Gemi": 6065,
 "Mak": 6066,
 "Ondan": 6067,
 "Stone": 6068,
 "TE": 6069,
 "Trabzon": 6070,
 "TeÅŁkilÃ¢t": 6071,
 "Vatan": 6072,
 "Yeni": 6073,
 "bal": 6074,
 "bey": 6075,
 "batÄ±": 6076,
 "dun": 6077,
 "dÃ¼nyanÄ±n": 6078,
 "gaz": 6079,
 "gÃ¼t": 6080,
 "ig": 6081,
 "miyordum": 6082,
 "para": 6083,
 "saygÄ±": 6084,
 "yn": 6085,
 "Ġ..": 6086,
 "Ã¼yorum": 6087,
 "Ã¼lerek": 6088,
 "ÅŁart": 6089,
 "ÅŁaÅŁÄ±r": 6090,
 "aruz": 6091,
 "incan": 6092,
 "enle": 6093,
 "Ã§eÅŁitli": 6094,
 "mada": 6095,
 "ĠkÃ¢": 6096,
 "ĠkÄ±z": 6097,
 "Ġkere": 6098,
 "Ġsap": 6099,
 "Ġyas": 6100,
 "alya": 6101,
 "Ġtor": 6102,
 "dest": 6103,
 "Ġidiler": 6104,
 "Ġivedi": 6105,
 "ĠBana": 6106,
 "ĠBÃ¶lg": 6107,
 "ĠBandÄ±rma": 6108,
 "Ã¼nce": 6109,
 "imza": 6110,
 "yaÄŁÄ±": 6111,
 "ora": 6112,
 "Ä°S": 6113,
 "Ä°ki": 6114,
 "ĠolmasÄ±na": 6115,
 "esas": 6116,
 "Ã¢p": 6117,
 "Ã¢de": 6118,
 "ĠÅŁaÅŁkÄ±n": 6119,
 "maksa": 6120,
 "ĠAt": 6121,
 "letmek": 6122,
 "ĠÄ°S": 6123,
 "ĠgÃ¶rÃ¼r": 6124,
 "ĠHav": 6125,
 "ĠHÃ¼rriyet": 6126,
 "eleriyle": 6127,
 "ĠiÃ§er": 6128,
 "lannÄ±": 6129,
 "landÄ±ÄŁÄ±nÄ±": 6130,
 "ĠalÄ±r": 6131,
 "Ġetkiler": 6132,
 "Ġbiliyor": 6133,
 "ĠSab": 6134,
 "Ġverdik": 6135,
 "likleri": 6136,
 "usur": 6137,
 "lÄ±klarÄ±na": 6138,
 "havan": 6139,
 "ĠplÃ¢n": 6140,
 "Ġpiyade": 6141,
 "Ã»n": 6142,
 "eceklerini": 6143,
 "ĠYan": 6144,
 "edilmiÅŁ": 6145,
 "ĠGazi": 6146,
 "Ġmilletimiz": 6147,
 "ĠiÅŁlerini": 6148,
 "Ġyersiz": 6149,
 "ĠOra": 6150,
 "ĠOnu": 6151,
 "ĠFahrettin": 6152,
 "ĠFikri": 6153,
 "kanun": 6154,
 "ĠgÃ¶rÃ¼ÅŁe": 6155,
 "ebze": 6156,
 "ĠrÃ¼tb": 6157,
 "Ġkurmaya": 6158,
 "Ġdurumumuz": 6159,
 "gider": 6160,
 "ĠsÃ¶zleÅŁ": 6161,
 "ĠsÃ¶zlerini": 6162,
 "ĠÃ§Ä±kart": 6163,
 "ĠkaldÄ±": 6164,
 "ĠdoÄŁura": 6165,
 "Ã¶lÃ§": 6166,
 "Ã¶ldÃ¼r": 6167,
 "Ã¶lÃ§Ã¼": 6168,
 "Ġkendimi": 6169,
 "ladÄ±lar": 6170,
 "Ġtarihe": 6171,
 "ĠkararsÄ±zlÄ±ÄŁa": 6172,
 "ĠVal": 6173,
 "eceÄŁinin": 6174,
 "eceÄŁiniz": 6175,
 "Ã¼sv": 6176,
 "Ã¼sÃ¼nÃ¼": 6177,
 "Ġyoluna": 6178,
 "gÃ¼nde": 6179,
 "ĠhaksÄ±z": 6180,
 "tuÄŁ": 6181,
 "ĠgÃ¶revli": 6182,
 "ĠgÃ¶revine": 6183,
 "phi": 6184,
 "mÄ±zÄ±": 6185,
 "ĠyazÄ±k": 6186,
 "ĠÅŁub": 6187,
 "halefet": 6188,
 "ĠtoplanmÄ±ÅŁ": 6189,
 "ĠgÃ¶nderilmesi": 6190,
 "Ġkast": 6191,
 "ĠmÃ¼dÃ¼r": 6192,
 "Ġimkan": 6193,
 "ĠsÃ¶ylemiÅŁ": 6194,
 "oÅŁkun": 6195,
 "Ġduyul": 6196,
 "ĠgÃ¼venini": 6197,
 "Ġsalona": 6198,
 "Ġmemlekete": 6199,
 "Ġrahmet": 6200,
 "ĠaltÄ±ndaki": 6201,
 "bulunuyordu": 6202,
 "ĠbÃ¶lgenin": 6203,
 "ĠkomutanÄ±n": 6204,
 "Ġkomutanlara": 6205,
 "ĠdÃ¼ÅŁÃ¼ncesini": 6206,
 "ĠbaÄŁÄ±r": 6207,
 "yere": 6208,
 "kalk": 6209,
 "ÃĩÃ¼nkÃ¼": 6210,
 "ĠÃ§ekilmesi": 6211,
 "Ġcephede": 6212,
 "Birinci": 6213,
 "ĠbaÅŁladÄ±k": 6214,
 "Ġdenize": 6215,
 "Ġadamlar": 6216,
 "Ġhayret": 6217,
 "ĠkaÃ§Ä±n": 6218,
 "ĠmakamÄ±na": 6219,
 "caÄŁÄ±mÄ±": 6220,
 "ĠmÄ±ydÄ±": 6221,
 "caÄŁÄ±nÄ±n": 6222,
 "ĠÅŁeklindeki": 6223,
 "Ġonunla": 6224,
 "Ġresmi": 6225,
 "ĠOrdusu": 6226,
 "dÄ±rÄ±cÄ±": 6227,
 "MEK": 6228,
 "Ġkolayca": 6229,
 "ĠbaÄŁÄ±msÄ±zlÄ±ÄŁÄ±": 6230,
 "parator": 6231,
 "ĠFransÄ±zlar": 6232,
 "Ġkoya": 6233,
 "Ġmaddesi": 6234,
 "anlaÅŁÄ±": 6235,
 "incel": 6236,
 "ĠiliÅŁkiler": 6237,
 "ĠhÃ¼kÃ¼mleri": 6238,
 "uluÄŁunu": 6239,
 "ĠaÃ§Ä±sÄ±ndan": 6240,
 "ĠtalimatÄ±": 6241,
 "ĠAksi": 6242,
 "ĠesaslÄ±": 6243,
 "Ġvakt": 6244,
 "gÃ¼Ã§lÃ¼": 6245,
 "ULU": 6246,
 "ĠeÄŁit": 6247,
 "ladÄ±klarÄ±": 6248,
 "laÅŁtÄ±ra": 6249,
 "Ġyeterince": 6250,
 "korkunÃ§": 6251,
 "luÄŁunu": 6252,
 "ĠsakÄ±ncalar": 6253,
 "Ġtamamiyle": 6254,
 "tepe": 6255,
 "mamÄ±zÄ±": 6256,
 "Ä°zmit": 6257,
 "Ġnereye": 6258,
 "aÄŁÄ±z": 6259,
 "Kongr": 6260,
 "tabi": 6261,
 "ĠYunanlÄ±larÄ±n": 6262,
 "yalnÄ±zca": 6263,
 "ĠdÄ±ÅŁarÄ±da": 6264,
 "ĠÃ¼nvanÄ±": 6265,
 "ĠÅŁunlarÄ±": 6266,
 "ĠMÄ°LLÄ°": 6267,
 "Ġgidip": 6268,
 "Ġincelem": 6269,
 "ĠHÃ¢lit": 6270,
 "ĠÃ¶ÄŁret": 6271,
 "MÃ¼dafaa": 6272,
 "haberleÅŁ": 6273,
 "kendini": 6274,
 "ĠÅŁehit": 6275,
 "Ġhafta": 6276,
 "ĠnÃ¼fuz": 6277,
 "ĠselÃ¢meti": 6278,
 "saniyede": 6279,
 "akarya": 6280,
 "Ġufak": 6281,
 "Dahiliye": 6282,
 "ĠEfe": 6283,
 "bÃ¼yÃ¼t": 6284,
 "Ġimtiyaz": 6285,
 "Ġmusunuz": 6286,
 "ĠKABÄ°NE": 6287,
 "Ġeksik": 6288,
 "ĠyumuÅŁak": 6289,
 "ĠPontus": 6290,
 "ÃľYÃľK": 6291,
 "34": 6292,
 "36": 6293,
 "At": 6294,
 "Demek": 6295,
 "Malatya": 6296,
 "Morgan": 6297,
 "OZ": 6298,
 "YI": 6299,
 "Yol": 6300,
 "Yunus": 6301,
 "ala": 6302,
 "ban": 6303,
 "bek": 6304,
 "bah": 6305,
 "bekli": 6306,
 "beri": 6307,
 "eda": 6308,
 "fret": 6309,
 "hoÅŁ": 6310,
 "hizmet": 6311,
 "herkes": 6312,
 "kÃ¢n": 6313,
 "minin": 6314,
 "mÃ¼l": 6315,
 "nca": 6316,
 "oma": 6317,
 "rnek": 6318,
 "seler": 6319,
 "tÄ±nÄ±": 6320,
 "yalÄ±": 6321,
 "yuvar": 6322,
 "zincan": 6323,
 "Ġ....": 6324,
 "ÅŁek": 6325,
 "ÅŁaÄŁÄ±": 6326,
 "arlar": 6327,
 "arda": 6328,
 "ans": 6329,
 "ĠbÃ¼y": 6330,
 "ĠbroÅŁÃ¼r": 6331,
 "ilgil": 6332,
 "ilmekte": 6333,
 "iri": 6334,
 "ÄŁÃ¼n": 6335,
 "etinize": 6336,
 "Ġdola": 6337,
 "Ġduvar": 6338,
 "masa": 6339,
 "Ġkas": 6340,
 "Ã¶t": 6341,
 "aklarÄ±": 6342,
 "elbet": 6343,
 "elalet": 6344,
 "laf": 6345,
 "Ġsen": 6346,
 "Ġyemek": 6347,
 "ĠyÄ±ldÄ±z": 6348,
 "aleyh": 6349,
 "ĠtakÄ±m": 6350,
 "Ġtarafa": 6351,
 "dem": 6352,
 "dey": 6353,
 "lerinizi": 6354,
 "lerinizden": 6355,
 "Ġhukuk": 6356,
 "ledim": 6357,
 "tÄ±yordu": 6358,
 "ĠaÄŁÄ±": 6359,
 "lÄ±m": 6360,
 "rat": 6361,
 "sÄ±k": 6362,
 "sÄ±cak": 6363,
 "sÄ±rada": 6364,
 "Ġmiy": 6365,
 "ĠmÃ¼sv": 6366,
 "iÅŁe": 6367,
 "ĠKay": 6368,
 "ĠKÄ±sa": 6369,
 "atlÄ±": 6370,
 "ÄŁÄ±rÄ±": 6371,
 "Ã¼rler": 6372,
 "aza": 6373,
 "ikinci": 6374,
 "ĠgÃ¶rÃ¼p": 6375,
 "ĠHas": 6376,
 "birinde": 6377,
 "aracak": 6378,
 "meksizin": 6379,
 "sij": 6380,
 "evket": 6381,
 "mÄ±ÅŁlardÄ±r": 6382,
 "ĠalÄ±ÅŁ": 6383,
 "ĠTÃ¼meni": 6384,
 "muyor": 6385,
 "ĠSÃ¼": 6386,
 "uygulan": 6387,
 "adÄ±na": 6388,
 "Ġveriyordu": 6389,
 "Ġverdikleri": 6390,
 "ĠzÄ±p": 6391,
 "ĠbulunduklarÄ±": 6392,
 "layÄ±n": 6393,
 "ĠDE": 6394,
 "ĠdÃ¼ÅŁmÃ¼ÅŁ": 6395,
 "Ġistiyorum": 6396,
 "Ġpay": 6397,
 "imizle": 6398,
 "laÅŁmaya": 6399,
 "ĠCelÃ¢l": 6400,
 "bulut": 6401,
 "ĠYine": 6402,
 "Ġfar": 6403,
 "edde": 6404,
 "aÄŁz": 6405,
 "ĠOL": 6406,
 "ĠOk": 6407,
 "ĠRaif": 6408,
 "yorduk": 6409,
 "ĠgÃ¶rÃ¼ÅŁmeleri": 6410,
 "Ġindir": 6411,
 "isak": 6412,
 "Ġkurtu": 6413,
 "derec": 6414,
 "gide": 6415,
 "Ġherk": 6416,
 "Ġonur": 6417,
 "ĠdÃ¼ÅŁÃ¼nmek": 6418,
 "Ġtopra": 6419,
 "Ġnez": 6420,
 "Ġbildiriyor": 6421,
 "madÄ±lar": 6422,
 "madÄ±ÄŁÄ±mÄ±z": 6423,
 "Ġbence": 6424,
 "Ġkendisiyle": 6425,
 "Ġkendisinden": 6426,
 "ladÄ±ÄŁÄ±mÄ±z": 6427,
 "ĠaÃ§Ä±klÄ±k": 6428,
 "ĠaÃ§Ä±klamak": 6429,
 "ĠsÃ¼ren": 6430,
 "ĠsÃ¼rerek": 6431,
 "muÅŁtum": 6432,
 "ĠVer": 6433,
 "ĠVahdettin": 6434,
 "ĠanlamÄ±ÅŁ": 6435,
 "efon": 6436,
 "oyu": 6437,
 "ĠuÃ§": 6438,
 "Ġbirlikleri": 6439,
 "ĠhaklarÄ±": 6440,
 "ĠÃ§alÄ±ÅŁÄ±yor": 6441,
 "ĠÃ§alÄ±ÅŁÄ±rken": 6442,
 "duruma": 6443,
 "phist": 6444,
 "Ãľst": 6445,
 "ĠdeÄŁilim": 6446,
 "meyiz": 6447,
 "meydana": 6448,
 "sizliÄŁe": 6449,
 "ĠgÃ¶nÃ¼l": 6450,
 "olup": 6451,
 "Ġuzman": 6452,
 "ĠuzadÄ±": 6453,
 "Ġtoplanma": 6454,
 "ĠtoplanmasÄ±nÄ±": 6455,
 "mÄ±yla": 6456,
 "Ġkuvvetle": 6457,
 "ĠgÃ¶ndermiÅŁ": 6458,
 "ĠÃ¶teden": 6459,
 "ĠsayarÄ±m": 6460,
 "ĠHazret": 6461,
 "Ġistedikleri": 6462,
 "ĠsaÄŁlamaya": 6463,
 "ĠsÃ¶yledik": 6464,
 "ĠÅŁeyin": 6465,
 "ĠMÃ¼st": 6466,
 "erkÃ¼r": 6467,
 "...\"": 6468,
 "ĠvatanÄ±mÄ±zÄ±n": 6469,
 "mayÄ±n": 6470,
 "mayÄ±z": 6471,
 "mayarak": 6472,
 "ĠkomutanlarÄ±": 6473,
 "kaldÄ±r": 6474,
 "Ã¢nik": 6475,
 "ĠdÃ¼ÅŁmanlarÄ±n": 6476,
 "Ġbilgiyi": 6477,
 "Ġgitti": 6478,
 "ININ": 6479,
 "yetmiÅŁ": 6480,
 "ĠarkadaÅŁlarÄ±n": 6481,
 "tÃ¼rÃ¼": 6482,
 "harika": 6483,
 "Ãĸnce": 6484,
 "gerektiÄŁini": 6485,
 "ĠgÃ¶rÃ¼ldÃ¼ÄŁÃ¼": 6486,
 "teÅŁkilÃ¢t": 6487,
 "ebileceÄŁi": 6488,
 "Ġokul": 6489,
 "ERÄ°": 6490,
 "ĠtesadÃ¼f": 6491,
 "Ġgaye": 6492,
 "Ġters": 6493,
 "ĠÃ¢c": 6494,
 "ĠgenÃ§": 6495,
 "ĠkaÃ§Ä±r": 6496,
 "leyin": 6497,
 "ENÄ°": 6498,
 "Ġmeclisin": 6499,
 "Ġparlak": 6500,
 "subay": 6501,
 "ĠÃ¼yesi": 6502,
 "ĠHalbuki": 6503,
 "Ġ31": 6504,
 "Ä±yorduk": 6505,
 "herhangi": 6506,
 "ĠmÃ¼mkÃ¼ndÃ¼r": 6507,
 "ĠyabancÄ±larÄ±n": 6508,
 "Ġhususunda": 6509,
 "ĠUm": 6510,
 "parlak": 6511,
 "Ġgemiden": 6512,
 "ĠprofesÃ¶r": 6513,
 "Ġprotesto": 6514,
 "efendim": 6515,
 "ĠAlman": 6516,
 "Ġsessiz": 6517,
 "ĠhÃ¼kÃ¼mdar": 6518,
 "ĠkiÅŁilik": 6519,
 "Ġtasar": 6520,
 "kork": 6521,
 "ĠdaÄŁÄ±l": 6522,
 "Fransa": 6523,
 "Ä°zzet": 6524,
 "ĠkaynaÅŁ": 6525,
 "ĠBildir": 6526,
 "Ġbildiride": 6527,
 "ĠÅŁunlardÄ±": 6528,
 "mutlaka": 6529,
 "ĠoluÅŁan": 6530,
 "ÄŀIM": 6531,
 "ĠolabileceÄŁini": 6532,
 "ĠErmeniler": 6533,
 "ĠÄ°STANBUL": 6534,
 "ĠaÄŁz": 6535,
 "ington": 6536,
 "ĠtecrÃ¼b": 6537,
 "ĠanlayÄ±ÅŁ": 6538,
 "KARA": 6539,
 "bakÄ±mdan": 6540,
 "Ġdelil": 6541,
 "Ġilgisi": 6542,
 "ĠMahmut": 6543,
 "Ġgiderek": 6544,
 "ĠniteliÄŁinde": 6545,
 "Ġberaber": 6546,
 "Ã¶rdÃ¼ncÃ¼": 6547,
 "ohbet": 6548,
 "ĠanlaÅŁmazlÄ±k": 6549,
 "ĠÅŀerif": 6550,
 "MÄ°LLÄ°": 6551,
 "ĠAskerÃ®": 6552,
 "ĠÄ°ÃĩÄ°N": 6553,
 "Ġmukadderat": 6554,
 "ahriye": 6555,
 "Ġï¬ģk": 6556,
 "Ġdayana": 6557,
 "Ġrahmetli": 6558,
 "elalettin": 6559,
 "phiston": 6560,
 "AdapazarÄ±": 6561,
 "Bunu": 6562,
 "Cev": 6563,
 "Cambridge": 6564,
 "DiyarbakÄ±r": 6565,
 "EylÃ¼l": 6566,
 "KiÅŁ": 6567,
 "Mar": 6568,
 "NasÄ±l": 6569,
 "Par": 6570,
 "Tam": 6571,
 "adÄ±m": 6572,
 "balÄ±k": 6573,
 "cinin": 6574,
 "doldur": 6575,
 "eÄŁer": 6576,
 "gele": 6577,
 "idi": 6578,
 "kum": 6579,
 "kusuz": 6580,
 "liler": 6581,
 "ndaki": 6582,
 "sekli": 6583,
 "ÅŁekl": 6584,
 "anak": 6585,
 "ĠbÄ±": 6586,
 "Ġbelge": 6587,
 "ÄŁim": 6588,
 "Ġdoldur": 6589,
 "ektup": 6590,
 "Ã¶ÄŁ": 6591,
 "aklar": 6592,
 "aksÄ±z": 6593,
 "almak": 6594,
 "Ġbirini": 6595,
 "urur": 6596,
 "memesi": 6597,
 "dÄ±ÅŁÄ±": 6598,
 "Ã¼nlÃ¼": 6599,
 "ork": 6600,
 "ulus": 6601,
 "duvar": 6602,
 "ĠatÄ±ÅŁ": 6603,
 "stalÄ±k": 6604,
 "eyve": 6605,
 "ĠolmayÄ±p": 6606,
 "Ä±ÅŁÄ±k": 6607,
 "emde": 6608,
 "Ġmik": 6609,
 "ata": 6610,
 "Ġdef": 6611,
 "ĠMeydan": 6612,
 "ĠÃ§eki": 6613,
 "ĠÅŁÃ¼k": 6614,
 "maktÄ±r": 6615,
 "Ã¼rÃ¼k": 6616,
 "Ã¼rse": 6617,
 "inip": 6618,
 "Ġbula": 6619,
 "olduÄŁumuz": 6620,
 "Ġez": 6621,
 "ĠAY": 6622,
 "abÄ±": 6623,
 "abÄ±t": 6624,
 "ĠdaÄŁ": 6625,
 "taÃ§": 6626,
 "ĠÄ°L": 6627,
 "ĠÄ°m": 6628,
 "ĠÄ°ki": 6629,
 "ĠÄ°Åŀ": 6630,
 "ĠilÃ¢nÄ±": 6631,
 "birÃ§ok": 6632,
 "arada": 6633,
 "aracÄ±": 6634,
 "arasÄ±na": 6635,
 "Ġnak": 6636,
 "okun": 6637,
 "okat": 6638,
 "tihat": 6639,
 "Ã¶ne": 6640,
 "evki": 6641,
 "lanmak": 6642,
 "lanmaya": 6643,
 "lanmasÄ±na": 6644,
 "satÄ±": 6645,
 "ĠaldÄ±ÄŁÄ±mÄ±z": 6646,
 "Ġbiliyorum": 6647,
 "ĠSu": 6648,
 "ĠSen": 6649,
 "adÄ±nÄ±": 6650,
 "ĠbaÅŁlandÄ±": 6651,
 "Ġverdir": 6652,
 "ĠET": 6653,
 "ĠEsat": 6654,
 "usuna": 6655,
 "ĠzavallÄ±": 6656,
 "kaf": 6657,
 "ĠbulunmadÄ±ÄŁÄ±": 6658,
 "ĠyapÄ±ldÄ±ÄŁÄ±": 6659,
 "Ã¼tfen": 6660,
 "Ġedilmesini": 6661,
 "ĠDÃľÅŀ": 6662,
 "ĠDÃ¼zce": 6663,
 "ĠDiÄŁer": 6664,
 "Ġistemek": 6665,
 "Ġmez": 6666,
 "Ġplan": 6667,
 "Ġgeliyordu": 6668,
 "iÃ§i": 6669,
 "ĠColumbiad": 6670,
 "ĠYunus": 6671,
 "Ġfeda": 6672,
 "ediler": 6673,
 "ĠGel": 6674,
 "ĠGEN": 6675,
 "ĠNicholl": 6676,
 "ĠNitekim": 6677,
 "Ã¼kÃ»n": 6678,
 "avur": 6679,
 "ĠiÅŁlerle": 6680,
 "Ġyerinden": 6681,
 "Ġyerlerden": 6682,
 "ĠOsman": 6683,
 "Ġrak": 6684,
 "fatÄ±yla": 6685,
 "Ġkurun": 6686,
 "yanÄ±nda": 6687,
 "ĠdÃ¼ÅŁÃ¼ndÃ¼k": 6688,
 "ĠdÃ¼ÅŁÃ¼ndÃ¼m": 6689,
 "Ġtoplu": 6690,
 "Ġelbi": 6691,
 "Ġbildirdik": 6692,
 "ĠkalmasÄ±": 6693,
 "ĠgeÃ§erek": 6694,
 "buhar": 6695,
 "ĠdoÄŁacak": 6696,
 "ĠedileceÄŁi": 6697,
 "ĠedilmiÅŁti": 6698,
 "verir": 6699,
 "Ġolabilecek": 6700,
 "Ġtarihten": 6701,
 "ĠkararlarÄ±nÄ±": 6702,
 "lenerek": 6703,
 "leniyordu": 6704,
 "Ġharp": 6705,
 "ĠharekÃ¢": 6706,
 "Ġyoluyla": 6707,
 "gÃ¶rÃ¼l": 6708,
 "ĠzamanÄ±n": 6709,
 "ayÄ±p": 6710,
 "Ġbirlikler": 6711,
 "Ġhakaret": 6712,
 "ĠgÃ¶stererek": 6713,
 "ĠÃ§alÄ±ÅŁtÄ±m": 6714,
 "rede": 6715,
 "ĠgÃ¶reve": 6716,
 "durdur": 6717,
 "mÄ±za": 6718,
 "ĠaraÃ§": 6719,
 "ĠarasÄ±ndan": 6720,
 "lamayÄ±": 6721,
 "halkÄ±n": 6722,
 "Ã§aÄŁÄ±r": 6723,
 "Ġuzat": 6724,
 "Ġkuvvetlerin": 6725,
 "yÃ¼zÃ¼nde": 6726,
 "ĠistediÄŁimiz": 6727,
 "Ġmaddenin": 6728,
 "abileceÄŁini": 6729,
 "Ä°NÄ°N": 6730,
 "ĠaÃ§Ä±ldÄ±": 6731,
 "ĠseÃ§ilmiÅŁ": 6732,
 "ĠalÄ±nmÄ±ÅŁtÄ±r": 6733,
 "ĠgÃ¶zÃ¼": 6734,
 "Ġordumuz": 6735,
 "ĠnoktasÄ±": 6736,
 "Ġgemiyi": 6737,
 "ĠÄ°nÃ¶nÃ¼": 6738,
 "karÅŁÄ±laÅŁ": 6739,
 "Ã¼stÃ¼ne": 6740,
 "ĠkanlÄ±": 6741,
 "ĠbÃ¶lgesi": 6742,
 "ĠbÃ¶lgelerinde": 6743,
 "Ġkomutanlar": 6744,
 "kaldÄ±": 6745,
 "ilemez": 6746,
 "ĠgÃ¼Ã§sÃ¼z": 6747,
 "Ġetmekle": 6748,
 "ĠsatÄ±r": 6749,
 "Ġmanz": 6750,
 "yetin": 6751,
 "Ġsaniye": 6752,
 "elikle": 6753,
 "ĠÃ§Ä±karlarÄ±nÄ±": 6754,
 "ĠkurulmasÄ±nÄ±": 6755,
 "Ã¼phe": 6756,
 "ĠgÃ¶rÃ¼len": 6757,
 "Ġcephan": 6758,
 "Ġisabet": 6759,
 "Ġtaahh": 6760,
 "Ġtasavvur": 6761,
 "Ġazim": 6762,
 "Ġaziz": 6763,
 "ĠamaÃ§": 6764,
 "ĠadamlarÄ±n": 6765,
 "doÄŁrusu": 6766,
 "Ä°LAT": 6767,
 "ĠÃĸnce": 6768,
 "Ġyaka": 6769,
 "ĠyakÄ±nda": 6770,
 "Ġbelirtmek": 6771,
 "sinler": 6772,
 "ĠKarar": 6773,
 "Ġmeseleler": 6774,
 "ĠettiÄŁini": 6775,
 "Ġtehlike": 6776,
 "ediyor": 6777,
 "ĠsubaylarÄ±n": 6778,
 "Ġtaarruzu": 6779,
 "ĠcevabÄ±n": 6780,
 "ĠcevabÄ±nÄ±": 6781,
 "Ġhepsini": 6782,
 "ĠKanun": 6783,
 "ĠbaÄŁÄ±msÄ±zlÄ±k": 6784,
 "ĠsaygÄ±lÄ±": 6785,
 "parÃ§": 6786,
 "Ġgemide": 6787,
 "Ġibaretti": 6788,
 "Ġmaddede": 6789,
 "ĠAllah": 6790,
 "savun": 6791,
 "ĠadÄ±yla": 6792,
 "Ġsesle": 6793,
 "Ġmevcut": 6794,
 "yoktur": 6795,
 "Ã¼lebilir": 6796,
 "saÄŁlam": 6797,
 "ĠSavaÅŁÄ±": 6798,
 "insanlarÄ±n": 6799,
 "ĠimzalÄ±": 6800,
 "baÄŁlÄ±": 6801,
 "ĠkardeÅŁi": 6802,
 "Ġolabilirdi": 6803,
 "ĠhÄ±zlÄ±": 6804,
 "Ġistenen": 6805,
 "ĠedeceÄŁiz": 6806,
 "ĠedeceÄŁini": 6807,
 "Ġsizinle": 6808,
 "ĠKendisi": 6809,
 "deÄŁiÅŁiklik": 6810,
 "ilafet": 6811,
 "duygu": 6812,
 "gÃ¼lle": 6813,
 "Ġmetni": 6814,
 "Ġderecede": 6815,
 "Konya": 6816,
 "ĠBilecik": 6817,
 "dÃ¶kme": 6818,
 "Ġzann": 6819,
 "ĠÃ¶ÄŁle": 6820,
 "ĠistiklÃ¢lini": 6821,
 "Ġmerminin": 6822,
 "ĠkÃ¼rsÃ¼ye": 6823,
 "ĠAbdÃ¼l": 6824,
 "ĠMuhip": 6825,
 "kendilerine": 6826,
 "Ġmensup": 6827,
 "ometre": 6828,
 "toise": 6829,
 "ĠEfendimiz": 6830,
 "namlu": 6831,
 "ĠkarÄ±ÅŁÄ±klÄ±k": 6832,
 "ĠlÃ»tf": 6833,
 "Ġsamimiyetle": 6834,
 "husus": 6835,
 "Ġmazur": 6836,
 "ĠkÃ¶tÃ¼lÃ¼k": 6837,
 "Ġihtimali": 6838,
 "sebep": 6839,
 "RAUF": 6840,
 "ĠSelÃ¢nik": 6841,
 "ĠkaÃ§Ä±nÄ±lmaz": 6842,
 "EÅŀKÄ°LAT": 6843,
 "ĠlÃ¢yÄ±k": 6844,
 "ĠHarput": 6845,
 "Ġotorit": 6846,
 "EKLÄ°F": 6847,
 "anakkale": 6848,
 "ASÄ°": 6849,
 "DoÄŁu": 6850,
 "FER": 6851,
 "Ferit": 6852,
 "GE": 6853,
 "HÃ¢": 6854,
 "HÃ¼k": 6855,
 "IK": 6856,
 "KÃ¼tahya": 6857,
 "Sey": 6858,
 "XV": 6859,
 "Yahya": 6860,
 "adenin": 6861,
 "bine": 6862,
 "bÃ¶l": 6863,
 "bura": 6864,
 "cÄ±mÄ±z": 6865,
 "cilerin": 6866,
 "del": 6867,
 "fed": 6868,
 "gec": 6869,
 "idir": 6870,
 "ita": 6871,
 "klin": 6872,
 "kestir": 6873,
 "mÃ¼f": 6874,
 "ner": 6875,
 "ndeki": 6876,
 "pir": 6877,
 "pay": 6878,
 "ral": 6879,
 "tÃ¼n": 6880,
 "tok": 6881,
 "uyorum": 6882,
 "yiyecek": 6883,
 "zÄ±rh": 6884,
 "zavur": 6885,
 "ÅŁun": 6886,
 "anca": 6887,
 "anav": 6888,
 "int": 6889,
 "Ġbol": 6890,
 "ileceÄŁi": 6891,
 "enmiÅŁ": 6892,
 "etinin": 6893,
 "Ã§ilerin": 6894,
 "Ã§abuk": 6895,
 "Ġdek": 6896,
 "Ġkey": 6897,
 "Ġkaf": 6898,
 "Ġkom": 6899,
 "ekler": 6900,
 "larken": 6901,
 "Ġvesil": 6902,
 "Ġtef": 6903,
 "ĠtÃ¼zÃ¼k": 6904,
 "ĠtÃ¼zÃ¼ÄŁ": 6905,
 "ĠiIe": 6906,
 "med": 6907,
 "memi": 6908,
 "memiÅŁtir": 6909,
 "ĠBa": 6910,
 "ĠBÃľYÃľK": 6911,
 "ĠBahriye": 6912,
 "imkÃ¢n": 6913,
 "ult": 6914,
 "ulmasÄ±na": 6915,
 "Ġasil": 6916,
 "lÄ±larÄ±n": 6917,
 "ramÄ±": 6918,
 "ĠmÃ¼thiÅŁ": 6919,
 "ĠmÃ¼kemmel": 6920,
 "iÅŁit": 6921,
 "ĠKuvvet": 6922,
 "ĠKema": 6923,
 "ecanla": 6924,
 "Ġdedikten": 6925,
 "ayrÄ±ca": 6926,
 "ĠÅŁeye": 6927,
 "Ã¼ÅŁtÃ¼": 6928,
 "Ġbuz": 6929,
 "olo": 6930,
 "oluÅŁtur": 6931,
 "olduÄŁundan": 6932,
 "Ġepey": 6933,
 "amber": 6934,
 "Ä±lg": 6935,
 "tasarÄ±": 6936,
 "Ġilg": 6937,
 "biraz": 6938,
 "ĠiÃ§i": 6939,
 "tibat": 6940,
 "Ã¶nem": 6941,
 "evk": 6942,
 "lanmÄ±ÅŁtÄ±": 6943,
 "landÄ±ÄŁÄ±": 6944,
 "lanÄ±p": 6945,
 "miÅŁlerdi": 6946,
 "Ġsonsuz": 6947,
 "ĠSÃ¼vari": 6948,
 "uyan": 6949,
 "uysa": 6950,
 "ĠbaÅŁara": 6951,
 "ĠbaÅŁkomutan": 6952,
 "Ġverdiler": 6953,
 "ĠEvet": 6954,
 "ĠzÄ±rh": 6955,
 "Ã¼mle": 6956,
 "ĠanladÄ±m": 6957,
 "Ġbulundum": 6958,
 "Ġyapar": 6959,
 "Ã¼lÃ®": 6960,
 "hatÄ±r": 6961,
 "Ġgelmek": 6962,
 "ĠolduÄŁunuz": 6963,
 "mana": 6964,
 "ĠYozgat": 6965,
 "rutiyet": 6966,
 "ĠardÄ±n": 6967,
 "ĠgÃ¼nlÃ¼k": 6968,
 "ĠgÃ¼nlerce": 6969,
 "Ġuyu": 6970,
 "inizle": 6971,
 "Ġkural": 6972,
 "cÄ±sÄ±": 6973,
 "Ġdurumlar": 6974,
 "Ġherhalde": 6975,
 "ĠdÃ¼ÅŁÃ¼nÃ¼yor": 6976,
 "Ġelektrik": 6977,
 "Ġnefret": 6978,
 "Ġbildiriniz": 6979,
 "ĠkaldÄ±k": 6980,
 "ĠkalmamÄ±ÅŁtÄ±": 6981,
 "azÄ±cÄ±k": 6982,
 "ĠdoÄŁrusu": 6983,
 "Ġedilemez": 6984,
 "Ġdevir": 6985,
 "ĠaÃ§Ä±kla": 6986,
 "ĠaÃ§Ä±klamaya": 6987,
 "ĠsÃ¼rÃ¼l": 6988,
 "ĠkararÄ±nÄ±": 6989,
 "ĠkararlarÄ±n": 6990,
 "ĠtarafÄ±nda": 6991,
 "Ġyoldan": 6992,
 "ĠyanÄ±mda": 6993,
 "ĠgÃ¶sterecek": 6994,
 "ĠgÃ¶sterilen": 6995,
 "ĠteÅŁkil": 6996,
 "ĠÃ§alÄ±ÅŁtÄ±ÄŁÄ±": 6997,
 "ĠÃ¶zeti": 6998,
 "meyeceÄŁi": 6999,
 "mÄ±zÄ±n": 7000,
 "mÄ±zda": 7001,
 "Ġhareketleri": 7002,
 "mÄ±yordum": 7003,
 "sonucu": 7004,
 "ĠMilletler": 7005,
 "yÃ¼zÃ¼ndeki": 7006,
 "ĠsoruÅŁtur": 7007,
 "ĠsaÄŁlama": 7008,
 "yapÄ±lacak": 7009,
 "kilÃ¢tÄ±": 7010,
 "amam": 7011,
 "ĠsÄ±ÄŁÄ±n": 7012,
 "dÄ±klarÄ±nÄ±": 7013,
 "Ġedebil": 7014,
 "yarÄ±m": 7015,
 "Ġteklifin": 7016,
 "ĠgirmiÅŁ": 7017,
 "ĠgÃ¶zÃ¼nde": 7018,
 "ĠgÃ¶zlem": 7019,
 "ĠgÃ¶zÃ¶nÃ¼nde": 7020,
 "katÄ±na": 7021,
 "ĠaltÄ±n": 7022,
 "ĠvatanÄ±": 7023,
 "kongr": 7024,
 "topra": 7025,
 "ĠcÃ¼r": 7026,
 "yerinde": 7027,
 "Ġilkeleri": 7028,
 "ĠdÃ¼ÅŁmanlar": 7029,
 "Ġbulan": 7030,
 "Ġbulmak": 7031,
 "dÃ¼ÄŁÃ¼mÃ¼z": 7032,
 "ĠsadÄ±k": 7033,
 "caÄŁÄ±nÄ±z": 7034,
 "ĠÃ¶nemlidir": 7035,
 "LÄ°K": 7036,
 "Ġmuam": 7037,
 "hane": 7038,
 "Ġsandal": 7039,
 "ĠarkadaÅŁlarÄ±nÄ±n": 7040,
 "ÃĸN": 7041,
 "ÃĸZ": 7042,
 "ĠKurul": 7043,
 "Ġolmadan": 7044,
 "Ġdikkatli": 7045,
 "ĠZaten": 7046,
 "Ġdenilen": 7047,
 "ĠihtilÃ¢": 7048,
 "MAYA": 7049,
 "ĠÅŁartlara": 7050,
 "Ġkapat": 7051,
 "evres": 7052,
 "ĠhÃ¢tÄ±ra": 7053,
 "BaÅŁkomutan": 7054,
 "atÄ±ldÄ±": 7055,
 "ĠamacÄ±": 7056,
 "ĠCumhuriyeti": 7057,
 "ĠsonuÃ§landÄ±r": 7058,
 "leyman": 7059,
 "ĠÃĸrnek": 7060,
 "uyorlardÄ±": 7061,
 "ĠÃ¼Ã§Ã¼ncÃ¼": 7062,
 "malarÄ±m": 7063,
 "Ġkanunsuz": 7064,
 "Ġkimselerle": 7065,
 "Ġbiribiri": 7066,
 "omiser": 7067,
 "ĠdÃ¼nyasÄ±na": 7068,
 "ĠdÃ¼nyasÄ±nÄ±n": 7069,
 "sorun": 7070,
 "aÃ§Ä±": 7071,
 "ĠayrÄ±lma": 7072,
 "ĠsevinÃ§": 7073,
 "ĠyabancÄ±lar": 7074,
 "ĠbaÅŁarÄ±lÄ±": 7075,
 "ĠgereÄŁinin": 7076,
 "emizin": 7077,
 "ĠuzaklaÅŁ": 7078,
 "belki": 7079,
 "ĠgeÃ§irmek": 7080,
 "Ġaleyhimizde": 7081,
 "labilecek": 7082,
 "labilmesi": 7083,
 "gÃ¶sterdi": 7084,
 "ĠuÄŁur": 7085,
 "Ġoyn": 7086,
 "parÃ§a": 7087,
 "ĠniteliÄŁi": 7088,
 "ĠsakÄ±ncalÄ±": 7089,
 "ĠfÄ±rsatÄ±": 7090,
 "Ġsuretini": 7091,
 "Ġiradenin": 7092,
 "sÃ¶yledi": 7093,
 "ĠmemurlarÄ±": 7094,
 "bunlarÄ±n": 7095,
 "ĠhususlarÄ±": 7096,
 "doÄŁruya": 7097,
 "ĠedilmemiÅŁtir": 7098,
 "Ġkabineyi": 7099,
 "ĠdolaylÄ±": 7100,
 "ĠkonuÅŁmacÄ±": 7101,
 "ĠaÅŁÄ±rÄ±": 7102,
 "Ä°nsan": 7103,
 "ĠvermiÅŁtim": 7104,
 "hÄ±zÄ±": 7105,
 "ĠBunlardan": 7106,
 "ĠKendisine": 7107,
 "uzaklÄ±k": 7108,
 "ĠimkÃ¢nsÄ±z": 7109,
 "bakÄ±ÅŁ": 7110,
 "Ġoturan": 7111,
 "Ġaday": 7112,
 "Ġsavunmak": 7113,
 "AZI": 7114,
 "Ä°lk": 7115,
 "ahasÄ±na": 7116,
 "ĠGÃ¶rev": 7117,
 "ĠgideceÄŁ": 7118,
 "ĠmÃ¼freze": 7119,
 "Ġgrubu": 7120,
 "Ġkonferans": 7121,
 "ĠisteÄŁinde": 7122,
 "Ġmaddeler": 7123,
 "ĠetraflÄ±": 7124,
 "memleketin": 7125,
 "Ġsorumluluk": 7126,
 "ĠGÃ¼neÅŁ": 7127,
 "acaba": 7128,
 "Ġgerektiren": 7129,
 "ĠÅŁiddetli": 7130,
 "ĠÄ°stiklÃ¢l": 7131,
 "karÅŁÄ±n": 7132,
 "karÅŁÄ±lan": 7133,
 "koÅŁul": 7134,
 "yanusun": 7135,
 "ĠmÃ¼dahale": 7136,
 "ĠbiÃ§imde": 7137,
 "ĠtanÄ±nmÄ±ÅŁ": 7138,
 "Ġdediko": 7139,
 "ĠyatkÄ±n": 7140,
 "sadÃ®": 7141,
 "ĠinkÄ±lÃ¢p": 7142,
 "ĠlÃ¢zÄ±mdÄ±r": 7143,
 "ĠÃ¶lÃ§Ã¼de": 7144,
 "ĠmaksadÄ±na": 7145,
 "ankaya": 7146,
 "Ġmandaterlik": 7147,
 "Ä°STANBUL": 7148,
 "vasÄ±ta": 7149,
 "ĠCEPH": 7150,
 "tapot": 7151,
 "ĠServet": 7152,
 "ĠKABÄ°NESÄ°": 7153,
 "KiÅŁiye": 7154,
 "Az": 7155,
 "AÄŀ": 7156,
 "ALI": 7157,
 "BAÅŀ": 7158,
 "Baltimore": 7159,
 "DIR": 7160,
 "Gazi": 7161,
 "IL": 7162,
 "KÃľ": 7163,
 "KÄ±sa": 7164,
 "NÄ°N": 7165,
 "Nitekim": 7166,
 "RO": 7167,
 "ReÅŁit": 7168,
 "Recep": 7169,
 "Sab": 7170,
 "Sizin": 7171,
 "Vali": 7172,
 "bes": 7173,
 "beni": 7174,
 "bayÄ±": 7175,
 "cÄ±na": 7176,
 "dÃ¶": 7177,
 "dalÄ±k": 7178,
 "eg": 7179,
 "gÃ¼rlÃ¼": 7180,
 "gamber": 7181,
 "kÃ¢": 7182,
 "kÄ±nÄ±": 7183,
 "kad": 7184,
 "kÃ¶r": 7185,
 "kinden": 7186,
 "miydi": 7187,
 "nÃ¼n": 7188,
 "rfa": 7189,
 "rica": 7190,
 "ttaÅŁ": 7191,
 "yken": 7192,
 "yoÄŁun": 7193,
 "ĠÄŁ": 7194,
 "Ã¼se": 7195,
 "Ã¼cu": 7196,
 "ÅŁan": 7197,
 "erak": 7198,
 "anin": 7199,
 "anlaya": 7200,
 "indiÄŁi": 7201,
 "Ġbat": 7202,
 "Ġbunda": 7203,
 "Ġbaba": 7204,
 "ĠbeÄŁen": 7205,
 "iliÅŁ": 7206,
 "ilson": 7207,
 "irkin": 7208,
 "eta": 7209,
 "eter": 7210,
 "ettiÄŁi": 7211,
 "Ġdon": 7212,
 "Ġdem": 7213,
 "Ġdip": 7214,
 "maÅŁ": 7215,
 "malarÄ±na": 7216,
 "mamÄ±": 7217,
 "ĠkasÄ±": 7218,
 "Ġkusur": 7219,
 "Ġgaran": 7220,
 "ĠvarÄ±": 7221,
 "lardaki": 7222,
 "uncu": 7223,
 "akit": 7224,
 "Ġsus": 7225,
 "Ġsist": 7226,
 "Ġsuyun": 7227,
 "Ġsohbet": 7228,
 "alih": 7229,
 "ĠtelÃ¢": 7230,
 "urra": 7231,
 "mede": 7232,
 "ĠBoz": 7233,
 "ĠBÃ¢bÄ±": 7234,
 "imini": 7235,
 "ord": 7236,
 "ongul": 7237,
 "tÄ±yor": 7238,
 "Ġaf": 7239,
 "Ġaya": 7240,
 "Ġoluyordu": 7241,
 "ĠolsaydÄ±": 7242,
 "ratik": 7243,
 "sÄ±kÄ±": 7244,
 "danya": 7245,
 "esel": 7246,
 "iÅŁin": 7247,
 "ĠKa": 7248,
 "ĠKÄ±zÄ±l": 7249,
 "dene": 7250,
 "ayrÄ±": 7251,
 "ĠMektup": 7252,
 "umun": 7253,
 "ĠÃ§Ã¶k": 7254,
 "ĠÃ§ocuk": 7255,
 "makin": 7256,
 "Ã¼rÃ¼t": 7257,
 "ĠbuÃ§uk": 7258,
 "olmasÄ±": 7259,
 "ĠAL": 7260,
 "ĠAda": 7261,
 "abey": 7262,
 "amÄ±": 7263,
 "ileriyle": 7264,
 "ĠÄ°h": 7265,
 "ĠgÃ¶rÃ¼lecek": 7266,
 "ĠHa": 7267,
 "Ġnut": 7268,
 "Ġnihayet": 7269,
 "ĠPaÅŁ": 7270,
 "oku": 7271,
 "timat": 7272,
 "Ã¶nÃ¼ne": 7273,
 "lanÄ±yordu": 7274,
 "ĠalmayÄ±": 7275,
 "ĠkaranlÄ±k": 7276,
 "Ġetmeleri": 7277,
 "ĠTE": 7278,
 "ĠTokat": 7279,
 "Ġbilen": 7280,
 "ĠSizin": 7281,
 "ĠSultan": 7282,
 "ĠSakarya": 7283,
 "ĠbaÅŁÄ±ndan": 7284,
 "ĠvermiÅŁti": 7285,
 "likten": 7286,
 "ĠiÃ§inden": 7287,
 "usunun": 7288,
 "Ġziyaret": 7289,
 "Ã¼min": 7290,
 "ĠanlÄ±yorum": 7291,
 "unut": 7292,
 "tÄ±rmak": 7293,
 "lÄ±klarÄ±nÄ±": 7294,
 "ĠbulunmadÄ±ÄŁÄ±nÄ±": 7295,
 "ĠyapmayÄ±": 7296,
 "ĠyapacaÄŁÄ±": 7297,
 "ĠyapÄ±lÄ±r": 7298,
 "Ã¼tÃ¼ph": 7299,
 "iyorsa": 7300,
 "ĠDoÄŁ": 7301,
 "ĠDiv": 7302,
 "oÄŁazÄ±": 7303,
 "oÄŁlu": 7304,
 "ender": 7305,
 "ĠdÃ¼ÅŁer": 7306,
 "ĠdÃ¼ÅŁtÃ¼ÄŁ": 7307,
 "imizdeki": 7308,
 "Ã¶ren": 7309,
 "Ã¶rÃ¼n": 7310,
 "ĠolduÄŁunun": 7311,
 "iyetle": 7312,
 "manlar": 7313,
 "ĠCelalettin": 7314,
 "edilen": 7315,
 "ĠGerÃ§ek": 7316,
 "ĠNur": 7317,
 "ĠNaz": 7318,
 "Ġard": 7319,
 "ĠiÅŁlerde": 7320,
 "ĠgÃ¶rÃ¼ÅŁÃ¼ne": 7321,
 "ĠgerektiÄŁ": 7322,
 "faat": 7323,
 "ĠdeÄŁeri": 7324,
 "Ġuydur": 7325,
 "Ġgeric": 7326,
 "Ġherkesin": 7327,
 "ĠsÃ¶zde": 7328,
 "ĠÃ§Ä±kmak": 7329,
 "Ġelinden": 7330,
 "Ġbildirinin": 7331,
 "Ġbildirilen": 7332,
 "silah": 7333,
 "Ġedilmektedir": 7334,
 "Ġedilecektir": 7335,
 "Ġtarihi": 7336,
 "Ġtarihinden": 7337,
 "ĠyararÄ±": 7338,
 "BugÃ¼n": 7339,
 "elip": 7340,
 "Ġyolla": 7341,
 "ĠBaÅŁka": 7342,
 "ĠÃ§oktan": 7343,
 "elediye": 7344,
 "ĠÃ§alÄ±ÅŁmÄ±ÅŁ": 7345,
 "ĠÃ¶zetle": 7346,
 "melerin": 7347,
 "eriat": 7348,
 "eridun": 7349,
 "uluyordu": 7350,
 "ĠaralarÄ±nda": 7351,
 "Ä±ldÄ±ktan": 7352,
 "lamalar": 7353,
 "Ġlira": 7354,
 "ĠgÃ¶nderilecek": 7355,
 "ĠÅŀark": 7356,
 "ĠÅŀevket": 7357,
 "ĠyetiÅŁ": 7358,
 "ĠbaÄŁlamak": 7359,
 "ĠsÃ¶yley": 7360,
 "tÃ¼f": 7361,
 "ÄŁÄ±mÄ±zda": 7362,
 "ĠyÃ¼zeye": 7363,
 "ĠsÄ±fatÄ±yla": 7364,
 "Ġederseniz": 7365,
 "ĠaÃ§an": 7366,
 "ĠBiraz": 7367,
 "ĠBirÃ§ok": 7368,
 "ĠMÃ¼f": 7369,
 "Ġnoktadan": 7370,
 "Ġtutmak": 7371,
 "ĠanlaÅŁmaya": 7372,
 "ĠsavaÅŁa": 7373,
 "ĠbÃ¶lgesine": 7374,
 "Ġarzu": 7375,
 "topun": 7376,
 "toprak": 7377,
 "ĠÅŁahsÄ±": 7378,
 "Ġsizce": 7379,
 "kalan": 7380,
 "Ġdevletler": 7381,
 "ĠbuluÅŁ": 7382,
 "ĠbulmuÅŁ": 7383,
 "ĠÃ§eken": 7384,
 "Ġaksine": 7385,
 "Ġolurdu": 7386,
 "ĠdÄ±ÅŁÄ±": 7387,
 "ĠolayÄ±n": 7388,
 "ĠolaylarÄ±": 7389,
 "ĠÃ§ekilmeye": 7390,
 "yetki": 7391,
 "ros": 7392,
 "gereken": 7393,
 "gerektir": 7394,
 "tÄ±lmÄ±ÅŁ": 7395,
 "ĠolmalarÄ±": 7396,
 "ĠZeki": 7397,
 "Ġmilletvekillerinden": 7398,
 "ETTÄ°N": 7399,
 "ĠbaÅŁladÄ±lar": 7400,
 "ArtÄ±k": 7401,
 "ÄŀÄ°M": 7402,
 "ĠÃ¢mir": 7403,
 "ĠadamlarÄ±nÄ±n": 7404,
 "doÄŁr": 7405,
 "ENDÄ°": 7406,
 "ĠyaygÄ±n": 7407,
 "ĠmakamÄ±nda": 7408,
 "lÄ±ÄŁÄ±nÄ±z": 7409,
 "ĠinsanlarÄ±n": 7410,
 "uyorlar": 7411,
 "ĠÃ¼yelerinden": 7412,
 "ĠHalit": 7413,
 "ĠÅŁÃ¼pheli": 7414,
 "ĠteÅŁebbÃ¼sler": 7415,
 "ĠKarÅŁÄ±": 7416,
 "ĠbugÃ¼ne": 7417,
 "Ġmeselelerin": 7418,
 "Ġmeseleyi": 7419,
 "kÄ±rdÄ±": 7420,
 "ĠÃ§aresi": 7421,
 "Ġbilgisi": 7422,
 "Ġsaatte": 7423,
 "ediyorum": 7424,
 "ĠsunarÄ±m": 7425,
 "Ã¼mÃ¼ze": 7426,
 "Ã¼mÃ¼zÃ¼n": 7427,
 "Ġtavsiy": 7428,
 "ĠUÅŁak": 7429,
 "ĠUrfa": 7430,
 "ĠÃ¼stÃ¼nde": 7431,
 "Ġbilgilerden": 7432,
 "ĠmeÅŁr": 7433,
 "larÄ±mÄ±n": 7434,
 "ĠkarÅŁÄ±lÄ±klÄ±": 7435,
 "ĠKabine": 7436,
 "ĠkaldÄ±rmak": 7437,
 "ĠanlaÅŁÄ±lÄ±r": 7438,
 "ĠsÄ±nÄ±rlÄ±": 7439,
 "teker": 7440,
 "Ġmutlak": 7441,
 "Ġotuz": 7442,
 "Ġsureti": 7443,
 "ĠÅŁÃ¶yleydi": 7444,
 "milyar": 7445,
 "Ġmemurlar": 7446,
 "ĠsÄ±kÄ±ntÄ±": 7447,
 "ĠAkdeniz": 7448,
 "Ġhususlar": 7449,
 "mÃ¼yordu": 7450,
 "Ġyorgun": 7451,
 "Ġesaslar": 7452,
 "ĠdeÄŁiÅŁtirilmesi": 7453,
 "ĠÅŁahÄ±slar": 7454,
 "kapÄ±": 7455,
 "duÄŁumu": 7456,
 "ĠtartÄ±ÅŁmalar": 7457,
 "ĠkardeÅŁim": 7458,
 "ĠtelaÅŁ": 7459,
 "Ġtelefon": 7460,
 "ĠuygulanmasÄ±nÄ±": 7461,
 "Ġyetersiz": 7462,
 "Ġkamuoyuna": 7463,
 "Ġtaham": 7464,
 "Ġistiyoruz": 7465,
 "Ġdostum": 7466,
 "Ġbulundurmak": 7467,
 "1924": 7468,
 "noktasÄ±na": 7469,
 "caÄŁÄ±mÄ±zÄ±": 7470,
 "dolaÅŁ": 7471,
 "ĠfarklÄ±": 7472,
 "ocaman": 7473,
 "ĠNail": 7474,
 "yaklaÅŁ": 7475,
 "Ġhedefe": 7476,
 "gerÃ§ekleÅŁtir": 7477,
 "GÃ¼ney": 7478,
 "KomutanlÄ±ÄŁÄ±": 7479,
 "tabak": 7480,
 "ĠkÄ±smÄ±": 7481,
 "Ġgelecekteki": 7482,
 "yÃ¼ksekli": 7483,
 "ĠÃ§arpÄ±ÅŁma": 7484,
 "ĠpolitikasÄ±": 7485,
 "New": 7486,
 "yÃ¶net": 7487,
 "Ġbelgeler": 7488,
 "Ġeminim": 7489,
 "lendiÄŁi": 7490,
 "ĠyukarÄ±da": 7491,
 "ĠisteÄŁine": 7492,
 "Ġbildiriliyordu": 7493,
 "Sonunda": 7494,
 "ikÃ¢y": 7495,
 "ĠsabahÄ±": 7496,
 "ĠÄ°lk": 7497,
 "ĠÅŁehr": 7498,
 "Ġgeciktir": 7499,
 "ĠiktisadÃ®": 7500,
 "ĠmalÃ»m": 7501,
 "ĠgÃ¶rdÃ¼ÄŁÃ¼m": 7502,
 "ĠgÃ¶rdÃ¼ÄŁÃ¼mÃ¼z": 7503,
 "Ġpartinin": 7504,
 "ekseni": 7505,
 "ĠVatanÄ±n": 7506,
 "ĠÃĸzel": 7507,
 "ĠyÃ¼kselt": 7508,
 "ĠakÅŁamÄ±": 7509,
 "bakÄ±mÄ±ndan": 7510,
 "Ġgafil": 7511,
 "davranÄ±ÅŁ": 7512,
 "Ġkent": 7513,
 "ĠteÅŁkilÃ¢tÄ±mÄ±zÄ±n": 7514,
 "ĠlÃ»tfen": 7515,
 "IZA": 7516,
 "hÃ¼kÃ¼m": 7517,
 "ĠparÃ§alan": 7518,
 "Milliye": 7519,
 "Saat": 7520,
 "koskoca": 7521,
 "Ġtenkit": 7522,
 "GÃ¶zlemevi": 7523,
 "nitelik": 7524,
 "ĠdÃ¼ÄŁ": 7525,
 "Memleketin": 7526,
 "ĠcezalandÄ±r": 7527,
 "ĠyÃ¼rÃ¼rlÃ¼kte": 7528,
 "ĠDEVLET": 7529,
 "ĠhayatÄ±": 7530,
 "Ġbozguncu": 7531,
 "Cemiyeti": 7532,
 "Ġoldubitti": 7533,
 "Ġyasak": 7534,
 "ilgilen": 7535,
 "ĠaÄŁÄ±z": 7536,
 "ĠmÃ¼svedde": 7537,
 "ĠSÃ¼leyman": 7538,
 "mÃ¼frez": 7539,
 "ĠardÄ±nca": 7540,
 "onguldak": 7541,
 "ĠÅŀarkiye": 7542,
 "32": 7543,
 "Bay": 7544,
 "Der": 7545,
 "Es": 7546,
 "FE": 7547,
 "FET": 7548,
 "FÄ°K": 7549,
 "Hat": 7550,
 "IYOR": 7551,
 "Kerim": 7552,
 "Londra": 7553,
 "MAN": 7554,
 "Madde": 7555,
 "OK": 7556,
 "Pek": 7557,
 "TÃ¼men": 7558,
 "TanrÄ±": 7559,
 "adeniz": 7560,
 "bed": 7561,
 "bre": 7562,
 "barÄ±ÅŁ": 7563,
 "cÄ±nÄ±": 7564,
 "cesine": 7565,
 "coÅŁkun": 7566,
 "dile": 7567,
 "dÄ±nÄ±z": 7568,
 "go": 7569,
 "garip": 7570,
 "hÅŁ": 7571,
 "kÃ¶y": 7572,
 "kuyu": 7573,
 "kocaman": 7574,
 "lum": 7575,
 "mr": 7576,
 "nak": 7577,
 "ob": 7578,
 "pi": 7579,
 "resi": 7580,
 "sÃ¼": 7581,
 "sÃ¼n": 7582,
 "sol": 7583,
 "sus": 7584,
 "tiÅŁ": 7585,
 "tuz": 7586,
 "yel": 7587,
 "yal": 7588,
 "ĠÄ±r": 7589,
 "Ã¼las": 7590,
 "arÄ±z": 7591,
 "araÅŁtÄ±r": 7592,
 "ĠbÄ±r": 7593,
 "ĠbÃ¼t": 7594,
 "ilecektir": 7595,
 "etler": 7596,
 "etine": 7597,
 "ette": 7598,
 "Ġdeyim": 7599,
 "mail": 7600,
 "Ġkuz": 7601,
 "Ġkelim": 7602,
 "akil": 7603,
 "elbette": 7604,
 "lamÄ±ÅŁtÄ±r": 7605,
 "lacaÄŁÄ±na": 7606,
 "Ġse": 7607,
 "Ġsel": 7608,
 "Ġsunu": 7609,
 "Ġsoy": 7610,
 "ĠyaÄŁ": 7611,
 "ale": 7612,
 "ĠtÄ±": 7613,
 "Ġiade": 7614,
 "ĠbirliÄŁine": 7615,
 "Ġhim": 7616,
 "meme": 7617,
 "ĠBura": 7618,
 "imine": 7619,
 "yas": 7620,
 "yaman": 7621,
 "ong": 7622,
 "onlar": 7623,
 "onlarÄ±n": 7624,
 "ulmuÅŁtur": 7625,
 "Ġask": 7626,
 "stir": 7627,
 "eydi": 7628,
 "eygamber": 7629,
 "Ġolmayacak": 7630,
 "ember": 7631,
 "iÅŁle": 7632,
 "iÅŁgal": 7633,
 "Ã¢l": 7634,
 "Ġdediler": 7635,
 "ĠdehÅŁ": 7636,
 "ayda": 7637,
 "ĠÃ§oÄŁ": 7638,
 "ĠÃ§eÅŁit": 7639,
 "ĠÃ§atÄ±ÅŁ": 7640,
 "ĠÅŁehir": 7641,
 "olmadÄ±": 7642,
 "olduklarÄ±nÄ±": 7643,
 "ĠAf": 7644,
 "ikkat": 7645,
 "Ġdaima": 7646,
 "Ä±lmakta": 7647,
 "larÄ±ma": 7648,
 "casÄ±": 7649,
 "casÄ±na": 7650,
 "ĠHAR": 7651,
 "Ġili": 7652,
 "araÃ§": 7653,
 "Ġnamaz": 7654,
 "oksil": 7655,
 "Ä±zÄ±": 7656,
 "ĠalmasÄ±": 7657,
 "ĠalÄ±yor": 7658,
 "ĠalkÄ±ÅŁ": 7659,
 "ittin": 7660,
 "itÃ¼las": 7661,
 "ĠTAR": 7662,
 "ĠTeklif": 7663,
 "ĠTampa": 7664,
 "ĠTEÅŀKÄ°LAT": 7665,
 "ĠSÃ©vres": 7666,
 "uyar": 7667,
 "ĠbaÅŁta": 7668,
 "ĠvereceÄŁi": 7669,
 "ahir": 7670,
 "dÄ±ran": 7671,
 "ĠBeyler": 7672,
 "Ġzap": 7673,
 "ĠzabÄ±t": 7674,
 "Ġanlar": 7675,
 "kasÄ±": 7676,
 "eÅŁrutiyet": 7677,
 "Ġbulunarak": 7678,
 "Ġyapa": 7679,
 "Ġyapabilecek": 7680,
 "hav": 7681,
 "Ġistasyon": 7682,
 "ciddi": 7683,
 "manda": 7684,
 "manev": 7685,
 "Ġgib": 7686,
 "buluÅŁ": 7687,
 "Ġfa": 7688,
 "Ġfor": 7689,
 "ĠfÄ±k": 7690,
 "edilme": 7691,
 "edilmiÅŁtir": 7692,
 "ĠGem": 7693,
 "ĠNazÄ±m": 7694,
 "ilmemiÅŁ": 7695,
 "avÃ¼z": 7696,
 "ĠayÄ±": 7697,
 "Ġayar": 7698,
 "Ġyerlere": 7699,
 "ĠOLA": 7700,
 "ÄŁÄ±nÄ±z": 7701,
 "ĠgÃ¼nkÃ¼": 7702,
 "ĠgÃ¼nlerinde": 7703,
 "ĠgÃ¶rÃ¼ÅŁÃ¼n": 7704,
 "Ġince": 7705,
 "Ġgerekti": 7706,
 "ĠAnzavur": 7707,
 "diÄŁince": 7708,
 "isiz": 7709,
 "Ġkurt": 7710,
 "Ġkurarak": 7711,
 "Ġoran": 7712,
 "yansÄ±": 7713,
 "arakol": 7714,
 "Ġbizde": 7715,
 "ĠsÃ¶zlerinin": 7716,
 "ĠsÃ¶zleriyle": 7717,
 "ĠdÃ¼ÅŁÃ¼nmÃ¼ÅŁ": 7718,
 "ĠtelgraflarÄ±": 7719,
 "eper": 7720,
 "Ġbildirmek": 7721,
 "Ġbildiriyordu": 7722,
 "ĠgeÃ§er": 7723,
 "bugÃ¼n": 7724,
 "Ġediliyor": 7725,
 "baÅŁvur": 7726,
 "veren": 7727,
 "verdiÄŁi": 7728,
 "ĠkararsÄ±z": 7729,
 "lenin": 7730,
 "Ġyolun": 7731,
 "ĠyolculuÄŁ": 7732,
 "ĠBaÅŁyaver": 7733,
 "Ġanlama": 7734,
 "ĠzamandÄ±r": 7735,
 "Ġbirliklerinin": 7736,
 "ĠgÃ¶sterir": 7737,
 "ĠgÃ¶steriler": 7738,
 "ĠgÃ¶sterdikleri": 7739,
 "ĠhÃ¼kÃ»metÃ§e": 7740,
 "ĠÃ§alÄ±ÅŁmaya": 7741,
 "rew": 7742,
 "tular": 7743,
 "Ġemre": 7744,
 "ĠbulunanlarÄ±n": 7745,
 "ulup": 7746,
 "gelmiÅŁ": 7747,
 "ARRU": 7748,
 "alÄ±p": 7749,
 "ĠyazÄ±ÅŁ": 7750,
 "haline": 7751,
 "ĠuzlaÅŁma": 7752,
 "bilirsiniz": 7753,
 "Ġkuvvetlerimiz": 7754,
 "yÃ¼zÃ¼": 7755,
 "yÃ¼zÃ¼nden": 7756,
 "yÃ¼zyÄ±l": 7757,
 "Ġgetirilmesini": 7758,
 "kimiyet": 7759,
 "kimse": 7760,
 "ĠHazÄ±r": 7761,
 "ĠderneÄŁin": 7762,
 "ĠbaÄŁÄ±ÅŁ": 7763,
 "ĠÃ¶nemi": 7764,
 "ĠÃ¶nemle": 7765,
 "Ġederse": 7766,
 "Ä°NÄ°": 7767,
 "ĠaÃ§tÄ±": 7768,
 "ĠgÃ¼venli": 7769,
 "ĠalÄ±narak": 7770,
 "ĠalÄ±ndÄ±ÄŁÄ±": 7771,
 "ĠMÃ¼saade": 7772,
 "Ġkonular": 7773,
 "ĠgÃ¶zler": 7774,
 "Ġorduyu": 7775,
 "Ġhabersiz": 7776,
 "Ġnoktalara": 7777,
 "ĠÃĩerkez": 7778,
 "Ġkoruyu": 7779,
 "Ġtutumu": 7780,
 "ĠanlaÅŁÄ±lmÄ±ÅŁ": 7781,
 "Ġdurul": 7782,
 "konus": 7783,
 "ĠkomutanlÄ±k": 7784,
 "ĠkomutanlÄ±ÄŁÄ±": 7785,
 "Ġcumhuriyet": 7786,
 "mezse": 7787,
 "ĠArz": 7788,
 "ĠdÃ¼ÅŁmanÄ±": 7789,
 "ĠÃ§ekmek": 7790,
 "Ġteknik": 7791,
 "ĠdÃ¶nÃ¼p": 7792,
 "ĠkonuÅŁmayÄ±": 7793,
 "Ġsanki": 7794,
 "Ġetmemek": 7795,
 "ĠkurulmasÄ±na": 7796,
 "Ã¼phesiz": 7797,
 "ĠgÃ¶rÃ¼lÃ¼yor": 7798,
 "Ġcephane": 7799,
 "yolculuk": 7800,
 "MAL": 7801,
 "BirkaÃ§": 7802,
 "Ġkapan": 7803,
 "lÃ¼lÃ¼": 7804,
 "Ġgayenin": 7805,
 "Ġburalarda": 7806,
 "Ġemirleri": 7807,
 "laÅŁtÄ±rmak": 7808,
 "Ä±lÄ±yor": 7809,
 "ĠinancÄ±nda": 7810,
 "Ġidaresi": 7811,
 "ĠbaÄŁlÄ±lÄ±k": 7812,
 "fikir": 7813,
 "Ä°LAF": 7814,
 "ĠmakamÄ±n": 7815,
 "guya": 7816,
 "ĠsÄ±ralarda": 7817,
 "kendisini": 7818,
 "sÃ¶zÃ¼": 7819,
 "aygÄ±t": 7820,
 "sarsÄ±ntÄ±": 7821,
 "sorunu": 7822,
 "sorunun": 7823,
 "esten": 7824,
 "BaÅŁkanlÄ±ÄŁÄ±": 7825,
 "ĠsayÄ±sÄ±": 7826,
 "ÅŁeyler": 7827,
 "ĠhattÄ±": 7828,
 "Ġolunca": 7829,
 "ĠkoyduÄŁu": 7830,
 "ĠgÃ¶rÃ¼ÅŁmelerde": 7831,
 "Ġhususu": 7832,
 "ĠkatÄ±lmÄ±ÅŁ": 7833,
 "ĠdÃ¼ÅŁÃ¼ncelerine": 7834,
 "general": 7835,
 "benz": 7836,
 "Ġkova": 7837,
 "aalesef": 7838,
 "Ġettirmek": 7839,
 "gÃ¶nÃ¼l": 7840,
 "Ġuygulaya": 7841,
 "tekrar": 7842,
 "Ermen": 7843,
 "ĠkomutayÄ±": 7844,
 "UNU": 7845,
 "tutuk": 7846,
 "ĠmandasÄ±": 7847,
 "ĠmandasÄ±nÄ±": 7848,
 "ĠanlattÄ±m": 7849,
 "ĠmemurlarÄ±n": 7850,
 "Ġekon": 7851,
 "uluÄŁun": 7852,
 "idor": 7853,
 "ĠsabÄ±rsÄ±z": 7854,
 "Ġimzalan": 7855,
 "ĠimzasÄ±nÄ±": 7856,
 "Milletin": 7857,
 "baÄŁÄ±ÅŁ": 7858,
 "ĠkavuÅŁ": 7859,
 "luÄŁunun": 7860,
 "emeyecek": 7861,
 "emeyeceÄŁi": 7862,
 "ĠKendisini": 7863,
 "ĠÅŁifrede": 7864,
 "Halk": 7865,
 "miyorlar": 7866,
 "illon": 7867,
 "Ã§evir": 7868,
 "ĠevlÃ¢": 7869,
 "Ġmilliyet": 7870,
 "ĠÃ¶rgÃ¼t": 7871,
 "Ġbulunuyordum": 7872,
 "ock": 7873,
 "ĠdÃ¼ÅŁÃ¼rmek": 7874,
 "iÄŁde": 7875,
 "AZIR": 7876,
 "ĠserbestÃ§e": 7877,
 "Ġyararlanarak": 7878,
 "arkadaÅŁlarÄ±": 7879,
 "Ġvalinin": 7880,
 "ĠeÅŁit": 7881,
 "konuÅŁma": 7882,
 "ĠyÃ¼rÃ¼tme": 7883,
 "Elphiston": 7884,
 "ĠhayatÄ±nÄ±": 7885,
 "Ġvermemek": 7886,
 "ĠoluÅŁturan": 7887,
 "kesinlikle": 7888,
 "derecede": 7889,
 "Ġmaddeleri": 7890,
 "ĠsaldÄ±rgan": 7891,
 "------------------------------------------------": 7892,
 "--------------------------------------------------------------------------------": 7893,
 "ĠdÃ¢vÃ¢ya": 7894,
 "ĠyaratÄ±": 7895,
 "Sonra": 7896,
 "ĠÃ¢sÃ®ler": 7897,
 "dÄ±ÅŁÄ±nda": 7898,
 "ĠÃ§aÄŁr": 7899,
 "larÄ±nÄ±zÄ±n": 7900,
 "kendine": 7901,
 "SÃ¶zÃ¼n": 7902,
 "ĠkÃ¼rsÃ¼": 7903,
 "ĠkÃ¼rsÃ¼s": 7904,
 "eksik": 7905,
 "ĠMÃ¼dÃ¼rlÃ¼ÄŁÃ¼": 7906,
 "ĠÅŁiddetle": 7907,
 "ĠMuhittin": 7908,
 "Ġbiribirinden": 7909,
 "demektir": 7910,
 "ĠÃ§oÄŁunluk": 7911,
 "kendilerini": 7912,
 "Ã¶vÃ¼ÅŁ": 7913,
 "Ġmenfaat": 7914,
 "Salih": 7915,
 "ouillon": 7916,
 "Ġhafif": 7917,
 "ĠAdalet": 7918,
 "AmerikalÄ±lar": 7919,
 "ĠahlÃ¢": 7920,
 "ĠÄ°talya": 7921,
 "ĠayrÄ±ntÄ±lÄ±": 7922,
 "Ġredde": 7923,
 "Avrupa": 7924,
 "ĠWilson": 7925,
 "ĠborÃ§": 7926,
 "Ġmisiniz": 7927,
 "Ã§izg": 7928,
 "ĠhÃ¼kumet": 7929,
 "Ã¶rfezi": 7930,
 "teslim": 7931,
 "Ã¢tÄ±devletlerinin": 7932,
 "iÃ§ersinde": 7933,
 "ĠyÃ¼rÃ¼yÃ¼ÅŁ": 7934,
 "Ġbalina": 7935,
 "ĠsarsÄ±lmaz": 7936,
 "pÄ±rda": 7937,
 "ĠyargÄ±sÄ±na": 7938,
 "ĠkÃ¶klÃ¼": 7939,
 "ĠilÃ¢ve": 7940,
 "Ġmakineli": 7941,
 "Ġsebebini": 7942,
 "Ġbarut": 7943,
 "ĠteÅŁebbÃ¼se": 7944,
 "ĠHasan": 7945,
 "ĠzÄ±pkÄ±n": 7946,
 "ĠuzadÄ±ya": 7947,
 "ĠÃ¢ciz": 7948,
 "ĠUmum": 7949,
 "Ġmezhep": 7950,
 "ĠMuhipler": 7951,
 "Ġdedikodu": 7952,
 "Ġgaranti": 7953,
 "timatom": 7954,
 "Ã¼minyum": 7955,
 "itÃ¼lasyon": 7956,
 "ARRUZ": 7957,
 "31": 7958,
 "919": 7959,
 "920": 7960,
 "AteÅŁkes": 7961,
 "Afyonkarahisar": 7962,
 "Ber": 7963,
 "Bur": 7964,
 "BeÅŁ": 7965,
 "BazÄ±": 7966,
 "BoÅŁ": 7967,
 "Durum": 7968,
 "Efendi": 7969,
 "EskiÅŁehir": 7970,
 "Gel": 7971,
 "GÃ¼ven": 7972,
 "HilÃ¢fet": 7973,
 "HaklÄ±": 7974,
 "ILAN": 7975,
 "Ka": 7976,
 "Kuzey": 7977,
 "Nezaret": 7978,
 "OÄŀ": 7979,
 "Su": 7980,
 "Tek": 7981,
 "TÄ°R": 7982,
 "TÃľRK": 7983,
 "YerkÃ¼r": 7984,
 "bon": 7985,
 "bol": 7986,
 "chis": 7987,
 "delik": 7988,
 "falan": 7989,
 "fark": 7990,
 "fedakÃ¢r": 7991,
 "gim": 7992,
 "guna": 7993,
 "gatÄ±": 7994,
 "hum": 7995,
 "jektif": 7996,
 "kuy": 7997,
 "komu": 7998,
 "kaygÄ±": 7999,
 "mini": 8000,
 "miyorum": 8001,
 "mÃ¼lÃ¼": 8002,
 "obÃ¼s": 8003,
 "perim": 8004,
 "rarÄ±": 8005,
 "seri": 8006,
 "suret": 8007,
 "silÃ¢h": 8008,
 "samim": 8009,
 "syum": 8010,
 "soÄŁuk": 8011,
 "tmaya": 8012,
 "tÄ±nÄ±n": 8013,
 "temiz": 8014,
 "vik": 8015,
 "yiz": 8016,
 "yley": 8017,
 "ÃĤ": 8018,
 "Ġla": 8019,
 "ĠÄ±z": 8020,
 "ĠÃ¼rk": 8021,
 "ÅŁidd": 8022,
 "are": 8023,
 "arÅŁ": 8024,
 "ardÄ±": 8025,
 "aram": 8026,
 "inda": 8027,
 "indan": 8028,
 "Ġbe": 8029,
 "ilmeleri": 8030,
 "ilmelidir": 8031,
 "irci": 8032,
 "etk": 8033,
 "Ã§Ä±n": 8034,
 "Ã§et": 8035,
 "Ġdet": 8036,
 "Ġdiler": 8037,
 "masi": 8038,
 "Ġkest": 8039,
 "Ġkomiser": 8040,
 "Ġgaz": 8041,
 "Ġvat": 8042,
 "ĠvekÃ¢let": 8043,
 "aklarÄ±nda": 8044,
 "lacaÄŁÄ±ndan": 8045,
 "ĠyiÄŁit": 8046,
 "almÄ±ÅŁ": 8047,
 "aldÄ±ÄŁÄ±": 8048,
 "Ġton": 8049,
 "dadÄ±r": 8050,
 "Ġidam": 8051,
 "ĠbirliÄŁ": 8052,
 "ĠbirliÄŁin": 8053,
 "liye": 8054,
 "urchis": 8055,
 "Ġhev": 8056,
 "ĠhatÄ±": 8057,
 "ĠBouillon": 8058,
 "Ã¼nÃ§": 8059,
 "iminde": 8060,
 "yasa": 8061,
 "onur": 8062,
 "Ġast": 8063,
 "Ä°F": 8064,
 "rah": 8065,
 "ĠmÃ¼r": 8066,
 "iÅŁan": 8067,
 "iÅŁini": 8068,
 "iÅŁaret": 8069,
 "ĠKendiler": 8070,
 "ĠKazÄ±m": 8071,
 "ĠgÃ¶Ã§": 8072,
 "ecer": 8073,
 "atÄ±na": 8074,
 "Ã¢li": 8075,
 "Ġdemec": 8076,
 "ĠMil": 8077,
 "ĠMisak": 8078,
 "ĠÃ§irkin": 8079,
 "maksÄ±zÄ±n": 8080,
 "Ġbulabil": 8081,
 "olek": 8082,
 "abasÄ±": 8083,
 "ikast": 8084,
 "caya": 8085,
 "taarruz": 8086,
 "Ä±klÄ±": 8087,
 "ĠgÃ¶rÃ¼nÃ¼": 8088,
 "ĠHAL": 8089,
 "ĠHAZIR": 8090,
 "ĠilÃ§": 8091,
 "birine": 8092,
 "Ġneler": 8093,
 "ĠniÃ§in": 8094,
 "Ä±rlar": 8095,
 "mektup": 8096,
 "ĠPek": 8097,
 "ĠPeki": 8098,
 "ĠPoli": 8099,
 "uzu": 8100,
 "evgili": 8101,
 "lana": 8102,
 "aÅŁasÄ±n": 8103,
 "Ã®n": 8104,
 "Ã®r": 8105,
 "ĠaldÄ±ktan": 8106,
 "Ġkarara": 8107,
 "Ġetmeyecek": 8108,
 "Ġetmeliyim": 8109,
 "ĠTexas": 8110,
 "musunuz": 8111,
 "Ġbilme": 8112,
 "ĠbildiÄŁim": 8113,
 "ĠbildiÄŁiniz": 8114,
 "ĠSiya": 8115,
 "ĠSEÃĩ": 8116,
 "adÄ±nda": 8117,
 "Ä±mÄ±n": 8118,
 "Ä±mla": 8119,
 "ĠbaÅŁlÄ±": 8120,
 "Ġverip": 8121,
 "metre": 8122,
 "ĠEy": 8123,
 "ĠEdip": 8124,
 "bilgi": 8125,
 "endim": 8126,
 "Ġzevk": 8127,
 "Ã¼msey": 8128,
 "lÄ±klara": 8129,
 "kalab": 8130,
 "kalabalÄ±k": 8131,
 "Ġbulunmayan": 8132,
 "ĠyapÄ±lmÄ±ÅŁtÄ±r": 8133,
 "ĠDolayÄ±sÄ±yla": 8134,
 "ĠDURUM": 8135,
 "endek": 8136,
 "Ġistem": 8137,
 "Ġistik": 8138,
 "ĠpahasÄ±na": 8139,
 "cisim": 8140,
 "Ġgeliyor": 8141,
 "Ġgeldikten": 8142,
 "ĠgeldiÄŁinde": 8143,
 "ĠCuma": 8144,
 "ĠYabancÄ±": 8145,
 "ĠfÃ¼lÃ®": 8146,
 "edildi": 8147,
 "ĠGER": 8148,
 "ĠGEÃĩ": 8149,
 "ĠGeyve": 8150,
 "ĠNig": 8151,
 "ilmesinde": 8152,
 "Ġaylarca": 8153,
 "ĠaralÄ±k": 8154,
 "ĠiÅŁine": 8155,
 "ĠiÅŁlerin": 8156,
 "ĠiÅŁlere": 8157,
 "ĠiÅŁlerinde": 8158,
 "ĠOl": 8159,
 "ĠkarÅŁÄ±laÅŁtÄ±": 8160,
 "ĠFlorida": 8161,
 "ĠFeridun": 8162,
 "ĠFrew": 8163,
 "ĠRIZA": 8164,
 "ĠgÃ¶rÃ¼ÅŁmÃ¼ÅŁ": 8165,
 "Ġren": 8166,
 "ĠAnaya": 8167,
 "diÄŁer": 8168,
 "diÄŁinin": 8169,
 "diÄŁinizi": 8170,
 "isinden": 8171,
 "Ġuyarak": 8172,
 "Ġkurulacak": 8173,
 "yandan": 8174,
 "yanlÄ±ÅŁ": 8175,
 "gid": 8176,
 "ĠsÃ¶zlerin": 8177,
 "ĠsÃ¶zlerden": 8178,
 "Ġonlarla": 8179,
 "ĠÃ§Ä±kÄ±p": 8180,
 "ĠÃ§Ä±ktÄ±ÄŁÄ±": 8181,
 "ĠÃ§Ä±ktÄ±m": 8182,
 "ĠtopÃ§u": 8183,
 "ĠbÃ¼tÃ¼nlÃ¼ÄŁÃ¼": 8184,
 "Ġhale": 8185,
 "Ġbildirir": 8186,
 "Ġbildirerek": 8187,
 "Ġbildirilme": 8188,
 "ĠgeÃ§tik": 8189,
 "ĠgeÃ§miÅŁti": 8190,
 "ĠgeÃ§miÅŁtir": 8191,
 "ĠdoÄŁur": 8192,
 "Ġedilmekte": 8193,
 "ĠolaÄŁan": 8194,
 "ĠtarafÄ±n": 8195,
 "ĠtarafÄ±nÄ±zdan": 8196,
 "ĠVe": 8197,
 "Ġener": 8198,
 "BugÃ¼nkÃ¼": 8199,
 "Ġharek": 8200,
 "Ġharika": 8201,
 "ĠyanaÅŁ": 8202,
 "Ġzamanlarda": 8203,
 "iyorduk": 8204,
 "Ġbirliklerin": 8205,
 "ĠgÃ¶sterdi": 8206,
 "ĠgÃ¶stermeye": 8207,
 "ĠteÅŁvik": 8208,
 "durmadan": 8209,
 "canlÄ±": 8210,
 "imsiz": 8211,
 "artesi": 8212,
 "meyle": 8213,
 "Ġbulunanlar": 8214,
 "uluyor": 8215,
 "uluÄŁa": 8216,
 "Ã¢zÄ±rÄ±": 8217,
 "anacak": 8218,
 "geldi": 8219,
 "gelecek": 8220,
 "ĠarasÄ±na": 8221,
 "ANSI": 8222,
 "tiklerini": 8223,
 "ĠadlarÄ±": 8224,
 "Ġlek": 8225,
 "ĠtoplanmasÄ±na": 8226,
 "sonsuz": 8227,
 "bilirdi": 8228,
 "ĠgÃ¶ndererek": 8229,
 "ĠgÃ¶nderilmiÅŁ": 8230,
 "ĠgÃ¶nderildi": 8231,
 "ĠMilletvekil": 8232,
 "ĠBaÅŁkanlÄ±k": 8233,
 "Ġgetirt": 8234,
 "Ġsayarak": 8235,
 "ĠsoruÅŁturma": 8236,
 "kÃ¼p": 8237,
 "liÄŁim": 8238,
 "Ġistemez": 8239,
 "ĠistediÄŁim": 8240,
 "ĠmÃ¼cadele": 8241,
 "yapmÄ±ÅŁ": 8242,
 "yapmaya": 8243,
 "yaptÄ±ÄŁÄ±": 8244,
 "Ġmasa": 8245,
 "varlÄ±k": 8246,
 "ĠÅŁeyleri": 8247,
 "ĠErzincan": 8248,
 "acaktÄ±": 8249,
 "acaklardÄ±r": 8250,
 "ĠsÄ±cak": 8251,
 "Ġedebilecek": 8252,
 "Ġduyar": 8253,
 "isteyen": 8254,
 "ĠseÃ§ilen": 8255,
 "ĠseÃ§imi": 8256,
 "ĠseÃ§kin": 8257,
 "ĠgÃ¼vensizlik": 8258,
 "yarÄ±ÅŁ": 8259,
 "ĠgerÃ§ekte": 8260,
 "Ġteklifini": 8261,
 "Ġcevaplar": 8262,
 "ĠgÃ¶zdaÄŁÄ±": 8263,
 "ĠnoktasÄ±nda": 8264,
 "kurtu": 8265,
 "kurtul": 8266,
 "ĠortasÄ±nda": 8267,
 "Ġtutul": 8268,
 "bulunmadÄ±ÄŁÄ±": 8269,
 "ĠsavaÅŁÄ±": 8270,
 "ĠbÄ±rakÄ±lmÄ±ÅŁ": 8271,
 "ĠbÄ±rakÄ±lmasÄ±": 8272,
 "ĠbÃ¶lgedeki": 8273,
 "Ġcam": 8274,
 "latmak": 8275,
 "ĠbaÄŁÄ±rdÄ±": 8276,
 "ĠÅŁahsÄ±n": 8277,
 "Ġdevleti": 8278,
 "ĠgÃ¼Ã§tÃ¼r": 8279,
 "ĠdevamÄ±": 8280,
 "Ġbelirsiz": 8281,
 "ĠyÃ¶ntem": 8282,
 "Ġbulur": 8283,
 "Ġbuldu": 8284,
 "Ġbulut": 8285,
 "dÃ¼ÄŁÃ¼nden": 8286,
 "ĠaklÄ±": 8287,
 "larÄ±mÄ±zla": 8288,
 "larÄ±mÄ±zdan": 8289,
 "ĠÄ°ttihat": 8290,
 "Ġtedbiri": 8291,
 "umuza": 8292,
 "iÃ§indeki": 8293,
 "ĠÃ§ekilme": 8294,
 "ĠÃ§ekilmiÅŁ": 8295,
 "INDAN": 8296,
 "olaÄŁanÃ¼stÃ¼": 8297,
 "Ġbunca": 8298,
 "Ġbunlardan": 8299,
 "ĠÃ§Ä±karlarÄ±": 8300,
 "tÄ±lmasÄ±": 8301,
 "Ġdikkatle": 8302,
 "basÄ±n": 8303,
 "ĠZÃ¢tÄ±": 8304,
 "Ġcephenin": 8305,
 "ĠÅŁartlarÄ±n": 8306,
 "ĠhÃ¼kmet": 8307,
 "memur": 8308,
 "ebilmesi": 8309,
 "ebileceÄŁini": 8310,
 "ĠYunanistan": 8311,
 "iyice": 8312,
 "kesinin": 8313,
 "Ġokuy": 8314,
 "ĠkaygÄ±": 8315,
 "ĠolmadÄ±ÄŁÄ±ndan": 8316,
 "Ġgayesi": 8317,
 "Ġgayri": 8318,
 "ĠtercÃ¼": 8319,
 "Ġsahil": 8320,
 "ĠinandÄ±r": 8321,
 "ĠinandÄ±rÄ±cÄ±": 8322,
 "ĠkaÃ§Ä±ÅŁ": 8323,
 "Ġedenler": 8324,
 "ĠÃĸyle": 8325,
 "ĠyazÄ±sÄ±": 8326,
 "Ġgerekirse": 8327,
 "yazÄ±k": 8328,
 "yazmanÄ±": 8329,
 "ĠÃ¼yeler": 8330,
 "ĠHalif": 8331,
 "ĠFranklin": 8332,
 "saldÄ±rÄ±": 8333,
 "ĠOrta": 8334,
 "Ġihtiyat": 8335,
 "ĠettiÄŁimi": 8336,
 "Ġidiyse": 8337,
 "Ġbekleyen": 8338,
 "ĠÅŁeklini": 8339,
 "Ġsevk": 8340,
 "dÃ¼ÅŁÃ¼nce": 8341,
 "ĠyabancÄ±lara": 8342,
 "ĠbaÅŁarÄ±yla": 8343,
 "ediyordu": 8344,
 "ĠsunayÄ±m": 8345,
 "Ġgizlice": 8346,
 "ĠsÃ¶ylÃ¼": 8347,
 "bildirdim": 8348,
 "ĠhatÃ¢": 8349,
 "ĠBizi": 8350,
 "milleti": 8351,
 "ĠcanlÄ±": 8352,
 "ĠUy": 8353,
 "ĠÃ¼stÃ¼ne": 8354,
 "ĠÅŁimdiki": 8355,
 "abilirdi": 8356,
 "abiliriz": 8357,
 "Ġoyunu": 8358,
 "Ġoyna": 8359,
 "Ġtebrik": 8360,
 "ĠyÄ±lÄ±nÄ±n": 8361,
 "DAKÄ°": 8362,
 "URETTÄ°N": 8363,
 "patlayÄ±cÄ±": 8364,
 "Ġkamara": 8365,
 "ĠsÄ±nÄ±rlarÄ±mÄ±z": 8366,
 "anlamÄ±yla": 8367,
 "deÄŁilse": 8368,
 "Ermeni": 8369,
 "Ġmutlu": 8370,
 "ĠboÅŁa": 8371,
 "ĠÃľst": 8372,
 "Ġkorku": 8373,
 "ĠmaksadÄ±n": 8374,
 "ĠdÃ¼zenlen": 8375,
 "ĠÃ§alÄ±ÅŁmalarÄ±na": 8376,
 "EKÄ°L": 8377,
 "ĠSavaÅŁ": 8378,
 "Ġfaaliyete": 8379,
 "ĠuÄŁramÄ±ÅŁ": 8380,
 "Milletvekili": 8381,
 "Ġgazeteci": 8382,
 "Ġvakti": 8383,
 "DÄ°ÄŀÄ°M": 8384,
 "ĠÃ¼zÃ¼l": 8385,
 "lacaÄŁÄ±z": 8386,
 "Ġkabinede": 8387,
 "Ġbeklenen": 8388,
 "Ġverilmek": 8389,
 "Ġsafsat": 8390,
 "ĠduygularÄ±nÄ±": 8391,
 "ĠolacaktÄ±": 8392,
 "Ġemrinde": 8393,
 "ĠateÅŁli": 8394,
 "Ġediyorlar": 8395,
 "ĠkurtarÄ±lmasÄ±": 8396,
 "ĠasÄ±lsÄ±z": 8397,
 "ĠKendisinin": 8398,
 "186": 8399,
 "hÃ¼kÃ»metin": 8400,
 "duyg": 8401,
 "iliÄŁine": 8402,
 "EVFÄ°K": 8403,
 "bitir": 8404,
 "otasyum": 8405,
 "gÃ¶revlendir": 8406,
 "Yunanistan": 8407,
 "adamÄ±n": 8408,
 "fÄ±rÄ±n": 8409,
 "sahip": 8410,
 "ĠÄ±ÅŁÄ±": 8411,
 "ĠarkadaÅŁÄ±": 8412,
 "ĠnoktanÄ±n": 8413,
 "Ġherkese": 8414,
 "ĠaydÄ±nlatmak": 8415,
 "BakanlÄ±ÄŁÄ±": 8416,
 "ĠkarÅŁÄ±landÄ±": 8417,
 "medikÃ§e": 8418,
 "ondros": 8419,
 "ateÅŁli": 8420,
 "ĠNew": 8421,
 "Ġdalga": 8422,
 "ĠCevap": 8423,
 "ĠkalkÄ±ÅŁmak": 8424,
 "Ġokundu": 8425,
 "ĠHareket": 8426,
 "ĠetrafÄ±nda": 8427,
 "sert": 8428,
 "Ġhuzurunda": 8429,
 "librelik": 8430,
 "ĠErmenilerin": 8431,
 "ĠBirincisi": 8432,
 "ĠbirleÅŁerek": 8433,
 "baÅŁladÄ±lar": 8434,
 "ĠAntalya": 8435,
 "Ġmuhtemel": 8436,
 "barutun": 8437,
 "Ġbekliyordu": 8438,
 "ARIÅŀ": 8439,
 "tÄ±ÄŁÄ±mda": 8440,
 "ĠiÃ§tenlikle": 8441,
 "dÃ¼rbÃ¼nÃ¼": 8442,
 "Ġlehimize": 8443,
 "Ġilgilendiren": 8444,
 "ĠhakkÄ±nÄ±": 8445,
 "Ġmevkiine": 8446,
 "Ã¼ncÃ¼sÃ¼": 8447,
 "ĠKONGR": 8448,
 "ĠKONFER": 8449,
 "ĠazÄ±nlÄ±klar": 8450,
 "ĠyÄ±ÄŁÄ±n": 8451,
 "Ġaskerlikten": 8452,
 "ĠcÃ¼mleler": 8453,
 "ĠANKARA": 8454,
 "ĠAmerikalÄ±lar": 8455,
 "Ġdokunulmaz": 8456,
 "ĠÃ¶denek": 8457,
 "ĠHiÃ§bir": 8458,
 "ĠkÄ±smÄ±nÄ±": 8459,
 "Ġkitap": 8460,
 "ĠgÃ¼verteye": 8461,
 "DoÄŁru": 8462,
 "ĠÃ§izg": 8463,
 "Ãĸzellikle": 8464,
 "Ġifad": 8465,
 "ĠHakkÄ±": 8466,
 "ĠYapÄ±lan": 8467,
 "ihtiya": 8468,
 "ĠaÃ§Ä±klayayÄ±m": 8469,
 "Kabin": 8470,
 "ĠORDU": 8471,
 "ĠbaÄŁdaÅŁtÄ±rÄ±": 8472,
 "sakÄ±nca": 8473,
 "Ġdarbe": 8474,
 "ĠRusya": 8475,
 "Ġyetenekli": 8476,
 "ĠHÃ¼kumeti": 8477,
 "Ã»rÃ¢": 8478,
 "ĠUzun": 8479,
 "ÅŁeklinde": 8480,
 "ĠihtilÃ¢l": 8481,
 "Ġdiplo": 8482,
 "Ã¶rÃ¼ng": 8483,
 "yleyse": 8484,
 "urchison": 8485,
 "Ã¼mseyerek": 8486,
 "ĠNigeh": 8487,
 "\".": 8488,
 ".]": 8489,
 "Ah": 8490,
 "Bin": 8491,
 "CI": 8492,
 "DÄ±ÅŁ": 8493,
 "DER": 8494,
 "Dost": 8495,
 "Esa": 8496,
 "Ger": 8497,
 "Gem": 8498,
 "Ha": 8499,
 "Ham": 8500,
 "Hav": 8501,
 "HEM": 8502,
 "KA": 8503,
 "KE": 8504,
 "Kim": 8505,
 "Kut": 8506,
 "KasÄ±m": 8507,
 "Na": 8508,
 "Neden": 8509,
 "Nihayet": 8510,
 "Ol": 8511,
 "ProfesÃ¶r": 8512,
 "SÃľ": 8513,
 "VAS": 8514,
 "Yine": 8515,
 "YabancÄ±": 8516,
 "Zaman": 8517,
 "ZURUM": 8518,
 "aÃ§a": 8519,
 "cÃ¼k": 8520,
 "dÄ±nÄ±": 8521,
 "dara": 8522,
 "edan": 8523,
 "fk": 8524,
 "fab": 8525,
 "fÃ®": 8526,
 "giy": 8527,
 "geminin": 8528,
 "ho": 8529,
 "hele": 8530,
 "hid": 8531,
 "hedef": 8532,
 "ifade": 8533,
 "kÄ±na": 8534,
 "kop": 8535,
 "kayÄ±": 8536,
 "lil": 8537,
 "lilerin": 8538,
 "lenip": 8539,
 "nini": 8540,
 "osk": 8541,
 "run": 8542,
 "rÄ±ÅŁ": 8543,
 "sunun": 8544,
 "seti": 8545,
 "sesini": 8546,
 "sch": 8547,
 "tsÄ±z": 8548,
 "vel": 8549,
 "yin": 8550,
 "yarak": 8551,
 "yitir": 8552,
 "Ġ0": 8553,
 "Ġekli": 8554,
 "ÅŁar": 8555,
 "ÅŁunu": 8556,
 "ardaÄŁ": 8557,
 "anta": 8558,
 "anas": 8559,
 "Ġbl": 8560,
 "ĠbasÄ±": 8561,
 "ĠbakÄ±n": 8562,
 "ĠbalÄ±ÄŁÄ±": 8563,
 "ilordu": 8564,
 "ildikten": 8565,
 "ÄŁine": 8566,
 "ÄŁÃ¼s": 8567,
 "etme": 8568,
 "etiniz": 8569,
 "ettim": 8570,
 "Ã§ocuk": 8571,
 "Ġdol": 8572,
 "Ġdura": 8573,
 "Ġker": 8574,
 "Ã¶tÃ¼rÃ¼": 8575,
 "Ġvaz": 8576,
 "ĠvahÅŁ": 8577,
 "akr": 8578,
 "akla": 8579,
 "elinde": 8580,
 "elektrik": 8581,
 "lata": 8582,
 "lahattin": 8583,
 "Ġsat": 8584,
 "Ġsam": 8585,
 "Ġsos": 8586,
 "Ġyum": 8587,
 "Ġyed": 8588,
 "Ġyatan": 8589,
 "alev": 8590,
 "alkÄ±ÅŁ": 8591,
 "alÃ§ak": 8592,
 "Ġoyla": 8593,
 "ĠodanÄ±n": 8594,
 "diz": 8595,
 "lerken": 8596,
 "lerimin": 8597,
 "Ġidim": 8598,
 "Ġbirine": 8599,
 "Ġbirinde": 8600,
 "liman": 8601,
 "Ġhe": 8602,
 "ĠhÃ¼r": 8603,
 "mediler": 8604,
 "ĠBoÄŁazÄ±": 8605,
 "ĠBrun": 8606,
 "iminden": 8607,
 "lemeler": 8608,
 "onya": 8609,
 "ullah": 8610,
 "duyur": 8611,
 "tÄ±larak": 8612,
 "ĠaÄŁa": 8613,
 "Ä°m": 8614,
 "rag": 8615,
 "emr": 8616,
 "ĠmÃ¼slÃ¼man": 8617,
 "Ġmaruz": 8618,
 "ĠKo": 8619,
 "ĠKor": 8620,
 "ĠKOMUT": 8621,
 "Ã¢mi": 8622,
 "ÄŁÄ±t": 8623,
 "ĠdediÄŁi": 8624,
 "ĠÃ§iÄŁ": 8625,
 "ĠÃ§aÄŁÄ±": 8626,
 "azhar": 8627,
 "olduklarÄ±": 8628,
 "ĠAsÄ±l": 8629,
 "amÄ±yor": 8630,
 "ilerini": 8631,
 "Ġdav": 8632,
 "larÄ±dÄ±r": 8633,
 "ĠÄ°K": 8634,
 "ĠgÃ¶recek": 8635,
 "ĠgÃ¶rÃ¼s": 8636,
 "ĠgÃ¶rÃ¼le": 8637,
 "ĠHan": 8638,
 "ĠHAK": 8639,
 "ĠHacÄ±": 8640,
 "Ġilim": 8641,
 "Ġillerinin": 8642,
 "birini": 8643,
 "birinin": 8644,
 "birleÅŁ": 8645,
 "Ġnes": 8646,
 "ĠPat": 8647,
 "ĠiÃ§yÃ¼zÃ¼nÃ¼": 8648,
 "sihat": 8649,
 "Ã¶nc": 8650,
 "sÄ±ndak": 8651,
 "land": 8652,
 "lanÄ±r": 8653,
 "iter": 8654,
 "Ġkaran": 8655,
 "ĠTA": 8656,
 "ĠTek": 8657,
 "ĠTam": 8658,
 "ĠTEKLÄ°F": 8659,
 "Ġbilmek": 8660,
 "Ġbilmem": 8661,
 "ĠSÄ±r": 8662,
 "ĠSiv": 8663,
 "ĠSevres": 8664,
 "ĠbaÅŁlÄ±k": 8665,
 "ĠbaÅŁlarÄ±nda": 8666,
 "ĠbaÅŁlat": 8667,
 "Ġvermekte": 8668,
 "Ġvermeyi": 8669,
 "ĠvereceÄŁim": 8670,
 "Ġverirken": 8671,
 "ahip": 8672,
 "dÄ±rlar": 8673,
 "usun": 8674,
 "Ġzehir": 8675,
 "Ã¼mde": 8676,
 "tÄ±rmaya": 8677,
 "lÄ±kta": 8678,
 "kafa": 8679,
 "Ġbulunma": 8680,
 "ĠbulunduÄŁuna": 8681,
 "layÄ±": 8682,
 "ĠBugÃ¼nkÃ¼": 8683,
 "Ġ:\"": 8684,
 "ĠDin": 8685,
 "ĠDÃ¶rt": 8686,
 "oÄŁraf": 8687,
 "Ġistif": 8688,
 "cisi": 8689,
 "Ġgeldik": 8690,
 "iÃ§inden": 8691,
 "iÃ§eri": 8692,
 "ĠCum": 8693,
 "ĠÃ¶nlenmesi": 8694,
 "Ġfet": 8695,
 "ĠGeminin": 8696,
 "ĠGebze": 8697,
 "ĠNer": 8698,
 "ĠNiÄŁde": 8699,
 "Ġmilletlerin": 8700,
 "ĠÃ¼zerime": 8701,
 "ĠiÅŁlerinin": 8702,
 "Ġyerin": 8703,
 "ĠFar": 8704,
 "ĠRes": 8705,
 "ĠRÃ¼ÅŁtÃ¼": 8706,
 "ĠgÃ¼neÅŁ": 8707,
 "ĠgÃ¼ndÃ¼z": 8708,
 "ĠgÃ¶rÃ¼ÅŁmeye": 8709,
 "ĠgÃ¶rÃ¼ÅŁlerinin": 8710,
 "ĠgÃ¶rÃ¼ÅŁlerine": 8711,
 "ĠgÃ¶rÃ¼ÅŁtÃ¼m": 8712,
 "ĠgÃ¶rÃ¼ÅŁtÃ¼k": 8713,
 "veya": 8714,
 "Ġinsaf": 8715,
 "ĠgerekÃ§e": 8716,
 "Ġref": 8717,
 "isiyle": 8718,
 "ĠuyuÅŁ": 8719,
 "Ġkurucu": 8720,
 "Ġort": 8721,
 "yanÄ±na": 8722,
 "cÄ±lar": 8723,
 "ĠdurumlarÄ±n": 8724,
 "ĠsÃ¶zlerle": 8725,
 "ift": 8726,
 "ĠÃ§Ä±karak": 8727,
 "ĠÃ§Ä±kmÄ±ÅŁtÄ±r": 8728,
 "ĠdÃ¼ÅŁÃ¼nen": 8729,
 "Ġeliyle": 8730,
 "epe": 8731,
 "Ġbildiriler": 8732,
 "yip": 8733,
 "madÄ±ÄŁÄ±mÄ±": 8734,
 "ĠkalmadÄ±": 8735,
 "unacak": 8736,
 "ĠgeÃ§iÅŁ": 8737,
 "ĠgeÃ§tiler": 8738,
 "ĠdoÄŁusunda": 8739,
 "vermek": 8740,
 "veriyordu": 8741,
 "ĠolamayacaÄŁÄ±": 8742,
 "ĠaÃ§Ä±klayarak": 8743,
 "ĠaÃ§Ä±kladÄ±ktan": 8744,
 "ĠsÃ¼rÃ¼": 8745,
 "ĠsÃ¼resi": 8746,
 "ĠsÃ¼rede": 8747,
 "mazlar": 8748,
 "mazsa": 8749,
 "ĠtarafÄ±": 8750,
 "Ã¼skÃ¼r": 8751,
 "lenmiÅŁti": 8752,
 "Ġyolsuzluk": 8753,
 "ĠyansÄ±": 8754,
 "Ġuc": 8755,
 "gÃ¶rmÃ¼ÅŁ": 8756,
 "tÄ±klarÄ±nÄ±": 8757,
 "tÄ±kÃ§a": 8758,
 "ĠgÃ¶stermiÅŁ": 8759,
 "ĠgÃ¶steriyor": 8760,
 "ĠgÃ¶steriyordu": 8761,
 "eledi": 8762,
 "ĠÃ§alÄ±ÅŁtÄ±": 8763,
 "ĠÃ§alÄ±ÅŁmalarÄ±": 8764,
 "ĠÃ§alÄ±ÅŁÄ±yorlardÄ±": 8765,
 "ĠÃ¶zgÃ¼rlÃ¼": 8766,
 "Ġemek": 8767,
 "naÄŁÄ±": 8768,
 "ehbi": 8769,
 "Ġhareketin": 8770,
 "Ġhareketlere": 8771,
 "Ä±ldÄ±zÄ±": 8772,
 "ĠadlÄ±": 8773,
 "ĠyazmÄ±ÅŁ": 8774,
 "lamalarÄ±": 8775,
 "ĠtoplandÄ±": 8776,
 "enizi": 8777,
 "biliriz": 8778,
 "ĠgÃ¶nderdim": 8779,
 "yÃ¼zÃ¼ne": 8780,
 "Ġgetirdi": 8781,
 "ĠgetirmiÅŁ": 8782,
 "ĠgetirilmiÅŁ": 8783,
 "ĠÃ¶v": 8784,
 "Ġkalarak": 8785,
 "ĠkalabalÄ±k": 8786,
 "ĠÅŀur": 8787,
 "ĠÅŀimdiye": 8788,
 "ĠmalÃ®": 8789,
 "kÄ±ya": 8790,
 "acaklar": 8791,
 "Ġduydum": 8792,
 "edebil": 8793,
 "ĠaÃ§ik": 8794,
 "ĠaÃ§Ä±l": 8795,
 "ĠaÃ§Ä±lan": 8796,
 "ĠaÃ§Ä±lÄ±ÅŁ": 8797,
 "ĠseÃ§ilmesi": 8798,
 "ĠseÃ§ilecek": 8799,
 "yardalÄ±k": 8800,
 "Ġteklifte": 8801,
 "ĠgÃ¶zet": 8802,
 "Ġorduda": 8803,
 "Ġorduya": 8804,
 "Ġhaberler": 8805,
 "geÃ§miÅŁ": 8806,
 "omik": 8807,
 "omuz": 8808,
 "Ġkimseleri": 8809,
 "Ġkimseyi": 8810,
 "ĠÃĩanakkale": 8811,
 "ĠÃĩankaya": 8812,
 "ĠaltmÄ±ÅŁ": 8813,
 "iyat": 8814,
 "Ġkoruma": 8815,
 "ĠanlaÅŁÄ±l": 8816,
 "Ġdurup": 8817,
 "Ġdurmadan": 8818,
 "Ġkanuna": 8819,
 "Ġsavunu": 8820,
 "ĠbÄ±rakÄ±p": 8821,
 "mayÄ±nÄ±z": 8822,
 "konferan": 8823,
 "Ġcuma": 8824,
 "ĠbayaÄŁÄ±": 8825,
 "Ġilkesi": 8826,
 "ĠÃ§ektim": 8827,
 "ĠÃ§ektiÄŁi": 8828,
 "Ġgelenleri": 8829,
 "Ġakl": 8830,
 "ĠakÄ±ÅŁ": 8831,
 "layabil": 8832,
 "ÅŁahÄ±s": 8833,
 "Ġmudur": 8834,
 "Ġmuhareb": 8835,
 "Ġmuhalefet": 8836,
 "umuzun": 8837,
 "Ġtakdim": 8838,
 "Ġolaydan": 8839,
 "yeter": 8840,
 "Ġetmesini": 8841,
 "Ãĸn": 8842,
 "ĠÃ§Ä±karmak": 8843,
 "ĠÃ§Ä±karlarÄ±na": 8844,
 "gereksiz": 8845,
 "ĠgÃ¶rÃ¼lme": 8846,
 "ĠgÃ¶rÃ¼lmemiÅŁ": 8847,
 "Ġolmamak": 8848,
 "ĠolmasÄ±ndan": 8849,
 "ĠZonguldak": 8850,
 "Ġsustur": 8851,
 "Ġsuikast": 8852,
 "Ã¼rlÃ¼ÄŁe": 8853,
 "Ġdeneme": 8854,
 "Ġdenetleme": 8855,
 "lerimizden": 8856,
 "ĠhÃ¼km": 8857,
 "rupalÄ±": 8858,
 "teÅŁkilÃ¢tÄ±": 8859,
 "Ġkaymakam": 8860,
 "Ġsiyasi": 8861,
 "Ġgayemiz": 8862,
 "Ġdenizi": 8863,
 "Ä±lÄ±Ã§": 8864,
 "ĠidarÃ®": 8865,
 "Ġidaresini": 8866,
 "Ä±lmasÄ±nÄ±n": 8867,
 "leyecek": 8868,
 "Ä°LDÄ°R": 8869,
 "olanaksÄ±z": 8870,
 "ĠmakamÄ±nÄ±": 8871,
 "Ġmakamlara": 8872,
 "ĠyazÄ±da": 8873,
 "ĠtanÄ±t": 8874,
 "ĠÃ¼yelerin": 8875,
 "Ġolduktan": 8876,
 "ĠyalnÄ±zca": 8877,
 "Ġbina": 8878,
 "Ã¼yorsunuz": 8879,
 "ĠteÅŁkilÃ¢tÄ±nÄ±": 8880,
 "Ġkullanarak": 8881,
 "Ġmeselenin": 8882,
 "Ġuzunca": 8883,
 "ĠyapÄ±labil": 8884,
 "ĠyapÄ±lacaÄŁÄ±": 8885,
 "ĠÃ¶lÃ¼m": 8886,
 "Ġcid": 8887,
 "lemesine": 8888,
 "ĠgereÄŁinden": 8889,
 "ĠdÃ¼ÅŁÃ¼ncede": 8890,
 "durumun": 8891,
 "Ġbilinmeyen": 8892,
 "Ġaleyhte": 8893,
 "ÅŁeyden": 8894,
 "ĠyaptÄ±m": 8895,
 "milletvekili": 8896,
 "ĠsubaylarÄ±": 8897,
 "MEM": 8898,
 "MECLÄ°": 8899,
 "ĠKanadalÄ±": 8900,
 "Ã§isi": 8901,
 "lÄ±ÄŁÄ±ndaki": 8902,
 "Ġbilgilerinize": 8903,
 "benims": 8904,
 "benzer": 8905,
 "girdi": 8906,
 "ĠFransÄ±zlarÄ±n": 8907,
 "bizi": 8908,
 "Ġacel": 8909,
 "Ġtayini": 8910,
 "Bize": 8911,
 "incir": 8912,
 "ĠboÅŁalt": 8913,
 "tahta": 8914,
 "tahmin": 8915,
 "Ġmevz": 8916,
 "ginÃ§": 8917,
 "millik": 8918,
 "Ġsaray": 8919,
 "ĠtaÅŁÄ±dÄ±ÄŁÄ±": 8920,
 "hisset": 8921,
 "idye": 8922,
 "ĠbakÄ±ÅŁ": 8923,
 "mermiye": 8924,
 "Ġyetkisini": 8925,
 "ĠÅŁahÄ±slarÄ±": 8926,
 "Milletvekil": 8927,
 "ĠÃ¼nlÃ¼": 8928,
 "memiÅŁtim": 8929,
 "DÄ°ÄŀÄ°": 8930,
 "ĠKabinenin": 8931,
 "ĠkiÅŁiye": 8932,
 "Ġkamuoyu": 8933,
 "Ġetkisiyle": 8934,
 "Ġsorular": 8935,
 "koru": 8936,
 "Ġistiyorlar": 8937,
 "gereÄŁ": 8938,
 "gereÄŁi": 8939,
 "ĠgelmiÅŁken": 8940,
 "zerinde": 8941,
 "ĠistiklÃ¢li": 8942,
 "ĠistiklÃ¢lim": 8943,
 "ĠKaradeniz": 8944,
 "ĠKaraaÄŁaÃ§": 8945,
 "dokun": 8946,
 "doksan": 8947,
 "miyoruz": 8948,
 "Ġevinde": 8949,
 "ĠmeÅŁrutiyet": 8950,
 "Ġisterseniz": 8951,
 "ĠgÃ¼cÃ¼nÃ¼n": 8952,
 "ĠÃ¶ÄŁrenmek": 8953,
 "gÃ¶kbilim": 8954,
 "Ġsavunmaya": 8955,
 "Ġkongrede": 8956,
 "ĠolamazdÄ±": 8957,
 "Ġordusunu": 8958,
 "ĠÃ¼lkesinin": 8959,
 "Ġkaderi": 8960,
 "Ġvalilik": 8961,
 "Ġdirenme": 8962,
 "ĠyapÄ±lmakta": 8963,
 "kÃ¶tÃ¼": 8964,
 "Ġdiyorlar": 8965,
 "mecbur": 8966,
 "ĠsuÃ§lu": 8967,
 "ĠyaÅŁama": 8968,
 "ĠherkesÃ§e": 8969,
 "deta": 8970,
 "dÃ¶kÃ¼m": 8971,
 "ĠyarattÄ±ÄŁÄ±": 8972,
 "tarihli": 8973,
 "ĠcanavarÄ±": 8974,
 "alÄ±nmasÄ±": 8975,
 "Ã¼lÃ¼yordu": 8976,
 "ĠuÄŁraÅŁan": 8977,
 "Ġmemnuniyetle": 8978,
 "ĠtebligatÄ±": 8979,
 "ÃľNÃľ": 8980,
 "Ġrejimi": 8981,
 "ĠsorumluluÄŁu": 8982,
 "ĠsorumluluÄŁunu": 8983,
 "Ä±lÄ±rsa": 8984,
 "ĠtavÄ±rla": 8985,
 "dostlarÄ±m": 8986,
 "ĠÅŁartÄ±": 8987,
 "ĠmuhtaÃ§": 8988,
 "Ġtemsilcilerine": 8989,
 "yÃ¼rÃ¼t": 8990,
 "ayrÄ±ntÄ±": 8991,
 "Ġbekliyoruz": 8992,
 "ĠkatÄ±lan": 8993,
 "ĠaracÄ±lÄ±ÄŁÄ±": 8994,
 "ASINDA": 8995,
 "lÄ±ÄŁÄ±mÄ±": 8996,
 "ĠanlamÄ±yla": 8997,
 "Ġzarureti": 8998,
 "GÃ¶rÃ¼ÅŁ": 8999,
 "ibdat": 9000,
 "ĠgÃ¼neyinde": 9001,
 "Ġhalifenin": 9002,
 "buysa": 9003,
 "Ġkaraya": 9004,
 "ĠalayÄ±": 9005,
 "Ġbendenizin": 9006,
 "Ä°ngilizlerin": 9007,
 "ĠkavramÄ±ÅŁ": 9008,
 "endiÄŁini": 9009,
 "ĠaÃ§Ä±klanmasÄ±nÄ±": 9010,
 "lerimden": 9011,
 "ĠrahatsÄ±z": 9012,
 "ĠtecavÃ¼z": 9013,
 "leyici": 9014,
 "Ġetmeyin": 9015,
 "TIÄŀIM": 9016,
 "ÄŁitim": 9017,
 "Ġahtapot": 9018,
 "ĠatÄ±lan": 9019,
 "odman": 9020,
 "odyum": 9021,
 "Merminin": 9022,
 "ĠgÃ¼lle": 9023,
 "sabah": 9024,
 "Ġkulak": 9025,
 "Ġhesaba": 9026,
 "Ġsonucun": 9027,
 "Kanunu": 9028,
 "ĠÃĤdil": 9029,
 "ANLIÄŀI": 9030,
 "ĠdeÄŁiÅŁiklikler": 9031,
 "ĠaÃ§acak": 9032,
 "ĠÃ¶ÄŁrendik": 9033,
 "ĠantlaÅŁma": 9034,
 "Ġpencer": 9035,
 "Ġmutluluk": 9036,
 "Ġhissettir": 9037,
 "SavaÅŁ": 9038,
 "ĠalÄ±nÄ±p": 9039,
 "ĠgÃ¼rÃ¼ltÃ¼": 9040,
 "Ġtrenle": 9041,
 "ĠBoÄŁazlar": 9042,
 "ĠbaÅŁlangÄ±Ã§ta": 9043,
 "ĠdÃ¼rbÃ¼n": 9044,
 "ĠalÄ±koy": 9045,
 "ĠmÃ¼saadeniz": 9046,
 "maksadÄ±": 9047,
 "ĠÄ°SMET": 9048,
 "Kongresi": 9049,
 "tabii": 9050,
 "ĠKayseri": 9051,
 "Ġnezak": 9052,
 "Ãľstelik": 9053,
 "Ġmiktar": 9054,
 "Ġkuruntu": 9055,
 "HÃ¼kÃ¼met": 9056,
 "tokol": 9057,
 "ĠtelÃ¢ÅŁ": 9058,
 "Ã¼tÃ¼phan": 9059,
 "ĠNazilli": 9060,
 "ĠMÃ¼fit": 9061,
 "konusundaki": 9062,
 "Ġekonomik": 9063,
 "ĠkÃ¼rsÃ¼den": 9064,
 "GÃ¼venlikle": 9065,
 "ĠihtiyatlÄ±": 9066,
 "oskova": 9067,
 "schel": 9068,
 "anastÄ±r": 9069,
 "ĠBrunot": 9070,
 "!..": 9071,
 ".)": 9072,
 "45": 9073,
 "Ab": 9074,
 "As": 9075,
 "Ara": 9076,
 "AÅŁaÄŁÄ±": 9077,
 "BÃľ": 9078,
 "Belki": 9079,
 "CUMHURÄ°YET": 9080,
 "DÃ¼n": 9081,
 "Eh": 9082,
 "EFET": 9083,
 "Fevzi": 9084,
 "Gerek": 9085,
 "Geminin": 9086,
 "Han": 9087,
 "Herkes": 9088,
 "KI": 9089,
 "Kendiler": 9090,
 "KET": 9091,
 "Mal": 9092,
 "NA": 9093,
 "Not": 9094,
 "NUN": 9095,
 "Neyse": 9096,
 "OP": 9097,
 "RI": 9098,
 "SA": 9099,
 "Siz": 9100,
 "Sam": 9101,
 "SÄ±vas": 9102,
 "Suriye": 9103,
 "Sevgili": 9104,
 "Tarih": 9105,
 "Terak": 9106,
 "UK": 9107,
 "UZ": 9108,
 "Uz": 9109,
 "Ya": 9110,
 "YÃ¼z": 9111,
 "alarak": 9112,
 "acaÄŁÄ±na": 9113,
 "bÄ±": 9114,
 "bini": 9115,
 "belg": 9116,
 "bunda": 9117,
 "bom": 9118,
 "cileri": 9119,
 "cÄ±mÄ±": 9120,
 "cabey": 9121,
 "dolayÄ±": 9122,
 "dunuz": 9123,
 "dÃ¶rd": 9124,
 "eor": 9125,
 "for": 9126,
 "gh": 9127,
 "gecik": 9128,
 "hilÃ¢fet": 9129,
 "huzur": 9130,
 "ier": 9131,
 "iver": 9132,
 "kel": 9133,
 "kilerin": 9134,
 "kÃ»m": 9135,
 "ly": 9136,
 "lunun": 9137,
 "lilik": 9138,
 "milli": 9139,
 "pa": 9140,
 "pan": 9141,
 "pro": 9142,
 "qu": 9143,
 "renin": 9144,
 "sok": 9145,
 "suÃ§": 9146,
 "sindeki": 9147,
 "saygÄ±deÄŁer": 9148,
 "tat": 9149,
 "taz": 9150,
 "yr": 9151,
 "yÄ±ÅŁ": 9152,
 "ymÄ±ÅŁ": 9153,
 "ydÄ±k": 9154,
 "yÃ¼ce": 9155,
 "yÃ¢t": 9156,
 "Ġ?": 9157,
 "Ä±ra": 9158,
 "Ä±sÄ±": 9159,
 "Ä±lacaÄŁÄ±": 9160,
 "Ä±sÄ±r": 9161,
 "Ã¼b": 9162,
 "Ã¼yordum": 9163,
 "ÅŁif": 9164,
 "ÅŁeyi": 9165,
 "ÅŁifre": 9166,
 "inen": 9167,
 "inop": 9168,
 "Ġbaz": 9169,
 "irli": 9170,
 "engin": 9171,
 "etini": 9172,
 "etmeye": 9173,
 "etinizi": 9174,
 "Ã§eki": 9175,
 "Ã§erÃ§evesinde": 9176,
 "Ã§eper": 9177,
 "ĠdÄ±": 9178,
 "ĠdÃ¶": 9179,
 "ĠdÃ¶rdÃ¼ncÃ¼": 9180,
 "malarÄ±n": 9181,
 "madd": 9182,
 "mamalÄ±dÄ±r": 9183,
 "Ġkum": 9184,
 "ĠkÄ±l": 9185,
 "ĠkÃ¶r": 9186,
 "ekt": 9187,
 "Ġgurur": 9188,
 "Ã¶mÃ¼r": 9189,
 "Ġvap": 9190,
 "aklarÄ±nÄ±": 9191,
 "lav": 9192,
 "ĠsÃ¶n": 9193,
 "Ġsultan": 9194,
 "Ġyeme": 9195,
 "Ġyemin": 9196,
 "aldÄ±r": 9197,
 "alesef": 9198,
 "Ġomuz": 9199,
 "Ġtem": 9200,
 "ĠtÄ±r": 9201,
 "Ġtit": 9202,
 "Ġtez": 9203,
 "Ġtalih": 9204,
 "desi": 9205,
 "defa": 9206,
 "deyim": 9207,
 "dala": 9208,
 "davet": 9209,
 "ĠbirliÄŁe": 9210,
 "Ġhi": 9211,
 "Ġhap": 9212,
 "Ġhit": 9213,
 "Ġhilafet": 9214,
 "ĠhikÃ¢y": 9215,
 "ĠBat": 9216,
 "ĠBro": 9217,
 "ĠBARIÅŀ": 9218,
 "imleri": 9219,
 "izlikle": 9220,
 "yacaÄŁÄ±m": 9221,
 "yayÄ±m": 9222,
 "orada": 9223,
 "onda": 9224,
 "ondan": 9225,
 "onay": 9226,
 "onlarÄ±": 9227,
 "ulmaktadÄ±r": 9228,
 "tÄ±ÅŁÄ±": 9229,
 "Ġaman": 9230,
 "lÄ±sÄ±": 9231,
 "eyecek": 9232,
 "sÄ±kÄ±n": 9233,
 "emiyorum": 9234,
 "Ġmili": 9235,
 "ĠKam": 9236,
 "ĠKAN": 9237,
 "ĠKaÃ§": 9238,
 "ĠKarakol": 9239,
 "ĠKatÄ±na": 9240,
 "ĠgÃ¶m": 9241,
 "deneme": 9242,
 "denemenin": 9243,
 "ayna": 9244,
 "ĠManda": 9245,
 "ĠMister": 9246,
 "ĠMevki": 9247,
 "ĠMeÅŁrutiyet": 9248,
 "Ä±nÄ±r": 9249,
 "old": 9250,
 "olmadÄ±ÄŁÄ±": 9251,
 "olursa": 9252,
 "Ġebed": 9253,
 "ĠAdÄ±": 9254,
 "ĠAÃ§Ä±k": 9255,
 "ĠAdam": 9256,
 "abu": 9257,
 "aban": 9258,
 "abÄ±n": 9259,
 "tama": 9260,
 "ĠÄ°LAN": 9261,
 "ĠgÃ¶rdÃ¼ÄŁÃ¼": 9262,
 "indedir": 9263,
 "ĠHem": 9264,
 "eleriniz": 9265,
 "Ġilleri": 9266,
 "ĠnÃ¼s": 9267,
 "Ä±rÄ±l": 9268,
 "okra": 9269,
 "tede": 9270,
 "lanna": 9271,
 "Ã¶zgÃ¼": 9272,
 "Ġalmaktan": 9273,
 "ito": 9274,
 "itlis": 9275,
 "Ġetmektedir": 9276,
 "ĠTab": 9277,
 "ĠTeÅŁ": 9278,
 "ĠTarih": 9279,
 "ĠbildiÄŁi": 9280,
 "Ġbiliyorsunuz": 9281,
 "ĠSek": 9282,
 "ĠSÄ°Y": 9283,
 "ĠbaÅŁlamak": 9284,
 "ĠvermiÅŁtir": 9285,
 "Ġverdikten": 9286,
 "Ġverilerek": 9287,
 "ĠverilmiÅŁtir": 9288,
 "Ġvereyim": 9289,
 "Ġvermenizi": 9290,
 "ĠEmir": 9291,
 "ĠEÄŁitim": 9292,
 "ahat": 9293,
 "ahkem": 9294,
 "ĠiÃ§indir": 9295,
 "Ġani": 9296,
 "tÄ±rÄ±cÄ±": 9297,
 "eÅŁilordu": 9298,
 "Ġbulunur": 9299,
 "ĠbulunmalarÄ±": 9300,
 "Ġyapmakta": 9301,
 "ĠyapÄ±p": 9302,
 "Ġediniz": 9303,
 "ĠDemek": 9304,
 "urumuz": 9305,
 "Ġistekli": 9306,
 "Ġpan": 9307,
 "ĠpaÅŁa": 9308,
 "Ġposta": 9309,
 "Ã¼yeleri": 9310,
 "mayacaÄŁÄ±ndan": 9311,
 "Ġgelmeye": 9312,
 "Ġgelmesi": 9313,
 "ĠgelmiÅŁtir": 9314,
 "Ġgelebilir": 9315,
 "Ġgelebilecek": 9316,
 "iyeti": 9317,
 "asim": 9318,
 "mantÄ±k": 9319,
 "ĠCUMHURÄ°YET": 9320,
 "ĠCÃ¢mi": 9321,
 "ukur": 9322,
 "ĠYen": 9323,
 "ĠÃ¶ne": 9324,
 "Ġfes": 9325,
 "ederken": 9326,
 "ĠGÃľ": 9327,
 "Ġmilletler": 9328,
 "Ġmilletten": 9329,
 "ilmeye": 9330,
 "ÄŁÄ±mda": 9331,
 "ĠayÄ±n": 9332,
 "ĠardÄ±m": 9333,
 "ĠOna": 9334,
 "ĠkarÅŁÄ±lÄ±ÄŁÄ±": 9335,
 "ĠRe": 9336,
 "ĠRefik": 9337,
 "kanlÄ±": 9338,
 "ĠgÃ¼neye": 9339,
 "ĠgÃ¶rÃ¼ÅŁerek": 9340,
 "ĠgÃ¶rÃ¼ÅŁlÃ¼": 9341,
 "ĠgÃ¶rÃ¼ÅŁlerimizi": 9342,
 "ĠinancÄ±": 9343,
 "ĠgerekÃ§": 9344,
 "Ġrez": 9345,
 "ilÃ¢yÃ¢t": 9346,
 "ĠkurmuÅŁ": 9347,
 "ĠkurduÄŁu": 9348,
 "Ġdurumla": 9349,
 "ĠtarzÄ±": 9350,
 "giden": 9351,
 "ĠsÃ¶zlere": 9352,
 "ĠonarÄ±m": 9353,
 "ĠÃ§Ä±kmÄ±ÅŁtÄ±": 9354,
 "ĠdÃ¼ÅŁÃ¼nÃ¼lebilir": 9355,
 "ĠtelgrafÄ±mÄ±za": 9356,
 "Ġkalem": 9357,
 "ĠkalmÄ±ÅŁtÄ±": 9358,
 "sez": 9359,
 "sedi": 9360,
 "ĠgeÃ§meden": 9361,
 "ĠgeÃ§erli": 9362,
 "âĢĿ,": 9363,
 "Ġbende": 9364,
 "Ã§ekin": 9365,
 "Ġedilmek": 9366,
 "Ġediliyordu": 9367,
 "Ġedildikten": 9368,
 "baÅŁlÄ±": 9369,
 "baÅŁlan": 9370,
 "verilen": 9371,
 "ĠsÃ¼rÃ¼p": 9372,
 "ĠsÃ¼resinin": 9373,
 "ĠsÃ¼rdÃ¼ÄŁÃ¼": 9374,
 "reter": 9375,
 "Ġtarihin": 9376,
 "ĠkararÄ±mÄ±": 9377,
 "Ġyaratan": 9378,
 "Ġyardak": 9379,
 "elidir": 9380,
 "Ġharita": 9381,
 "Ġyolculuk": 9382,
 "oyna": 9383,
 "ĠyanÄ±": 9384,
 "gÃ¶rdÃ¼k": 9385,
 "Ġzamana": 9386,
 "gÃ¼ney": 9387,
 "gÃ¼neÅŁ": 9388,
 "gÃ¼nlerde": 9389,
 "Ġbirliklerimiz": 9390,
 "ĠhaklarÄ±nÄ±n": 9391,
 "ĠgÃ¶steri": 9392,
 "ĠÃ§alÄ±ÅŁtÄ±k": 9393,
 "ĠÃ§alÄ±ÅŁÄ±yordu": 9394,
 "ĠgÃ¶revin": 9395,
 "ĠgÃ¶revleri": 9396,
 "ĠgÃ¶revinin": 9397,
 "canav": 9398,
 "Ġmakama": 9399,
 "ĠdeÄŁilse": 9400,
 "artal": 9401,
 "meyeceÄŁim": 9402,
 "sizi": 9403,
 "ĠadÄ±ndaki": 9404,
 "ĠyazdÄ±k": 9405,
 "lamamÄ±ÅŁtÄ±r": 9406,
 "halkÄ±": 9407,
 "Ġuzanan": 9408,
 "ĠgÃ¶ndermek": 9409,
 "Ġ1924": 9410,
 "ĠÃ¶nceden": 9411,
 "Ġgetirerek": 9412,
 "Ġgetirildi": 9413,
 "Ġikisi": 9414,
 "LEÅŀ": 9415,
 "ĠÃ¶t": 9416,
 "ĠÃ¶perim": 9417,
 "Ġkaya": 9418,
 "ĠkalacaktÄ±r": 9419,
 "ĠsayÄ±lan": 9420,
 "ĠsorduÄŁum": 9421,
 "ĠÅŀÃ¼phesiz": 9422,
 "ĠsaÄŁlayan": 9423,
 "yapÄ±t": 9424,
 "ĠyetiÅŁtir": 9425,
 "ĠbaÄŁr": 9426,
 "ĠsÃ¶ylediÄŁi": 9427,
 "ĠsÃ¶yleyen": 9428,
 "ĠÅŁeyh": 9429,
 "ĠErtesi": 9430,
 "ĠyÃ¼zde": 9431,
 "acaklarÄ±": 9432,
 "acaklarÄ±nÄ±": 9433,
 "ĠkÄ±lÄ±": 9434,
 "ĠÃ¶nemsiz": 9435,
 "iciye": 9436,
 "dÃ¼ÅŁÃ¼ÅŁ": 9437,
 "Ġduyulan": 9438,
 "istek": 9439,
 "isteÄŁ": 9440,
 "ĠseÃ§mek": 9441,
 "Ġtekliflerini": 9442,
 "Ġmemleketimizde": 9443,
 "omur": 9444,
 "ĠnoktasÄ±na": 9445,
 "Ġortada": 9446,
 "ĠtutulmasÄ±": 9447,
 "Ã¼ste": 9448,
 "Ã¼stah": 9449,
 "Ã¼stÃ¼nde": 9450,
 "ĠanlaÅŁÄ±lmasÄ±": 9451,
 "ĠkanÄ±": 9452,
 "ĠbÄ±rakmÄ±ÅŁ": 9453,
 "konuyu": 9454,
 "ĠdÃ¼ÅŁÃ¼ncelerin": 9455,
 "ĠdÃ¼ÅŁÃ¼ncesiyle": 9456,
 "yerlerde": 9457,
 "ĠMudanya": 9458,
 "ĠArkadaÅŁ": 9459,
 "ilebilecek": 9460,
 "AydÄ±n": 9461,
 "ĠÃ§ekmeye": 9462,
 "dÃ¼ÄŁÃ¼nÃ¼z": 9463,
 "Ġaksi": 9464,
 "Ġaktar": 9465,
 "Ġoluruz": 9466,
 "Ġolursak": 9467,
 "ĠsaÃ§": 9468,
 "ĠhazÄ±rlamak": 9469,
 "ĠdÃ¶nerek": 9470,
 "ĠdÃ¶nmesi": 9471,
 "ĠdÃ¶ndÃ¼": 9472,
 "ĠdÃ¶nmÃ¼ÅŁ": 9473,
 "ĠÄ°smail": 9474,
 "Ġgitmeden": 9475,
 "yeterli": 9476,
 "ĠarkadaÅŁÄ±nÄ±n": 9477,
 "Ġetmeden": 9478,
 "Ãĸyleyse": 9479,
 "ĠÃ§Ä±karÄ±lmasÄ±": 9480,
 "Ġkuruldu": 9481,
 "diÄŁimde": 9482,
 "Ġolmaktan": 9483,
 "ĠgÃ¶rÃ¼lÃ¼yordu": 9484,
 "ĠolmamasÄ±": 9485,
 "gÃ¶zle": 9486,
 "yolc": 9487,
 "yolunu": 9488,
 "Ġdenilmekte": 9489,
 "ĠdayandÄ±r": 9490,
 "ĠdayanÄ±ÅŁma": 9491,
 "tiÄŁinde": 9492,
 "ĠÄ°ngilizlere": 9493,
 "ĠkapalÄ±": 9494,
 "ĠkapÄ±lma": 9495,
 "Ġoksij": 9496,
 "Ġokyanusun": 9497,
 "ĠkaynaÄŁÄ±": 9498,
 "Ġdibinde": 9499,
 "Ġsiyaseti": 9500,
 "Ġgayeyi": 9501,
 "Ġgayesini": 9502,
 "Ġtertibat": 9503,
 "Ġdenizlerde": 9504,
 "laÅŁtÄ±rÄ±lmasÄ±": 9505,
 "ĠBendeniz": 9506,
 "Ġgeneral": 9507,
 "ĠsonuÃ§larÄ±": 9508,
 "ĠkaÃ§maya": 9509,
 "ĠinsanÄ±n": 9510,
 "Ġgenellikle": 9511,
 "Ġtane": 9512,
 "saldÄ±r": 9513,
 "saltanat": 9514,
 "ĠyaklaÅŁtÄ±": 9515,
 "diÄŁimizde": 9516,
 "lamayacak": 9517,
 "lamayacaÄŁÄ±": 9518,
 "ĠalanÄ±": 9519,
 "Ġbelirtti": 9520,
 "Ġikna": 9521,
 "ĠsÄ±radan": 9522,
 "Ġsebeplerle": 9523,
 "kendisinin": 9524,
 "herhalde": 9525,
 "Ġtabak": 9526,
 "ĠbaÅŁkanlÄ±ÄŁÄ±nda": 9527,
 "Ġkanunlar": 9528,
 "ĠkanunlarÄ±n": 9529,
 "Ġmeseleleri": 9530,
 "ĠdÃ¼nyaca": 9531,
 "ĠbeÅŁinci": 9532,
 "Ġbekley": 9533,
 "ĠbeklediÄŁi": 9534,
 "Ġert": 9535,
 "Ã¼piter": 9536,
 "Ġsevin": 9537,
 "Ġsevda": 9538,
 "dÄ±ÄŁÄ±mda": 9539,
 "Ġtehlikede": 9540,
 "sÃ¼rÃ¼": 9541,
 "sÃ¼rekli": 9542,
 "sÃ¼rdÃ¼r": 9543,
 "ĠhalkÄ±nÄ±": 9544,
 "ĠsunduÄŁum": 9545,
 "ĠaÃ§Ä±klamalarÄ±": 9546,
 "ĠaÃ§Ä±klamalarda": 9547,
 "SÄ°VAS": 9548,
 "Ġdinle": 9549,
 "ĠBize": 9550,
 "ĠsavaÅŁtan": 9551,
 "millete": 9552,
 "Ġkoymak": 9553,
 "Ġhepsinin": 9554,
 "ilirse": 9555,
 "Ġkazanmak": 9556,
 "ĠbaÄŁÄ±msÄ±zlÄ±ÄŁÄ±mÄ±z": 9557,
 "Ġkeskin": 9558,
 "Ġgemisi": 9559,
 "Ġkoyan": 9560,
 "ĠKabul": 9561,
 "Ġproj": 9562,
 "Ġprotokol": 9563,
 "Ġettirilmesi": 9564,
 "LAYAN": 9565,
 "Ġmektubu": 9566,
 "Ġmaksatlarla": 9567,
 "ĠÅŁifrenin": 9568,
 "ĠbarÄ±ÅŁÄ±n": 9569,
 "ĠaydÄ±nlan": 9570,
 "ĠboÅŁuna": 9571,
 "Ġbitti": 9572,
 "haklÄ±": 9573,
 "ĠÃľZ": 9574,
 "Ġsessizlik": 9575,
 "ĠanlattÄ±": 9576,
 "ĠyayÄ±nlanan": 9577,
 "ĠtaÅŁÄ±t": 9578,
 "saÄŁlamak": 9579,
 "ĠdÃ¼zene": 9580,
 "ĠÃ§alÄ±ÅŁmalarÄ±nÄ±": 9581,
 "ĠhÃ¼kÃ¼mlerinin": 9582,
 "ĠatlÄ±": 9583,
 "edakar": 9584,
 "ĠuÄŁratÄ±l": 9585,
 "bunlar": 9586,
 "bunlardan": 9587,
 "insanlar": 9588,
 "Ġyenilik": 9589,
 "ĠhaberleÅŁmeler": 9590,
 "mÃ¼hendis": 9591,
 "teydi": 9592,
 "sÄ±zlÄ±ktan": 9593,
 "ĠesaslarÄ±": 9594,
 "ĠhatÄ±rÄ±ma": 9595,
 "DÄ°Åŀ": 9596,
 "dekiler": 9597,
 "ĠkardeÅŁleri": 9598,
 "ĠkÃ¶tÃ¼ye": 9599,
 "ĠkomutasÄ±nda": 9600,
 "Ġlibre": 9601,
 "ĠgeniÅŁlet": 9602,
 "ĠKARAR": 9603,
 "ĠbaÅŁvurarak": 9604,
 "Ġhanedan": 9605,
 "Ġisteniyordu": 9606,
 "HÃ¼kÃ»metin": 9607,
 "landÄ±rmak": 9608,
 "luÄŁunda": 9609,
 "madÄ±klarÄ±": 9610,
 "Devleti": 9611,
 "ĠyanlÄ±ÅŁlÄ±k": 9612,
 "Ġbahan": 9613,
 "ĠaÄŁÄ±rlÄ±k": 9614,
 "ĠBaÅŁkomutanÄ±": 9615,
 "hepsi": 9616,
 "Ġvalisi": 9617,
 "ĠfedakÃ¢rlÄ±ÄŁÄ±": 9618,
 "Ġispata": 9619,
 "ĠhÃ¢kimiyeti": 9620,
 "Ä±nlÄ±klarÄ±n": 9621,
 "ĠKonferans": 9622,
 "AZIRI": 9623,
 "YunanlÄ±lar": 9624,
 "Ġmanevi": 9625,
 "Ġmanevra": 9626,
 "heyecanla": 9627,
 "Ã¼zÃ¼ÄŁÃ¼": 9628,
 "ĠSaat": 9629,
 "fÄ±rsat": 9630,
 "Ġ61": 9631,
 "tabaka": 9632,
 "ĠÃ¼ltimatom": 9633,
 "ĠyapÄ±lmasÄ±na": 9634,
 "ĠgereÄŁidir": 9635,
 "ĠmÃ¼frezesi": 9636,
 "hayran": 9637,
 "kÃ¶p": 9638,
 "mecit": 9639,
 "Ġderinlik": 9640,
 "Ġduyurmak": 9641,
 "BilindiÄŁi": 9642,
 "ĠpolitikacÄ±": 9643,
 "gitti": 9644,
 "lamazdÄ±": 9645,
 "ĠÅŁahsiyetleri": 9646,
 "ĠÅŁahsiyetlerinin": 9647,
 "ĠdÄ±ÅŁarÄ±dan": 9648,
 "bununla": 9649,
 "ĠoluÅŁturduÄŁu": 9650,
 "ĠÅŁunlardÄ±r": 9651,
 "ĠcanavarÄ±n": 9652,
 "bazÄ±larÄ±": 9653,
 "Ġkolordunun": 9654,
 "ĠkonferansÄ±n": 9655,
 "Ġkonferansa": 9656,
 "ĠisteÄŁini": 9657,
 "ĠÃ¶ldÃ¼rme": 9658,
 "kiÅŁinin": 9659,
 "anlaÅŁÄ±ldÄ±": 9660,
 "ĠhilÃ¢fetin": 9661,
 "ĠoluÅŁu": 9662,
 "Ġzanne": 9663,
 "ĠsaÄŁlanmasÄ±na": 9664,
 "kere": 9665,
 "ĠÃ¶nerge": 9666,
 "kimseler": 9667,
 "seÃ§im": 9668,
 "ĠHariciye": 9669,
 "ĠHÃ¢mit": 9670,
 "ĠalÄ±nacaktÄ±r": 9671,
 "MÃ¼cadele": 9672,
 "Ġbulunuyoruz": 9673,
 "ĠolduÄŁumuzu": 9674,
 "Ġiradeye": 9675,
 "Ġniyetli": 9676,
 "Ġniyetinde": 9677,
 "Ġfersah": 9678,
 "Ġvatanseverlik": 9679,
 "ÅŀIYOR": 9680,
 "saydÄ±m": 9681,
 "takip": 9682,
 "Ġmalz": 9683,
 "ĠaracÄ±lÄ±k": 9684,
 "ĠÃ¼zÃ¼nt": 9685,
 "ĠkurtuluÅŁu": 9686,
 "ĠiÃ§eride": 9687,
 "Ġbiribirini": 9688,
 "ĠsÃ¶ylentiler": 9689,
 "beklemek": 9690,
 "gÃ¼rÃ¼ltÃ¼": 9691,
 "Ġbulup": 9692,
 "ĠdemiÅŁtim": 9693,
 "Ġtebligatta": 9694,
 "Ġseyret": 9695,
 "ĠatÄ±ldÄ±": 9696,
 "ĠMalta": 9697,
 "ĠyapacaklarÄ±": 9698,
 "Ġbendenize": 9699,
 "Ġkaynaklardan": 9700,
 "SalÃ¢hattin": 9701,
 "anisa": 9702,
 "Ġnotaya": 9703,
 "ĠheyecanlÄ±": 9704,
 "ĠrahatÃ§a": 9705,
 "leyip": 9706,
 "oluÅŁan": 9707,
 "AmerikalÄ±larÄ±n": 9708,
 "zarar": 9709,
 "ĠburasÄ±": 9710,
 "Ġburadaki": 9711,
 "ĠArap": 9712,
 "ĠAramÄ±zda": 9713,
 "ĠDurumu": 9714,
 "ĠDerhal": 9715,
 "ĠDersim": 9716,
 "perver": 9717,
 "temsilciler": 9718,
 "ĠyÃ¶nelmiÅŁ": 9719,
 "sabÄ±rsÄ±z": 9720,
 "kÄ±sasÄ±": 9721,
 "Ġbeklenmedik": 9722,
 "KanadalÄ±": 9723,
 "ĠalÃ§akÃ§a": 9724,
 "ĠparÃ§asÄ±": 9725,
 "................................": 9726,
 "ardÄ±ndan": 9727,
 "ĠmantÄ±ksÄ±z": 9728,
 "Ġdisipl": 9729,
 "ĠdeÄŁiÅŁikliÄŁi": 9730,
 "Ġmazer": 9731,
 "uygulama": 9732,
 "ĠkararlÄ±lÄ±k": 9733,
 "Ġihtimale": 9734,
 "ĠÃľÃ§Ã¼ncÃ¼": 9735,
 "tespit": 9736,
 "ĠhÄ±rs": 9737,
 "ĠgÃ¼ttÃ¼ÄŁÃ¼": 9738,
 "Verne": 9739,
 "hÃ¢lÃ¢": 9740,
 "ĠboÅŁaltÄ±lmasÄ±": 9741,
 "ules": 9742,
 "ĠoÄŁlu": 9743,
 "tavÄ±r": 9744,
 "eddÃ¼t": 9745,
 "ĠSaray": 9746,
 "Ġcinayet": 9747,
 "Okyanusu": 9748,
 "Ġnasihat": 9749,
 "Ġliderleri": 9750,
 "ĠzÃ¢tÄ±Ã¢lÃ®n": 9751,
 "ĠhesabÄ±na": 9752,
 "ĠMECLÄ°SÄ°": 9753,
 "ahmetli": 9754,
 "Ġbenzeri": 9755,
 "Ġnamuslu": 9756,
 "ĠSabri": 9757,
 "Atlan": 9758,
 "OZAN": 9759,
 "Yolculuk": 9760,
 "ĠdolaÅŁÄ±": 9761,
 "Ġdefter": 9762,
 "ĠSuphi": 9763,
 "Ġelbiseler": 9764,
 "Ġmanzara": 9765,
 "ĠtaahhÃ¼t": 9766,
 "parÃ§alan": 9767,
 "ĠÃ¶ÄŁleden": 9768,
 "Seyyare": 9769,
 "Ġmuamel": 9770,
 "vasÄ±tasÄ±yla": 9771,
 "ALIÅŀIYOR": 9772,
 "maÅŁtÄ±rÄ±cÄ±": 9773,
 "ĠkasÄ±t": 9774,
 "ĠyapÄ±lÄ±rken": 9775,
 "Ġkuzeye": 9776,
 "ĠahlÃ¢k": 9777,
 "ĠzÄ±pkÄ±nÄ±nÄ±": 9778,
 "Ġdetay": 9779,
 "Ġvatana": 9780,
 "olekÃ¼l": 9781,
 "ĠAnayasa": 9782,
 "ĠTAARRUZ": 9783,
 "ĠmÃ¼saadenizi": 9784,
 "ĠBatum": 9785,
 "ĠebedÃ®": 9786,
 "ĠyardakÃ§Ä±": 9787,
 "44": 9788,
 "47": 9789,
 "48": 9790,
 "57": 9791,
 "60": 9792,
 "80": 9793,
 "AÃ§Ä±k": 9794,
 "Bah": 9795,
 "Bana": 9796,
 "BakÄ±n": 9797,
 "BalÄ±kesir": 9798,
 "CAK": 9799,
 "Canav": 9800,
 "DaÄŁ": 9801,
 "DÃ¶k": 9802,
 "DIRI": 9803,
 "EB": 9804,
 "Ey": 9805,
 "EDE": 9806,
 "Eski": 9807,
 "GerÃ§ek": 9808,
 "GerÃ§i": 9809,
 "Hep": 9810,
 "Hukuk": 9811,
 "Ier": 9812,
 "Ieri": 9813,
 "Jules": 9814,
 "Kal": 9815,
 "KeÅŁ": 9816,
 "Kemal": 9817,
 "KÃ¶rfezi": 9818,
 "MER": 9819,
 "NE": 9820,
 "NÃ¢zÄ±rÄ±": 9821,
 "Onu": 9822,
 "Ser": 9823,
 "Sist": 9824,
 "SaygÄ±": 9825,
 "SUN": 9826,
 "TLAÅŀ": 9827,
 "UH": 9828,
 "VE": 9829,
 "VER": 9830,
 "XI": 9831,
 "Yap": 9832,
 "YiÄŁit": 9833,
 "YaÅŁasÄ±n": 9834,
 "asa": 9835,
 "alabil": 9836,
 "cc": 9837,
 "cÄ±n": 9838,
 "cÄ±l": 9839,
 "cusu": 9840,
 "cilik": 9841,
 "cecik": 9842,
 "cÃ¼mle": 9843,
 "dunu": 9844,
 "dolay": 9845,
 "eak": 9846,
 "emem": 9847,
 "fil": 9848,
 "gara": 9849,
 "gÄ±lan": 9850,
 "gram": 9851,
 "hir": 9852,
 "hes": 9853,
 "hayÄ±r": 9854,
 "hington": 9855,
 "iga": 9856,
 "kir": 9857,
 "kli": 9858,
 "kÄ±z": 9859,
 "kÃ¼t": 9860,
 "kÃ¼Ã§": 9861,
 "kahraman": 9862,
 "leler": 9863,
 "miz": 9864,
 "nan": 9865,
 "naz": 9866,
 "neler": 9867,
 "nok": 9868,
 "nut": 9869,
 "nard": 9870,
 "of": 9871,
 "osu": 9872,
 "potasyum": 9873,
 "ry": 9874,
 "rek": 9875,
 "spr": 9876,
 "tarak": 9877,
 "tali": 9878,
 "tÃ¼men": 9879,
 "tÄ±nÄ±z": 9880,
 "usta": 9881,
 "val": 9882,
 "yo": 9883,
 "yesi": 9884,
 "yeri": 9885,
 "yemek": 9886,
 "yecektir": 9887,
 "zÃ¢de": 9888,
 "ĠÄ±m": 9889,
 "Ġ).": 9890,
 "ÅŁaÅŁ": 9891,
 "ÅŁeye": 9892,
 "ÅŁimdiye": 9893,
 "ÅŁikÃ¢yet": 9894,
 "ÅŁÃ¼phe": 9895,
 "arz": 9896,
 "arif": 9897,
 "aramÄ±zda": 9898,
 "Ġbez": 9899,
 "illerin": 9900,
 "ildiÄŁini": 9901,
 "iriÅŁ": 9902,
 "Ä±nan": 9903,
 "ÄŁret": 9904,
 "etiyle": 9905,
 "Ã§ileri": 9906,
 "Ã§alÄ±": 9907,
 "Ã§uluk": 9908,
 "Ġdini": 9909,
 "Ġdaki": 9910,
 "masÄ±n": 9911,
 "mamasÄ±nÄ±": 9912,
 "matik": 9913,
 "maddÃ®": 9914,
 "Ġkah": 9915,
 "Ġkaptan": 9916,
 "Ġkolu": 9917,
 "ekten": 9918,
 "Ġgev": 9919,
 "Ã¶h": 9920,
 "unca": 9921,
 "elden": 9922,
 "elini": 9923,
 "elver": 9924,
 "lamÄ±yor": 9925,
 "Ġsesi": 9926,
 "ĠsoÄŁuk": 9927,
 "Ġyi": 9928,
 "Ġyel": 9929,
 "ĠyÄ±p": 9930,
 "Ġyuvar": 9931,
 "Ġyiyecek": 9932,
 "alÄ±r": 9933,
 "alÃ¼minyum": 9934,
 "ĠoI": 9935,
 "ĠtÃ¼n": 9936,
 "diyerek": 9937,
 "demiÅŁ": 9938,
 "deyse": 9939,
 "Ġip": 9940,
 "Ġit": 9941,
 "Ġidik": 9942,
 "urn": 9943,
 "urdu": 9944,
 "Ġhuz": 9945,
 "dÄ±ÄŁÄ±na": 9946,
 "ĠBaltimore": 9947,
 "ĠBitlis": 9948,
 "imzalan": 9949,
 "aÅŁÄ±rÄ±": 9950,
 "ortak": 9951,
 "oranla": 9952,
 "onlara": 9953,
 "ullarÄ±": 9954,
 "tÄ±lan": 9955,
 "Ġab": 9956,
 "Ġolunan": 9957,
 "ĠolmayÄ±": 9958,
 "raÄŁÄ±": 9959,
 "racak": 9960,
 "raÄŁmen": 9961,
 "sÄ±kÄ±ÅŁ": 9962,
 "Ġmel": 9963,
 "ĠmiÅŁ": 9964,
 "Ġmuydu": 9965,
 "Ġmill": 9966,
 "ĠKal": 9967,
 "ĠKÄ±lÄ±Ã§": 9968,
 "atmak": 9969,
 "âĢ¦": 9970,
 "Ã¢k": 9971,
 "ĠdediÄŁimiz": 9972,
 "ĠMondros": 9973,
 "ĠMazhar": 9974,
 "ĠManisa": 9975,
 "ĠÃ§a": 9976,
 "ĠÃ§erÃ§ev": 9977,
 "ĠÅŁeriat": 9978,
 "inist": 9979,
 "azÄ±l": 9980,
 "azzam": 9981,
 "Ġbucak": 9982,
 "oln": 9983,
 "olmalÄ±": 9984,
 "olmuÅŁtur": 9985,
 "oldukÃ§a": 9986,
 "Ġef": 9987,
 "Ġeh": 9988,
 "ĠAdil": 9989,
 "abetli": 9990,
 "apka": 9991,
 "Ä±lgÄ±n": 9992,
 "ĠÄ°M": 9993,
 "ĠgÃ¶rerek": 9994,
 "ĠHarb": 9995,
 "ĠHerkes": 9996,
 "ĠilginÃ§": 9997,
 "Ġni": 9998,
 "Ä±rk": 9999,
 "Ä±rÄ±z": 10000,
 "Ä±rkasÄ±": 10001,
 "Ã¶net": 10002,
 "Ã¶neri": 10003,
 "evkal": 10004,
 "lanmÄ±ÅŁtÄ±r": 10005,
 "lanmaktadÄ±r": 10006,
 "saÃ§": 10007,
 "saÄŁa": 10008,
 "lerime": 10009,
 "Ġalmadan": 10010,
 "Ġetmez": 10011,
 "Ġetmenin": 10012,
 "Ġetkil": 10013,
 "ĠTali": 10014,
 "ĠTÃľRK": 10015,
 "ĠTanin": 10016,
 "ĠTakr": 10017,
 "muyordu": 10018,
 "Ġbilimsel": 10019,
 "ĠSor": 10020,
 "ĠSaÄŁ": 10021,
 "ĠSaygÄ±": 10022,
 "ĠSON": 10023,
 "ĠStone": 10024,
 "ĠSÃ¼kÃ»n": 10025,
 "ĠSinop": 10026,
 "uyarak": 10027,
 "adÄ±n": 10028,
 "ĠbaÅŁtan": 10029,
 "ĠbaÅŁyaz": 10030,
 "Ġveriniz": 10031,
 "Ġverebilmek": 10032,
 "ĠEN": 10033,
 "ĠEv": 10034,
 "bilmem": 10035,
 "usuyla": 10036,
 "Ã¼mÃ¼n": 10037,
 "Ã¼mlÃ¼": 10038,
 "unup": 10039,
 "tiras": 10040,
 "lÄ±klarÄ±n": 10041,
 "eÅŁar": 10042,
 "eÅŁat": 10043,
 "Ġbulunul": 10044,
 "ĠbulunayÄ±m": 10045,
 "Ġbulunuldu": 10046,
 "ĠbulunacaktÄ±r": 10047,
 "Ġbulundular": 10048,
 "ĠbulunduÄŁunuz": 10049,
 "ĠyaptÄ±ktan": 10050,
 "ĠyapacaÄŁÄ±m": 10051,
 "layÄ±nÄ±z": 10052,
 "ĠDen": 10053,
 "ĠDÃ¼n": 10054,
 "ĠDÃĸN": 10055,
 "Ã¼lÃ¼yor": 10056,
 "Ã¼lmesine": 10057,
 "hac": 10058,
 "hain": 10059,
 "ĠistilÃ¢": 10060,
 "Ġistediler": 10061,
 "Ġistibdat": 10062,
 "ĠplÃ¢": 10063,
 "Ã¼yesi": 10064,
 "mayacaÄŁÄ±na": 10065,
 "Ã¶rnek": 10066,
 "Ġgelmekte": 10067,
 "Ġgelmez": 10068,
 "Ġgeldiler": 10069,
 "Ġgelmesini": 10070,
 "ashington": 10071,
 "laÅŁa": 10072,
 "laÅŁmanÄ±n": 10073,
 "manlarÄ±": 10074,
 "ĠolanÄ±": 10075,
 "Ġolanlardan": 10076,
 "ĠYer": 10077,
 "ĠYarÄ±n": 10078,
 "ĠYani": 10079,
 "ĠYeÅŁilordu": 10080,
 "Ġsonraya": 10081,
 "ĠÃ¶nlen": 10082,
 "ĠÃ¶nlemek": 10083,
 "Ġfalan": 10084,
 "ĠfilÃ¢n": 10085,
 "ĠGE": 10086,
 "ĠGer": 10087,
 "ĠGeÃ§": 10088,
 "ĠNasÄ±l": 10089,
 "ĠNAZIRI": 10090,
 "Ġmilletimizi": 10091,
 "ilmeden": 10092,
 "ilmesinden": 10093,
 "Ġaydan": 10094,
 "ĠaygÄ±": 10095,
 "Ã§Ä±karÄ±": 10096,
 "ĠiÅŁleme": 10097,
 "Ġyerlerinde": 10098,
 "ĠyeryÃ¼zÃ¼ndeki": 10099,
 "uÅŁu": 10100,
 "ĠReÅŁat": 10101,
 "ĠgÃ¼nÃ¼ne": 10102,
 "ĠgÃ¶rÃ¼ÅŁte": 10103,
 "ĠgÃ¶rÃ¼ÅŁlere": 10104,
 "ĠgÃ¶rÃ¼ÅŁmeden": 10105,
 "ĠinkÃ¢r": 10106,
 "Ġgereklerini": 10107,
 "Ġgereklerine": 10108,
 "Ġrek": 10109,
 "isel": 10110,
 "isindeki": 10111,
 "yÄ±p": 10112,
 "inizde": 10113,
 "Ġortam": 10114,
 "yanÄ±ndan": 10115,
 "ĠdurumlarÄ±": 10116,
 "Ġdurumunun": 10117,
 "larÄ±nÄ±zÄ±": 10118,
 "gidip": 10119,
 "Ġbizleri": 10120,
 "Ġkabule": 10121,
 "ĠsÃ¶zlerine": 10122,
 "ĠsÃ¶zlerinden": 10123,
 "ĠÃ§Ä±ktÄ±k": 10124,
 "ĠÃ§Ä±kmasÄ±na": 10125,
 "Ġtoplayarak": 10126,
 "Ġellerine": 10127,
 "ĠbÃ¼tÃ¼nlÃ¼ÄŁ": 10128,
 "Ġnefes": 10129,
 "eptÃ¼n": 10130,
 "ĠbildirdiÄŁi": 10131,
 "ĠbildirilmiÅŁtir": 10132,
 "ĠvardÄ±k": 10133,
 "ĠkalkÄ±n": 10134,
 "ĠkalmÄ±ÅŁtÄ±r": 10135,
 "ĠkalmadÄ±ÄŁÄ±": 10136,
 "ĠkalmamÄ±ÅŁ": 10137,
 "ĠkalmamÄ±ÅŁtÄ±r": 10138,
 "unacaktÄ±r": 10139,
 "sefer": 10140,
 "ĠgeÃ§ecek": 10141,
 "ĠgeÃ§ip": 10142,
 "ĠMeclisin": 10143,
 "silindir": 10144,
 "nedir": 10145,
 "ĠdoÄŁa": 10146,
 "ĠdoÄŁmuÅŁ": 10147,
 "Ġkendime": 10148,
 "Ġkime": 10149,
 "Ġedilip": 10150,
 "ĠedildiÄŁini": 10151,
 "baÅŁar": 10152,
 "baÅŁlÄ±ca": 10153,
 "verecek": 10154,
 "verdim": 10155,
 "verilmesini": 10156,
 "ĠolacaÄŁÄ±na": 10157,
 "ĠolamayacaÄŁÄ±nÄ±": 10158,
 "ĠaÃ§Ä±ktÄ±r": 10159,
 "ĠsÃ¼rece": 10160,
 "ĠsÃ¼rmÃ¼ÅŁ": 10161,
 "ĠkararÄ±nda": 10162,
 "ĠkararlarÄ±nÄ±n": 10163,
 "ĠtarafÄ±mdan": 10164,
 "Ġtarafindan": 10165,
 "lenecek": 10166,
 "lenmeye": 10167,
 "Ġharf": 10168,
 "Ġharca": 10169,
 "Ġyollarla": 10170,
 "ĠanlatÄ±l": 10171,
 "Ġutan": 10172,
 "Ġusta": 10173,
 "sanÄ±n": 10174,
 "dÄ±mÄ±z": 10175,
 "ĠhaklarÄ±ndan": 10176,
 "ĠkabulÃ¼": 10177,
 "ĠÃ§alÄ±ÅŁmakta": 10178,
 "ĠÃ§alÄ±ÅŁtÄ±klarÄ±": 10179,
 "rej": 10180,
 "reden": 10181,
 "ĠgÃ¶revinden": 10182,
 "durdu": 10183,
 "durrah": 10184,
 "canÄ±m": 10185,
 "ÃľZ": 10186,
 "ĠÃ¶zenle": 10187,
 "ĠdeÄŁiliz": 10188,
 "ĠKomutanlÄ±ÄŁÄ±na": 10189,
 "meyecektir": 10190,
 "gelir": 10191,
 "geldiÄŁi": 10192,
 "ARB": 10193,
 "Ġhareketini": 10194,
 "Ġhareketlerinin": 10195,
 "alÄ±yordu": 10196,
 "ANDA": 10197,
 "lamamÄ±ÅŁ": 10198,
 "hale": 10199,
 "halka": 10200,
 "ĠuzlaÅŁmaya": 10201,
 "ĠtoplanacaÄŁÄ±": 10202,
 "mÄ±dÄ±r": 10203,
 "sonuc": 10204,
 "ĠgÃ¶nderilme": 10205,
 "Ġgetirecek": 10206,
 "aliba": 10207,
 "LEKET": 10208,
 "ĠÅŀah": 10209,
 "ĠÅŀifre": 10210,
 "ĠÅŀefik": 10211,
 "ĠÅŀÃ»rÃ¢": 10212,
 "Ġisteme": 10213,
 "ĠsaÄŁlamÄ±ÅŁ": 10214,
 "yapÄ±lmasÄ±": 10215,
 "ĠsÃ¶yleye": 10216,
 "ĠsÃ¶ylediÄŁim": 10217,
 "ĠsÃ¶yledikleri": 10218,
 "ĠsÃ¶yleyecek": 10219,
 "Ġmaden": 10220,
 "Ġmacer": 10221,
 "Ġmaalesef": 10222,
 "Ġesaret": 10223,
 "varsa": 10224,
 "varlÄ±ÄŁÄ±nÄ±": 10225,
 "ufuk": 10226,
 "esinlikle": 10227,
 "ĠbazÄ±larÄ±nÄ±n": 10228,
 "ĠyÃ¼zÃ¼nde": 10229,
 "ĠyÃ¼zbaÅŁÄ±": 10230,
 "ico": 10231,
 "icaret": 10232,
 "Ä°NCÄ°": 10233,
 "ĠBiri": 10234,
 "ĠBirlik": 10235,
 "ĠseÃ§ilmesini": 10236,
 "ĠgÃ¼venliÄŁi": 10237,
 "yarda": 10238,
 "ĠkonularÄ±nda": 10239,
 "ĠgÃ¶zleri": 10240,
 "Ġordumuzun": 10241,
 "Ġhaberleri": 10242,
 "Ġmemleketimizin": 10243,
 "geÃ§iyordu": 10244,
 "ĠnoktalarÄ±n": 10245,
 "ĠÃĩor": 10246,
 "Ġgemilerin": 10247,
 "Ġkoridor": 10248,
 "Ġkorusun": 10249,
 "Ġtutma": 10250,
 "Ġtutarak": 10251,
 "ĠtuttuÄŁu": 10252,
 "bulunmuÅŁ": 10253,
 "bulunuyor": 10254,
 "Ġdursun": 10255,
 "Ġsavur": 10256,
 "eÄŁmen": 10257,
 "ĠbÃ¶lgeye": 10258,
 "ĠbÃ¶lgesinin": 10259,
 "ĠbÃ¶lgelerde": 10260,
 "toplanan": 10261,
 "topÃ§u": 10262,
 "ĠdÃ¼ÅŁÃ¼ncesinde": 10263,
 "ĠdÃ¼ÅŁÃ¼nceyi": 10264,
 "yerber": 10265,
 "kalmÄ±ÅŁtÄ±": 10266,
 "kalkÄ±ÅŁ": 10267,
 "Ġilkelerin": 10268,
 "Ġilkesini": 10269,
 "Ãĩev": 10270,
 "ÃĩeÅŁitli": 10271,
 "Ġbeliren": 10272,
 "ĠÃ§ektir": 10273,
 "Ġbenimse": 10274,
 "Ġaskerleri": 10275,
 "ĠmantÄ±": 10276,
 "Ġmanzar": 10277,
 "ĠhazÄ±rlanan": 10278,
 "ĠÃ¶nemlisi": 10279,
 "ĠÃ¶nemliydi": 10280,
 "Ġtedbirin": 10281,
 "Ġtedbirlere": 10282,
 "Ġmuhak": 10283,
 "umuzu": 10284,
 "ĠkonuÅŁmanÄ±n": 10285,
 "Ġgitme": 10286,
 "Ġgitmesi": 10287,
 "ĠgittikÃ§e": 10288,
 "Ġolaylara": 10289,
 "yeten": 10290,
 "yetkin": 10291,
 "ĠarkadaÅŁlarÄ±yla": 10292,
 "ĠarkadaÅŁlarÄ±m": 10293,
 "elikten": 10294,
 "Ġetmedim": 10295,
 "Ġetmemesi": 10296,
 "olabil": 10297,
 "ĠÃ§Ä±karÄ±lan": 10298,
 "gerekti": 10299,
 "gerektiÄŁi": 10300,
 "Ġolmasa": 10301,
 "ĠolmamÄ±z": 10302,
 "Ġdikkatimi": 10303,
 "Ġdikkatinizi": 10304,
 "baÄŁÄ±rÄ±": 10305,
 "ĠZira": 10306,
 "gÃ¶zler": 10307,
 "gÃ¶zden": 10308,
 "yolda": 10309,
 "Ġdeng": 10310,
 "lerimizde": 10311,
 "hattÃ¢": 10312,
 "tiÄŁiniz": 10313,
 "Ġmilletvekillerini": 10314,
 "Ġmilletvekillerine": 10315,
 "ĠmilletvekilliÄŁinden": 10316,
 "memize": 10317,
 "ĠLinc": 10318,
 "leÅŁtirmek": 10319,
 "ERÄ°NE": 10320,
 "Ġoldum": 10321,
 "Ġoldular": 10322,
 "Ġoldugu": 10323,
 "Ġteselli": 10324,
 "Ġdibin": 10325,
 "ĠolmadÄ±ÄŁÄ±mÄ±z": 10326,
 "ĠbaÅŁladÄ±ktan": 10327,
 "Arif": 10328,
 "Ġtersine": 10329,
 "ĠtereddÃ¼t": 10330,
 "atÄ±lmÄ±ÅŁ": 10331,
 "atÄ±lmasÄ±": 10332,
 "ĠÃ¢let": 10333,
 "Ä±lmamasÄ±": 10334,
 "Ä±lmamasÄ±nÄ±": 10335,
 "ĠsonuÃ§suz": 10336,
 "ĠkaÃ§mak": 10337,
 "ĠyÃ¼rÃ¼rlÃ¼ÄŁe": 10338,
 "LERÄ°NE": 10339,
 "ĠinsanlarÄ±": 10340,
 "ĠÃĸteki": 10341,
 "ĠyazÄ±lar": 10342,
 "ĠyardÄ±mÄ±nÄ±": 10343,
 "ĠyardÄ±mcÄ±m": 10344,
 "Ġkendileriyle": 10345,
 "ĠayrÄ±lÄ±k": 10346,
 "ĠayrÄ±lÄ±r": 10347,
 "ĠsÃ¼regelen": 10348,
 "ĠÅŁÃ¼pheye": 10349,
 "Ġbelirttim": 10350,
 "yurttaÅŁ": 10351,
 "ĠikiÅŁ": 10352,
 "ĠteÅŁebbÃ¼sÃ¼n": 10353,
 "ĠteÅŁebbÃ¼sleri": 10354,
 "oturum": 10355,
 "kendisi": 10356,
 "ĠkullanÄ±lan": 10357,
 "ĠkullandÄ±ÄŁÄ±": 10358,
 "ĠCemiyetleri": 10359,
 "lukta": 10360,
 "zamanlar": 10361,
 "zamanÄ±nda": 10362,
 "ĠmÄ±yÄ±z": 10363,
 "maktadÄ±rlar": 10364,
 "aÃ§tÄ±": 10365,
 "Ġbeklemekte": 10366,
 "ĠayrÄ±lmak": 10367,
 "osya": 10368,
 "Ġsevgili": 10369,
 "dÄ±ÄŁÄ±mÄ±": 10370,
 "Ġsaatlik": 10371,
 "gÃ¼cÃ¼": 10372,
 "ĠsayÄ±da": 10373,
 "ĠsayÄ±larÄ±": 10374,
 "ĠÃ§Ã¶zÃ¼l": 10375,
 "ĠgereÄŁine": 10376,
 "ĠgereÄŁinde": 10377,
 "dÄ±ÄŁÄ±nÄ±z": 10378,
 "emize": 10379,
 "ĠbuyurulmasÄ±nÄ±": 10380,
 "seve": 10381,
 "sevimli": 10382,
 "sevinÃ§": 10383,
 "Ġkendinden": 10384,
 "Ġsunmak": 10385,
 "ĠsÃ¶ylenen": 10386,
 "ĠsÃ¶ylendi": 10387,
 "emedi": 10388,
 "Ġaleyhindeki": 10389,
 "ĠsÄ±nÄ±rÄ±": 10390,
 "deÄŁerli": 10391,
 "ĠkoymuÅŁ": 10392,
 "ĠPadiÅŁahÄ±mÄ±z": 10393,
 "ĠKongrenin": 10394,
 "MEYE": 10395,
 "Ġgerekenlere": 10396,
 "ĠilÃ¢nÄ±na": 10397,
 "ĠtoplantÄ±sÄ±": 10398,
 "ĠÃ¼stÃ¢": 10399,
 "ĠkolaylÄ±k": 10400,
 "ĠkatÄ±lmasÄ±": 10401,
 "ĠdÃ¼ÅŁÃ¼ncelere": 10402,
 "ĠdÃ¼ÅŁÃ¼ncelerle": 10403,
 "ĠdÃ¼ÅŁÃ¼ncelerimi": 10404,
 "Bence": 10405,
 "ĠsaygÄ±larÄ±mÄ±": 10406,
 "Ġkesildi": 10407,
 "ĠyÄ±llÄ±k": 10408,
 "ORD": 10409,
 "parmak": 10410,
 "ĠFransÄ±zca": 10411,
 "Ġifadesi": 10412,
 "Ġmektubun": 10413,
 "aÃ§Ä±klama": 10414,
 "anlam": 10415,
 "savunma": 10416,
 "ĠbarÄ±ÅŁa": 10417,
 "incele": 10418,
 "ĠkarÄ±ÅŁtÄ±r": 10419,
 "Ã§Ä±lar": 10420,
 "ĠÄ°zzettin": 10421,
 "ĠmandayÄ±": 10422,
 "Ġanlatmaya": 10423,
 "ĠyayÄ±nlan": 10424,
 "sÃ¶yledim": 10425,
 "yoksa": 10426,
 "Ã¼leceÄŁi": 10427,
 "saÄŁlayacak": 10428,
 "ĠsÄ±kÄ±ÅŁtÄ±r": 10429,
 "EKÄ°R": 10430,
 "ĠIs": 10431,
 "ĠMebusan": 10432,
 "Ġfaaliyetine": 10433,
 "bunlarÄ±": 10434,
 "ĠsilÃ¢hlandÄ±r": 10435,
 "ĠseÃ§imlerin": 10436,
 "ĠhaberleÅŁmenin": 10437,
 "ĠhususlarÄ±n": 10438,
 "mermiyi": 10439,
 "gÃ¶nderilmesi": 10440,
 "Ġyetkisinin": 10441,
 "ĠdavranÄ±ÅŁlarÄ±": 10442,
 "Ġgazetesi": 10443,
 "tarafÄ±mÄ±zdan": 10444,
 "ĠanlamlÄ±": 10445,
 "ULMASI": 10446,
 "bÃ¶ylesine": 10447,
 "ĠÄ±sÄ±": 10448,
 "ĠdolaylarÄ±ndaki": 10449,
 "Ġveriliyordu": 10450,
 "Ġbozguna": 10451,
 "ĠuygulanmasÄ±na": 10452,
 "ĠduygularÄ±": 10453,
 "ĠkarÅŁÄ±n": 10454,
 "Ġsorulara": 10455,
 "resmi": 10456,
 "ĠKARDE": 10457,
 "ĠdaÄŁÄ±t": 10458,
 "luÄŁun": 10459,
 "ĠsaltanatÄ±n": 10460,
 "harekete": 10461,
 "emeyiz": 10462,
 "emeyeceÄŁini": 10463,
 "hÄ±zlÄ±": 10464,
 "ĠtÃ¼menle": 10465,
 "emirci": 10466,
 "Ġbulundurarak": 10467,
 "1922": 10468,
 "ĠhaklÄ±sÄ±nÄ±z": 10469,
 "Halbuki": 10470,
 "Ġistekleri": 10471,
 "Ġbelliydi": 10472,
 "Ġayaklanma": 10473,
 "ĠKaracabey": 10474,
 "Ġkonusunun": 10475,
 "Ġikincisi": 10476,
 "mamÄ±za": 10477,
 "amÄ±zÄ±": 10478,
 "Ġnereden": 10479,
 "Ġisteriz": 10480,
 "iliÄŁini": 10481,
 "dingin": 10482,
 "yakÄ±ndan": 10483,
 "Ġhedefine": 10484,
 "Ġilgililere": 10485,
 "ĠgeliÅŁme": 10486,
 "Ġkoruya": 10487,
 "Ġtutuklu": 10488,
 "ĠÃ§Ã¶zÃ¼mÃ¼": 10489,
 "Ã§evresindeki": 10490,
 "ĠgÃ¶tÃ¼rÃ¼l": 10491,
 "Ġdakikaya": 10492,
 "sÄ±radan": 10493,
 "Ġyararlanma": 10494,
 "Ġkomisyona": 10495,
 "ĠÄ°kincisi": 10496,
 "Ġordusuna": 10497,
 "ĠÃ¼mitsizliÄŁe": 10498,
 "Ordunun": 10499,
 "braham": 10500,
 "tabanca": 10501,
 "Ġvaliyi": 10502,
 "Ġolsalar": 10503,
 "ĠyapÄ±lmak": 10504,
 "ĠmÃ¼frezeler": 10505,
 "haykÄ±rdÄ±": 10506,
 "Ġduyuru": 10507,
 "Bildir": 10508,
 "Ġgezi": 10509,
 "Ġgezegen": 10510,
 "ĠdÄ±ÅŁarÄ±ya": 10511,
 "BakanÄ±": 10512,
 "ĠÃ¼nvanÄ±nÄ±": 10513,
 "ĠgÃ¼Ã§lÃ¼kler": 10514,
 "ĠgÃ¼Ã§lÃ¼kleri": 10515,
 "ALTAN": 10516,
 "ALDIRI": 10517,
 "mediklerini": 10518,
 "kiÅŁiler": 10519,
 "Ġdiyen": 10520,
 "ĠdÃ¢vÃ¢yÄ±": 10521,
 "Ġyarayacak": 10522,
 "ĠMerkezi": 10523,
 "ĠcÃ¼mlesi": 10524,
 "kazandÄ±r": 10525,
 "ĠhazÄ±rlÄ±klarÄ±": 10526,
 "ĠÃ¢sÃ®lerin": 10527,
 "kimseye": 10528,
 "ĠyaÅŁayan": 10529,
 "ĠÃ¶ÄŁÃ¼t": 10530,
 "gÃ¼venilir": 10531,
 "ĠprogramÄ±": 10532,
 "ĠÄ°lleri": 10533,
 "Albay": 10534,
 "ĠpadiÅŁahÄ±n": 10535,
 "ĠÃ§etesi": 10536,
 "ĠÃ§etelerin": 10537,
 "ĠmuhtÄ±ra": 10538,
 "Ġmermiye": 10539,
 "ĠbÃ¶lÃ¼ÅŁ": 10540,
 "ĠgÃ¶rdÃ¼ÄŁÃ¼nÃ¼z": 10541,
 "koyuldu": 10542,
 "oturtul": 10543,
 "ĠÃ¼stÃ¼nlÃ¼k": 10544,
 "Ġpropagandalar": 10545,
 "tÄ±ÄŁÄ±mÄ±": 10546,
 "ĠtasarÄ±sÄ±": 10547,
 "gÃ¼rÃ¼lt": 10548,
 "Ġdemiryolu": 10549,
 "bilgiler": 10550,
 "bilginize": 10551,
 "ĠatÄ±lmÄ±ÅŁ": 10552,
 "safir": 10553,
 "yardÄ±mcÄ±": 10554,
 "yardÄ±mÄ±yla": 10555,
 "ĠkavrayÄ±ÅŁ": 10556,
 "Saltanat": 10557,
 "imav": 10558,
 "anlatmak": 10559,
 "bilinmeyen": 10560,
 "Ġzihin": 10561,
 "ĠmahkÃ»m": 10562,
 "Ġdua": 10563,
 "ĠMemleketin": 10564,
 "gÃ¶rÃ¼nÃ¼ÅŁ": 10565,
 "ĠhÃ¼kÃ¼mete": 10566,
 "ĠkÄ±ÅŁkÄ±rtma": 10567,
 "yarÄ±sÄ±": 10568,
 "Ã¼nceler": 10569,
 "ĠAdnan": 10570,
 "ĠnÃ¼fus": 10571,
 "gerekirdi": 10572,
 "tehlikeli": 10573,
 "boyut": 10574,
 "kavuÅŁ": 10575,
 "kavuÅŁtur": 10576,
 "Ġumut": 10577,
 "ĠselÃ¢m": 10578,
 "ĠANTLAÅŀ": 10579,
 "ĠyazÄ±ÅŁmalar": 10580,
 "ĠCumhurbaÅŁkanlÄ±ÄŁÄ±": 10581,
 "Ġkendimizi": 10582,
 "yararlan": 10583,
 "Ġsalonuna": 10584,
 "ĠyarÄ±mada": 10585,
 "askerÃ®": 10586,
 "Ġhaysiyetini": 10587,
 "aydÄ±nlat": 10588,
 "ĠgÃ¶rÃ¼yoruz": 10589,
 "ĠYAPILAN": 10590,
 "ĠkÄ±smÄ±nÄ±n": 10591,
 "Ġborcu": 10592,
 "Ġbeslen": 10593,
 "ĠTopÃ§u": 10594,
 "ĠarttÄ±r": 10595,
 "Ġyetkilerini": 10596,
 "LERÄ°NÄ°": 10597,
 "LERÄ°NÄ°N": 10598,
 "ĠGÃ¶rÃ¼ÅŁme": 10599,
 "olunur": 10600,
 "Ġtoplum": 10601,
 "Ġemrettim": 10602,
 "ĠhÃ¼kumetin": 10603,
 "ĠkovuÅŁturma": 10604,
 "Ġdelege": 10605,
 "Ãĸzel": 10606,
 "DÃ¼ÅŁman": 10607,
 "kamuoy": 10608,
 "Ġcemiyetin": 10609,
 "Ġbekleriz": 10610,
 "Ġkaderini": 10611,
 "Savunma": 10612,
 "ĠBurnu": 10613,
 "ĠyetineceÄŁim": 10614,
 "yÃ¼kseldi": 10615,
 "Ġyurdu": 10616,
 "ĠiÅŁlemin": 10617,
 "ĠÃ¶lÃ§Ã¼lÃ¼": 10618,
 "gÃ¶rÃ¼ÅŁmelere": 10619,
 "Ġkilometre": 10620,
 "ĠaldatÄ±cÄ±": 10621,
 "Ġbilirsiniz": 10622,
 "ĠgÃ¼veni": 10623,
 "ĠmÃ¼stakil": 10624,
 "ĠiliÅŁkileri": 10625,
 "idare": 10626,
 "ÃľÃ§Ã¼ncÃ¼": 10627,
 "ĠhayÄ±rlÄ±": 10628,
 "ĠvasÄ±flarÄ±": 10629,
 "Ġciddiyetle": 10630,
 "Cephe": 10631,
 "Cephesi": 10632,
 "Ġbeyefendi": 10633,
 "ĠtÃ¼menin": 10634,
 "siyaset": 10635,
 "Ġkarakter": 10636,
 "Ġtorp": 10637,
 "ĠBÃ¶lgesi": 10638,
 "ĠAtlas": 10639,
 "ĠgÃ¶rÃ¼rÃ¼z": 10640,
 "ĠHavza": 10641,
 "ĠdoÄŁuracaÄŁÄ±": 10642,
 "paratorluÄŁu": 10643,
 "Ġincelemeler": 10644,
 "ĠÃ¶ÄŁretim": 10645,
 "beklen": 10646,
 "yuvarla": 10647,
 "yuvarlak": 10648,
 "Ġmiyiz": 10649,
 "bulutsu": 10650,
 "Ġherkesten": 10651,
 "ĠaÄŁzÄ±ndan": 10652,
 "ĠmukadderatÄ±nÄ±": 10653,
 "Ġï¬ģkr": 10654,
 "aracÄ±lÄ±ÄŁÄ±yla": 10655,
 "buharlÄ±": 10656,
 "gÃ¶rÃ¼lmemiÅŁ": 10657,
 "ĠKarargÃ¢h": 10658,
 "Ġkomp": 10659,
 "ĠKemalettin": 10660,
 "AZIM": 10661,
 "Ġsistem": 10662,
 "ĠBozkÄ±r": 10663,
 "ĠÄ°hsan": 10664,
 "ĠDivan": 10665,
 "ĠmeÅŁruluÄŁ": 10666,
 "ĠtahammÃ¼lÃ¼": 10667,
 "Ġselam": 10668,
 "ĠformÃ¼l": 10669,
 "ĠfÄ±kra": 10670,
 "Ä°LAFET": 10671,
 "konuÅŁmacÄ±": 10672,
 "ĠyaratÄ±lÄ±ÅŁ": 10673,
 "ĠkÃ¼rsÃ¼sÃ¼nden": 10674,
 "ĠUmumiye": 10675,
 "Nezareti": 10676,
 "YerkÃ¼re": 10677,
 "Ġtonuyla": 10678,
 "ĠhatÄ±ra": 10679,
 "ecerik": 10680,
 "ĠPolis": 10681,
 "ĠSiyasÃ®": 10682,
 "ĠharekÃ¢tÄ±": 10683,
 "Ermenistan": 10684,
 "Ġsafsata": 10685,
 "ĠyÄ±ÄŁÄ±nak": 10686,
 "Ġsamimi": 10687,
 "Ġsosyal": 10688,
 "ragut": 10689,
 "ĠÃ§aÄŁÄ±rÄ±": 10690,
 "ĠSÄ±rrÄ±": 10691,
 "ĠFarragut": 10692,
 "Ġmuharebe": 10693,
 "OPLAN": 10694,
 "ektri": 10695,
 "Ġvapur": 10696,
 "Ġhimay": 10697,
 "sÄ±kÄ±ntÄ±": 10698,
 "oldspr": 10699,
 "ĠardÄ±mcÄ±m": 10700,
 "Ġbahanesiyle": 10701,
 "evkalÃ¢de": 10702,
 "ĠTakrÃ®r": 10703,
 "durrahman": 10704,
 "ĠLincoln": 10705,
 "ĠKARDEÅŀ": 10706,
 "ALTANAT": 10707,
 "oldspring": 10708,
 ",\"": 10709,
 "01": 10710,
 "33": 10711,
 "62": 10712,
 "?..": 10713,
 "?''": 10714,
 "Bar": 10715,
 "Bolu": 10716,
 "Bura": 10717,
 "Buysa": 10718,
 "CA": 10719,
 "CAN": 10720,
 "CumhurbaÅŁkan": 10721,
 "Den": 10722,
 "DÃľ": 10723,
 "DÃ¼zce": 10724,
 "Gebze": 10725,
 "Goldspring": 10726,
 "Hurra": 10727,
 "Ia": 10728,
 "Jandarma": 10729,
 "Kor": 10730,
 "Komisyon": 10731,
 "KOMUT": 10732,
 "KAZIM": 10733,
 "LT": 10734,
 "Land": 10735,
 "LOZAN": 10736,
 "MÄ°": 10737,
 "Mah": 10738,
 "Meb": 10739,
 "MÃ¼slÃ¼man": 10740,
 "MIZ": 10741,
 "MIÅŀ": 10742,
 "Maalesef": 10743,
 "Osman": 10744,
 "OLA": 10745,
 "PA": 10746,
 "Peak": 10747,
 "Rodman": 10748,
 "REFET": 10749,
 "Sar": 10750,
 "Size": 10751,
 "SÄ°NÄ°N": 10752,
 "Tamp": 10753,
 "UB": 10754,
 "Val": 10755,
 "VEKÄ°L": 10756,
 "Yer": 10757,
 "YLE": 10758,
 "YUN": 10759,
 "Yani": 10760,
 "au": 10761,
 "asi": 10762,
 "buz": 10763,
 "boÄŁaz": 10764,
 "caman": 10765,
 "don": 10766,
 "edir": 10767,
 "far": 10768,
 "gÃ¢": 10769,
 "gÄ±r": 10770,
 "giye": 10771,
 "gunu": 10772,
 "hr": 10773,
 "hap": 10774,
 "hos": 10775,
 "iI": 10776,
 "iir": 10777,
 "iÄŁi": 10778,
 "iddi": 10779,
 "jans": 10780,
 "kini": 10781,
 "kinin": 10782,
 "kuzey": 10783,
 "kÄ±zÄ±l": 10784,
 "lÄ±nÄ±": 10785,
 "lom": 10786,
 "nÃ¼f": 10787,
 "neyse": 10788,
 "oo": 10789,
 "oya": 10790,
 "padiÅŁah": 10791,
 "panya": 10792,
 "rum": 10793,
 "rÃ¼k": 10794,
 "rev": 10795,
 "rif": 10796,
 "ref": 10797,
 "sma": 10798,
 "sola": 10799,
 "sayÄ±m": 10800,
 "sber": 10801,
 "tec": 10802,
 "tiye": 10803,
 "tÃ¼y": 10804,
 "taydÄ±": 10805,
 "utan": 10806,
 "vo": 10807,
 "vde": 10808,
 "vara": 10809,
 "veÃ§": 10810,
 "vha": 10811,
 "vakit": 10812,
 "yalan": 10813,
 "yÃ¶rÃ¼ng": 10814,
 "yÄ±ldÄ±zÄ±": 10815,
 "zih": 10816,
 "zÄ±p": 10817,
 "Â·": 10818,
 "ĠÄ±nÄ±": 10819,
 "Ġraf": 10820,
 "ĠÃ¼c": 10821,
 "Ä±h": 10822,
 "Ä±da": 10823,
 "Ä±lacaktÄ±r": 10824,
 "ÅŁal": 10825,
 "ÅŁev": 10826,
 "ÅŁama": 10827,
 "ÅŁaÅŁkÄ±n": 10828,
 "arsa": 10829,
 "arÅŁÄ±": 10830,
 "araba": 10831,
 "anet": 10832,
 "aniz": 10833,
 "ĠbÃ¼r": 10834,
 "ĠboÄŁaz": 10835,
 "enlem": 10836,
 "ÄŁunu": 10837,
 "etraf": 10838,
 "etlerinin": 10839,
 "etmiÅŁtir": 10840,
 "etimize": 10841,
 "Ã§lar": 10842,
 "Ã§ele": 10843,
 "Ã§ember": 10844,
 "Ġdey": 10845,
 "Ġdum": 10846,
 "Ġdendi": 10847,
 "Ġdosya": 10848,
 "ĠkÃ¼l": 10849,
 "ĠkÄ±lan": 10850,
 "ĠkÃ¼stah": 10851,
 "Ã¶teye": 10852,
 "larsÄ±nÄ±z": 10853,
 "aklarÄ±n": 10854,
 "ell": 10855,
 "elÃ§": 10856,
 "latÄ±": 10857,
 "lamadÄ±": 10858,
 "lacaÄŁÄ±mÄ±z": 10859,
 "latacak": 10860,
 "ĠsÃ¼": 10861,
 "ĠsÄ±z": 10862,
 "ĠsÃ¼t": 10863,
 "ĠsarÄ±": 10864,
 "ĠsÃ¼var": 10865,
 "Ġsodyum": 10866,
 "Ġyal": 10867,
 "ĠyÃ¶r": 10868,
 "alda": 10869,
 "alÄ±na": 10870,
 "almaya": 10871,
 "aliyet": 10872,
 "ĠtÃ¼k": 10873,
 "Ġtap": 10874,
 "diyorum": 10875,
 "dedikten": 10876,
 "Ġic": 10877,
 "liy": 10878,
 "liyordu": 10879,
 "liyorlardÄ±": 10880,
 "dÄ±ÄŁÄ±ndan": 10881,
 "ĠBul": 10882,
 "ĠBeni": 10883,
 "Ã¼nvan": 10884,
 "imz": 10885,
 "iman": 10886,
 "izle": 10887,
 "yatÄ±ÅŁ": 10888,
 "oran": 10889,
 "oraya": 10890,
 "ulana": 10891,
 "Ä°vedi": 10892,
 "ste": 10893,
 "str": 10894,
 "eyerek": 10895,
 "eyalet": 10896,
 "Ġold": 10897,
 "Ġolgun": 10898,
 "emeler": 10899,
 "Ġmit": 10900,
 "iÅŁler": 10901,
 "iÅŁine": 10902,
 "iÅŁÃ§i": 10903,
 "ĠKÃ¼r": 10904,
 "ĠKuÅŁ": 10905,
 "ĠKENDÄ°": 10906,
 "ĠKadÄ±n": 10907,
 "atma": 10908,
 "atla": 10909,
 "atli": 10910,
 "atÄ±nÄ±": 10911,
 "ayi": 10912,
 "ayar": 10913,
 "ĠMa": 10914,
 "ĠMec": 10915,
 "ĠMut": 10916,
 "ĠMoskova": 10917,
 "ĠÃ§o": 10918,
 "ĠÃ§aba": 10919,
 "ĠÃ§Ä±lg": 10920,
 "ĠÃ§ift": 10921,
 "ĠÅŁer": 10922,
 "ĠÅŁaÅŁÄ±": 10923,
 "Ã¼ÅŁav": 10924,
 "maksat": 10925,
 "Ġbuhar": 10926,
 "olmaz": 10927,
 "olmuÅŁ": 10928,
 "olmuÅŁtu": 10929,
 "olmalÄ±dÄ±r": 10930,
 "olduÄŁumu": 10931,
 "ĠAS": 10932,
 "ĠAsÄ±m": 10933,
 "ĠAÅŁaÄŁÄ±": 10934,
 "ĠAbraham": 10935,
 "abÄ±nÄ±": 10936,
 "amparÃ§a": 10937,
 "Ã¼zÃ¼n": 10938,
 "cezalan": 10939,
 "tanatÄ±": 10940,
 "ĠÄ°k": 10941,
 "ĠÄ°yi": 10942,
 "Ä±kamÄ±ÅŁ": 10943,
 "ĠgÃ¶rmeye": 10944,
 "ĠgÃ¶rmedim": 10945,
 "ĠgÃ¶rmÃ¼yor": 10946,
 "ĠHele": 10947,
 "ĠHendek": 10948,
 "Ġilan": 10949,
 "Ġilin": 10950,
 "Ġilet": 10951,
 "Ġillere": 10952,
 "Ġillerinde": 10953,
 "bire": 10954,
 "aradaki": 10955,
 "Ġnu": 10956,
 "ĠnÄ±": 10957,
 "Ġnet": 10958,
 "ĠncÄ±": 10959,
 "Ä±rlÄ±": 10960,
 "ĠPor": 10961,
 "oktor": 10962,
 "uzan": 10963,
 "sist": 10964,
 "Ä±zda": 10965,
 "teb": 10966,
 "sÄ±nlar": 10967,
 "landÄ±ktan": 10968,
 "duÄŁunda": 10969,
 "Ġalbay": 10970,
 "ĠaldÄ±klarÄ±": 10971,
 "miÅŁler": 10972,
 "miÅŁtik": 10973,
 "Ġkarsi": 10974,
 "ĠTa": 10975,
 "ĠTe": 10976,
 "ĠTor": 10977,
 "ĠTas": 10978,
 "ĠTaraf": 10979,
 "ĠTEÅŀ": 10980,
 "ĠTUT": 10981,
 "ĠTahir": 10982,
 "ĠTOPLAN": 10983,
 "muh": 10984,
 "ĠSÃ¼r": 10985,
 "ĠSelÃ¢": 10986,
 "ĠSize": 10987,
 "ĠSizi": 10988,
 "ĠSayÄ±n": 10989,
 "ĠSAV": 10990,
 "ĠSÃĸZ": 10991,
 "ĠbaÅŁÄ±": 10992,
 "ĠbaÅŁlay": 10993,
 "ĠbaÅŁÄ±mÄ±za": 10994,
 "Ġvermesi": 10995,
 "Ġverebil": 10996,
 "Ġvermeden": 10997,
 "Ġvereme": 10998,
 "Ġverimli": 10999,
 "ĠEM": 11000,
 "ĠEmin": 11001,
 "ahalÄ±": 11002,
 "dÄ±rmÄ±ÅŁ": 11003,
 "dÄ±rlÄ±k": 11004,
 "bilimin": 11005,
 "ĠPaÅŁaeli": 11006,
 "ĠzÄ±t": 11007,
 "Ġzincir": 11008,
 "Ġanlayarak": 11009,
 "ĠanladÄ±k": 11010,
 "tira": 11011,
 "kamaÅŁtÄ±rÄ±cÄ±": 11012,
 "Ġbuluna": 11013,
 "ĠbulunmasÄ±na": 11014,
 "ĠbulunduklarÄ±nÄ±": 11015,
 "ĠbulunduÄŁundan": 11016,
 "Ġyapil": 11017,
 "ĠyapmÄ±ÅŁtÄ±": 11018,
 "Ġyapmakla": 11019,
 "Ġyapamaz": 11020,
 "Ġyaparken": 11021,
 "layÄ±k": 11022,
 "ĠDA": 11023,
 "ĠDost": 11024,
 "ĠDemirci": 11025,
 "Ã¼ldÃ¼ÄŁÃ¼nÃ¼": 11026,
 "ĠdÃ¼ÅŁtÃ¼": 11027,
 "Ġistiyordum": 11028,
 "ĠistendiÄŁi": 11029,
 "Ġmesaf": 11030,
 "ĠpÃ¼skÃ¼r": 11031,
 "Ã»k": 11032,
 "Ã»ÅŁ": 11033,
 "ĠgeleceÄŁini": 11034,
 "ĠgeldikÃ§e": 11035,
 "Ã¶yleyse": 11036,
 "ĠCanik": 11037,
 "ĠCambridge": 11038,
 "ĠYar": 11039,
 "ĠYÃ¼r": 11040,
 "ĠYemen": 11041,
 "ĠÃ¶nder": 11042,
 "Åŀeyh": 11043,
 "Åŀimdiye": 11044,
 "Ġfen": 11045,
 "Ġfel": 11046,
 "edÃ¼z": 11047,
 "edildiÄŁi": 11048,
 "edonya": 11049,
 "ĠGen": 11050,
 "ĠGizli": 11051,
 "Ã¼kÃ»net": 11052,
 "avÅŁan": 11053,
 "Ġaran": 11054,
 "ĠarÄ±n": 11055,
 "Ġartan": 11056,
 "Ã§Ä±kmÄ±ÅŁ": 11057,
 "ĠiÅŁten": 11058,
 "Ġyerler": 11059,
 "Ġyerlerine": 11060,
 "ĠkarÅŁÄ±laÅŁtÄ±r": 11061,
 "ĠRA": 11062,
 "ĠRahip": 11063,
 "ĠgÃ¶rÃ¼ÅŁmesi": 11064,
 "ĠgÃ¶rÃ¼ÅŁÃ¼p": 11065,
 "Ġinana": 11066,
 "Ġgerekiyor": 11067,
 "ebe": 11068,
 "Ġrota": 11069,
 "ilÃ¢yet": 11070,
 "isiniz": 11071,
 "ishan": 11072,
 "Ġuymak": 11073,
 "Ġuyumlu": 11074,
 "Ġuyruk": 11075,
 "Ġkuran": 11076,
 "ĠkurtarÄ±": 11077,
 "yanaÅŁ": 11078,
 "Ġdurumdur": 11079,
 "derken": 11080,
 "uver": 11081,
 "gisi": 11082,
 "ĠsÃ¶zlÃ¼": 11083,
 "Ġonlardan": 11084,
 "ĠÃ§Ä±kmaya": 11085,
 "ĠÃ§Ä±kmaz": 11086,
 "ĠdÃ¼ÅŁÃ¼nÃ¼p": 11087,
 "Ġtoplamaya": 11088,
 "Ġelle": 11089,
 "Ġelini": 11090,
 "Ġceza": 11091,
 "ĠbÃ¼tÃ¼nlÃ¼ÄŁÃ¼nÃ¼": 11092,
 "Ġbildiriyi": 11093,
 "Ġbildirmenizi": 11094,
 "ĠvarlÄ±ÄŁÄ±mÄ±z": 11095,
 "ĠvarlÄ±ÄŁÄ±mÄ±zÄ±": 11096,
 "Ġkalp": 11097,
 "ĠkalmasÄ±nÄ±": 11098,
 "ĠkalÄ±p": 11099,
 "ĠkaldÄ±rÄ±": 11100,
 "ĠkalmadÄ±ÄŁÄ±nÄ±": 11101,
 "ĠkaldÄ±ktan": 11102,
 "ĠgeÃ§mesi": 11103,
 "ĠgeÃ§erken": 11104,
 "lerince": 11105,
 "Ã§ekim": 11106,
 "luÄŁa": 11107,
 "baÅŁara": 11108,
 "baÅŁlaya": 11109,
 "baÅŁlamÄ±ÅŁ": 11110,
 "baÅŁlamÄ±ÅŁtÄ±": 11111,
 "vererek": 11112,
 "verildi": 11113,
 "ekliï¬ģ": 11114,
 "ĠolacaÄŁÄ±ndan": 11115,
 "ĠaÃ§Ä±ktÄ±": 11116,
 "ĠaÃ§Ä±kladÄ±": 11117,
 "ĠsÃ¼rÃ¼yor": 11118,
 "mazlÄ±k": 11119,
 "Ġtarihine": 11120,
 "Ġtarihlerinde": 11121,
 "ĠkararÄ±na": 11122,
 "ĠkararlarÄ±na": 11123,
 "ĠyardÄ±": 11124,
 "ĠyarÄ±ÅŁ": 11125,
 "Ġyarayan": 11126,
 "ĠyaraÅŁÄ±r": 11127,
 "ĠVekÃ¢let": 11128,
 "ĠVehbi": 11129,
 "eceÄŁin": 11130,
 "lenir": 11131,
 "ĠyollarÄ±": 11132,
 "Ġanlamaya": 11133,
 "ĠustalÄ±k": 11134,
 "santim": 11135,
 "sanÄ±rÄ±m": 11136,
 "gÃ¶ren": 11137,
 "gÃ¶rebil": 11138,
 "gÃ¶rÃ¼ldÃ¼ÄŁÃ¼": 11139,
 "gÃ¶rdÃ¼ÄŁÃ¼m": 11140,
 "Ġzamanlar": 11141,
 "Ġzamanki": 11142,
 "gÃ¼ndÃ¼z": 11143,
 "Ġhakem": 11144,
 "ĠhaklarÄ±na": 11145,
 "ĠkabulÃ¼nÃ¼": 11146,
 "ĠgÃ¶stermiÅŁtir": 11147,
 "ĠteÅŁrif": 11148,
 "eyebilir": 11149,
 "ĠÃ§alÄ±ÅŁmaktan": 11150,
 "ĠÃ§alÄ±ÅŁtÄ±ÄŁÄ±mÄ±z": 11151,
 "ĠÃ§alÄ±ÅŁÄ±yorlar": 11152,
 "tutan": 11153,
 "ĠgÃ¶revimiz": 11154,
 "Ġuygar": 11155,
 "ÃľM": 11156,
 "ĠÃ¶zgÃ¼r": 11157,
 "Ġemniyet": 11158,
 "Ġmakina": 11159,
 "meyin": 11160,
 "meydan": 11161,
 "meyiniz": 11162,
 "meyeceÄŁiz": 11163,
 "lacaktÄ±": 11164,
 "mistir": 11165,
 "gelmiÅŁti": 11166,
 "Ġhareketle": 11167,
 "Ġhareketsiz": 11168,
 "Ä±ldÄ±k": 11169,
 "alÄ±ÄŁa": 11170,
 "sunlar": 11171,
 "ĠadlÃ®": 11172,
 "Ġadeta": 11173,
 "Ġyazarak": 11174,
 "ĠyazÄ±lmÄ±ÅŁtÄ±r": 11175,
 "ĠyazÄ±ldÄ±ÄŁÄ±": 11176,
 "lamamak": 11177,
 "ĠÅŁuur": 11178,
 "Ġtoplanmakta": 11179,
 "ĠtoplandÄ±ÄŁÄ±": 11180,
 "Ġtoplanacak": 11181,
 "mÄ±ydÄ±": 11182,
 "Ġkuvvetlendir": 11183,
 "ĠgÃ¶nderdi": 11184,
 "ĠgÃ¶ndermiÅŁti": 11185,
 "ĠgÃ¶nderildiÄŁi": 11186,
 "ĠgÃ¶nderilmiÅŁti": 11187,
 "yÃ¼zde": 11188,
 "yÃ¼zey": 11189,
 "yÃ¼zÃ¼nÃ¼n": 11190,
 "ĠgetirdiÄŁi": 11191,
 "alide": 11192,
 "Ġkala": 11193,
 "Ġkalab": 11194,
 "ĠKonunun": 11195,
 "ĠsaydÄ±ÄŁÄ±m": 11196,
 "uracak": 11197,
 "Ġsorunu": 11198,
 "Ġsoruyu": 11199,
 "ĠÅŀeref": 11200,
 "Ġistedik": 11201,
 "ĠistediÄŁimi": 11202,
 "ĠmÃ¼hendis": 11203,
 "ĠsaÄŁlÄ±k": 11204,
 "yapan": 11205,
 "yaptÄ±": 11206,
 "yapmak": 11207,
 "yapÄ±m": 11208,
 "ĠsÃ¶ylemiÅŁtir": 11209,
 "ĠsÃ¶yledikten": 11210,
 "kÄ±s": 11211,
 "abildiÄŁi": 11212,
 "amayÄ±z": 11213,
 "ĠbaÅŁkalarÄ±": 11214,
 "ĠbazÄ±larÄ±": 11215,
 "ĠbazÄ±larÄ±nÄ±": 11216,
 "acaklarÄ±na": 11217,
 "ĠkÄ±pÄ±rda": 11218,
 "ĠiÃ§indedir": 11219,
 "Ġedemez": 11220,
 "ĠedeceÄŁi": 11221,
 "Ġedemeyiz": 11222,
 "dÃ¼ÅŁmanÄ±n": 11223,
 "Ä°NDE": 11224,
 "istir": 11225,
 "istiyor": 11226,
 "istiyorum": 11227,
 "istemiÅŁ": 11228,
 "ĠseÃ§tir": 11229,
 "ĠseÃ§men": 11230,
 "ĠgÃ¼venliÄŁin": 11231,
 "ĠalÄ±nmasÄ±nÄ±": 11232,
 "lÃ¢mÃ®": 11233,
 "ĠgerÃ§ekleri": 11234,
 "ĠgerÃ§ektir": 11235,
 "erkesin": 11236,
 "Ġteklifler": 11237,
 "Ġteklifine": 11238,
 "Ġtekliflerin": 11239,
 "Ġgirme": 11240,
 "ĠgÃ¶rebil": 11241,
 "ĠgÃ¶remez": 11242,
 "ĠgÃ¶zÃ¼yle": 11243,
 "Ġordudan": 11244,
 "geÃ§ti": 11245,
 "Ġnoktalarda": 11246,
 "kuru": 11247,
 "ĠÃĩIK": 11248,
 "ĠÃĩALIÅŀIYOR": 11249,
 "Ġtutulacak": 11250,
 "bulunduklarÄ±": 11251,
 "ĠanlaÅŁÄ±lan": 11252,
 "Ġduru": 11253,
 "eÄŁe": 11254,
 "eÄŁil": 11255,
 "ĠbÄ±rakÄ±lmÄ±ÅŁtÄ±r": 11256,
 "ĠbÃ¶lgelerinin": 11257,
 "ĠkomutanÄ±na": 11258,
 "ĠbasÄ±nda": 11259,
 "yerin": 11260,
 "yerden": 11261,
 "mezden": 11262,
 "ĠÅŁahsi": 11263,
 "ĠMuhaf": 11264,
 "kaldÄ±lar": 11265,
 "kalmamÄ±ÅŁtÄ±": 11266,
 "ĠgÃ¼Ã§lerini": 11267,
 "Ġbelirtisi": 11268,
 "ĠyÃ¶nt": 11269,
 "ĠyÃ¶nÃ¼": 11270,
 "ĠyÃ¶nde": 11271,
 "ĠdÃ¼ÅŁmanlarÄ±": 11272,
 "Ġbulmu": 11273,
 "ĠbulduÄŁumuz": 11274,
 "ĠbulduÄŁum": 11275,
 "Ġbilgin": 11276,
 "Ġbilgilerin": 11277,
 "ĠÃ§ekti": 11278,
 "Ġetmektir": 11279,
 "cular": 11280,
 "layacaÄŁÄ±nÄ±": 11281,
 "ĠdÄ±ÅŁÄ±ndaki": 11282,
 "ĠdÃ¶nem": 11283,
 "Ġmuazzam": 11284,
 "ĠkonuÅŁmasÄ±": 11285,
 "Ġileride": 11286,
 "Ġgittiler": 11287,
 "Ġolaylarla": 11288,
 "rakam": 11289,
 "yetiÅŁ": 11290,
 "ĠarkadaÅŁlarÄ±nÄ±": 11291,
 "ĠarkadaÅŁlarla": 11292,
 "ĠdolayÄ±dÄ±r": 11293,
 "Ġetmemi": 11294,
 "olacaÄŁÄ±nÄ±": 11295,
 "ÃĸR": 11296,
 "ĠkurulmuÅŁtu": 11297,
 "ĠgÃ¶rÃ¼lmÃ¼ÅŁ": 11298,
 "ĠgÃ¶rÃ¼lmektedir": 11299,
 "ĠgÃ¶rÃ¼lÃ¼rse": 11300,
 "ĠolmalÄ±": 11301,
 "ĠolmasÄ±n": 11302,
 "ĠolmalÄ±dÄ±r": 11303,
 "baÄŁÄ±r": 11304,
 "ĠZaman": 11305,
 "Ġcephesi": 11306,
 "Ġcephesinde": 11307,
 "gÃ¶ze": 11308,
 "Ġdenetle": 11309,
 "Ġihtiras": 11310,
 "hatta": 11311,
 "Ġdayanma": 11312,
 "Ġdayanak": 11313,
 "binlerce": 11314,
 "ĠLÃ»t": 11315,
 "Ġisabetli": 11316,
 "ebilen": 11317,
 "Ġtaaruz": 11318,
 "ERZURUM": 11319,
 "Ġkayde": 11320,
 "Ġtespi": 11321,
 "lÃ¼lÃ¼k": 11322,
 "Ġtertemiz": 11323,
 "Ġdenizci": 11324,
 "Ġemirlere": 11325,
 "Ġemirlerine": 11326,
 "Ġhayli": 11327,
 "Ġhayran": 11328,
 "Ä±lmalarÄ±": 11329,
 "Ä±lmamÄ±ÅŁ": 11330,
 "Ä±lmasÄ±nda": 11331,
 "ĠsonuÃ§larÄ±nÄ±": 11332,
 "ĠkaÃ§mÄ±ÅŁ": 11333,
 "ENÄ°M": 11334,
 "Ä°LMESÄ°": 11335,
 "ĠinsanlÄ±ÄŁÄ±n": 11336,
 "ĠÃĸÄŁret": 11337,
 "ĠyazÄ±larÄ±": 11338,
 "ĠyazÄ±yordu": 11339,
 "vanÄ±n": 11340,
 "ĠayrÄ±lÄ±ÄŁÄ±": 11341,
 "diÄŁimizi": 11342,
 "Ġgeride": 11343,
 "ĠÅŁÃ¼phem": 11344,
 "Ġalanda": 11345,
 "Ġbelirtilen": 11346,
 "ĠteÅŁebbÃ¼slerin": 11347,
 "ĠteÅŁebbÃ¼slere": 11348,
 "denizden": 11349,
 "vurdu": 11350,
 "vuruÅŁ": 11351,
 "Ġsebepleri": 11352,
 "LARIN": 11353,
 "arrington": 11354,
 "ĠbugÃ¼nÃ¼n": 11355,
 "ĠbaÅŁkanlÄ±ÄŁÄ±": 11356,
 "Ġmeselesini": 11357,
 "Ġmeselesine": 11358,
 "Ġmeselelerde": 11359,
 "ĠettiÄŁiniz": 11360,
 "sunuzdur": 11361,
 "ĠmÄ±sÄ±nÄ±z": 11362,
 "sorum": 11363,
 "sorumlu": 11364,
 "ters": 11365,
 "ĠiÅŁgaline": 11366,
 "ĠiÅŁgalinden": 11367,
 "ĠyapÄ±sÄ±": 11368,
 "Ġgereklidir": 11369,
 "Ġerdi": 11370,
 "Ġerken": 11371,
 "Ġseviy": 11372,
 "Ġsaate": 11373,
 "sÃ¼rÃ¼k": 11374,
 "ĠyabancÄ±larla": 11375,
 "unuzu": 11376,
 "edip": 11377,
 "Ġbuyurul": 11378,
 "ĠbuyurduÄŁunuz": 11379,
 "Ġsunulur": 11380,
 "ĠbilindiÄŁi": 11381,
 "Ġbiliniyordu": 11382,
 "Ġbilinmesi": 11383,
 "Ġizi": 11384,
 "bildirilmesini": 11385,
 "ĠaÃ§Ä±klamalardan": 11386,
 "ĠkÄ±sasÄ±": 11387,
 "ĠsavaÅŁla": 11388,
 "Ġbasmaya": 11389,
 "Beyefendi": 11390,
 "Ġmerkezinin": 11391,
 "Ġmerkezinden": 11392,
 "ĠsubayÄ±n": 11393,
 "burt": 11394,
 "ĠcevabÄ±nÄ±zÄ±": 11395,
 "Ġengelle": 11396,
[...]
