{
  "version": "1.0",
  "truncation": null,
  "padding": null,
  "added_tokens": [
    {
      "id": 0,
      "content": "<unk>",
      "single_word": false,
      "lstrip": false,
      "rstrip": false,
      "normalized": false,
      "special": true
    },
    {
      "id": 1,
      "content": "<pad>",
      "single_word": false,
      "lstrip": false,
      "rstrip": false,
      "normalized": false,
      "special": true
    },
    {
      "id": 2,
      "content": "<bos>",
      "single_word": false,
      "lstrip": false,
      "rstrip": false,
      "normalized": false,
      "special": true
    },
    {
      "id": 3,
      "content": "<eos>",
      "single_word": false,
      "lstrip": false,
      "rstrip": false,
      "normalized": false,
      "special": true
    }
  ],
  "normalizer": null,
  "pre_tokenizer": {
    "type": "ByteLevel",
    "add_prefix_space": false,
    "trim_offsets": true,
    "use_regex": true
  },
  "post_processor": null,
  "decoder": {
    "type": "ByteLevel",
    "add_prefix_space": true,
    "trim_offsets": true,
    "use_regex": true
  },
  "model": {
    "type": "BPE",
    "dropout": null,
    "unk_token": "<unk>",
    "continuing_subword_prefix": null,
    "end_of_word_suffix": null,
    "fuse_unk": false,
    "byte_fallback": false,
    "ignore_merges": false,
    "vocab": {
      "<unk>": 0,
      "<pad>": 1,
      "<bos>": 2,
      "<eos>": 3,
      "'": 4,
      "(": 5,
      ")": 6,
      ",": 7,
      "-": 8,
      ".": 9,
      "/": 10,
      "0": 11,
      "1": 12,
      "2": 13,
      "3": 14,
      "4": 15,
      "5": 16,
      "8": 17,
      "9": 18,
      ":": 19,
      ";": 20,
      "?": 21,
      "A": 22,
      "B": 23,
      "C": 24,
      "D": 25,
      "E": 26,
      "F": 27,
      "G": 28,
      "H": 29,
      "I": 30,
      "J": 31,
      "K": 32,
      "L": 33,
      "M": 34,
      "N": 35,
      "O": 36,
      "P": 37,
      "R": 38,
      "S": 39,
      "T": 40,
      "U": 41,
      "V": 42,
      "W": 43,
      "X": 44,
      "Y": 45,
      "Z": 46,
      "a": 47,
      "b": 48,
      "c": 49,
      "d": 50,
      "e": 51,
      "f": 52,
      "g": 53,
      "h": 54,
      "i": 55,
      "j": 56,
      "k": 57,
      "l": 58,
      "m": 59,
      "n": 60,
      "o": 61,
      "p": 62,
      "r": 63,
      "s": 64,
      "t": 65,
      "u": 66,
      "v": 67,
      "w": 68,
      "y": 69,
      "z": 70,
      "¢": 71,
      "§": 72,
      "°": 73,
      "±": 74,
      "¶": 75,
      "»": 76,
      "¼": 77,
      "Ã": 78,
      "Ä": 79,
      "Å": 80,
      "â": 81,
      "Ġ": 82,
      "Ģ": 83,
      "ĩ": 84,
      "ĸ": 85,
      "Ļ": 86,
      "ľ": 87,
      "ŀ": 88,
      "Ł": 89,
      "Ä±": 90,
      "Ã¼": 91,
      "ar": 92,
      "an": 93,
      "ÅŁ": 94,
      "er": 95,
      "in": 96,
      "en": 97,
      "Ġb": 98,
      "Ä±n": 99,
      "ir": 100,
      "ÄŁ": 101,
      "Ġg": 102,
      "ya": 103,
      "Ġk": 104,
      "lar": 105,
      "Ã§": 106,
      "le": 107,
      "Ġs": 108,
      "Ä°": 109,
      "la": 110,
      "Ã¶": 111,
      "lÄ±": 112,
      "Ġbir": 113,
      "Ġd": 114,
      "Ġv": 115,
      "ler": 116,
      "da": 117,
      "un": 118,
      "Ġy": 119,
      "Ä±r": 120,
      "ma": 121,
      "Ġve": 122,
      "li": 123,
      "Ã¼n": 124,
      "san": 125,
      "ek": 126,
      "et": 127,
      "Ġi": 128,
      "Ġt": 129,
      "Ġge": 130,
      "ĠA": 131,
      "ĠB": 132,
      "Ġin": 133,
      "Ġya": 134,
      "as": 135,
      "es": 136,
      "ĠS": 137,
      "ol": 138,
      "ak": 139,
      "aÅŁ": 140,
      "or": 141,
      "Ġinsan": 142,
      "on": 143,
      "ĠD": 144,
      "Ã¼r": 145,
      "ur": 146,
      "ay": 147,
      "larÄ±n": 148,
      "al": 149,
      "Ä±l": 150,
      "lu": 151,
      "ĠM": 152,
      "ĠR": 153,
      "ER": 154,
      "ĠÃ§": 155,
      "Ġh": 156,
      "leri": 157,
      "ev": 158,
      "ik": 159,
      "ĠG": 160,
      "ad": 161,
      "den": 162,
      "Ġu": 163,
      "Ã¼z": 164,
      "Ã¼nya": 165,
      "ĠH": 166,
      "larÄ±": 167,
      "laÅŁ": 168,
      "ĠÃ¶": 169,
      "ĠK": 170,
      "at": 171,
      "Ä±nda": 172,
      "el": 173,
      "em": 174,
      "il": 175,
      "is": 176,
      "ĠÄ°": 177,
      "ÄŁi": 178,
      "lÄ±ÄŁ": 179,
      "av": 180,
      "Ġm": 181,
      "Ġar": 182,
      "de": 183,
      "Ã¼k": 184,
      "ini": 185,
      "ĠgÃ¶": 186,
      "ce": 187,
      "im": 188,
      "man": 189,
      "te": 190,
      "yle": 191,
      "der": 192,
      "Ġz": 193,
      "Ġan": 194,
      "esi": 195,
      "LE": 196,
      "cu": 197,
      "ki": 198,
      "ta": 199,
      "ine": 200,
      "cÄ±": 201,
      "ĠU": 202,
      "Ġa": 203,
      "Ã¶n": 204,
      "lÄ±k": 205,
      "Ġgele": 206,
      "AN": 207,
      "EL": 208,
      "ey": 209,
      "iz": 210,
      "Ġe": 211,
      "Ġo": 212,
      "ĠÃ": 213,
      "Ä±ÅŁ": 214,
      "Ġha": 215,
      "Ġuz": 216,
      "lÄ±ÄŁÄ±n": 217,
      "ON": 218,
      "aÄŁ": 219,
      "dÄ±": 220,
      "ti": 221,
      "ĠC": 222,
      "ĠW": 223,
      "eri": 224,
      "Ġkar": 225,
      "Ä°N": 226,
      "laÅŁÄ±r": 227,
      "avaÅŁ": 228,
      "alÄ±": 229,
      "ili": 230,
      "Ã¼c": 231,
      "eni": 232,
      "AR": 233,
      "UR": 234,
      "di": 235,
      "eg": 236,
      "ken": 237,
      "lÃ¼": 238,
      "lan": 239,
      "ul": 240,
      "ĠY": 241,
      "Ã¼ÅŁ": 242,
      "ÅŁÄ±": 243,
      "Ġson": 244,
      "ĠDÃ¼nya": 245,
      "ah": 246,
      "us": 247,
      "zeg": 248,
      "ĠJ": 249,
      "ĠO": 250,
      "ĠT": 251,
      "Ġf": 252,
      "Ġol": 253,
      "ĠÃ¼z": 254,
      "ĠsavaÅŁ": 255,
      "Ġyol": 256,
      "lik": 257,
      "Ġhaya": 258,
      "ĠkarÅŁÄ±": 259,
      "ĠÃ¼zer": 260,
      "eh": 261,
      "kÃ¼": 262,
      "me": 263,
      "mi": 264,
      "op": 265,
      "ĠN": 266,
      "ĠZ": 267,
      "ars": 268,
      "leÅŁ": 269,
      "lat": 270,
      "ĠdÃ¼nya": 271,
      "ĠiÃ§": 272,
      "asÄ±": 273,
      "ĠgÃ¶r": 274,
      "BER": 275,
      "aman": 276,
      "ci": 277,
      "cek": 278,
      "dan": 279,
      "ok": 280,
      "ykÃ¼": 281,
      "ĠF": 282,
      "ĠP": 283,
      "Ä±z": 284,
      "Ä±nÄ±": 285,
      "ÄŁÄ±": 286,
      "ĠdÃ¶n": 287,
      "dam": 288,
      "ĠgeÃ§": 289,
      "Ġgezeg": 290,
      "ĠyaÅŁ": 291,
      "asÄ±nda": 292,
      "ĠST": 293,
      "ĠMars": 294,
      "ĠÃ§alÄ±": 295,
      "ilim": 296,
      "ĠÃ§alÄ±ÅŁ": 297,
      "AD": 298,
      "SON": 299,
      "len": 300,
      "th": 301,
      "tr": 302,
      "uÄŁ": 303,
      "ulu": 304,
      "yan": 305,
      "ĠI": 306,
      "Ä±lÄ±": 307,
      "inin": 308,
      "Ġgi": 309,
      "Ġkur": 310,
      "Ġkad": 311,
      "ĠyÃ¼z": 312,
      "maya": 313,
      "Ġyak": 314,
      "ĠinsanlÄ±ÄŁÄ±n": 315,
      "ĠRO": 316,
      "Ġhayat": 317,
      "BERT": 318,
      "OR": 319,
      "duÄŁ": 320,
      "ele": 321,
      "ih": 322,
      "ot": 323,
      "yg": 324,
      "Ã¼y": 325,
      "ĠBR": 326,
      "ĠBir": 327,
      "ĠÃ¶ykÃ¼": 328,
      "Ġanlat": 329,
      "Ġgelecek": 330,
      "Ġuzay": 331,
      "miÅŁ": 332,
      "Ġgezegen": 333,
      "Ġgelecekte": 334,
      "'d": 335,
      "AT": 336,
      "AY": 337,
      "az": 338,
      "eÅŁ": 339,
      "iy": 340,
      "oÄŁ": 341,
      "sel": 342,
      "tan": 343,
      "ter": 344,
      "um": 345,
      "yla": 346,
      "Ġr": 347,
      "Ä±k": 348,
      "inde": 349,
      "ĠbaÄŁ": 350,
      "Ġbilim": 351,
      "Ġkal": 352,
      "lem": 353,
      "ĠsÃ¼r": 354,
      "Ä°M": 355,
      "eki": 356,
      "Ġtop": 357,
      "Ä±lan": 358,
      "lum": 359,
      "ĠUz": 360,
      "Ġgelece": 361,
      "ĠkarÅŁÄ±laÅŁÄ±r": 362,
      "BUR": 363,
      "VÄ°": 364,
      "ab": 365,
      "am": 366,
      "ap": 367,
      "eÄŁi": 368,
      "gu": 369,
      "nsan": 370,
      "ob": 371,
      "par": 372,
      "ut": 373,
      "uÅŁ": 374,
      "yÄ±": 375,
      "ĠV": 376,
      "ĠÅŁ": 377,
      "Ġet": 378,
      "Ã¼Ã§": 379,
      "erk": 380,
      "ĠbaÅŁ": 381,
      "Ä±na": 382,
      "ĠgÃ¼c": 383,
      "Ġdev": 384,
      "une": 385,
      "mak": 386,
      "ĠiÅŁ": 387,
      "ĠAR": 388,
      "ĠRAY": 389,
      "evr": 390,
      "ist": 391,
      "ĠarasÄ±nda": 392,
      "LEY": 393,
      "ELL": 394,
      "Ġyolcu": 395,
      "ĠiÃ§in": 396,
      "ĠdÃ¶nÃ¼ÅŁ": 397,
      "ĠgeÃ§miÅŁ": 398,
      "ADBUR": 399,
      "ygar": 400,
      "ĠBRADBUR": 401,
      "Ġtoplum": 402,
      "ĠBRADBURY": 403,
      "RE": 404,
      "af": 405,
      "dÄ±r": 406,
      "if": 407,
      "oz": 408,
      "si": 409,
      "st": 410,
      "sÄ±": 411,
      "tik": 412,
      "yun": 413,
      "ĠE": 414,
      "Ġc": 415,
      "Ġn": 416,
      "ĠaÅŁ": 417,
      "Ġal": 418,
      "Ã¼l": 419,
      "ĠbÃ¼y": 420,
      "Ġgiz": 421,
      "ĠsÄ±r": 422,
      "Ġder": 423,
      "ĠdoÄŁ": 424,
      "ĠyÄ±l": 425,
      "Ġyeni": 426,
      "Ġteh": 427,
      "ĠAdam": 428,
      "Ġyap": 429,
      "aki": 430,
      "luÄŁ": 431,
      "adele": 432,
      "Ġuygar": 433,
      "ator": 434,
      "ĠmÃ¼c": 435,
      "Ġard": 436,
      "ANK": 437,
      "Ġola": 438,
      "ĠÃĩ": 439,
      "dÄ±ÄŁÄ±": 440,
      "ĠCL": 441,
      "Ġsonr": 442,
      "ĠÃ§alÄ±ÅŁÄ±r": 443,
      "Ġgider": 444,
      "Ġhayatta": 445,
      "duÄŁu": 446,
      "obot": 447,
      "ĠmÃ¼cadele": 448,
      "AM": 449,
      "Dune": 450,
      "EN": 451,
      "GAT": 452,
      "KÄ°": 453,
      "LF": 454,
      "RU": 455,
      "RANK": 456,
      "SKÄ°": 457,
      "bi": 458,
      "eli": 459,
      "ket": 460,
      "kti": 461,
      "lÃ¼k": 462,
      "nÄ±n": 463,
      "ocu": 464,
      "rÄ±": 465,
      "sa": 466,
      "tÄ±r": 467,
      "Ã¢": 468,
      "ĠL": 469,
      "Ġp": 470,
      "Ġen": 471,
      "anan": 472,
      "inden": 473,
      "enÃ§": 474,
      "Ġbulu": 475,
      "Ġken": 476,
      "ley": 477,
      "Ã¶z": 478,
      "lerin": 479,
      "lerle": 480,
      "Ġyer": 481,
      "ĠyÃ¶n": 482,
      "Ġtar": 483,
      "ask": 484,
      "larÄ±nÄ±": 485,
      "ERBERT": 486,
      "leriyle": 487,
      "ika": 488,
      "ĠHERBERT": 489,
      "ilen": 490,
      "ĠÄ°nsan": 491,
      "manÄ±n": 492,
      "ĠaÃ§": 493,
      "ĠÃĸ": 494,
      "lÃ¼m": 495,
      "ĠÃ¼zerine": 496,
      "leÅŁir": 497,
      "ĠdÃ¼nyada": 498,
      "ĠFRANK": 499,
      "ĠSTRU": 500,
      "ĠkadÄ±n": 501,
      "ĠgeleceÄŁ": 502,
      "ĠgÃ¼cÃ¼": 503,
      "luÄŁun": 504,
      "GATSKÄ°": 505,
      "ocuk": 506,
      "ĠSTRUGATSKÄ°": 507,
      "CH": 508,
      "ES": 509,
      "HUR": 510,
      "KE": 511,
      "THUR": 512,
      "ama": 513,
      "dar": 514,
      "dir": 515,
      "ei": 516,
      "eden": 517,
      "gÃ¼r": 518,
      "ib": 519,
      "ita": 520,
      "ku": 521,
      "mey": 522,
      "mpar": 523,
      "oli": 524,
      "peri": 525,
      "su": 526,
      "tar": 527,
      "tir": 528,
      "tor": 529,
      "tÃ¼r": 530,
      "tur": 531,
      "uÃ§": 532,
      "yperi": 533,
      "zgÃ¼r": 534,
      "Ġevr": 535,
      "Ä±cÄ±": 536,
      "Ä±ÄŁÄ±": 537,
      "aret": 538,
      "anrÄ±": 539,
      "Ġbil": 540,
      "Ġbul": 541,
      "ĠgÃ¼Ã§": 542,
      "larak": 543,
      "Ġsor": 544,
      "Ä°S": 545,
      "Ġden": 546,
      "ĠdeÄŁi": 547,
      "etim": 548,
      "Ġile": 549,
      "Ġikti": 550,
      "ĠAr": 551,
      "ĠSev": 552,
      "Ä±lma": 553,
      "luk": 554,
      "ĠÃ¶zgÃ¼r": 555,
      "Ä±ndaki": 556,
      "emli": 557,
      "lÄ±ÄŁÄ±": 558,
      "ĠgÃ¶z": 559,
      "Ġzor": 560,
      "Ġadam": 561,
      "Ġeder": 562,
      "Ġolarak": 563,
      "ĠÃľ": 564,
      "Ġuzak": 565,
      "dÄ±z": 566,
      "ĠWELL": 567,
      "ARKE": 568,
      "diÄŁi": 569,
      "ĠZaman": 570,
      "ĠgÃ¶rev": 571,
      "ĠROBERT": 572,
      "ĠÃ¶ykÃ¼ler": 573,
      "lemesi": 574,
      "ĠUzak": 575,
      "ĠARTHUR": 576,
      "ĠaÅŁk": 577,
      "Ġderlemesi": 578,
      "ĠCLARKE": 579,
      "leyen": 580,
      "Ġtarih": 581,
      "mparator": 582,
      "yperion": 583,
      "ĠdeÄŁiÅŁ": 584,
      "Ġiktidar": 585,
      "ĠWELLS": 586,
      "AC": 587,
      "AVÄ°": 588,
      "EÄ°N": 589,
      "GE": 590,
      "HE": 591,
      "IN": 592,
      "OU": 593,
      "OLF": 594,
      "TER": 595,
      "UT": 596,
      "ada": 597,
      "bir": 598,
      "ch": 599,
      "deki": 600,
      "ela": 601,
      "iyle": 602,
      "kur": 603,
      "ln": 604,
      "lo": 605,
      "nun": 606,
      "oj": 607,
      "om": 608,
      "rth": 609,
      "sal": 610,
      "sÄ±z": 611,
      "tas": 612,
      "uc": 613,
      "yÄ±l": 614,
      "Åŀ": 615,
      "Ġma": 616,
      "Ġor": 617,
      "ĠÃ¼r": 618,
      "ĠLE": 619,
      "Ã¼m": 620,
      "ark": 621,
      "ancÄ±": 622,
      "erÃ§": 623,
      "Ġbek": 624,
      "Ġbel": 625,
      "Ġbask": 626,
      "Ä±nÄ±r": 627,
      "Ä±ndan": 628,
      "ÄŁr": 629,
      "ÄŁÃ¼": 630,
      "ÄŁini": 631,
      "ĠgerÃ§": 632,
      "Ġkol": 633,
      "Ġkor": 634,
      "Ġkay": 635,
      "Ġkaz": 636,
      "ĠkeÅŁ": 637,
      "Ã§i": 638,
      "let": 639,
      "leer": 640,
      "Ä°L": 641,
      "layan": 642,
      "Ã¶l": 643,
      "Ġda": 644,
      "Ġvar": 645,
      "Ġver": 646,
      "daki": 647,
      "unun": 648,
      "mas": 649,
      "liÅŁ": 650,
      "eten": 651,
      "Ġiz": 652,
      "Ġiki": 653,
      "Ġtek": 654,
      "ĠtÃ¼r": 655,
      "Ġgelen": 656,
      "ĠAn": 657,
      "ĠBOR": 658,
      "Ġyaz": 659,
      "Ġyaln": 660,
      "estan": 661,
      "esinde": 662,
      "ĠSÄ°M": 663,
      "aÅŁtÄ±r": 664,
      "ĠinsanÄ±": 665,
      "ĠinsanlarÄ±n": 666,
      "onu": 667,
      "ayan": 668,
      "ĠRobot": 669,
      "ĠGEN": 670,
      "ĠÃ¶lÃ¼m": 671,
      "emen": 672,
      "ilir": 673,
      "ĠmÃ¼": 674,
      "ĠaraÅŁtÄ±r": 675,
      "Ã¼kleer": 676,
      "Ġzaman": 677,
      "Ġziy": 678,
      "ĠUrth": 679,
      "ANLEY": 680,
      "Ġeden": 681,
      "Ä±ÅŁma": 682,
      "ĠWOLF": 683,
      "erian": 684,
      "ĠsonuÃ§": 685,
      "Ġfela": 686,
      "Ġfark": 687,
      "likeli": 688,
      "ĠÃ¼zerinden": 689,
      "ĠNÃ¼kleer": 690,
      "ĠgÃ¶rÃ¼n": 691,
      "ĠSTANLEY": 692,
      "Ä±lÄ±r": 693,
      "ĠyÃ¼zleÅŁir": 694,
      "ĠyaklaÅŁÄ±r": 695,
      "ĠROB": 696,
      "ĠÃ¶ykÃ¼leri": 697,
      "ĠuzaylÄ±": 698,
      "ĠbaÄŁlan": 699,
      "Ġbilimkur": 700,
      "ĠUzay": 701,
      "ĠbaÅŁlar": 702,
      "Ġgizemli": 703,
      "ĠyÄ±ldÄ±z": 704,
      "ĠuygarlÄ±k": 705,
      "ĠardÄ±ndan": 706,
      "ĠsonrasÄ±": 707,
      "Ġgiderek": 708,
      "ĠmÃ¼cadelesi": 709,
      "itap": 710,
      "meye": 711,
      "Ġsorgu": 712,
      "Ġdeney": 713,
      "ĠSeverian": 714,
      "ĠÃ¶zgÃ¼rlÃ¼k": 715,
      "Ġkolon": 716,
      "Ġkayb": 717,
      "ĠBORÄ°S": 718,
      "ĠyalnÄ±z": 719,
      "ĠGENE": 720,
      "Ġziyaret": 721,
      "ĠWOLFE": 722,
      "Ġfelaket": 723,
      "Ġbilimkurgu": 724,
      "01": 725,
      "45": 726,
      "AL": 727,
      "AAC": 728,
      "CK": 729,
      "CT": 730,
      "EV": 731,
      "EVÄ°": 732,
      "KAD": 733,
      "LA": 734,
      "LER": 735,
      "OV": 736,
      "SAAC": 737,
      "TanrÄ±": 738,
      "Uz": 739,
      "Zaman": 740,
      "au": 741,
      "aya": 742,
      "ale": 743,
      "aul": 744,
      "bancÄ±": 745,
      "ck": 746,
      "co": 747,
      "des": 748,
      "dik": 749,
      "ed": 750,
      "ej": 751,
      "eler": 752,
      "ede": 753,
      "eder": 754,
      "feder": 755,
      "gÃ¼n": 756,
      "haf": 757,
      "iter": 758,
      "kin": 759,
      "lk": 760,
      "mÄ±": 761,
      "mer": 762,
      "mun": 763,
      "mÄ±ÅŁ": 764,
      "ne": 765,
      "nin": 766,
      "nder": 767,
      "rÃ¼": 768,
      "ren": 769,
      "se": 770,
      "sak": 771,
      "sÄ±nda": 772,
      "sti": 773,
      "tÃ¼": 774,
      "ten": 775,
      "ton": 776,
      "tasÄ±nda": 777,
      "tÄ±lÄ±": 778,
      "tÄ±ÄŁÄ±": 779,
      "up": 780,
      "uy": 781,
      "uz": 782,
      "uhaf": 783,
      "ver": 784,
      "Ġes": 785,
      "Ġay": 786,
      "Ġad": 787,
      "Ġerk": 788,
      "ĠÅŀ": 789,
      "Ġ45": 790,
      "Ä±ÄŁ": 791,
      "Ä±larÄ±": 792,
      "Ä±sa": 793,
      "Ã¼st": 794,
      "ara": 795,
      "arÄ±": 796,
      "arÄ±r": 797,
      "arlarÄ±n": 798,
      "arat": 799,
      "ank": 800,
      "antas": 801,
      "enin": 802,
      "Ġbar": 803,
      "Ä±nÄ±n": 804,
      "irken": 805,
      "Ġgr": 806,
      "Ġgir": 807,
      "ĠgenÃ§": 808,
      "Ġkim": 809,
      "ĠkalÄ±": 810,
      "Ġkus": 811,
      "ĠkÄ±sa": 812,
      "lara": 813,
      "larla": 814,
      "Ġse": 815,
      "ĠsÃ¶": 816,
      "Ġsah": 817,
      "ĠsÄ±nÄ±": 818,
      "ĠsÄ±nÄ±r": 819,
      "Ä°ÅŁ": 820,
      "Ġbirey": 821,
      "Ġbirbir": 822,
      "Ġdah": 823,
      "una": 824,
      "unu": 825,
      "unda": 826,
      "Ġyok": 827,
      "ĠyÄ±k": 828,
      "Ġyeten": 829,
      "malarÄ±": 830,
      "liÄŁi": 831,
      "Ã¼nÃ¼n": 832,
      "Ã¼neÅŁ": 833,
      "ete": 834,
      "eto": 835,
      "Ġimparator": 836,
      "Ġte": 837,
      "ĠtaÅŁ": 838,
      "Ġterk": 839,
      "Ġtuhaf": 840,
      "ĠgeliÅŁ": 841,
      "ĠAS": 842,
      "ĠAtr": 843,
      "ĠAmer": 844,
      "ĠBilim": 845,
      "ĠBulu": 846,
      "ĠBUT": 847,
      "ĠyabancÄ±": 848,
      "Ġyasak": 849,
      "esap": 850,
      "ĠSH": 851,
      "ĠSavaÅŁ": 852,
      "oloj": 853,
      "ĠDestan": 854,
      "ĠMÄ°": 855,
      "ĠMor": 856,
      "ĠÃ§at": 857,
      "ĠÃ§Ä±k": 858,
      "ĠÃ§ocuk": 859,
      "Ġher": 860,
      "Ġhesap": 861,
      "adan": 862,
      "adÄ±n": 863,
      "ĠuÄŁr": 864,
      "ĠHyperion": 865,
      "ĠHEÄ°N": 866,
      "larÄ±yla": 867,
      "laÅŁan": 868,
      "laÅŁÄ±lma": 869,
      "ĠKAR": 870,
      "ĠKÄ°M": 871,
      "isi": 872,
      "Ġmir": 873,
      "ĠgÃ¶nder": 874,
      "Ġzih": 875,
      "Ġanla": 876,
      "ĠanlaÅŁÄ±lma": 877,
      "LEÄ°N": 878,
      "eyi": 879,
      "Ġoyun": 880,
      "aÄŁÄ±": 881,
      "tiÄŁi": 882,
      "Ä°NSON": 883,
      "ARD": 884,
      "dit": 885,
      "ĠJAM": 886,
      "ĠOr": 887,
      "ĠOCT": 888,
      "Ġolan": 889,
      "ĠolduÄŁ": 890,
      "ĠolduÄŁu": 891,
      "Ġhayal": 892,
      "mez": 893,
      "medik": 894,
      "ĠdÃ¼nyayÄ±": 895,
      "ĠPaul": 896,
      "ĠyaÅŁam": 897,
      "ĠÃ§alÄ±ÅŁan": 898,
      "lenmedik": 899,
      "trika": 900,
      "ĠISAAC": 901,
      "Ġgiden": 902,
      "ĠyÃ¼zyÄ±l": 903,
      "ĠyaklaÅŁan": 904,
      "ĠanlatÄ±r": 905,
      "ĠanlatÄ±lÄ±r": 906,
      "Ġgezegene": 907,
      "Ġgezegende": 908,
      "sellik": 909,
      "Ġrobot": 910,
      "Ġkalma": 911,
      "ĠgeleceÄŁi": 912,
      "ĠVe": 913,
      "Ġdevlet": 914,
      "ĠiÅŁleyen": 915,
      "ĠARKAD": 916,
      "istem": 917,
      "ĠarasÄ±ndaki": 918,
      "ĠyolculuÄŁun": 919,
      "ĠdÃ¶nÃ¼ÅŁtÃ¼r": 920,
      "ĠgeÃ§miÅŁin": 921,
      "RED": 922,
      "Ġcan": 923,
      "Ġcin": 924,
      "Ġalt": 925,
      "ĠbÃ¼yÃ¼": 926,
      "ĠbÃ¼yÃ¼k": 927,
      "ĠsÄ±radan": 928,
      "Ġtehlikeli": 929,
      "Ġtehdit": 930,
      "Ġyapay": 931,
      "ĠuygarlÄ±ÄŁÄ±n": 932,
      "Ġsonra": 933,
      "ĠLeto": 934,
      "Ġentrika": 935,
      "Ġbulut": 936,
      "ĠbuluÅŁ": 937,
      "Ġkendi": 938,
      "ĠÄ°nsanlar": 939,
      "ĠkadÄ±nlarÄ±n": 940,
      "ĠgÃ¼cÃ¼yle": 941,
      "eides": 942,
      "iber": 943,
      "Ġevren": 944,
      "Ġbilg": 945,
      "ĠÃľÃ§": 946,
      "AVÄ°A": 947,
      "ĠortasÄ±nda": 948,
      "Ġbeklenmedik": 949,
      "Ġbelir": 950,
      "ĠgerÃ§ek": 951,
      "ĠkeÅŁfeder": 952,
      "Ġdair": 953,
      "ĠmÃ¼da": 954,
      "ĠaraÅŁtÄ±rÄ±r": 955,
      "ĠsonuÃ§larÄ±nÄ±": 956,
      "ĠfarklÄ±": 957,
      "ĠROBÄ°NSON": 958,
      "ĠbaÄŁlantÄ±lÄ±": 959,
      "Ġsorgular": 960,
      "Ġkolonist": 961,
      "Ġerkek": 962,
      "Ġ451": 963,
      "antastik": 964,
      "ĠkalÄ±r": 965,
      "Ġkusur": 966,
      "ĠsÄ±nÄ±f": 967,
      "Ġdaha": 968,
      "ĠAtreides": 969,
      "ĠBUTLER": 970,
      "ĠDestanÄ±": 971,
      "ĠÃ§atÄ±ÅŁma": 972,
      "ĠHEÄ°NLEÄ°N": 973,
      "ĠJAMES": 974,
      "ĠOCTAVÄ°A": 975,
      "ĠARKADÄ°": 976,
      "'t": 977,
      ").": 978,
      "..": 979,
      "19": 980,
      "201": 981,
      "AK": 982,
      "AP": 983,
      "AZ": 984,
      "Ar": 985,
      "AEV": 986,
      "Ben": 987,
      "Bir": 988,
      "BSON": 989,
      "DR": 990,
      "DÃ¼nya": 991,
      "DOU": 992,
      "EK": 993,
      "EOR": 994,
      "FF": 995,
      "Fah": 996,
      "GER": 997,
      "HN": 998,
      "Hyperion": 999
    },
    "merges": [
      [
        "Ä",
        "±"
      ],
      [
        "Ã",
        "¼"
      ],
      [
        "a",
        "r"
      ],
      [
        "a",
        "n"
      ],
      [
        "Å",
        "Ł"
      ],
      [
        "e",
        "r"
      ],
      [
        "i",
        "n"
      ],
      [
        "e",
        "n"
      ],
      [
        "Ġ",
        "b"
      ],
      [
        "Ä±",
        "n"
      ],
      [
        "i",
        "r"
      ],
      [
        "Ä",
        "Ł"
      ],
      [
        "Ġ",
        "g"
      ],
      [
        "y",
        "a"
      ],
      [
        "Ġ",
        "k"
      ],
      [
        "l",
        "ar"
      ],
      [
        "Ã",
        "§"
      ],
      [
        "l",
        "e"
      ],
      [
        "Ġ",
        "s"
      ],
      [
        "Ä",
        "°"
      ],
      [
        "l",
        "a"
      ],
      [
        "Ã",
        "¶"
      ],
      [
        "l",
        "Ä±"
      ],
      [
        "Ġb",
        "ir"
      ],
      [
        "Ġ",
        "d"
      ],
      [
        "Ġ",
        "v"
      ],
      [
        "l",
        "er"
      ],
      [
        "d",
        "a"
      ],
      [
        "u",
        "n"
      ],
      [
        "Ġ",
        "y"
      ],
      [
        "Ä±",
        "r"
      ],
      [
        "m",
        "a"
      ],
      [
        "Ġv",
        "e"
      ],
      [
        "l",
        "i"
      ],
      [
        "Ã¼",
        "n"
      ],
      [
        "s",
        "an"
      ],
      [
        "e",
        "k"
      ],
      [
        "e",
        "t"
      ],
      [
        "Ġ",
        "i"
      ],
      [
        "Ġ",
        "t"
      ],
      [
        "Ġg",
        "e"
      ],
      [
        "Ġ",
        "A"
      ],
      [
        "Ġ",
        "B"
      ],
      [
        "Ġ",
        "in"
      ],
      [
        "Ġ",
        "ya"
      ],
      [
        "a",
        "s"
      ],
      [
        "e",
        "s"
      ],
      [
        "Ġ",
        "S"
      ],
      [
        "o",
        "l"
      ],
      [
        "a",
        "k"
      ],
      [
        "a",
        "ÅŁ"
      ],
      [
        "o",
        "r"
      ],
      [
        "Ġin",
        "san"
      ],
      [
        "o",
        "n"
      ],
      [
        "Ġ",
        "D"
      ],
      [
        "Ã¼",
        "r"
      ],
      [
        "u",
        "r"
      ],
      [
        "a",
        "y"
      ],
      [
        "lar",
        "Ä±n"
      ],
      [
        "a",
        "l"
      ],
      [
        "Ä±",
        "l"
      ],
      [
        "l",
        "u"
      ],
      [
        "Ġ",
        "M"
      ],
      [
        "Ġ",
        "R"
      ],
      [
        "E",
        "R"
      ],
      [
        "Ġ",
        "Ã§"
      ],
      [
        "Ġ",
        "h"
      ],
      [
        "ler",
        "i"
      ],
      [
        "e",
        "v"
      ],
      [
        "i",
        "k"
      ],
      [
        "Ġ",
        "G"
      ],
      [
        "a",
        "d"
      ],
      [
        "d",
        "en"
      ],
      [
        "Ġ",
        "u"
      ],
      [
        "Ã¼",
        "z"
      ],
      [
        "Ã¼n",
        "ya"
      ],
      [
        "Ġ",
        "H"
      ],
      [
        "lar",
        "Ä±"
      ],
      [
        "la",
        "ÅŁ"
      ],
      [
        "Ġ",
        "Ã¶"
      ],
      [
        "Ġ",
        "K"
      ],
      [
        "a",
        "t"
      ],
      [
        "Ä±n",
        "da"
      ],
      [
        "e",
        "l"
      ],
      [
        "e",
        "m"
      ],
      [
        "i",
        "l"
      ],
      [
        "i",
        "s"
      ],
      [
        "Ġ",
        "Ä°"
      ],
      [
        "ÄŁ",
        "i"
      ],
      [
        "lÄ±",
        "ÄŁ"
      ],
      [
        "a",
        "v"
      ],
      [
        "Ġ",
        "m"
      ],
      [
        "Ġ",
        "ar"
      ],
      [
        "d",
        "e"
      ],
      [
        "Ã¼",
        "k"
      ],
      [
        "in",
        "i"
      ],
      [
        "Ġg",
        "Ã¶"
      ],
      [
        "c",
        "e"
      ],
      [
        "i",
        "m"
      ],
      [
        "m",
        "an"
      ],
      [
        "t",
        "e"
      ],
      [
        "y",
        "le"
      ],
      [
        "d",
        "er"
      ],
      [
        "Ġ",
        "z"
      ],
      [
        "Ġ",
        "an"
      ],
      [
        "es",
        "i"
      ],
      [
        "L",
        "E"
      ],
      [
        "c",
        "u"
      ],
      [
        "k",
        "i"
      ],
      [
        "t",
        "a"
      ],
      [
        "in",
        "e"
      ],
      [
        "c",
        "Ä±"
      ],
      [
        "Ġ",
        "U"
      ],
      [
        "Ġ",
        "a"
      ],
      [
        "Ã¶",
        "n"
      ],
      [
        "lÄ±",
        "k"
      ],
      [
        "Ġge",
        "le"
      ],
      [
        "A",
        "N"
      ],
      [
        "E",
        "L"
      ],
      [
        "e",
        "y"
      ],
      [
        "i",
        "z"
      ],
      [
        "Ġ",
        "e"
      ],
      [
        "Ġ",
        "o"
      ],
      [
        "Ġ",
        "Ã"
      ],
      [
        "Ä±",
        "ÅŁ"
      ],
      [
        "Ġh",
        "a"
      ],
      [
        "Ġu",
        "z"
      ],
      [
        "lÄ±ÄŁ",
        "Ä±n"
      ],
      [
        "O",
        "N"
      ],
      [
        "a",
        "ÄŁ"
      ],
      [
        "d",
        "Ä±"
      ],
      [
        "t",
        "i"
      ],
      [
        "Ġ",
        "C"
      ],
      [
        "Ġ",
        "W"
      ],
      [
        "er",
        "i"
      ],
      [
        "Ġk",
        "ar"
      ],
      [
        "Ä°",
        "N"
      ],
      [
        "laÅŁ",
        "Ä±r"
      ],
      [
        "av",
        "aÅŁ"
      ],
      [
        "a",
        "lÄ±"
      ],
      [
        "i",
        "li"
      ],
      [
        "Ã¼",
        "c"
      ],
      [
        "en",
        "i"
      ],
      [
        "A",
        "R"
      ],
      [
        "U",
        "R"
      ],
      [
        "d",
        "i"
      ],
      [
        "e",
        "g"
      ],
      [
        "k",
        "en"
      ],
      [
        "l",
        "Ã¼"
      ],
      [
        "l",
        "an"
      ],
      [
        "u",
        "l"
      ],
      [
        "Ġ",
        "Y"
      ],
      [
        "Ã¼",
        "ÅŁ"
      ],
      [
        "ÅŁ",
        "Ä±"
      ],
      [
        "Ġs",
        "on"
      ],
      [
        "ĠD",
        "Ã¼nya"
      ],
      [
        "a",
        "h"
      ],
      [
        "u",
        "s"
      ],
      [
        "z",
        "eg"
      ],
      [
        "Ġ",
        "J"
      ],
      [
        "Ġ",
        "O"
      ],
      [
        "Ġ",
        "T"
      ],
      [
        "Ġ",
        "f"
      ],
      [
        "Ġ",
        "ol"
      ],
      [
        "Ġ",
        "Ã¼z"
      ],
      [
        "Ġs",
        "avaÅŁ"
      ],
      [
        "Ġy",
        "ol"
      ],
      [
        "li",
        "k"
      ],
      [
        "Ġha",
        "ya"
      ],
      [
        "Ġkar",
        "ÅŁÄ±"
      ],
      [
        "ĠÃ¼z",
        "er"
      ],
      [
        "e",
        "h"
      ],
      [
        "k",
        "Ã¼"
      ],
      [
        "m",
        "e"
      ],
      [
        "m",
        "i"
      ],
      [
        "o",
        "p"
      ],
      [
        "Ġ",
        "N"
      ],
      [
        "Ġ",
        "Z"
      ],
      [
        "ar",
        "s"
      ],
      [
        "le",
        "ÅŁ"
      ],
      [
        "la",
        "t"
      ],
      [
        "Ġd",
        "Ã¼nya"
      ],
      [
        "Ġi",
        "Ã§"
      ],
      [
        "as",
        "Ä±"
      ],
      [
        "ĠgÃ¶",
        "r"
      ],
      [
        "B",
        "ER"
      ],
      [
        "a",
        "man"
      ],
      [
        "c",
        "i"
      ],
      [
        "c",
        "ek"
      ],
      [
        "d",
        "an"
      ],
      [
        "o",
        "k"
      ],
      [
        "y",
        "kÃ¼"
      ],
      [
        "Ġ",
        "F"
      ],
      [
        "Ġ",
        "P"
      ],
      [
        "Ä±",
        "z"
      ],
      [
        "Ä±n",
        "Ä±"
      ],
      [
        "ÄŁ",
        "Ä±"
      ],
      [
        "Ġd",
        "Ã¶n"
      ],
      [
        "da",
        "m"
      ],
      [
        "Ġge",
        "Ã§"
      ],
      [
        "Ġge",
        "zeg"
      ],
      [
        "Ġya",
        "ÅŁ"
      ],
      [
        "as",
        "Ä±nda"
      ],
      [
        "ĠS",
        "T"
      ],
      [
        "ĠM",
        "ars"
      ],
      [
        "ĠÃ§",
        "alÄ±"
      ],
      [
        "ili",
        "m"
      ],
      [
        "ĠÃ§alÄ±",
        "ÅŁ"
      ],
      [
        "A",
        "D"
      ],
      [
        "S",
        "ON"
      ],
      [
        "l",
        "en"
      ],
      [
        "t",
        "h"
      ],
      [
        "t",
        "r"
      ],
      [
        "u",
        "ÄŁ"
      ],
      [
        "u",
        "lu"
      ],
      [
        "y",
        "an"
      ],
      [
        "Ġ",
        "I"
      ],
      [
        "Ä±",
        "lÄ±"
      ],
      [
        "in",
        "in"
      ],
      [
        "Ġg",
        "i"
      ],
      [
        "Ġk",
        "ur"
      ],
      [
        "Ġk",
        "ad"
      ],
      [
        "Ġy",
        "Ã¼z"
      ],
      [
        "ma",
        "ya"
      ],
      [
        "Ġya",
        "k"
      ],
      [
        "Ġinsan",
        "lÄ±ÄŁÄ±n"
      ],
      [
        "ĠR",
        "O"
      ],
      [
        "Ġhaya",
        "t"
      ],
      [
        "BER",
        "T"
      ],
      [
        "O",
        "R"
      ],
      [
        "d",
        "uÄŁ"
      ],
      [
        "e",
        "le"
      ],
      [
        "i",
        "h"
      ],
      [
        "o",
        "t"
      ],
      [
        "y",
        "g"
      ],
      [
        "Ã¼",
        "y"
      ],
      [
        "ĠB",
        "R"
      ],
      [
        "ĠB",
        "ir"
      ],
      [
        "ĠÃ¶",
        "ykÃ¼"
      ],
      [
        "Ġan",
        "lat"
      ],
      [
        "Ġgele",
        "cek"
      ],
      [
        "Ġuz",
        "ay"
      ],
      [
        "mi",
        "ÅŁ"
      ],
      [
        "Ġgezeg",
        "en"
      ],
      [
        "Ġgelecek",
        "te"
      ],
      [
        "'",
        "d"
      ],
      [
        "A",
        "T"
      ],
      [
        "A",
        "Y"
      ],
      [
        "a",
        "z"
      ],
      [
        "e",
        "ÅŁ"
      ],
      [
        "i",
        "y"
      ],
      [
        "o",
        "ÄŁ"
      ],
      [
        "s",
        "el"
      ],
      [
        "t",
        "an"
      ],
      [
        "t",
        "er"
      ],
      [
        "u",
        "m"
      ],
      [
        "y",
        "la"
      ],
      [
        "Ġ",
        "r"
      ],
      [
        "Ä±",
        "k"
      ],
      [
        "in",
        "de"
      ],
      [
        "Ġb",
        "aÄŁ"
      ],
      [
        "Ġb",
        "ilim"
      ],
      [
        "Ġk",
        "al"
      ],
      [
        "le",
        "m"
      ],
      [
        "Ġs",
        "Ã¼r"
      ],
      [
        "Ä°",
        "M"
      ],
      [
        "ek",
        "i"
      ],
      [
        "Ġt",
        "op"
      ],
      [
        "Ä±l",
        "an"
      ],
      [
        "lu",
        "m"
      ],
      [
        "ĠU",
        "z"
      ],
      [
        "Ġgele",
        "ce"
      ],
      [
        "ĠkarÅŁÄ±",
        "laÅŁÄ±r"
      ],
      [
        "B",
        "UR"
      ],
      [
        "V",
        "Ä°"
      ],
      [
        "a",
        "b"
      ],
      [
        "a",
        "m"
      ],
      [
        "a",
        "p"
      ],
      [
        "e",
        "ÄŁi"
      ],
      [
        "g",
        "u"
      ],
      [
        "n",
        "san"
      ],
      [
        "o",
        "b"
      ],
      [
        "p",
        "ar"
      ],
      [
        "u",
        "t"
      ],
      [
        "u",
        "ÅŁ"
      ],
      [
        "y",
        "Ä±"
      ],
      [
        "Ġ",
        "V"
      ],
      [
        "Ġ",
        "ÅŁ"
      ],
      [
        "Ġ",
        "et"
      ],
      [
        "Ã¼",
        "Ã§"
      ],
      [
        "er",
        "k"
      ],
      [
        "Ġb",
        "aÅŁ"
      ],
      [
        "Ä±n",
        "a"
      ],
      [
        "Ġg",
        "Ã¼c"
      ],
      [
        "Ġd",
        "ev"
      ],
      [
        "un",
        "e"
      ],
      [
        "ma",
        "k"
      ],
      [
        "Ġi",
        "ÅŁ"
      ],
      [
        "ĠA",
        "R"
      ],
      [
        "ĠR",
        "AY"
      ],
      [
        "ev",
        "r"
      ],
      [
        "is",
        "t"
      ],
      [
        "Ġar",
        "asÄ±nda"
      ],
      [
        "LE",
        "Y"
      ],
      [
        "EL",
        "L"
      ],
      [
        "Ġyol",
        "cu"
      ],
      [
        "ĠiÃ§",
        "in"
      ],
      [
        "ĠdÃ¶n",
        "Ã¼ÅŁ"
      ],
      [
        "ĠgeÃ§",
        "miÅŁ"
      ],
      [
        "AD",
        "BUR"
      ],
      [
        "yg",
        "ar"
      ],
      [
        "ĠBR",
        "ADBUR"
      ],
      [
        "Ġtop",
        "lum"
      ],
      [
        "ĠBRADBUR",
        "Y"
      ],
      [
        "R",
        "E"
      ],
      [
        "a",
        "f"
      ],
      [
        "d",
        "Ä±r"
      ],
      [
        "i",
        "f"
      ],
      [
        "o",
        "z"
      ],
      [
        "s",
        "i"
      ],
      [
        "s",
        "t"
      ],
      [
        "s",
        "Ä±"
      ],
      [
        "t",
        "ik"
      ],
      [
        "y",
        "un"
      ],
      [
        "Ġ",
        "E"
      ],
      [
        "Ġ",
        "c"
      ],
      [
        "Ġ",
        "n"
      ],
      [
        "Ġ",
        "aÅŁ"
      ],
      [
        "Ġ",
        "al"
      ],
      [
        "Ã¼",
        "l"
      ],
      [
        "Ġb",
        "Ã¼y"
      ],
      [
        "Ġg",
        "iz"
      ],
      [
        "Ġs",
        "Ä±r"
      ],
      [
        "Ġd",
        "er"
      ],
      [
        "Ġd",
        "oÄŁ"
      ],
      [
        "Ġy",
        "Ä±l"
      ],
      [
        "Ġy",
        "eni"
      ],
      [
        "Ġt",
        "eh"
      ],
      [
        "ĠA",
        "dam"
      ],
      [
        "Ġya",
        "p"
      ],
      [
        "ak",
        "i"
      ],
      [
        "lu",
        "ÄŁ"
      ],
      [
        "ad",
        "ele"
      ],
      [
        "Ġu",
        "ygar"
      ],
      [
        "at",
        "or"
      ],
      [
        "Ġm",
        "Ã¼c"
      ],
      [
        "Ġar",
        "d"
      ],
      [
        "AN",
        "K"
      ],
      [
        "Ġo",
        "la"
      ],
      [
        "ĠÃ",
        "ĩ"
      ],
      [
        "dÄ±",
        "ÄŁÄ±"
      ],
      [
        "ĠC",
        "L"
      ],
      [
        "Ġson",
        "r"
      ],
      [
        "ĠÃ§alÄ±ÅŁ",
        "Ä±r"
      ],
      [
        "Ġgi",
        "der"
      ],
      [
        "Ġhayat",
        "ta"
      ],
      [
        "duÄŁ",
        "u"
      ],
      [
        "ob",
        "ot"
      ],
      [
        "ĠmÃ¼c",
        "adele"
      ],
      [
        "A",
        "M"
      ],
      [
        "D",
        "une"
      ],
      [
        "E",
        "N"
      ],
      [
        "G",
        "AT"
      ],
      [
        "K",
        "Ä°"
      ],
      [
        "L",
        "F"
      ],
      [
        "R",
        "U"
      ],
      [
        "R",
        "ANK"
      ],
      [
        "S",
        "KÄ°"
      ],
      [
        "b",
        "i"
      ],
      [
        "e",
        "li"
      ],
      [
        "k",
        "et"
      ],
      [
        "k",
        "ti"
      ],
      [
        "l",
        "Ã¼k"
      ],
      [
        "n",
        "Ä±n"
      ],
      [
        "o",
        "cu"
      ],
      [
        "r",
        "Ä±"
      ],
      [
        "s",
        "a"
      ],
      [
        "t",
        "Ä±r"
      ],
      [
        "Ã",
        "¢"
      ],
      [
        "Ġ",
        "L"
      ],
      [
        "Ġ",
        "p"
      ],
      [
        "Ġ",
        "en"
      ],
      [
        "an",
        "an"
      ],
      [
        "in",
        "den"
      ],
      [
        "en",
        "Ã§"
      ],
      [
        "Ġb",
        "ulu"
      ],
      [
        "Ġk",
        "en"
      ],
      [
        "le",
        "y"
      ],
      [
        "Ã¶",
        "z"
      ],
      [
        "ler",
        "in"
      ],
      [
        "ler",
        "le"
      ],
      [
        "Ġy",
        "er"
      ],
      [
        "Ġy",
        "Ã¶n"
      ],
      [
        "Ġt",
        "ar"
      ],
      [
        "as",
        "k"
      ],
      [
        "larÄ±n",
        "Ä±"
      ],
      [
        "ER",
        "BERT"
      ],
      [
        "leri",
        "yle"
      ],
      [
        "ik",
        "a"
      ],
      [
        "ĠH",
        "ERBERT"
      ],
      [
        "il",
        "en"
      ],
      [
        "ĠÄ°",
        "nsan"
      ],
      [
        "man",
        "Ä±n"
      ],
      [
        "Ġa",
        "Ã§"
      ],
      [
        "ĠÃ",
        "ĸ"
      ],
      [
        "lÃ¼",
        "m"
      ],
      [
        "ĠÃ¼zer",
        "ine"
      ],
      [
        "leÅŁ",
        "ir"
      ],
      [
        "ĠdÃ¼nya",
        "da"
      ],
      [
        "ĠF",
        "RANK"
      ],
      [
        "ĠST",
        "RU"
      ],
      [
        "Ġkad",
        "Ä±n"
      ],
      [
        "Ġgelece",
        "ÄŁ"
      ],
      [
        "ĠgÃ¼c",
        "Ã¼"
      ],
      [
        "luÄŁ",
        "un"
      ],
      [
        "GAT",
        "SKÄ°"
      ],
      [
        "ocu",
        "k"
      ],
      [
        "ĠSTRU",
        "GATSKÄ°"
      ],
      [
        "C",
        "H"
      ],
      [
        "E",
        "S"
      ],
      [
        "H",
        "UR"
      ],
      [
        "K",
        "E"
      ],
      [
        "T",
        "HUR"
      ],
      [
        "a",
        "ma"
      ],
      [
        "d",
        "ar"
      ],
      [
        "d",
        "ir"
      ],
      [
        "e",
        "i"
      ],
      [
        "e",
        "den"
      ],
      [
        "g",
        "Ã¼r"
      ],
      [
        "i",
        "b"
      ],
      [
        "i",
        "ta"
      ],
      [
        "k",
        "u"
      ],
      [
        "m",
        "ey"
      ],
      [
        "m",
        "par"
      ],
      [
        "o",
        "li"
      ],
      [
        "p",
        "eri"
      ],
      [
        "s",
        "u"
      ],
      [
        "t",
        "ar"
      ],
      [
        "t",
        "ir"
      ],
      [
        "t",
        "or"
      ],
      [
        "t",
        "Ã¼r"
      ],
      [
        "t",
        "ur"
      ],
      [
        "u",
        "Ã§"
      ],
      [
        "y",
        "peri"
      ],
      [
        "z",
        "gÃ¼r"
      ],
      [
        "Ġ",
        "evr"
      ],
      [
        "Ä±",
        "cÄ±"
      ],
      [
        "Ä±",
        "ÄŁÄ±"
      ],
      [
        "ar",
        "et"
      ],
      [
        "an",
        "rÄ±"
      ],
      [
        "Ġb",
        "il"
      ],
      [
        "Ġb",
        "ul"
      ],
      [
        "Ġg",
        "Ã¼Ã§"
      ],
      [
        "lar",
        "ak"
      ],
      [
        "Ġs",
        "or"
      ],
      [
        "Ä°",
        "S"
      ],
      [
        "Ġd",
        "en"
      ],
      [
        "Ġd",
        "eÄŁi"
      ],
      [
        "et",
        "im"
      ],
      [
        "Ġi",
        "le"
      ],
      [
        "Ġi",
        "kti"
      ],
      [
        "ĠA",
        "r"
      ],
      [
        "ĠS",
        "ev"
      ],
      [
        "Ä±l",
        "ma"
      ],
      [
        "lu",
        "k"
      ],
      [
        "ĠÃ¶",
        "zgÃ¼r"
      ],
      [
        "Ä±nda",
        "ki"
      ],
      [
        "em",
        "li"
      ],
      [
        "lÄ±ÄŁ",
        "Ä±"
      ],
      [
        "ĠgÃ¶",
        "z"
      ],
      [
        "Ġz",
        "or"
      ],
      [
        "Ġa",
        "dam"
      ],
      [
        "Ġe",
        "der"
      ],
      [
        "Ġo",
        "larak"
      ],
      [
        "ĠÃ",
        "ľ"
      ],
      [
        "Ġuz",
        "ak"
      ],
      [
        "dÄ±",
        "z"
      ],
      [
        "ĠW",
        "ELL"
      ],
      [
        "AR",
        "KE"
      ],
      [
        "di",
        "ÄŁi"
      ],
      [
        "ĠZ",
        "aman"
      ],
      [
        "ĠgÃ¶r",
        "ev"
      ],
      [
        "ĠRO",
        "BERT"
      ],
      [
        "ĠÃ¶ykÃ¼",
        "ler"
      ],
      [
        "lem",
        "esi"
      ],
      [
        "ĠUz",
        "ak"
      ],
      [
        "ĠAR",
        "THUR"
      ],
      [
        "ĠaÅŁ",
        "k"
      ],
      [
        "Ġder",
        "lemesi"
      ],
      [
        "ĠCL",
        "ARKE"
      ],
      [
        "ley",
        "en"
      ],
      [
        "Ġtar",
        "ih"
      ],
      [
        "mpar",
        "ator"
      ],
      [
        "yperi",
        "on"
      ],
      [
        "ĠdeÄŁi",
        "ÅŁ"
      ],
      [
        "Ġikti",
        "dar"
      ],
      [
        "ĠWELL",
        "S"
      ],
      [
        "A",
        "C"
      ],
      [
        "A",
        "VÄ°"
      ],
      [
        "E",
        "Ä°N"
      ],
      [
        "G",
        "E"
      ],
      [
        "H",
        "E"
      ],
      [
        "I",
        "N"
      ],
      [
        "O",
        "U"
      ],
      [
        "O",
        "LF"
      ],
      [
        "T",
        "ER"
      ],
      [
        "U",
        "T"
      ],
      [
        "a",
        "da"
      ],
      [
        "b",
        "ir"
      ],
      [
        "c",
        "h"
      ],
      [
        "d",
        "eki"
      ],
      [
        "e",
        "la"
      ],
      [
        "i",
        "yle"
      ],
      [
        "k",
        "ur"
      ],
      [
        "l",
        "n"
      ],
      [
        "l",
        "o"
      ],
      [
        "n",
        "un"
      ],
      [
        "o",
        "j"
      ],
      [
        "o",
        "m"
      ],
      [
        "r",
        "th"
      ],
      [
        "s",
        "al"
      ],
      [
        "s",
        "Ä±z"
      ],
      [
        "t",
        "as"
      ],
      [
        "u",
        "c"
      ],
      [
        "y",
        "Ä±l"
      ],
      [
        "Å",
        "ŀ"
      ],
      [
        "Ġ",
        "ma"
      ],
      [
        "Ġ",
        "or"
      ],
      [
        "Ġ",
        "Ã¼r"
      ],
      [
        "Ġ",
        "LE"
      ],
      [
        "Ã¼",
        "m"
      ],
      [
        "ar",
        "k"
      ],
      [
        "an",
        "cÄ±"
      ],
      [
        "er",
        "Ã§"
      ],
      [
        "Ġb",
        "ek"
      ],
      [
        "Ġb",
        "el"
      ],
      [
        "Ġb",
        "ask"
      ],
      [
        "Ä±n",
        "Ä±r"
      ],
      [
        "Ä±n",
        "dan"
      ],
      [
        "ÄŁ",
        "r"
      ],
      [
        "ÄŁ",
        "Ã¼"
      ],
      [
        "ÄŁ",
        "ini"
      ],
      [
        "Ġg",
        "erÃ§"
      ],
      [
        "Ġk",
        "ol"
      ],
      [
        "Ġk",
        "or"
      ],
      [
        "Ġk",
        "ay"
      ],
      [
        "Ġk",
        "az"
      ],
      [
        "Ġk",
        "eÅŁ"
      ],
      [
        "Ã§",
        "i"
      ],
      [
        "le",
        "t"
      ],
      [
        "le",
        "er"
      ],
      [
        "Ä°",
        "L"
      ],
      [
        "la",
        "yan"
      ],
      [
        "Ã¶",
        "l"
      ],
      [
        "Ġd",
        "a"
      ],
      [
        "Ġv",
        "ar"
      ],
      [
        "Ġv",
        "er"
      ],
      [
        "da",
        "ki"
      ],
      [
        "un",
        "un"
      ],
      [
        "ma",
        "s"
      ],
      [
        "li",
        "ÅŁ"
      ],
      [
        "et",
        "en"
      ],
      [
        "Ġi",
        "z"
      ],
      [
        "Ġi",
        "ki"
      ],
      [
        "Ġt",
        "ek"
      ],
      [
        "Ġt",
        "Ã¼r"
      ],
      [
        "Ġge",
        "len"
      ],
      [
        "ĠA",
        "n"
      ],
      [
        "ĠB",
        "OR"
      ],
      [
        "Ġya",
        "z"
      ],
      [
        "Ġya",
        "ln"
      ],
      [
        "es",
        "tan"
      ],
      [
        "es",
        "inde"
      ],
      [
        "ĠS",
        "Ä°M"
      ],
      [
        "aÅŁ",
        "tÄ±r"
      ],
      [
        "Ġinsan",
        "Ä±"
      ],
      [
        "Ġinsan",
        "larÄ±n"
      ],
      [
        "on",
        "u"
      ],
      [
        "ay",
        "an"
      ],
      [
        "ĠR",
        "obot"
      ],
      [
        "ĠG",
        "EN"
      ],
      [
        "ĠÃ¶",
        "lÃ¼m"
      ],
      [
        "em",
        "en"
      ],
      [
        "il",
        "ir"
      ],
      [
        "Ġm",
        "Ã¼"
      ],
      [
        "Ġar",
        "aÅŁtÄ±r"
      ],
      [
        "Ã¼k",
        "leer"
      ],
      [
        "Ġz",
        "aman"
      ],
      [
        "Ġz",
        "iy"
      ],
      [
        "ĠU",
        "rth"
      ],
      [
        "AN",
        "LEY"
      ],
      [
        "Ġe",
        "den"
      ],
      [
        "Ä±ÅŁ",
        "ma"
      ],
      [
        "ĠW",
        "OLF"
      ],
      [
        "eri",
        "an"
      ],
      [
        "Ġson",
        "uÃ§"
      ],
      [
        "Ġf",
        "ela"
      ],
      [
        "Ġf",
        "ark"
      ],
      [
        "lik",
        "eli"
      ],
      [
        "ĠÃ¼zer",
        "inden"
      ],
      [
        "ĠN",
        "Ã¼kleer"
      ],
      [
        "ĠgÃ¶r",
        "Ã¼n"
      ],
      [
        "ĠST",
        "ANLEY"
      ],
      [
        "Ä±lÄ±",
        "r"
      ],
      [
        "ĠyÃ¼z",
        "leÅŁir"
      ],
      [
        "Ġyak",
        "laÅŁÄ±r"
      ],
      [
        "ĠRO",
        "B"
      ],
      [
        "ĠÃ¶ykÃ¼",
        "leri"
      ],
      [
        "Ġuzay",
        "lÄ±"
      ],
      [
        "ĠbaÄŁ",
        "lan"
      ],
      [
        "Ġbilim",
        "kur"
      ],
      [
        "ĠUz",
        "ay"
      ],
      [
        "ĠbaÅŁ",
        "lar"
      ],
      [
        "Ġgiz",
        "emli"
      ],
      [
        "ĠyÄ±l",
        "dÄ±z"
      ],
      [
        "Ġuygar",
        "lÄ±k"
      ],
      [
        "Ġard",
        "Ä±ndan"
      ],
      [
        "Ġsonr",
        "asÄ±"
      ],
      [
        "Ġgider",
        "ek"
      ],
      [
        "ĠmÃ¼cadele",
        "si"
      ],
      [
        "ita",
        "p"
      ],
      [
        "mey",
        "e"
      ],
      [
        "Ġsor",
        "gu"
      ],
      [
        "Ġden",
        "ey"
      ],
      [
        "ĠSev",
        "erian"
      ],
      [
        "ĠÃ¶zgÃ¼r",
        "lÃ¼k"
      ],
      [
        "Ġkol",
        "on"
      ],
      [
        "Ġkay",
        "b"
      ],
      [
        "ĠBOR",
        "Ä°S"
      ],
      [
        "Ġyaln",
        "Ä±z"
      ],
      [
        "ĠGEN",
        "E"
      ],
      [
        "Ġziy",
        "aret"
      ],
      [
        "ĠWOLF",
        "E"
      ],
      [
        "Ġfela",
        "ket"
      ],
      [
        "Ġbilimkur",
        "gu"
      ],
      [
        "0",
        "1"
      ],
      [
        "4",
        "5"
      ],
      [
        "A",
        "L"
      ],
      [
        "A",
        "AC"
      ],
      [
        "C",
        "K"
      ],
      [
        "C",
        "T"
      ],
      [
        "E",
        "V"
      ],
      [
        "E",
        "VÄ°"
      ],
      [
        "K",
        "AD"
      ],
      [
        "L",
        "A"
      ],
      [
        "L",
        "ER"
      ],
      [
        "O",
        "V"
      ],
      [
        "S",
        "AAC"
      ],
      [
        "T",
        "anrÄ±"
      ],
      [
        "U",
        "z"
      ],
      [
        "Z",
        "aman"
      ],
      [
        "a",
        "u"
      ],
      [
        "a",
        "ya"
      ],
      [
        "a",
        "le"
      ],
      [
        "a",
        "ul"
      ],
      [
        "b",
        "ancÄ±"
      ],
      [
        "c",
        "k"
      ],
      [
        "c",
        "o"
      ],
      [
        "d",
        "es"
      ],
      [
        "d",
        "ik"
      ],
      [
        "e",
        "d"
      ],
      [
        "e",
        "j"
      ],
      [
        "e",
        "ler"
      ],
      [
        "e",
        "de"
      ],
      [
        "e",
        "der"
      ],
      [
        "f",
        "eder"
      ],
      [
        "g",
        "Ã¼n"
      ],
      [
        "h",
        "af"
      ],
      [
        "i",
        "ter"
      ],
      [
        "k",
        "in"
      ],
      [
        "l",
        "k"
      ],
      [
        "m",
        "Ä±"
      ],
      [
        "m",
        "er"
      ],
      [
        "m",
        "un"
      ],
      [
        "m",
        "Ä±ÅŁ"
      ],
      [
        "n",
        "e"
      ],
      [
        "n",
        "in"
      ],
      [
        "n",
        "der"
      ],
      [
        "r",
        "Ã¼"
      ],
      [
        "r",
        "en"
      ],
      [
        "s",
        "e"
      ],
      [
        "s",
        "ak"
      ],
      [
        "s",
        "Ä±nda"
      ],
      [
        "s",
        "ti"
      ],
      [
        "t",
        "Ã¼"
      ],
      [
        "t",
        "en"
      ],
      [
        "t",
        "on"
      ],
      [
        "t",
        "asÄ±nda"
      ],
      [
        "t",
        "Ä±lÄ±"
      ],
      [
        "t",
        "Ä±ÄŁÄ±"
      ],
      [
        "u",
        "p"
      ],
      [
        "u",
        "y"
      ],
      [
        "u",
        "z"
      ],
      [
        "u",
        "haf"
      ],
      [
        "v",
        "er"
      ],
      [
        "Ġ",
        "es"
      ],
      [
        "Ġ",
        "ay"
      ],
      [
        "Ġ",
        "ad"
      ],
      [
        "Ġ",
        "erk"
      ],
      [
        "Ġ",
        "Åŀ"
      ],
      [
        "Ġ",
        "45"
      ],
      [
        "Ä±",
        "ÄŁ"
      ],
      [
        "Ä±",
        "larÄ±"
      ],
      [
        "Ä±",
        "sa"
      ],
      [
        "Ã¼",
        "st"
      ],
      [
        "ar",
        "a"
      ],
      [
        "ar",
        "Ä±"
      ],
      [
        "ar",
        "Ä±r"
      ],
      [
        "ar",
        "larÄ±n"
      ],
      [
        "ar",
        "at"
      ],
      [
        "an",
        "k"
      ],
      [
        "an",
        "tas"
      ],
      [
        "en",
        "in"
      ],
      [
        "Ġb",
        "ar"
      ],
      [
        "Ä±n",
        "Ä±n"
      ],
      [
        "ir",
        "ken"
      ],
      [
        "Ġg",
        "r"
      ],
      [
        "Ġg",
        "ir"
      ],
      [
        "Ġg",
        "enÃ§"
      ],
      [
        "Ġk",
        "im"
      ],
      [
        "Ġk",
        "alÄ±"
      ],
      [
        "Ġk",
        "us"
      ],
      [
        "Ġk",
        "Ä±sa"
      ],
      [
        "lar",
        "a"
      ],
      [
        "lar",
        "la"
      ],
      [
        "Ġs",
        "e"
      ],
      [
        "Ġs",
        "Ã¶"
      ],
      [
        "Ġs",
        "ah"
      ],
      [
        "Ġs",
        "Ä±nÄ±"
      ],
      [
        "Ġs",
        "Ä±nÄ±r"
      ],
      [
        "Ä°",
        "ÅŁ"
      ],
      [
        "Ġbir",
        "ey"
      ],
      [
        "Ġbir",
        "bir"
      ],
      [
        "Ġd",
        "ah"
      ],
      [
        "un",
        "a"
      ],
      [
        "un",
        "u"
      ],
      [
        "un",
        "da"
      ],
      [
        "Ġy",
        "ok"
      ],
      [
        "Ġy",
        "Ä±k"
      ],
      [
        "Ġy",
        "eten"
      ],
      [
        "ma",
        "larÄ±"
      ],
      [
        "li",
        "ÄŁi"
      ],
      [
        "Ã¼n",
        "Ã¼n"
      ],
      [
        "Ã¼n",
        "eÅŁ"
      ],
      [
        "et",
        "e"
      ],
      [
        "et",
        "o"
      ],
      [
        "Ġi",
        "mparator"
      ],
      [
        "Ġt",
        "e"
      ],
      [
        "Ġt",
        "aÅŁ"
      ],
      [
        "Ġt",
        "erk"
      ],
      [
        "Ġt",
        "uhaf"
      ],
      [
        "Ġge",
        "liÅŁ"
      ],
      [
        "ĠA",
        "S"
      ],
      [
        "ĠA",
        "tr"
      ],
      [
        "ĠA",
        "mer"
      ],
      [
        "ĠB",
        "ilim"
      ],
      [
        "ĠB",
        "ulu"
      ],
      [
        "ĠB",
        "UT"
      ],
      [
        "Ġya",
        "bancÄ±"
      ],
      [
        "Ġya",
        "sak"
      ],
      [
        "es",
        "ap"
      ],
      [
        "ĠS",
        "H"
      ],
      [
        "ĠS",
        "avaÅŁ"
      ],
      [
        "ol",
        "oj"
      ],
      [
        "ĠD",
        "estan"
      ],
      [
        "ĠM",
        "Ä°"
      ],
      [
        "ĠM",
        "or"
      ],
      [
        "ĠÃ§",
        "at"
      ],
      [
        "ĠÃ§",
        "Ä±k"
      ],
      [
        "ĠÃ§",
        "ocuk"
      ],
      [
        "Ġh",
        "er"
      ],
      [
        "Ġh",
        "esap"
      ],
      [
        "ad",
        "an"
      ],
      [
        "ad",
        "Ä±n"
      ],
      [
        "Ġu",
        "ÄŁr"
      ],
      [
        "ĠH",
        "yperion"
      ],
      [
        "ĠH",
        "EÄ°N"
      ],
      [
        "larÄ±",
        "yla"
      ],
      [
        "laÅŁ",
        "an"
      ],
      [
        "laÅŁ",
        "Ä±lma"
      ],
      [
        "ĠK",
        "AR"
      ],
      [
        "ĠK",
        "Ä°M"
      ],
      [
        "is",
        "i"
      ],
      [
        "Ġm",
        "ir"
      ],
      [
        "ĠgÃ¶",
        "nder"
      ],
      [
        "Ġz",
        "ih"
      ],
      [
        "Ġan",
        "la"
      ],
      [
        "Ġan",
        "laÅŁÄ±lma"
      ],
      [
        "LE",
        "Ä°N"
      ],
      [
        "ey",
        "i"
      ],
      [
        "Ġo",
        "yun"
      ],
      [
        "aÄŁ",
        "Ä±"
      ],
      [
        "ti",
        "ÄŁi"
      ],
      [
        "Ä°N",
        "SON"
      ],
      [
        "AR",
        "D"
      ],
      [
        "di",
        "t"
      ],
      [
        "ĠJ",
        "AM"
      ],
      [
        "ĠO",
        "r"
      ],
      [
        "ĠO",
        "CT"
      ],
      [
        "Ġol",
        "an"
      ],
      [
        "Ġol",
        "duÄŁ"
      ],
      [
        "Ġol",
        "duÄŁu"
      ],
      [
        "Ġhaya",
        "l"
      ],
      [
        "me",
        "z"
      ],
      [
        "me",
        "dik"
      ],
      [
        "ĠdÃ¼nya",
        "yÄ±"
      ],
      [
        "ĠP",
        "aul"
      ],
      [
        "ĠyaÅŁ",
        "am"
      ],
      [
        "ĠÃ§alÄ±ÅŁ",
        "an"
      ],
      [
        "len",
        "medik"
      ],
      [
        "tr",
        "ika"
      ],
      [
        "ĠI",
        "SAAC"
      ],
      [
        "Ġgi",
        "den"
      ],
      [
        "ĠyÃ¼z",
        "yÄ±l"
      ],
      [
        "Ġyak",
        "laÅŁan"
      ],
      [
        "Ġanlat",
        "Ä±r"
      ],
      [
        "Ġanlat",
        "Ä±lÄ±r"
      ],
      [
        "Ġgezegen",
        "e"
      ],
      [
        "Ġgezegen",
        "de"
      ],
      [
        "sel",
        "lik"
      ],
      [
        "Ġr",
        "obot"
      ],
      [
        "Ġkal",
        "ma"
      ],
      [
        "Ġgelece",
        "ÄŁi"
      ],
      [
        "ĠV",
        "e"
      ],
      [
        "Ġdev",
        "let"
      ],
      [
        "ĠiÅŁ",
        "leyen"
      ],
      [
        "ĠAR",
        "KAD"
      ],
      [
        "ist",
        "em"
      ],
      [
        "ĠarasÄ±nda",
        "ki"
      ],
      [
        "Ġyolcu",
        "luÄŁun"
      ],
      [
        "ĠdÃ¶nÃ¼ÅŁ",
        "tÃ¼r"
      ],
      [
        "ĠgeÃ§miÅŁ",
        "in"
      ],
      [
        "RE",
        "D"
      ],
      [
        "Ġc",
        "an"
      ],
      [
        "Ġc",
        "in"
      ],
      [
        "Ġal",
        "t"
      ],
      [
        "ĠbÃ¼y",
        "Ã¼"
      ],
      [
        "ĠbÃ¼y",
        "Ã¼k"
      ],
      [
        "ĠsÄ±r",
        "adan"
      ],
      [
        "Ġteh",
        "likeli"
      ],
      [
        "Ġteh",
        "dit"
      ],
      [
        "Ġyap",
        "ay"
      ],
      [
        "Ġuygar",
        "lÄ±ÄŁÄ±n"
      ],
      [
        "Ġsonr",
        "a"
      ],
      [
        "ĠL",
        "eto"
      ],
      [
        "Ġen",
        "trika"
      ],
      [
        "Ġbulu",
        "t"
      ],
      [
        "Ġbulu",
        "ÅŁ"
      ],
      [
        "Ġken",
        "di"
      ],
      [
        "ĠÄ°nsan",
        "lar"
      ],
      [
        "ĠkadÄ±n",
        "larÄ±n"
      ],
      [
        "ĠgÃ¼cÃ¼",
        "yle"
      ],
      [
        "ei",
        "des"
      ],
      [
        "ib",
        "er"
      ],
      [
        "Ġevr",
        "en"
      ],
      [
        "Ġbil",
        "g"
      ],
      [
        "ĠÃľ",
        "Ã§"
      ],
      [
        "AVÄ°",
        "A"
      ],
      [
        "Ġor",
        "tasÄ±nda"
      ],
      [
        "Ġbek",
        "lenmedik"
      ],
      [
        "Ġbel",
        "ir"
      ],
      [
        "ĠgerÃ§",
        "ek"
      ],
      [
        "ĠkeÅŁ",
        "feder"
      ],
      [
        "Ġda",
        "ir"
      ],
      [
        "ĠmÃ¼",
        "da"
      ],
      [
        "ĠaraÅŁtÄ±r",
        "Ä±r"
      ],
      [
        "ĠsonuÃ§",
        "larÄ±nÄ±"
      ],
      [
        "Ġfark",
        "lÄ±"
      ],
      [
        "ĠROB",
        "Ä°NSON"
      ],
      [
        "ĠbaÄŁlan",
        "tÄ±lÄ±"
      ],
      [
        "Ġsorgu",
        "lar"
      ],
      [
        "Ġkolon",
        "ist"
      ],
      [
        "Ġerk",
        "ek"
      ],
      [
        "Ġ45",
        "1"
      ],
      [
        "antas",
        "tik"
      ],
      [
        "ĠkalÄ±",
        "r"
      ],
      [
        "Ġkus",
        "ur"
      ],
      [
        "ĠsÄ±nÄ±",
        "f"
      ],
      [
        "Ġdah",
        "a"
      ],
      [
        "ĠAtr",
        "eides"
      ],
      [
        "ĠBUT",
        "LER"
      ],
      [
        "ĠDestan",
        "Ä±"
      ],
      [
        "ĠÃ§at",
        "Ä±ÅŁma"
      ],
      [
        "ĠHEÄ°N",
        "LEÄ°N"
      ],
      [
        "ĠJAM",
        "ES"
      ],
      [
        "ĠOCT",
        "AVÄ°A"
      ],
      [
        "ĠARKAD",
        "Ä°"
      ],
      [
        "'",
        "t"
      ],
      [
        ")",
        "."
      ],
      [
        ".",
        "."
      ],
      [
        "1",
        "9"
      ],
      [
        "2",
        "01"
      ],
      [
        "A",
        "K"
      ],
      [
        "A",
        "P"
      ],
      [
        "A",
        "Z"
      ],
      [
        "A",
        "r"
      ],
      [
        "A",
        "EV"
      ],
      [
        "B",
        "en"
      ],
      [
        "B",
        "ir"
      ],
      [
        "B",
        "SON"
      ],
      [
        "D",
        "R"
      ],
      [
        "D",
        "Ã¼nya"
      ],
      [
        "D",
        "OU"
      ],
      [
        "E",
        "K"
      ],
      [
        "E",
        "OR"
      ],
      [
        "F",
        "F"
      ],
      [
        "F",
        "ah"
      ],
      [
        "G",
        "ER"
      ],
      [
        "H",
        "N"
      ],
      [
        "H",
        "yperion"
      ]
    ]
  }
}